<pad>	0
<unk>	0
<s>	0
</s>	0
<USER>	0
<ASSISTANT>	0
<SYSTEM>	0
▁	-3.03757
,	-3.04557
的	-3.553
。	-3.56215
和	-4.3466
、	-4.39089
:	-4.82781
在	-5.13991
是	-5.26494
)	-5.44185
(	-5.51918
了	-5.53144
.	-5.54269
s	-5.59598
?	-5.68494
有	-5.70072
中	-5.73414
等	-5.84314
我	-5.93407
不	-5.94557
可以	-6.00602
人	-6.02758
对	-6.07913
或	-6.08153
▁-	-6.12169
_	-6.14354
你	-6.15068
上	-6.18527
为	-6.22066
使用	-6.22093
一个	-6.26231
来	-6.2795
一	-6.29698
の	-6.29751
e	-6.30139
年	-6.33178
并	-6.34261
“	-6.35139
与	-6.36442
需要	-6.40718
大	-6.43301
到	-6.4524
地	-6.47558
进行	-6.51833
▁=	-6.51949
出	-6.52674
-	-6.53198
を	-6.5436
用	-6.55713
将	-6.5675
而	-6.57516
性	-6.57673
以	-6.58569
这	-6.59305
o	-6.6122
一些	-6.61284
也	-6.62797
”	-6.63769
a	-6.64932
时	-6.6507
/	-6.65205
会	-6.66014
t	-6.67858
下	-6.68359
i	-6.7015
に	-6.71206
1	-6.7186
は	-6.72122
》	-6.72568
它	-6.73494
;	-6.74465
要	-6.75227
n	-6.76821
学习	-6.77741
2	-6.78487
提供	-6.79602
u	-6.7976
技术	-6.80841
更	-6.81964
y	-6.82432
多	-6.82765
后	-6.83743
c	-6.84259
p	-6.84755
"	-6.85286
可能	-6.85619
他	-6.85816
我们	-6.86667
您	-6.87266
**	-6.87275
子	-6.88544
d	-6.88684
能	-6.89074
问题	-6.90001
如	-6.90704
AI	-6.91253
高	-6.91642
C	-6.92627
小	-6.92695
が	-6.93086
被	-6.9375
这些	-6.94603
但	-6.94861
于	-6.96237
▁1.	-6.97412
行	-6.98687
好	-6.99478
!	-7.01102
《	-7.01314
化	-7.01599
吗	-7.02672
从	-7.03183
例如	-7.04052
3	-7.04087
你的	-7.06274
▁2.	-7.06909
这个	-7.0883
5	-7.09224
都	-7.10272
数据	-7.10315
就	-7.11403
或者	-7.11655
▁3.	-7.13235
通过	-7.13448
生	-7.1425
4	-7.14325
模型	-7.145
包括	-7.16006
▁(	-7.16573
▁#	-7.18204
其	-7.18446
▁|	-7.19235
力	-7.19392
面	-7.20315
`	-7.20538
f	-7.21002
人工智能	-7.21579
水	-7.21663
选择	-7.21672
中国	-7.21737
体	-7.2243
天	-7.22554
者	-7.22653
可	-7.22921
信息	-7.23293
な	-7.23318
之	-7.23548
S	-7.23655
最	-7.23683
度	-7.23727
新	-7.23807
如果	-7.24564
向	-7.2478
前	-7.25068
分	-7.2628
8	-7.26384
い	-7.26528
还	-7.27243
▁the	-7.27317
m	-7.2753
re	-7.27552
人类	-7.2819
生成	-7.28419
自己的	-7.29121
系统	-7.2942
能够	-7.29466
说	-7.29621
6	-7.30088
日	-7.30156
l	-7.30366
着	-7.3147
er	-7.31608
と	-7.32005
社会	-7.322
7	-7.3317
A	-7.33432
心	-7.33518
成	-7.3357
他们	-7.33954
方法	-7.34089
当	-7.34148
时间	-7.34366
r	-7.34476
了解	-7.34701
外	-7.3513
自己	-7.36104
x	-7.36285
帮助	-7.36402
所	-7.36618
法	-7.37021
点	-7.37106
ar	-7.3757
语言	-7.38007
h	-7.38124
▁4.	-7.38423
家	-7.38678
量	-7.38793
▁```	-7.39001
]	-7.39148
▁**	-7.40343
ing	-7.40711
研究	-7.40803
去	-7.4123
个	-7.41393
D	-7.41432
▁"	-7.41433
任务	-7.42877
世界	-7.43849
名	-7.43871
▁a	-7.43935
数	-7.44881
光	-7.45267
但是	-7.45391
很	-7.45827
手	-7.46133
月	-7.4618
其他	-7.46479
以及	-7.4674
b	-7.46931
用户	-7.4696
做	-7.46992
如何	-7.47194
k	-7.47235
E	-7.48004
w	-7.49749
因此	-7.50006
建议	-7.50346
得	-7.50618
提高	-7.50847
公司	-7.51344
▁in	-7.51633
自	-7.51666
P	-7.51689
理解	-7.51711
让	-7.51955
没有	-7.51999
g	-7.52005
能力	-7.52126
无	-7.52848
作	-7.52978
意	-7.53636
长	-7.54356
过	-7.54864
是一个	-7.54915
か	-7.54982
发	-7.55033
非常	-7.5521
具有	-7.56158
请	-7.56526
知识	-7.56745
项目	-7.56843
物	-7.57395
T	-7.57428
它们	-7.57669
看	-7.57736
in	-7.57758
不同	-7.58324
里	-7.58389
中的	-7.58547
工作	-7.58756
存在	-7.58846
支持	-7.58926
M	-7.59155
学	-7.5923
服务	-7.59754
主要	-7.59989
实现	-7.60389
·	-7.60407
应用	-7.60613
v	-7.60699
部	-7.60928
本	-7.61356
发展	-7.61362
入	-7.61765
该	-7.62022
相	-7.62244
重	-7.62943
把	-7.62959
=	-7.63045
[	-7.63192
加	-7.64796
'	-7.64875
器	-7.65248
ed	-7.65326
B	-7.65571
写	-7.66539
文化	-7.66595
N	-7.66776
方式	-7.66807
代码	-7.66828
位	-7.67346
由	-7.67401
处理	-7.67743
您的	-7.68225
):	-7.68234
ch	-7.68497
山	-7.6859
因为	-7.69113
る	-7.69123
分析	-7.69141
想	-7.69204
on	-7.69432
字	-7.69595
同	-7.69644
给	-7.6978
使	-7.69787
明	-7.70086
根据	-7.70093
则	-7.70163
美	-7.70491
设计	-7.7054
al	-7.70571
文本	-7.70913
情	-7.71634
是一种	-7.71952
▁*	-7.72065
深	-7.72223
it	-7.72459
国	-7.72653
先	-7.72802
领域	-7.73023
那	-7.73297
し	-7.73777
9	-7.73881
an	-7.73995
▁5.	-7.74081
回答	-7.74192
で	-7.74409
更加	-7.74522
内	-7.74845
安全	-7.7503
影响	-7.75031
流	-7.75232
函数	-7.75242
环境	-7.75416
管理	-7.75427
▁1	-7.75615
or	-7.75955
开	-7.76064
感	-7.76378
L	-7.7701
文件	-7.77168
同时	-7.78161
三	-7.78234
不同的	-7.78301
です	-7.78655
en	-7.78801
20	-7.79046
动	-7.79063
制	-7.79176
这种	-7.79715
り	-7.80149
经济	-7.80178
通常	-7.80203
方	-7.80389
你可以	-7.80531
定	-7.80599
I	-7.81069
事	-7.81161
方面	-7.81476
文	-7.81727
0	-7.819
一种	-7.82361
对于	-7.82399
比	-7.82677
应该	-7.82765
▁《	-7.82915
用于	-7.8299
机	-7.83146
所以	-7.83513
▁2	-7.84423
所有	-7.8445
le	-7.84573
es	-7.84875
主	-7.85182
▁for	-7.85252
起	-7.85422
算法	-7.85424
も	-7.85453
▁and	-7.85751
▁p	-7.85822
我的	-7.85973
再	-7.86294
()	-7.86317
R	-7.86377
%	-7.86675
ro	-7.87161
需求	-7.87338
作为	-7.87364
可能会	-7.87637
工具	-7.87896
开始	-7.88272
道	-7.89138
目标	-7.89511
政治	-7.89853
未来	-7.90057
▁of	-7.9013
各种	-7.90512
生活	-7.90524
内容	-7.90533
已经	-7.90702
国家	-7.90777
功能	-7.91066
任何	-7.91306
控制	-7.91465
她	-7.91494
花	-7.91639
解	-7.92535
合	-7.92926
▁我	-7.93107
く	-7.93718
▁to	-7.93829
理	-7.9409
as	-7.94276
什么	-7.94303
希望	-7.94318
F	-7.9554
开发	-7.95725
全	-7.96259
保持	-7.97072
值	-7.97083
呢	-7.97278
此	-7.97292
▁你好	-7.97386
O	-7.97425
比如	-7.97504
期	-7.98125
变	-7.98385
图像	-7.99028
然后	-7.99061
只	-7.99121
ー	-7.99219
每	-7.99225
G	-7.99738
进	-7.99743
人们	-8.00001
真	-8.00068
网络	-8.00322
や	-8.00327
原	-8.00637
头	-8.00757
并且	-8.00838
程序	-8.00933
气	-8.01089
為	-8.01137
训练	-8.01301
特	-8.0136
风	-8.01413
个人	-8.02323
un	-8.02473
相关	-8.02491
完成	-8.02529
计划	-8.02561
利用	-8.02675
类	-8.02917
要求	-8.02954
▁C	-8.03116
▁Assistant	-8.0318
之一	-8.03193
游戏	-8.03259
表	-8.03312
对话	-8.03381
都是	-8.04227
元	-8.04233
两	-8.04261
金	-8.04409
放	-8.04475
以下	-8.04599
低	-8.046
输入	-8.04846
其中	-8.049
那么	-8.05085
共同	-8.05129
色	-8.05173
无法	-8.05207
产生	-8.05471
基于	-8.05714
关于	-8.05892
比较	-8.0601
关系	-8.06017
10	-8.06235
市场	-8.06263
回	-8.06295
产品	-8.06481
成为	-8.0696
て	-8.07067
▁P	-8.07146
來	-8.07157
海	-8.07448
次	-8.07649
计算	-8.07699
受	-8.07713
▁{	-8.07815
式	-8.07904
强	-8.08145
自然	-8.08394
平	-8.08735
南	-8.08828
▁is	-8.08949
法律	-8.09064
又	-8.09081
き	-8.09338
at	-8.09644
▁f	-8.09662
する	-8.10011
书	-8.10011
星	-8.10055
表示	-8.10076
像	-8.10201
對	-8.10297
智能	-8.10465
清	-8.10553
▁你	-8.10557
健康	-8.1105
公	-8.11171
口	-8.11415
情感	-8.11549
正	-8.11796
ra	-8.11934
率	-8.12048
是否	-8.12291
代	-8.12302
非	-8.12761
空	-8.12891
平台	-8.13078
电	-8.13103
反	-8.1317
品	-8.13344
不能	-8.14123
▁S	-8.14814
▁}	-8.14883
ic	-8.14903
节	-8.14969
语言模型	-8.15704
执行	-8.15847
白	-8.16255
路	-8.16269
应	-8.16276
れ	-8.16325
取	-8.16495
就是	-8.1676
少	-8.16961
st	-8.17123
增加	-8.1755
认为	-8.17849
部分	-8.17958
如果你	-8.1799
除	-8.18032
出现	-8.18099
活动	-8.18204
com	-8.18272
解决	-8.18339
://	-8.1845
▁self	-8.1879
此外	-8.18792
二	-8.18954
菜	-8.18977
约	-8.19163
H	-8.19558
才	-8.20013
時	-8.20038
台	-8.20236
例	-8.20312
权	-8.20466
编程	-8.20803
id	-8.20814
斯	-8.20858
问	-8.2088
▁x	-8.21352
词	-8.21361
這	-8.21366
实	-8.21371
数学	-8.21511
il	-8.22486
食	-8.22631
西	-8.22722
W	-8.22749
车	-8.22772
不断	-8.22774
推荐	-8.22777
我可以	-8.22792
19	-8.23071
▁de	-8.2311
也是	-8.23394
质	-8.23406
▁E	-8.23409
型	-8.23541
▁在	-8.2371
十	-8.2372
お	-8.23865
目前	-8.23938
上的	-8.24068
吃	-8.24071
现在	-8.24106
de	-8.24245
市	-8.24265
单	-8.24354
具体	-8.24385
质量	-8.24632
Open	-8.24679
总	-8.24712
步	-8.24739
▁A	-8.24842
香	-8.24988
建立	-8.25031
科学	-8.25063
▁print	-8.25116
▁好的	-8.25214
财产	-8.25631
语	-8.25648
身	-8.2573
不是	-8.25785
通	-8.26142
历史	-8.26165
言	-8.2625
▁c	-8.26417
K	-8.26728
最后	-8.26738
见	-8.26949
的问题	-8.26986
女	-8.27006
您可以	-8.2701
诗	-8.27052
https	-8.27082
带	-8.27113
成本	-8.27474
利	-8.27938
▁B	-8.2795
民	-8.28133
▁//	-8.28209
资源	-8.28446
▁'	-8.28568
「	-8.28762
不要	-8.28878
源	-8.28972
操作	-8.28995
场	-8.29248
号	-8.29322
很多	-8.29433
四	-8.29642
」	-8.29647
▁0	-8.2976
政府	-8.29949
及	-8.30383
精	-8.30406
即	-8.30415
准备	-8.30453
避免	-8.3054
得到	-8.30611
太	-8.3076
种	-8.30927
打	-8.31084
至	-8.31388
並	-8.31427
库	-8.31622
确定	-8.31819
的发展	-8.32027
ン	-8.32034
一個	-8.32156
发生	-8.32519
神	-8.32574
安	-8.32574
python	-8.32655
日本	-8.33121
ri	-8.33269
确保	-8.33298
2.	-8.33363
z	-8.33514
▁M	-8.33801
许多	-8.33871
获得	-8.33891
条件	-8.33898
论	-8.3404
ma	-8.34133
火	-8.34192
设备	-8.342
还是	-8.34424
表达	-8.34496
▁+	-8.34519
#	-8.34708
基础	-8.34781
万	-8.34815
た	-8.34878
j	-8.34962
立	-8.34981
以下是	-8.35385
V	-8.35428
知	-8.35581
老	-8.35728
▁>	-8.35854
数字	-8.35869
导致	-8.35927
新的	-8.36022
保护	-8.36078
这是	-8.36088
发现	-8.36153
交	-8.36198
us	-8.36228
會	-8.36272
之间的	-8.36348
转	-8.36353
调	-8.36474
教	-8.3654
从而	-8.36593
近	-8.36611
油	-8.36674
克	-8.36684
挑战	-8.36712
▁d	-8.3683
更多	-8.36866
雪	-8.37022
复	-8.37199
句	-8.37203
行为	-8.3728
商	-8.37288
U	-8.37527
ta	-8.37582
技能	-8.37647
("	-8.37679
ます	-8.37718
接	-8.37776
生物	-8.37786
可以通过	-8.37801
▁m	-8.37941
音乐	-8.38008
因素	-8.38025
声	-8.38044
▁6.	-8.38074
情况	-8.38368
已	-8.38525
美国	-8.3857
:“	-8.3859
找到	-8.38591
ter	-8.38625
冷	-8.38627
专业	-8.38641
++	-8.38649
th	-8.3867
每个	-8.3884
适合	-8.3887
te	-8.3895
交流	-8.38999
热	-8.39178
这样	-8.39507
建	-8.39606
is	-8.40052
▁D	-8.40145
结构	-8.40172
▁G	-8.40259
虽然	-8.40271
考虑	-8.40272
一般	-8.40277
图	-8.40286
温	-8.40511
曲	-8.4057
几	-8.40637
全球	-8.40943
作品	-8.40997
有什么	-8.41096
ChatGPT	-8.41116
线	-8.41332
爱	-8.41445
两个	-8.41532
定义	-8.41538
注意	-8.41542
获取	-8.41607
快	-8.41996
合作	-8.4207
共	-8.42149
一下	-8.42262
第	-8.42268
输出	-8.42586
更多的	-8.42773
复杂	-8.42795
级	-8.42987
重要	-8.43001
故事	-8.4316
演	-8.43216
▁if	-8.43233
以上	-8.43253
处	-8.43664
他的	-8.43713
开源	-8.43831
け	-8.43884
方向	-8.43925
运动	-8.4397
me	-8.44118
计算机	-8.44182
首	-8.44251
後	-8.44281
远	-8.44288
端	-8.44289
风险	-8.44303
编程语言	-8.44378
由于	-8.4445
味	-8.44472
企业	-8.44983
拉	-8.44988
代表	-8.45033
片	-8.45284
材料	-8.45343
▁b	-8.45588
效率	-8.45667
做出	-8.45777
软件	-8.4603
添加	-8.46035
思考	-8.46038
思想	-8.46065
别	-8.46132
▁T	-8.46305
更好地	-8.46349
条	-8.46356
参数	-8.46381
台湾	-8.4639
ら	-8.465
——	-8.4673
称	-8.46735
电影	-8.46749
size	-8.46784
运行	-8.46852
學	-8.47074
理论	-8.47124
各	-8.47171
GPT	-8.47227
形	-8.47275
价值	-8.47323
Python	-8.47606
超	-8.47703
简	-8.47759
题	-8.4779
层	-8.48089
落	-8.48411
して	-8.48453
选	-8.48482
经验	-8.48615
存	-8.48646
拥有	-8.48725
って	-8.48778
报	-8.48779
持	-8.48799
听	-8.48861
政策	-8.48866
的信息	-8.48913
元素	-8.48967
观	-8.48991
水平	-8.49097
肉	-8.49217
间	-8.49384
指	-8.49402
す	-8.49511
米	-8.49581
马	-8.49583
的人	-8.4971
项	-8.50004
”,	-8.50238
某些	-8.50311
关注	-8.50319
う	-8.50631
\	-8.50668
局	-8.50673
受到	-8.50701
sh	-8.50706
ve	-8.50799
и	-8.5104
结果	-8.51246
▁3	-8.51294
▁se	-8.51297
界	-8.51306
喜欢	-8.51406
必须	-8.51406
谢谢	-8.51408
背景	-8.51411
话	-8.51469
难	-8.51494
消	-8.51586
自由	-8.5185
文章	-8.52026
详细	-8.52132
數	-8.52146
何	-8.52179
集	-8.52276
多个	-8.52375
工	-8.52413
感到	-8.52483
介绍	-8.52496
動	-8.52519
幸福	-8.52522
百度	-8.52564
优化	-8.52594
短	-8.52883
网站	-8.52902
投资	-8.53259
贡献	-8.5326
视频	-8.53271
制定	-8.53351
私	-8.53361
▁la	-8.53395
”。	-8.53451
性能	-8.53491
ま	-8.53552
切	-8.53615
华	-8.53638
款	-8.53836
音	-8.53927
战	-8.5398
科技	-8.5402
学生	-8.54038
变化	-8.54174
▁如果	-8.54222
过程中	-8.54326
乐	-8.54326
德	-8.54359
古	-8.54372
效果	-8.54414
▁[	-8.54424
推	-8.54479
快速	-8.54617
的影响	-8.54694
50	-8.54771
简单	-8.54776
im	-8.54777
创新	-8.55181
主题	-8.55586
la	-8.55869
▁you	-8.5587
识别	-8.55921
教育	-8.55939
因	-8.55966
ir	-8.56037
提出	-8.56079
收	-8.56174
不会	-8.56306
干	-8.5631
el	-8.56337
▁be	-8.56447
列	-8.56519
完全	-8.56711
成功	-8.56725
身体	-8.56797
较	-8.56814
包	-8.57029
笑	-8.57065
防	-8.57078
直接	-8.571
15	-8.57124
深度学习	-8.57135
他们的	-8.57257
准确	-8.57264
任	-8.5746
命令	-8.57484
预测	-8.57487
▁请	-8.57609
▁R	-8.57671
12	-8.57763
つ	-8.57876
00	-8.57878
地区	-8.57985
规定	-8.58189
然	-8.58239
人的	-8.58538
然而	-8.58572
se	-8.58587
传	-8.58647
满足	-8.58665
作用	-8.58814
如果您	-8.58901
备	-8.59027
参与	-8.59099
经	-8.59197
容	-8.59327
红	-8.59826
客	-8.59828
▁return	-8.59858
作者	-8.59998
引	-8.60002
微	-8.60156
於	-8.6017
创造	-8.60191
to	-8.60217
服	-8.60217
判断	-8.6026
传统	-8.60262
▁5	-8.60318
果	-8.60392
区	-8.60433
與	-8.60663
价格	-8.60674
是什么	-8.60881
可以使用	-8.60899
之前	-8.60945
尔	-8.61062
青	-8.61068
個	-8.61072
一样	-8.61105
河	-8.61475
云	-8.61481
包含	-8.61538
11	-8.61549
编写	-8.61821
标准	-8.61887
以下是一些	-8.62059
30	-8.62132
极	-8.62257
石	-8.6229
);	-8.62648
周	-8.62656
它的	-8.62687
е	-8.62703
社区	-8.63108
国际	-8.63113
地球	-8.63198
天气	-8.63252
目	-8.63313
▁4	-8.63415
助手	-8.63489
搜索	-8.63529
▁总之	-8.63537
2023	-8.63546
▁I	-8.63692
ol	-8.63749
景	-8.6378
江	-8.63897
料	-8.63904
保	-8.63915
解释	-8.63925
ス	-8.63941
按照	-8.63962
限制	-8.63986
之间	-8.64046
未	-8.64124
>	-8.64132
具	-8.64342
將	-8.64368
预	-8.6437
え	-8.64464
讲	-8.64763
城市	-8.64805
事件	-8.64852
加入	-8.64922
实际	-8.65124
装	-8.65186
联系	-8.65214
才能	-8.65233
self	-8.6551
我会	-8.6551
关	-8.6555
越	-8.65591
血	-8.65633
还有	-8.65717
常	-8.65802
▁t	-8.65976
可以在	-8.6605
持续	-8.66073
位置	-8.66094
目的	-8.66239
第一	-8.66286
边	-8.66351
治	-8.66429
主义	-8.66506
第二	-8.66521
观点	-8.6656
尝试	-8.66597
尽	-8.66729
达到	-8.66841
lo	-8.66899
分割	-8.66926
系列	-8.6708
do	-8.67252
性的	-8.67254
自动	-8.67322
王	-8.67339
眼	-8.67344
形式	-8.67379
门	-8.67482
医	-8.67649
一定	-8.67685
飞	-8.67782
减少	-8.67793
应用程序	-8.67873
▁F	-8.67874
▁i	-8.67978
创建	-8.6803
all	-8.68041
达	-8.68125
+	-8.6815
ha	-8.68161
势	-8.68193
努力	-8.68217
风格	-8.68241
药	-8.68277
改	-8.6843
。”	-8.68501
体验	-8.68593
酒	-8.68614
归	-8.68641
▁n	-8.687
信	-8.68817
ない	-8.68892
ur	-8.68963
类型	-8.68997
剧	-8.69083
夜	-8.6909
")	-8.69259
数量	-8.69291
描述	-8.69318
200	-8.69341
今	-8.69352
知道	-8.69475
log	-8.69629
具体的	-8.6965
优	-8.69767
北	-8.69879
失	-8.69896
组织	-8.69972
改变	-8.70007
导	-8.70322
if	-8.70347
五	-8.70382
李白	-8.70447
带来	-8.70656
过程	-8.70717
并不	-8.70763
群	-8.70788
散	-8.70792
み	-8.70866
寻找	-8.70866
空间	-8.70887
こと	-8.71152
ate	-8.71206
为了	-8.71255
草	-8.71308
num	-8.7132
人类的	-8.71329
没	-8.71429
提供了	-8.71543
更新	-8.71644
测	-8.7166
奇	-8.7167
离	-8.71702
差	-8.71746
吧	-8.71762
语法	-8.71861
也可以	-8.72056
视	-8.72103
った	-8.72181
住	-8.72184
效	-8.72191
NLP	-8.72213
以便	-8.72448
李	-8.72592
о	-8.72641
轻	-8.72655
朋友	-8.72667
继续	-8.72671
这里	-8.72713
属于	-8.72948
ce	-8.73071
举	-8.73107
调整	-8.73148
心理	-8.7322
你需要	-8.73259
业	-8.73397
实践	-8.73583
角色	-8.73607
提取	-8.73608
自然语言处理	-8.73623
18	-8.7364
排	-8.73894
只是	-8.73995
你能	-8.74
众	-8.7401
▁import	-8.74045
错误	-8.7405
优势	-8.74062
時間	-8.74064
交易	-8.74069
证	-8.7411
如下	-8.74129
から	-8.74185
都有	-8.74191
状态	-8.74206
看到	-8.74241
tra	-8.74253
只有	-8.74281
J	-8.74507
さ	-8.74538
等等	-8.74557
算	-8.74561
深入	-8.74644
现代	-8.74653
中文	-8.74734
东	-8.74863
望	-8.74928
os	-8.75352
歌	-8.75379
現	-8.75392
维	-8.75396
經	-8.75441
模式	-8.75447
的能力	-8.75564
行动	-8.75695
mo	-8.75861
整	-8.75882
练习	-8.75909
精神	-8.75944
-3	-8.76
▁def	-8.76038
▁as	-8.76058
程	-8.76243
特定	-8.76287
走	-8.76307
州	-8.76377
面试	-8.76425
自我	-8.76431
适	-8.76468
制度	-8.76571
按	-8.76836
怎么	-8.76843
思	-8.7714
军	-8.77144
',	-8.7719
有助于	-8.77332
ん	-8.77367
一份	-8.774
性和	-8.7746
nd	-8.77634
ver	-8.77769
查询	-8.77806
治疗	-8.77811
ent	-8.77842
而且	-8.7793
他人	-8.7797
的方法	-8.77992
嗎	-8.78291
問題	-8.78295
改进	-8.78327
制作	-8.78346
这一	-8.78378
こ	-8.78393
件	-8.78403
造	-8.78638
限	-8.78655
我是	-8.78703
送	-8.78724
照	-8.78734
雨	-8.78772
體	-8.78776
わ	-8.78777
國	-8.78935
機	-8.79212
画	-8.79213
世	-8.79226
ation	-8.79262
开放	-8.79386
qu	-8.7942
生产	-8.79538
ly	-8.79623
几个	-8.79642
開	-8.79724
病	-8.79738
千	-8.79743
广泛	-8.79986
素	-8.80006
め	-8.80025
▁L	-8.80112
压	-8.80151
管	-8.80185
农业	-8.80233
長	-8.80238
阅读	-8.80242
随着	-8.80288
增	-8.80355
稳定	-8.80639
换	-8.80679
16	-8.80843
时期	-8.81049
ですか	-8.81073
ct	-8.81076
造成	-8.81223
领域的	-8.81225
聊天	-8.81239
形成	-8.81316
大量	-8.81459
亲	-8.81712
游	-8.81717
疑	-8.81721
指令	-8.81732
加强	-8.81759
▁w	-8.81826
易	-8.82083
友	-8.82116
组	-8.82236
基	-8.8238
一起	-8.82443
早	-8.82471
▁–	-8.82488
首先	-8.82514
是指	-8.82582
気	-8.82723
决定	-8.82736
论文	-8.82788
意义	-8.82963
帮	-8.83117
却	-8.83223
男	-8.83225
翻译	-8.83226
掌握	-8.83229
检查	-8.83229
|	-8.83532
▁range	-8.83759
意思	-8.83791
机会	-8.83801
来说	-8.83813
相关的	-8.83954
した	-8.83975
100	-8.84019
表现	-8.84059
ル	-8.8425
明确	-8.84258
修改	-8.84265
物质	-8.84446
重新	-8.8449
基本	-8.84554
人民	-8.8473
還	-8.84761
家庭	-8.84816
特点	-8.84908
行业	-8.85104
配	-8.85132
po	-8.85182
液	-8.85268
應	-8.8527
了一个	-8.85278
图片	-8.85303
速度	-8.85314
找	-8.85326
ww	-8.85386
▁en	-8.85589
▁are	-8.85636
战争	-8.85794
到了	-8.85863
重要的	-8.86275
策略	-8.86314
14	-8.8634
是由	-8.86581
这个问题	-8.86634
一定的	-8.86699
▁el	-8.86765
修	-8.86767
玩	-8.86779
哲学	-8.86844
对象	-8.86984
符合	-8.87005
自然语言	-8.87131
а	-8.87358
見	-8.87367
设置	-8.87372
安装	-8.87395
生命	-8.87415
说明	-8.87486
格	-8.87608
▁con	-8.8763
便	-8.87676
特征	-8.87902
英	-8.88097
春	-8.88296
X	-8.88404
寻求	-8.8843
我們	-8.88459
为什么	-8.88855
领	-8.8893
续	-8.88939
提升	-8.88966
机构	-8.88974
交通	-8.89021
文字	-8.89029
创作	-8.8908
人口	-8.89128
全面	-8.8915
合理	-8.89287
概念	-8.89388
so	-8.89429
给出	-8.89438
显示	-8.89449
では	-8.89472
参加	-8.89512
指导	-8.89523
不过	-8.89527
积极	-8.89538
方面的	-8.89546
*	-8.89694
们	-8.89823
步骤	-8.90008
士	-8.90031
评估	-8.90041
进一步	-8.90051
▁or	-8.9013
一直	-8.90203
よ	-8.90494
置	-8.90508
张	-8.90542
end	-8.90551
偏	-8.90551
話	-8.90551
死	-8.90573
甚至	-8.90586
协议	-8.90586
返回	-8.9061
最终	-8.90611
▁7.	-8.90672
ため	-8.90821
供	-8.91085
過	-8.91086
框架	-8.91129
互联网	-8.91132
评价	-8.91134
资料	-8.91142
▁The	-8.91161
可以帮助	-8.91192
我们的	-8.91268
▁v	-8.91279
活	-8.91364
初	-8.91609
告	-8.91647
т	-8.91689
规则	-8.91692
その	-8.91718
不仅	-8.91914
▁是的	-8.91977
提	-8.92022
工程	-8.92117
师	-8.92171
站	-8.92217
付	-8.92225
树	-8.92228
且	-8.92444
必	-8.92664
進	-8.92691
范围	-8.92745
著	-8.92761
夫妻	-8.92776
帮我	-8.929
ng	-8.93335
糖	-8.93345
value	-8.93347
访问	-8.93352
促进	-8.93356
的生活	-8.93476
有很多	-8.93584
Y	-8.93618
结	-8.93647
需	-8.93768
广	-8.93855
队	-8.93887
bo	-8.93904
省	-8.93911
求	-8.93912
仍然	-8.93918
测试	-8.93921
网	-8.94028
最好	-8.9441
с	-8.94472
结合	-8.94506
art	-8.94589
房	-8.95024
桥	-8.95028
午	-8.95041
序列	-8.95095
道德	-8.95097
手机	-8.95215
员	-8.9539
更好的	-8.95473
唐	-8.9556
城	-8.95578
假	-8.95601
batch	-8.95611
土	-8.95618
存储	-8.95621
改善	-8.95622
编	-8.95665
变量	-8.95771
的方式	-8.95811
足	-8.95898
可以帮助你	-8.95908
布	-8.96056
one	-8.96074
很好	-8.96074
异	-8.96129
には	-8.96178
循环	-8.96179
啊	-8.96182
追求	-8.96191
}	-8.96285
数据库	-8.96416
座	-8.96602
多种	-8.96613
朝	-8.9675
抗	-8.96758
建筑	-8.96764
今天	-8.96861
美元	-8.9689
per	-8.96907
直	-8.96956
哪些	-8.96982
来源	-8.9713
想要	-8.9716
不可	-8.97331
富	-8.97344
使得	-8.97404
采用	-8.97414
接受	-8.97511
人生	-8.97546
q	-8.97618
控	-8.9789
н	-8.97913
皮	-8.97926
▁with	-8.97931
沟通	-8.97932
探索	-8.97934
提示	-8.9794
还可以	-8.97973
▁<	-8.98247
哪	-8.98372
語	-8.98445
罗	-8.98512
安排	-8.98542
及时	-8.98557
觉得	-8.98595
▁根据	-8.98608
压力	-8.98608
13	-8.98684
小时	-8.98896
だ	-8.98913
移	-8.9892
建设	-8.98973
中心	-8.9902
百	-8.99032
ry	-8.99033
感受	-8.99109
せ	-8.9911
從	-8.99113
▁cv	-8.99132
证明	-8.99164
int	-8.99381
这是一个	-8.99471
原因	-8.99521
問	-8.99698
繁	-8.99704
措施	-8.99706
团队	-8.99712
维护	-8.99714
区别	-8.99737
交互	-8.9981
ok	-9.00142
止	-9.00272
职	-9.00283
宇宙	-9.00303
リ	-9.00306
讨论	-9.00306
▁`	-9.00306
检测	-9.00307
认识	-9.00313
社交	-9.00323
right	-9.0034
核心	-9.00348
进步	-9.00375
必要	-9.00432
▁g	-9.00434
应对	-9.00682
出来	-9.00698
ment	-9.00791
击	-9.00831
小说	-9.00838
-4	-9.00872
政	-9.00886
室	-9.00908
完整	-9.00916
name	-9.00931
女孩	-9.01028
给我	-9.01208
▁y	-9.01215
一次	-9.01288
版	-9.0132
投	-9.01352
em	-9.01394
专	-9.01414
时候	-9.01419
點	-9.0151
取决于	-9.01512
請	-9.01513
▁Japanese	-9.01615
ga	-9.0164
人物	-9.01914
务	-9.01929
联	-9.02059
射	-9.02082
展示	-9.02117
▁that	-9.02126
机器学习	-9.0217
反应	-9.02193
$	-9.02222
注	-9.02529
分钟	-9.02541
份	-9.02562
责任	-9.02691
的代码	-9.02714
林	-9.02734
車	-9.02738
降低	-9.02769
ca	-9.02864
起来	-9.02877
▁AI	-9.03041
现	-9.03236
大量的	-9.03266
黄	-9.03323
業	-9.03346
方案	-9.03356
那些	-9.03366
预算	-9.03373
之后	-9.03378
分享	-9.03384
针对	-9.03451
标	-9.03602
No	-9.03624
state	-9.03641
类似	-9.03896
让我们	-9.03934
的话	-9.03948
兴	-9.03966
逻辑	-9.03973
跟	-9.03975
购买	-9.03977
尊重	-9.0399
分类	-9.04166
想法	-9.04217
角	-9.04437
input	-9.04556
兴趣	-9.04558
▁su	-9.04592
采取	-9.04613
配置	-9.04616
银行	-9.04819
同时也	-9.04835
当前	-9.04991
降	-9.05067
院	-9.05155
追	-9.05211
六	-9.05217
na	-9.05246
有着	-9.05329
ac	-9.05408
程度	-9.05412
试	-9.05709
あ	-9.05752
息	-9.05816
text	-9.05861
left	-9.05862
派	-9.05863
钱	-9.05864
温度	-9.05999
官	-9.06002
版本	-9.06006
中国的	-9.06124
而是	-9.06261
参考	-9.06263
曾	-9.06457
季	-9.06466
イ	-9.06475
久	-9.06495
反馈	-9.06499
收集	-9.06531
权利	-9.06557
居	-9.06698
的数据	-9.06714
ge	-9.06722
code	-9.06727
間	-9.06868
遇	-9.0698
質	-9.0714
ア	-9.0714
双方	-9.07163
考	-9.07259
out	-9.07355
ist	-9.07401
随	-9.07405
ion	-9.07602
场景	-9.07774
烤	-9.07784
宝	-9.07786
消息	-9.07806
请求	-9.07845
put	-9.08
的故事	-9.08027
有关	-9.08035
数组	-9.08383
豆	-9.08415
颜色	-9.08423
决策	-9.08435
态	-9.08435
data	-9.08453
▁que	-9.08469
程序员	-9.08471
增长	-9.08505
界面	-9.08566
为您	-9.08574
ie	-9.08693
25	-9.08753
愿	-9.09029
吸引	-9.09099
▁H	-9.09101
除了	-9.09184
校	-9.09186
遇到	-9.09243
res	-9.09279
▁19	-9.09512
▁com	-9.09524
而不是	-9.09637
ul	-9.097
書	-9.09747
课程	-9.09751
商业	-9.09763
太阳	-9.09764
艺术	-9.09816
しい	-9.10017
请问	-9.10145
的重要	-9.10165
独	-9.10179
待	-9.10221
第三	-9.10298
影	-9.1035
域	-9.10377
登	-9.10387
炒	-9.10401
木	-9.10411
打开	-9.10504
1.	-9.10603
▁10	-9.10734
ia	-9.10754
是中国	-9.10791
费	-9.1087
{	-9.10955
封	-9.11064
讓	-9.11073
介	-9.11073
go	-9.11263
▁Open	-9.11335
晚	-9.11514
答案	-9.1156
在线	-9.11594
威	-9.11714
Q	-9.1172
保证	-9.11737
静	-9.11741
编译	-9.11751
的目标	-9.11848
数据集	-9.11878
机制	-9.1189
80	-9.12167
她的	-9.12274
孩子	-9.12321
境	-9.12353
的内容	-9.1236
冲	-9.12414
半	-9.12416
竞争	-9.12423
社交媒体	-9.12429
连接	-9.12441
wa	-9.12488
原则	-9.12559
美好	-9.12797
pe	-9.1289
我们可以	-9.13097
传感器	-9.131
什麼	-9.13101
链接	-9.13114
利益	-9.13124
新闻	-9.13129
原理	-9.13211
无论	-9.13217
**。	-9.13508
類	-9.13525
留	-9.13642
示	-9.13664
跨	-9.13749
关键	-9.13773
ラ	-9.13786
選	-9.13787
部门	-9.13866
ll	-9.13922
推动	-9.13961
当地	-9.14038
组成	-9.14084
py	-9.14143
有哪些	-9.14222
刻	-9.14303
享受	-9.1441
The	-9.1444
神经网络	-9.14444
巴	-9.14456
汉	-9.14465
智慧	-9.14472
當	-9.14476
适应	-9.1462
语音	-9.1466
服务器	-9.14699
io	-9.14762
现实	-9.14859
金融	-9.14908
板	-9.15115
暖	-9.15147
北京	-9.15184
负责	-9.15227
食物	-9.15297
可能是	-9.15657
块	-9.15669
诗人	-9.15692
略	-9.15838
农	-9.15848
弹	-9.15861
列表	-9.15864
幫助	-9.15871
密	-9.16135
长期	-9.16223
')	-9.16275
大学	-9.1643
细	-9.16539
黑	-9.16539
ち	-9.16551
占	-9.16555
误	-9.1656
史	-9.16561
&	-9.16574
买	-9.16576
独立	-9.16598
话题	-9.16651
复杂的	-9.16873
劳动	-9.16933
含	-9.16936
社	-9.17083
有效	-9.1719
店	-9.17274
um	-9.17275
^	-9.17282
经历	-9.173
ine	-9.1742
很大	-9.17471
模型的	-9.17533
發	-9.17889
益	-9.1791
容易	-9.17917
激	-9.17929
县	-9.17935
价	-9.17952
技巧	-9.17996
▁您好	-9.18043
和平	-9.18045
的时间	-9.18132
ab	-9.18215
随时	-9.183
更高	-9.18302
co	-9.18465
('	-9.18655
儿	-9.18707
別	-9.18717
经典	-9.18726
引起	-9.18786
美食	-9.18835
面对	-9.18872
许	-9.18884
▁j	-9.18918
速	-9.19065
相比	-9.19306
烟	-9.19436
死亡	-9.19443
债务	-9.19446
现象	-9.19447
流程	-9.19507
真实	-9.19532
します	-9.19539
会议	-9.19551
涉及到	-9.19597
▁In	-9.1996
高效	-9.19987
有些	-9.20099
伤	-9.20157
內	-9.20171
上下文	-9.20171
汽车	-9.20181
左右	-9.20191
感觉	-9.20198
17	-9.20411
动物	-9.20463
只能	-9.20499
▁no	-9.20523
的历史	-9.20689
涉及	-9.20753
穿	-9.20837
強	-9.20908
规划	-9.2091
・	-9.20912
读取	-9.20933
回复	-9.2098
的时候	-9.21131
每天	-9.21165
▁Python	-9.21294
》(	-9.21314
▁can	-9.21342
的工作	-9.21573
以确保	-9.21577
历	-9.21597
說	-9.21618
亮	-9.21643
杀	-9.21645
世纪	-9.21653
支付	-9.2166
业务	-9.21666
语句	-9.21707
分别	-9.21801
过去	-9.21968
可以根据	-9.21993
强大的	-9.22332
连	-9.22357
風	-9.22388
聚	-9.22392
じ	-9.22398
取得	-9.2253
地方	-9.22537
▁int	-9.22606
流行	-9.228
▁首先	-9.22805
往	-9.23025
人工	-9.23074
▁Y	-9.23088
示例	-9.23128
架构	-9.23148
记录	-9.23154
增强	-9.23193
的情况	-9.23259
承	-9.23663
▁torch	-9.23668
助	-9.2378
也有	-9.23797
波	-9.23863
依	-9.23868
實	-9.2389
恐	-9.23891
в	-9.23903
员工	-9.23925
より	-9.23965
的主要	-9.23975
▁当然可以	-9.24089
中药	-9.24471
ant	-9.2448
等方面	-9.24551
争	-9.24632
逐渐	-9.24665
泡	-9.24669
怀	-9.2467
很高兴	-9.24672
客户	-9.24678
困难	-9.24683
正常	-9.24719
進行	-9.24793
60	-9.24862
事物	-9.2488
事实	-9.24943
人员	-9.24949
格式	-9.24971
错	-9.25004
不足	-9.25022
球	-9.25201
OpenAI	-9.25265
▁V	-9.25389
卡	-9.2541
范	-9.25428
組	-9.25432
惊	-9.25435
open	-9.25436
雷	-9.25436
酸	-9.25438
攻击	-9.25441
构建	-9.25442
lu	-9.25444
另外	-9.25449
电脑	-9.25463
等领域	-9.25476
书籍	-9.25477
值得	-9.25634
▁es	-9.25636
str	-9.2566
进入	-9.25996
也会	-9.26034
など	-9.26074
资	-9.26179
痛	-9.26202
志	-9.26213
睡眠	-9.26214
科幻小说	-9.26221
思维	-9.26235
られ	-9.26277
ni	-9.26369
展	-9.26484
难以	-9.26504
开发的	-9.26513
电子	-9.26528
一点	-9.26607
ity	-9.267
作为一个	-9.26841
倒	-9.26987
掉	-9.26989
變	-9.2699
array	-9.26993
數據	-9.26993
状况	-9.26994
安全性	-9.27261
模	-9.27671
读	-9.27675
丰富	-9.2769
双	-9.27719
冰	-9.27772
科幻	-9.27772
野	-9.27775
饭	-9.27775
亚	-9.27777
贵	-9.27783
总结	-9.27818
对方	-9.27843
内存	-9.28101
est	-9.28115
为你	-9.28376
▁$	-9.28443
命	-9.28476
叫	-9.28513
园	-9.28542
杯	-9.2856
锅	-9.28574
扩展	-9.28574
余	-9.28575
弱	-9.28577
一切	-9.28581
移动	-9.28798
24	-9.28928
就可以	-9.29087
ou	-9.29102
常见的	-9.29261
宗	-9.2934
奖	-9.2937
詩	-9.29372
尼	-9.29376
湖	-9.29379
英雄	-9.29383
文档	-9.29385
事情	-9.29446
费用	-9.29546
ure	-9.29558
set	-9.29621
ai	-9.29656
婚姻	-9.29709
喜	-9.30043
支	-9.30066
脑	-9.30132
让我	-9.30146
正确	-9.3015
餐	-9.30152
害	-9.30159
判	-9.30163
毒	-9.30164
猫	-9.30174
調	-9.30178
途	-9.30184
他們	-9.30196
差异	-9.30201
美丽	-9.30204
和其他	-9.30205
整个	-9.30283
ang	-9.30456
的行为	-9.30609
升	-9.30745
いた	-9.30779
ba	-9.30792
oo	-9.30801
され	-9.30819
显	-9.30903
語言	-9.30924
记	-9.30943
__	-9.31015
导师	-9.31017
商品	-9.31068
相信	-9.31084
pa	-9.31084
ell	-9.31089
某个	-9.31139
当然	-9.31211
认	-9.31365
独特的	-9.3139
感受到	-9.31404
给你	-9.3149
70	-9.31601
序	-9.31676
適	-9.31776
結	-9.31786
九	-9.31801
盐	-9.31812
л	-9.31812
影響	-9.31813
楼	-9.31814
同样	-9.31838
丰富的	-9.31908
本身	-9.31954
注重	-9.3197
正在	-9.32117
真正	-9.32263
补	-9.32338
可以尝试	-9.32424
需求和	-9.32452
ク	-9.32632
欢迎	-9.32642
man	-9.32644
确实	-9.32648
官方	-9.32693
礼	-9.32758
不知道	-9.32971
实时	-9.3303
="	-9.33211
我认为	-9.33358
一部	-9.33424
状	-9.33441
底	-9.3345
露	-9.33457
種	-9.33462
亿	-9.33463
习惯	-9.3347
タ	-9.33472
股票	-9.33473
情绪	-9.33476
东西	-9.33518
面临	-9.33529
read	-9.33539
的事情	-9.33568
超过	-9.33603
...	-9.33623
机器人	-9.33657
旅行	-9.33661
角度	-9.33678
row	-9.33711
时代	-9.33722
帮助你	-9.3379
即使	-9.33791
向量	-9.3397
的地方	-9.34038
ff	-9.34058
国内	-9.34122
▁on	-9.34182
px	-9.3423
婚	-9.34263
助理	-9.34277
沙	-9.34295
警	-9.34311
实施	-9.34325
在中国	-9.34475
特别	-9.34562
科	-9.34609
的结果	-9.34638
载	-9.3464
系	-9.34927
满	-9.35062
無	-9.35097
武	-9.35106
地位	-9.35135
养	-9.35152
衣	-9.35153
总的来说	-9.3516
申请	-9.35187
文明	-9.35297
場合	-9.35363
大家	-9.3539
もの	-9.35447
▁by	-9.35449
があります	-9.35455
段	-9.35607
并在	-9.3566
验证	-9.35756
案	-9.35938
负	-9.35941
愛	-9.36013
区块链	-9.36013
寫	-9.36015
ド	-9.36017
相互	-9.3602
阶段	-9.36023
饮食	-9.36038
具备	-9.36051
また	-9.36079
ので	-9.36111
代理	-9.36137
名称	-9.36159
对比	-9.3622
一首	-9.36236
感情	-9.36241
我想	-9.36314
某	-9.36683
▁这是	-9.36699
仍	-9.36848
構	-9.36867
剂	-9.36877
卖	-9.36883
别人	-9.36912
合法	-9.3696
ad	-9.36981
态度	-9.37032
con	-9.37037
节点	-9.37091
核	-9.37218
ig	-9.37219
▁para	-9.37331
产	-9.3751
tion	-9.37559
我不	-9.37559
议	-9.37578
减	-9.37702
打印	-9.37725
批	-9.37729
old	-9.37735
模拟	-9.37747
旅游	-9.37753
相应的	-9.37756
用於	-9.37887
另一	-9.3817
▁8.	-9.38241
的过程	-9.38278
力量	-9.38288
da	-9.3834
航	-9.38593
善	-9.38593
培养	-9.38622
á	-9.38623
網	-9.38624
卫	-9.38624
结束	-9.38631
).	-9.38632
意识	-9.38824
▁•	-9.38869
深度	-9.38879
这样的	-9.39026
ること	-9.39058
states	-9.39152
最大	-9.39242
充	-9.39384
隐	-9.39475
汇	-9.39505
權	-9.39506
媒体	-9.3951
盘	-9.39511
足球	-9.39522
一方	-9.39547
string	-9.3958
法院	-9.39595
为您提供	-9.39799
▁ex	-9.39838
看法	-9.39898
この	-9.40015
材	-9.40042
票	-9.40066
ble	-9.40352
蛋	-9.40381
舞	-9.40385
既	-9.40389
煮	-9.40391
若	-9.40398
末	-9.40399
杰	-9.40405
前往	-9.40487
空气	-9.40513
开源项目	-9.40537
各个	-9.40553
▁作为一个	-9.40563
谁	-9.40623
mm	-9.40743
都可以	-9.40909
▁whi	-9.40955
述	-9.41093
故	-9.41218
篇	-9.41234
八	-9.41298
侧	-9.41299
Java	-9.41301
JavaScript	-9.41302
Google	-9.41302
按钮	-9.41303
服務	-9.41305
营养	-9.41308
谷歌	-9.41311
硬件	-9.41313
尽管	-9.4133
专家	-9.4136
我也	-9.41368
都会	-9.4137
期间	-9.41387
col	-9.41493
▁##	-9.41525
例子	-9.41754
来自	-9.4184
族	-9.42088
阳	-9.42118
自身	-9.42136
铁	-9.42194
虚	-9.42198
延	-9.42205
缩	-9.42206
預	-9.4221
刚	-9.42213
也不	-9.42232
诗歌	-9.42263
99	-9.42315
▁wa	-9.4235
应当	-9.42442
**:	-9.42528
解决问题	-9.42561
写一个	-9.42583
▁ChatGPT	-9.42611
的基本	-9.42743
开源的	-9.42986
饮	-9.43085
育	-9.43101
链	-9.43106
龙	-9.43112
ッ	-9.43115
脱	-9.43124
記	-9.43129
台灣	-9.43131
file	-9.43135
保障	-9.43138
平衡	-9.43147
有限	-9.43174
两种	-9.43223
下降	-9.43307
▁我是	-9.43365
不错	-9.43637
查	-9.43669
的值	-9.43675
使其	-9.4382
SS	-9.43845
么	-9.43862
经过	-9.43934
均	-9.44005
大模型	-9.44013
90	-9.44026
永	-9.44027
抽	-9.44043
電	-9.44053
べ	-9.44053
advantage	-9.44055
API	-9.44056
咖啡	-9.44058
良好的	-9.44059
宣传	-9.44061
需要注意的是	-9.44065
学术	-9.44092
身份	-9.44097
正确的	-9.441
有趣的	-9.44119
我没有	-9.44149
教学	-9.44203
可能需要	-9.44519
团	-9.44938
鸟	-9.44981
特殊	-9.44983
í	-9.44989
货币	-9.44992
それ	-9.45015
der	-9.45041
礼物	-9.45054
充分	-9.45066
强调	-9.45082
物理	-9.45213
back	-9.45251
私は	-9.45284
最高	-9.45363
▁me	-9.45513
▁GPT	-9.45538
充满	-9.45545
绝	-9.45704
ください	-9.45713
义	-9.45749
一天	-9.4577
文学	-9.45778
告诉我	-9.45781
准	-9.45815
福	-9.45887
固	-9.45898
▁mini	-9.45903
键	-9.45918
ました	-9.45928
讲述了	-9.45931
參	-9.45932
м	-9.45933
カ	-9.45934
运	-9.45937
微软	-9.4594
证据	-9.45948
排序	-9.45951
ように	-9.4611
开发者	-9.46261
人類	-9.46295
断	-9.46301
our	-9.46405
属	-9.46479
十分	-9.46492
就会	-9.46672
根	-9.46829
Windows	-9.46885
浪漫	-9.46887
帮助您	-9.46905
整理	-9.46956
制造	-9.46979
医生	-9.4706
able	-9.47218
である	-9.47222
val	-9.47406
▁__	-9.47566
是一種	-9.47645
在于	-9.47673
的概念	-9.47689
app	-9.47717
觉	-9.47731
困	-9.47825
岳阳	-9.47837
苦	-9.47838
羊	-9.47843
區	-9.47844
规范	-9.47844
哈	-9.47846
灯	-9.47849
香港	-9.47854
视觉	-9.4786
這些	-9.47862
":	-9.47893
手段	-9.47913
适用于	-9.47977
1000	-9.48054
上述	-9.48066
先进	-9.48084
▁from	-9.48211
bit	-9.48481
一段	-9.48746
码	-9.48766
伦敦	-9.48808
鲜	-9.4881
轮	-9.48817
example	-9.48818
沉	-9.48818
熟悉	-9.48819
急	-9.48819
洞	-9.48823
ですね	-9.48854
体现	-9.48876
因為	-9.48898
add	-9.48925
玩家	-9.48932
多少	-9.49226
这将	-9.494
致	-9.49435
完	-9.49559
我们需要	-9.49734
即可	-9.49749
▁==	-9.49781
越来越	-9.4979
乡	-9.49793
茶	-9.49793
借	-9.49796
杜甫	-9.49797
達	-9.49799
套	-9.49898
利率	-9.49898
药物	-9.49916
最重要的	-9.49941
不够	-9.49969
有效的	-9.49982
?”	-9.50014
相同	-9.50099
核算	-9.50311
います	-9.50434
中國	-9.50453
hu	-9.50593
有许多	-9.50611
据	-9.50698
欢	-9.50735
恶	-9.50785
プ	-9.50786
技術	-9.50787
二进制	-9.50789
税	-9.50789
によって	-9.5079
距离	-9.50802
让人	-9.50817
推理	-9.50878
优点	-9.50934
著名的	-9.51111
设	-9.51663
缺	-9.51716
消费	-9.51747
40	-9.51747
播	-9.5177
饰	-9.51772
忙	-9.51783
索	-9.51783
俗	-9.51784
運	-9.51787
給	-9.51787
零	-9.51787
迷	-9.51788
帽	-9.51789
▁很抱歉	-9.5179
実	-9.51792
感谢	-9.51792
という	-9.51793
搜索引擎	-9.51795
参观	-9.51799
战斗	-9.51803
隐私	-9.51811
体系	-9.51874
定制	-9.52023
类型的	-9.52055
实体	-9.52057
其次	-9.52104
▁我想	-9.52239
而言	-9.52269
但也	-9.52419
足够的	-9.5248
停	-9.5276
您需要	-9.52777
博士	-9.52788
レ	-9.52798
字符串	-9.528
鱼	-9.52805
假设	-9.5281
》、《	-9.52814
情况下	-9.52857
喜好	-9.52913
每次	-9.5294
简单的	-9.53075
and	-9.53087
として	-9.53233
样	-9.53351
ik	-9.53368
生活中	-9.53468
場	-9.53511
三个	-9.53769
左	-9.53815
Excel	-9.53818
ロ	-9.53822
我是一个	-9.53825
完善	-9.53825
运算	-9.53835
观察	-9.53837
普通	-9.53841
认知	-9.53845
旨在	-9.53856
报告	-9.53859
有可能	-9.53863
协作	-9.53867
通過	-9.53868
大小	-9.5395
一致	-9.54013
放入	-9.54039
ag	-9.54061
loss	-9.54069
tic	-9.54119
并不是	-9.54145
因为它	-9.5436
不需要	-9.54629
關	-9.5478
▁抱歉	-9.54791
普	-9.54791
护	-9.54815
悲	-9.54832
救	-9.54846
犯	-9.54847
兵马俑	-9.54849
~	-9.54851
冲突	-9.54852
托	-9.54855
(0)	-9.54861
所在	-9.54862
防止	-9.54876
领导	-9.54881
星球	-9.54889
点击	-9.54957
沒有	-9.55008
get	-9.55038
高质量的	-9.55237
各自	-9.55285
灵	-9.55503
36	-9.55625
世界上	-9.5574
上海	-9.55764
始	-9.55796
ト	-9.5583
吸	-9.55844
伴	-9.55861
可靠	-9.55882
七	-9.55884
宽	-9.55888
退	-9.55889
纳	-9.5589
六西格玛	-9.55891
迹	-9.55893
船	-9.55894
周围	-9.559
源氏	-9.559
安娜	-9.55903
否则	-9.55912
职业	-9.55913
解决方案	-9.55938
通信	-9.55947
这么	-9.56042
成长	-9.56107
定期	-9.5611
tive	-9.56117
较高	-9.56162
查看	-9.56274
line	-9.56384
规模	-9.56538
age	-9.56544
一系列	-9.56568
彩	-9.56921
休	-9.56926
渐	-9.5693
圆	-9.56941
難	-9.56942
堂	-9.56944
乘	-9.56946
bu	-9.56978
患者	-9.56986
方便	-9.57027
合约	-9.57061
我希望	-9.57166
尽可能	-9.57203
补充	-9.57326
保存	-9.57545
提问	-9.57865
我无法	-9.57883
鸡	-9.57948
免	-9.5798
暗	-9.57999
隔	-9.58001
净	-9.58007
確保	-9.5802
免费	-9.58022
选项	-9.58068
感兴趣	-9.58082
人工智能助理	-9.581
注意力	-9.58247
ことを	-9.58303
权力	-9.58312
虚拟	-9.58463
通用	-9.58534
实用	-9.58567
基本的	-9.58572
大型	-9.58598
▁当然	-9.58697
会有	-9.58799
199	-9.5886
协	-9.58997
透	-9.59021
min	-9.59078
▁class	-9.59083
result	-9.59083
兩	-9.59083
線	-9.59084
苏	-9.59086
灵活	-9.59095
争议	-9.59096
编码	-9.59099
共享	-9.59099
产业	-9.59105
透明	-9.59128
食品	-9.59194
动力	-9.59282
意见	-9.59288
在未来	-9.59489
广泛的	-9.59639
功	-9.59985
等因素	-9.60066
临	-9.60082
陵	-9.60141
魔	-9.60157
废	-9.60165
清晰	-9.60167
遵守	-9.60169
について	-9.60169
script	-9.6017
▁sympy	-9.6017
暴	-9.60172
赞	-9.60174
::::	-9.60176
求婚	-9.60193
积	-9.60195
构成	-9.60199
している	-9.60227
日常	-9.60275
转换为	-9.60303
整体	-9.60338
ている	-9.60491
名为	-9.60673
下载	-9.6084
ies	-9.60869
公开	-9.60912
pre	-9.60914
需要考虑	-9.61015
或其他	-9.61025
评	-9.61199
敏	-9.61222
印	-9.6124
禁	-9.61256
粉	-9.61259
共产主义	-9.61268
總	-9.61268
秀	-9.61268
げ	-9.61269
夫	-9.61272
财务	-9.61275
岸	-9.61276
模块	-9.61282
神秘	-9.61283
深刻	-9.6134
发布	-9.6138
人工智能技术	-9.61386
及其	-9.61476
其实	-9.61534
处理器	-9.61599
进化	-9.61738
一家	-9.61794
强大	-9.62139
ive	-9.62155
需要根据	-9.62173
▁arr	-9.62193
我觉得	-9.623
潜	-9.62304
松	-9.62333
牌	-9.62352
偶	-9.62365
是一款	-9.62365
避	-9.62371
頭	-9.62378
谈	-9.62379
消息队列	-9.62379
ご	-9.6238
浓	-9.6238
喝	-9.62381
優	-9.62382
坚持	-9.62397
成就	-9.62471
军事	-9.62487
光线	-9.62577
与其他	-9.62767
高度	-9.62834
是基于	-9.62883
加密	-9.63014
高级	-9.63063
位于	-9.631
你们	-9.6327
▁Co	-9.63364
尚	-9.63365
终	-9.63398
ight	-9.63438
ね	-9.63462
章	-9.63467
背	-9.63482
斗	-9.63486
依赖	-9.635
睡	-9.63501
溶	-9.63503
環境	-9.63504
視	-9.63505
革命	-9.63509
替代	-9.63517
互动	-9.63528
细节	-9.63551
求解	-9.63575
发送	-9.63625
集成	-9.63702
设施	-9.63795
for	-9.63899
最新	-9.63983
up	-9.6424
的例子	-9.64509
26	-9.64539
坚	-9.64558
京	-9.64597
顿	-9.6462
划	-9.64627
尺	-9.64635
柔	-9.64635
COSER	-9.64637
創	-9.64638
ы	-9.6464
奥	-9.64644
叶	-9.64646
發展	-9.64653
经常	-9.64686
建造	-9.64697
你想	-9.64708
在这个	-9.64725
能源	-9.64866
成立	-9.64879
Da	-9.6491
3.	-9.64987
症	-9.65008
GB	-9.65037
がある	-9.65493
ど	-9.65592
zh	-9.65631
▁1)	-9.6564
似	-9.65693
いて	-9.65748
洁	-9.65756
藏	-9.65772
遗	-9.65778
秋	-9.65783
炸	-9.65784
ジ	-9.65789
マ	-9.65789
诚	-9.65791
发挥	-9.65794
舒适	-9.65799
让你	-9.65808
どう	-9.65809
绿色	-9.65812
2022	-9.65823
它可以	-9.65835
进展	-9.65837
下面是	-9.65883
item	-9.65925
れば	-9.65992
是一個	-9.66165
英文	-9.6634
45	-9.66557
▁else	-9.66756
提供一些	-9.66871
惑	-9.66946
拿	-9.66946
ず	-9.6695
疾病	-9.66952
裡	-9.66953
欣赏	-9.66953
シ	-9.66954
额	-9.66956
超导	-9.67006
律	-9.67014
可以用于	-9.67198
将其	-9.67204
科学家	-9.67239
数据结构	-9.67292
ide	-9.67307
日期	-9.6732
可以帮助您	-9.67377
的原因	-9.67413
民族	-9.67427
ke	-9.67429
new	-9.67432
6.	-9.67444
IP	-9.6766
趋势	-9.67702
产生了	-9.67785
旅	-9.6784
办	-9.67985
そ	-9.67999
审	-9.68065
博	-9.68084
启	-9.68086
频	-9.68089
架	-9.68122
偿	-9.68124
堆	-9.68127
监督	-9.68128
Hello	-9.68129
探讨	-9.68131
摄入	-9.68133
系統	-9.68133
床	-9.68134
甲	-9.68144
解答	-9.68147
转移	-9.68175
提交	-9.68178
开展	-9.68197
常用的	-9.68216
主张	-9.68219
东方	-9.68229
提前	-9.68282
特色	-9.68302
很难	-9.6831
念	-9.68425
的答案	-9.68443
看看	-9.68551
巨大的	-9.68655
ost	-9.68778
我的回答	-9.68801
等方面的	-9.689
熟	-9.69233
户	-9.69238
彼	-9.69283
折	-9.69292
р	-9.69305
蒸	-9.69305
脸	-9.69314
Web	-9.69317
я	-9.69319
抵	-9.6932
中华人民共和国	-9.69321
积累	-9.69323
附	-9.69325
一条	-9.69341
顺序	-9.69341
语义	-9.69352
最佳	-9.69365
电视	-9.69392
香精	-9.69409
哪里	-9.6942
▁As	-9.69435
题目	-9.69493
等待	-9.69497
](	-9.69758
できる	-9.69828
另一个	-9.69865
-2	-9.69873
mp	-9.69903
表面	-9.69921
作业	-9.69931
婚礼	-9.70265
逐	-9.70492
唱	-9.705
察	-9.70505
箱	-9.70512
乱	-9.70517
街	-9.70523
燃	-9.70523
牛	-9.70523
遵循	-9.70523
车辆	-9.70529
宗李	-9.70529
轻松	-9.70541
病毒	-9.70551
漫	-9.7058
随机	-9.70587
路线	-9.70628
Wi	-9.70635
心理学	-9.70675
0.	-9.70838
っ	-9.70886
重点	-9.70896
提到	-9.70975
ことが	-9.71028
影响力	-9.7107
相对	-9.71204
action	-9.71364
特性	-9.71375
预训练	-9.71479
营	-9.71702
录	-9.71707
汤	-9.71739
恒	-9.7174
贸易	-9.7174
鼓励	-9.71742
沿	-9.71742
▁综上所述	-9.71744
无人机	-9.71744
兰	-9.71745
酱	-9.71754
伦敦桥	-9.71761
物联网	-9.71764
缓解	-9.71767
反映	-9.71772
严重	-9.71775
上面	-9.71832
指定	-9.71869
更容易	-9.71932
hash	-9.71946
教えて	-9.71991
来实现	-9.72075
晚上	-9.72117
大规模	-9.72225
最大的	-9.72505
ru	-9.72544
一位	-9.72608
称为	-9.72661
识	-9.72845
合适的	-9.72908
挑	-9.72958
欲	-9.72963
探	-9.72968
售	-9.72975
币	-9.72975
纯	-9.72977
线性代数	-9.72977
洗	-9.72978
是因为	-9.73021
客观	-9.7304
Live	-9.73049
公共	-9.73092
出版	-9.73094
▁9.	-9.73115
尽量	-9.73155
ack	-9.73257
最近	-9.73258
句子	-9.73377
最新的	-9.7361
以下是我	-9.73649
创	-9.73685
不一定	-9.74103
机器	-9.74105
21	-9.74115
える	-9.74144
tro	-9.7419
生态	-9.74214
晶	-9.74226
戴	-9.74228
у	-9.74228
к	-9.74228
True	-9.74228
缺乏	-9.74228
則	-9.74231
論	-9.74231
特摄	-9.74234
许可证	-9.74237
這個	-9.74312
英国	-9.74327
的一部分	-9.74336
(0,	-9.74415
较为	-9.74439
结婚	-9.74519
一个人	-9.74882
真正的	-9.74971
回答问题	-9.74979
还需要	-9.75006
有所	-9.75021
训练数据	-9.75215
留下	-9.75292
list	-9.75347
氣	-9.7542
紧	-9.75472
忧	-9.75477
破	-9.75487
逃	-9.75491
天气预报	-9.75492
阻	-9.75493
count	-9.75494
贴	-9.75495
岁	-9.75495
盛	-9.75496
岛	-9.75496
机械	-9.75498
そう	-9.75516
区域	-9.75516
▁希望这些	-9.75522
erson	-9.75541
以下几个方面	-9.75549
互相	-9.75553
英语	-9.75557
满意	-9.75574
生存	-9.75776
做什么	-9.75845
方程	-9.75859
ign	-9.75933
arr	-9.75945
工资	-9.76203
个体	-9.76256
55	-9.76389
特别是	-9.76518
76	-9.76534
独特	-9.76539
ratio	-9.76557
other	-9.76647
习	-9.76694
损	-9.76747
耗	-9.76755
毛	-9.76755
旧	-9.76765
君	-9.7677
試	-9.76772
比特币	-9.76773
発	-9.76773
怪	-9.76774
訓練	-9.76775
▁Chinese	-9.76775
Prolog	-9.76776
ó	-9.76776
規	-9.76776
厚	-9.76777
顶	-9.76778
承担	-9.76787
應該	-9.76791
脚本	-9.76823
应用场景	-9.76874
投入	-9.76877
key	-9.76895
神明	-9.76969
知名	-9.77019
表明	-9.77034
变得	-9.77057
你知道	-9.77243
▁It	-9.77244
建议您	-9.77311
更好地理解	-9.77361
金属	-9.77424
▁not	-9.77468
第一个	-9.77681
的情况下	-9.77865
担	-9.77989
予	-9.78007
胜	-9.78049
呼	-9.78069
仙	-9.78072
°	-9.78074
index	-9.78075
似乎	-9.78078
計算	-9.78087
律师	-9.78089
严格	-9.7809
往往	-9.78094
离婚	-9.78099
它們	-9.78122
start	-9.78142
分布	-9.78199
UI	-9.78241
再次	-9.78281
同事	-9.78286
▁以上是	-9.78298
でも	-9.78373
请你	-9.78448
令人	-9.78453
解決	-9.78469
基地	-9.78476
什么是	-9.78718
学会	-9.78735
只要	-9.78771
ian	-9.78902
做好	-9.79008
ice	-9.79146
化学	-9.79167
cal	-9.79196
符	-9.79282
ki	-9.79334
这句话	-9.79388
绕	-9.79389
金字塔	-9.7939
変	-9.79391
副	-9.79392
赠	-9.79392
逆	-9.79393
懂	-9.79394
迅速	-9.79395
审查	-9.794
年龄	-9.79401
语音识别	-9.79427
案例	-9.79434
修复	-9.79448
有所不同	-9.79494
当时	-9.7956
民主	-9.79568
重复	-9.79591
友好	-9.79635
我不能	-9.79663
公里	-9.79664
有效地	-9.79682
操作系统	-9.79698
性格	-9.79724
更改	-9.79726
祝	-9.79744
三体	-9.79939
作家	-9.79987
自行	-9.80087
需要注意	-9.80263
有用的	-9.80342
考え	-9.80394
脚	-9.8067
硬	-9.80699
翻	-9.80718
烹	-9.80719
拍	-9.80722
污染	-9.80722
谱	-9.80723
冬	-9.80723
type	-9.80724
觀	-9.80726
信仰	-9.8073
建議	-9.8074
乙	-9.80745
宗教	-9.80762
动态	-9.80805
潜力	-9.80814
哪个	-9.80855
活力	-9.80907
但它	-9.80936
low	-9.80939
5%	-9.81002
500	-9.81008
驱动	-9.81068
直到	-9.81089
是为了	-9.81104
是否有	-9.8111
内部	-9.81118
能否	-9.81122
可能會	-9.81172
帮助人们	-9.81218
一款	-9.81393
大部分	-9.81537
居民	-9.81623
用来	-9.81865
典	-9.81983
ません	-9.82018
健	-9.82047
甜	-9.82057
柳	-9.82064
坐	-9.8207
滿	-9.82074
標	-9.82074
PHP	-9.82075
CPU	-9.82075
规律	-9.82086
肯定	-9.82088
登记	-9.82093
開始	-9.82094
React	-9.82102
快乐	-9.82155
至少	-9.82203
美味	-9.82255
道路	-9.82273
更快	-9.82277
心情	-9.82612
ando	-9.8317
64	-9.83206
27	-9.83265
每个人都	-9.83367
尾	-9.83412
采用了	-9.83419
慢	-9.83421
幻	-9.83433
袭	-9.83435
潮	-9.8344
跳	-9.8344
尤其是	-9.83444
メ	-9.83444
吉	-9.83444
大多数	-9.83445
冠	-9.83448
接触	-9.83465
购物车	-9.83467
部署	-9.83468
以下几个	-9.83477
队友	-9.83482
标题	-9.83491
▁Thi	-9.83506
信号	-9.83528
集中	-9.83544
放在	-9.83559
读者	-9.83562
あなたの	-9.8357
公平	-9.83615
img	-9.83643
For	-9.83692
作為	-9.83779
说道	-9.83919
明天	-9.84063
たい	-9.84064
更好	-9.84117
bin	-9.84149
过度	-9.84152
ones	-9.84325
女性	-9.84353
银	-9.8436
不太	-9.84514
仅	-9.84816
夸	-9.84819
究	-9.84828
俄罗斯	-9.84832
锻炼	-9.84833
烧	-9.84833
World	-9.84834
Flutter	-9.84834
next	-9.84835
静脉	-9.84846
ssh	-9.84849
页面	-9.84852
健身	-9.84855
處理	-9.84857
OpenAssistant	-9.84866
放松	-9.84869
享	-9.8487
以下是一个	-9.84875
设定	-9.84883
反射	-9.84903
摘要	-9.84908
介绍一下	-9.84918
这意味着	-9.84947
主观	-9.8498
大象	-9.84985
约定	-9.85054
不良	-9.8508
物理学	-9.85081
排名	-9.85146
在一起	-9.85254
actions	-9.8526
》《	-9.85501
以来	-9.85546
ust	-9.85629
工艺	-9.86008
丽	-9.86185
杂	-9.86204
货	-9.86206
司	-9.86211
雄	-9.86216
笔	-9.86217
浪	-9.86217
译	-9.8622
赏	-9.86229
右	-9.86236
妙	-9.86238
測	-9.86238
倾	-9.86241
費	-9.86242
芯片	-9.86244
サ	-9.86245
貌	-9.86248
确认	-9.86251
共有	-9.86252
逐步	-9.86271
教程	-9.86313
接近	-9.86345
可能会导致	-9.86411
prob	-9.86419
适量	-9.86428
群体	-9.86476
单位	-9.86491
合同	-9.86554
回到	-9.86619
水分	-9.86708
有些人	-9.86766
可靠性	-9.86772
里面	-9.86779
é	-9.87196
▁hi	-9.87263
表格	-9.87271
ten	-9.87285
良	-9.87322
展现	-9.87335
能量	-9.87462
家人	-9.87555
你会	-9.87569
產	-9.8759
п	-9.87603
赛	-9.87621
顾	-9.87639
映	-9.87639
樣	-9.87643
应该是	-9.87659
卷	-9.87659
東	-9.8766
窗	-9.87665
掩	-9.87665
麻	-9.87666
製	-9.87669
HTTP	-9.8767
丁	-9.8767
折腾	-9.8767
爲	-9.87671
チ	-9.87671
寒	-9.87673
導致	-9.87674
辞	-9.87678
男孩	-9.87679
毁	-9.87679
清楚	-9.87681
母亲	-9.87683
批判	-9.87687
岗位	-9.87696
粒子	-9.87724
基因	-9.87728
打印机	-9.87735
是一名	-9.87779
范围内	-9.87783
愿意	-9.87785
入门	-9.87793
梦想	-9.87858
比例	-9.87888
明白	-9.87912
水果	-9.87935
难度	-9.87954
上升	-9.88043
35	-9.88184
也许	-9.88193
充满了	-9.88275
我们应该	-9.88477
实际情况	-9.88701
首都	-9.88738
变成	-9.88868
org	-9.8908
豪	-9.89087
阿	-9.89097
淡	-9.89101
班	-9.89101
該	-9.89105
遭	-9.89106
甘	-9.89114
馆	-9.89114
伯	-9.89114
態	-9.89117
骑	-9.89117
我会尽力	-9.89118
宁	-9.89119
玉	-9.89119
闭	-9.89119
д	-9.8912
奋	-9.89121
银河帝国	-9.89126
呼吸	-9.89128
大型语言模型	-9.89159
相似	-9.89181
偏见	-9.89189
演讲	-9.89195
虚拟世界	-9.89198
color	-9.89199
order	-9.89245
单词	-9.89257
收入	-9.89306
可以考虑	-9.89424
属性	-9.89526
自主	-9.89544
model	-9.89663
▁he	-9.89809
做法	-9.89821
▁si	-9.89826
准确性	-9.89887
成分	-9.90044
并没有	-9.90117
令	-9.90123
年代	-9.90173
术	-9.90355
采	-9.90393
计	-9.90529
束	-9.90534
阴	-9.90566
遍	-9.90573
通貨膨脹	-9.90581
滑	-9.90581
坏	-9.90584
簡	-9.90588
仪	-9.90589
迁	-9.9059
約	-9.9059
assistant	-9.9059
守	-9.9059
ほ	-9.90592
览	-9.90594
田	-9.90594
通膨	-9.9061
temp	-9.90622
文献	-9.90644
异形	-9.90659
ある	-9.9073
李明	-9.90739
太空	-9.9074
有没有	-9.90743
两国	-9.90876
23	-9.90915
因子	-9.90978
平等	-9.91026
发票	-9.91148
请问你	-9.91444
有不同的	-9.91452
top	-9.91589
观念	-9.91594
Min	-9.91709
lt	-9.91712
一个简单的	-9.91784
较大	-9.91803
巨	-9.91922
容量	-9.9193
洋	-9.92008
围	-9.92024
辣	-9.92068
残	-9.9207
闲	-9.92071
椒	-9.9208
半平面	-9.92082
戰	-9.92082
Transformer	-9.92083
蒜	-9.92083
policy	-9.92084
统计	-9.92085
浮	-9.92085
浅	-9.92089
环保	-9.92097
音频	-9.92103
形象	-9.92116
一般来说	-9.92149
工业	-9.92149
一旦	-9.92155
混合	-9.92158
28	-9.92171
▁St	-9.92174
请告诉我	-9.92322
成果	-9.92323
些	-9.92324
行程	-9.9237
有一定的	-9.92681
象	-9.92861
一步	-9.93098
▁cu	-9.93102
充电	-9.93115
確	-9.93506
聊	-9.93528
忘	-9.93578
跑	-9.93588
題	-9.93588
黑暗	-9.93592
説	-9.93597
ゃ	-9.93598
以下几点	-9.93598
博物馆	-9.93598
裁	-9.93598
MATLAB	-9.936
root	-9.936
父母	-9.936
辅助	-9.93602
役	-9.93602
森林	-9.93605
遍历	-9.93608
89	-9.93612
伤害	-9.93613
開發	-9.93628
描写	-9.93636
地址	-9.93661
福流	-9.93669
缺点	-9.93676
(2)	-9.93778
real	-9.93813
大概	-9.93905
max	-9.93917
发表	-9.93951
exp	-9.93996
女生	-9.9403
可以根据自己的	-9.94075
调用	-9.94287
了许多	-9.94351
融	-9.94793
▁los	-9.94844
财	-9.94858
著作	-9.95016
32	-9.95019
pos	-9.95036
表现出	-9.95068
義	-9.95099
绿	-9.95104
阶	-9.95111
丝	-9.95121
狗	-9.95123
伏	-9.95124
悠	-9.9513
秦	-9.95133
截	-9.95134
積	-9.95134
记忆	-9.95136
优先级	-9.95138
One	-9.95138
磁	-9.95138
葱	-9.95138
党	-9.9514
犯罪	-9.9514
誉	-9.9514
所需的	-9.95147
简洁	-9.95162
命运	-9.95163
各種	-9.95171
曾经	-9.95175
收益	-9.95178
科學	-9.95184
2021	-9.95187
答	-9.95201
签名	-9.95213
如果你想	-9.95591
价值观	-9.95744
如果您需要	-9.9595
各地	-9.95957
如何使用	-9.95981
组合	-9.96016
请问您	-9.96029
-----	-9.96141
古代	-9.96221
<	-9.96292
本地	-9.96393
学校	-9.96433
rate	-9.96495
素数	-9.96532
严	-9.96623
申	-9.96647
想象	-9.96666
障	-9.96673
圈	-9.96674
計	-9.96679
奶	-9.96688
爬	-9.96697
拌	-9.96697
涵盖	-9.96698
Linux	-9.96698
グ	-9.96699
摄像头	-9.96699
红外图像	-9.96699
オ	-9.96699
ましょう	-9.96699
委	-9.96699
宏	-9.967
村	-9.967
桃	-9.96701
肥	-9.96702
个性化	-9.96704
time	-9.96711
批评	-9.96711
辣椒	-9.96711
image	-9.96729
面试官	-9.96738
過程	-9.96746
公园	-9.96756
交换	-9.96785
ber	-9.9683
表达式	-9.96857
show	-9.96885
range	-9.96886
学科	-9.96894
提出了	-9.96918
自动化	-9.97029
全部	-9.97049
历史上	-9.97116
可能导致	-9.97231
灵感	-9.97269
相对较	-9.97414
我很	-9.97595
ite	-9.97768
rm	-9.97907
Fi	-9.97944
ば	-9.98006
角度来	-9.98071
IN	-9.98181
宋	-9.9824
触	-9.98261
童	-9.98272
搭	-9.98274
刷	-9.98276
伟	-9.98281
塔	-9.98282
’	-9.98282
轉	-9.98285
▁こんにちは	-9.98285
▁Native	-9.98287
碎	-9.98287
怎样	-9.98287
缘	-9.98289
txt	-9.98289
紧张	-9.98289
迫	-9.9829
坦	-9.98291
赛博	-9.98291
诺	-9.98291
保险	-9.98293
故障	-9.98294
显卡	-9.98303
含义	-9.98304
路径	-9.98304
经营	-9.9831
传播	-9.98314
實現	-9.98318
某种	-9.98332
试图	-9.98343
联合	-9.9838
步道	-9.98499
失去	-9.98504
性质	-9.98555
理想	-9.98625
主流	-9.98655
自信	-9.98811
49	-9.98951
都市	-9.99123
format	-9.99167
运用	-9.99191
资金	-9.99416
敌	-9.99511
http	-9.99515
闻	-9.99828
帝	-9.99845
串	-9.99865
母	-9.9988
康	-9.9988
夏	-9.9989
遊	-9.99894
斜	-9.99894
壮	-9.99895
棋	-9.99895
噪	-9.99896
編	-9.99899
like	-9.999
VPN	-9.99901
バ	-9.99901
汁	-9.99901
苹果	-9.99901
屏幕	-9.99901
教授	-9.99903
火焰	-9.99904
▁this	-9.99905
邮件	-9.99905
捐精	-9.99905
改革	-9.9991
東京	-9.99912
解析	-9.99913
插件	-9.99914
佛教	-9.99915
账户	-9.99919
博客	-9.99923
認為	-9.99928
分布式	-9.99938
战略	-9.99945
温暖	-9.99949
指的是	-9.99953
原始	-9.99954
照片	-9.99958
季节	-9.99973
完美	-9.99973
积分	-9.99986
主板	-9.99989
期望	-10.0002
看待	-10.0003
基础知识	-10.0003
统一	-10.0004
mini	-10.0005
长春	-10.0006
▁characters	-10.0009
inter	-10.0013
空方	-10.0017
url	-10.0018
▁ne	-10.0019
▁your	-10.0021
这使得	-10.0028
指出	-10.0056
这两个	-10.0057
创建一个	-10.0062
也就是	-10.0066
典型	-10.0072
ther	-10.0073
{}	-10.0076
iz	-10.0078
给您	-10.0088
▁那你	-10.0089
那个	-10.0092
巨大	-10.0097
症状	-10.01
著名	-10.0106
展开	-10.0131
转换	-10.0142
智	-10.0144
衡	-10.0144
非常重要	-10.015
寻	-10.0151
距	-10.0152
课	-10.0153
愁	-10.0153
聞	-10.0153
抄	-10.0153
嫩	-10.0153
惠	-10.0153
同性恋	-10.0154
缓冲	-10.0154
尋	-10.0154
湿	-10.0154
ウ	-10.0154
▁hiragana	-10.0154
焦虑	-10.0154
夫妻共同财产	-10.0154
task	-10.0154
破坏	-10.0154
代碼	-10.0155
遗产	-10.0155
休息	-10.0156
工程师	-10.0157
记住	-10.0157
约束	-10.0157
广告	-10.0157
load	-10.0158
品牌	-10.0158
权益	-10.0159
イン	-10.0161
超越	-10.0162
期待	-10.0163
整数	-10.0174
公元	-10.0176
▁const	-10.0176
爱情	-10.0176
稳定性	-10.0186
理由	-10.0191
好处	-10.0199
node	-10.02
智能化	-10.0215
如此	-10.0233
可以让你	-10.0241
分解	-10.0271
over	-10.0277
gen	-10.0291
nn	-10.0296
执	-10.031
意味着	-10.0311
患	-10.0313
顺	-10.0315
缓	-10.0315
でしょう	-10.0315
染	-10.0317
資	-10.0317
谷	-10.0319
股	-10.032
迎	-10.032
厂	-10.032
绘	-10.032
赫	-10.032
GPU	-10.032
CLIP	-10.0321
down	-10.0321
峰	-10.0321
token	-10.0321
摄影	-10.0321
庆	-10.0321
普遍	-10.0321
任務	-10.0321
老师	-10.0328
平均	-10.033
重大	-10.0331
具体情况	-10.0336
什么样的	-10.034
感知	-10.0343
前景	-10.035
投资者	-10.0353
ish	-10.0355
物品	-10.0355
個人	-10.0359
ただ	-10.0359
2000	-10.0361
有趣	-10.0364
含有	-10.0376
更适合	-10.0378
线性	-10.0401
▁let	-10.0401
成都	-10.0412
▁10.	-10.0442
可以用来	-10.0454
cv	-10.0465
在这里	-10.0484
報	-10.0485
败	-10.0487
驾驶	-10.0488
携	-10.0489
皇	-10.0489
赋	-10.0489
主人公	-10.049
rustup	-10.049
heap	-10.049
润	-10.049
被视为	-10.049
渡	-10.049
意大利	-10.049
鸭	-10.049
脆	-10.049
土壤	-10.049
销售	-10.049
異	-10.049
師	-10.049
悬	-10.049
▁than	-10.0491
冰箱	-10.0491
......	-10.0492
法律法规	-10.0492
伦理	-10.0493
期货	-10.0494
彼此	-10.0494
研发	-10.0494
食材	-10.0495
突出	-10.0496
结论	-10.0497
笑话	-10.0499
生态系统	-10.0499
思路	-10.0501
表演	-10.0504
医学	-10.051
正式	-10.0511
这段	-10.0513
达成	-10.0516
生物学	-10.0516
还没有	-10.0517
你说的	-10.0523
好奇	-10.0527
js	-10.0529
绝对	-10.0532
79	-10.0538
人間	-10.0556
我知道	-10.057
__(	-10.0571
描述了	-10.0573
第三方	-10.0602
是谁	-10.0612
女人	-10.0626
成员	-10.0628
真人	-10.0636
幸	-10.0659
圖	-10.0659
蓝	-10.0659
抑	-10.066
焦	-10.066
引擎	-10.0661
滴	-10.0662
坑	-10.0662
磨	-10.0662
志愿者	-10.0662
▁对不起	-10.0662
錯	-10.0663
接下来	-10.0663
匹配	-10.0663
乳	-10.0663
氛围	-10.0663
提醒	-10.0664
购物	-10.0665
显著	-10.0665
になる	-10.0667
施工	-10.0667
適合	-10.067
信任	-10.067
明显	-10.0671
然後	-10.0672
工程项目	-10.0679
發生	-10.0682
語言模型	-10.0685
易于	-10.0696
一场	-10.071
列出	-10.0715
准备好	-10.0716
还有其他	-10.0729
很高	-10.075
长度	-10.0751
数据分析	-10.0767
cla	-10.0772
まで	-10.0788
Ace	-10.079
没有任何	-10.0794
参	-10.0802
互	-10.0813
规	-10.0817
环	-10.0829
写作	-10.0831
舒	-10.0833
插	-10.0834
估	-10.0835
储	-10.0836
word	-10.0836
伙伴	-10.0838
辛	-10.0838
Z	-10.0838
陽	-10.0838
鴨	-10.0838
根據	-10.0838
对你有所帮助	-10.0838
BERT	-10.0838
random	-10.0838
label	-10.0838
薄	-10.0838
領域	-10.0838
驗	-10.0838
萨	-10.0838
铁拳	-10.0839
善良	-10.0839
讯	-10.0839
舟	-10.0839
密码	-10.084
损失	-10.084
怎么样	-10.0841
协商	-10.0841
精准	-10.0843
ありません	-10.0846
成熟	-10.0847
主角	-10.0849
最著名的	-10.0851
消费者	-10.0851
红色	-10.0852
报道	-10.0856
带来了	-10.0858
发达	-10.0859
景点	-10.0864
热量	-10.0871
Rust	-10.0873
爱好	-10.0877
代码块	-10.0886
一座	-10.0887
钟	-10.0894
ué	-10.0897
()`	-10.091
你应该	-10.0924
有意义的	-10.0941
<=	-10.0945
多样	-10.0951
duc	-10.0954
一套	-10.0995
init	-10.1001
研	-10.101
理性	-10.1014
議	-10.1014
亡	-10.1015
凉	-10.1015
盖	-10.1015
搞	-10.1016
幅	-10.1016
扬	-10.1016
姿	-10.1016
氧	-10.1016
隆	-10.1016
抱	-10.1016
コ	-10.1016
闪	-10.1016
覺	-10.1016
渗透	-10.1016
考慮	-10.1016
▁不客气	-10.1016
CISC	-10.1017
エ	-10.1017
ミ	-10.1017
科研	-10.1017
盾	-10.1017
几乎	-10.1018
知乎	-10.1018
web	-10.1018
气象	-10.102
这段代码	-10.1021
组件	-10.1022
でしょうか	-10.1022
”、“	-10.1024
回应	-10.1039
塑造	-10.104
复制	-10.104
春天	-10.1041
样本	-10.1043
lan	-10.1044
一種	-10.1046
时刻	-10.1048
人工智能助手	-10.1049
だけ	-10.1057
要素	-10.1059
sub	-10.1065
要注意	-10.1079
一件	-10.1086
expr	-10.1097
写一篇	-10.1112
这就是	-10.1121
靠	-10.113
趣	-10.1133
user	-10.1136
人工智能系统	-10.114
不确定	-10.1154
SE	-10.1161
现场	-10.1163
决	-10.1181
郡	-10.1189
佳	-10.1189
宿	-10.119
仓	-10.1192
自动驾驶	-10.1193
郎	-10.1197
痛苦	-10.1197
attention	-10.1197
攻	-10.1197
洲	-10.1197
蜜	-10.1198
單	-10.1198
門	-10.1198
纸	-10.1198
抽象	-10.1198
title	-10.1198
鼠	-10.1198
拼	-10.1198
呈现	-10.1199
继承	-10.1199
sort	-10.1199
的重要性	-10.12
放弃	-10.12
失败	-10.12
乐趣	-10.12
被认为是	-10.1201
比較	-10.1201
▁你是谁	-10.1203
色彩	-10.1203
农业生产	-10.1204
办理	-10.1204
帝国	-10.1204
社會	-10.1204
网上	-10.1205
根本	-10.1208
这本书	-10.1209
更大的	-10.1211
rand	-10.1219
许可	-10.1221
走向	-10.1226
无线	-10.1229
一篇	-10.1233
ated	-10.1241
などの	-10.1243
处于	-10.125
base	-10.1252
引用	-10.1264
小吃	-10.1264
保留	-10.1266
推出	-10.1269
实际上	-10.1284
ance	-10.1306
加速	-10.1307
施	-10.1329
▁del	-10.1333
购	-10.1377
献	-10.1378
伦	-10.138
湘	-10.1381
陈	-10.1382
醒	-10.1383
仿佛	-10.1383
栏	-10.1383
炎	-10.1383
生酮饮食	-10.1383
へ	-10.1383
読	-10.1383
openpyxl	-10.1383
@	-10.1384
誰	-10.1384
颗	-10.1384
爆炸	-10.1384
魅力	-10.1384
mask	-10.1384
跟踪	-10.1384
肌肉	-10.1384
旋律	-10.1384
交割	-10.1384
浏览器	-10.1384
预计	-10.1386
大纲	-10.1386
疫情	-10.1388
卡门	-10.1388
交往	-10.1389
推广	-10.139
航空	-10.139
直线	-10.1391
关键词	-10.1391
しました	-10.1391
許多	-10.1392
供应	-10.1393
不同类型的	-10.1394
指南	-10.1399
电源	-10.1402
原油	-10.1404
无限	-10.1404
用户体验	-10.1408
分配	-10.1414
从事	-10.1418
29	-10.1421
一边	-10.1431
39	-10.1448
同意	-10.1455
主体	-10.1455
一门	-10.1463
等多种	-10.1479
んだ	-10.1549
账	-10.1571
漏	-10.1572
LGBT	-10.1572
熱	-10.1572
ム	-10.1572
html	-10.1572
language	-10.1572
覆	-10.1572
纠	-10.1572
黑百合	-10.1572
镜	-10.1572
幽默	-10.1572
キ	-10.1572
sheet	-10.1572
艰	-10.1572
New	-10.1572
脂肪	-10.1572
知識	-10.1572
检索	-10.1573
活跃	-10.1573
虚构	-10.1573
审核	-10.1574
登录	-10.1574
查找	-10.1575
标注	-10.1576
减轻	-10.1576
终端	-10.1576
儒家	-10.1576
指示	-10.1578
ート	-10.1578
事故	-10.158
對話	-10.1583
唯一	-10.1585
激发	-10.1586
math	-10.1587
看起来	-10.1588
される	-10.1595
拓展	-10.1606
中国大陆	-10.1633
可以参考	-10.1643
长时间	-10.1662
my	-10.1669
庭	-10.1746
陆	-10.1746
することで	-10.1749
稳	-10.1761
灭	-10.1762
是一位	-10.1763
宜	-10.1763
猜	-10.1764
侵	-10.1764
デ	-10.1764
ペ	-10.1764
危险	-10.1764
負	-10.1764
这首诗	-10.1764
微積分	-10.1764
HTML	-10.1764
entropy	-10.1764
Function	-10.1764
姓	-10.1764
刀	-10.1765
Max	-10.1765
强烈	-10.1765
依据	-10.1766
資料	-10.1767
聊天机器人	-10.1768
符号	-10.1768
正確	-10.1768
微信	-10.1772
爱好者	-10.1772
歌曲	-10.1774
微调	-10.1776
接收	-10.1776
以下步骤	-10.1776
公众	-10.1777
立场	-10.178
被称为	-10.178
动画	-10.1781
used	-10.1788
西方	-10.1793
Code	-10.1795
之处	-10.1806
适用	-10.1813
就像	-10.1829
中国古代	-10.1839
][	-10.1843
360	-10.1847
不断地	-10.1874
这次	-10.1877
之外	-10.1888
大陆	-10.1915
声音	-10.1924
候	-10.1928
▁use	-10.1931
のような	-10.195
父	-10.1958
CNN	-10.1959
專	-10.196
敬	-10.196
溯	-10.196
光刻机	-10.196
work	-10.196
碳	-10.196
獨	-10.196
俄	-10.196
戶	-10.196
×	-10.196
镇	-10.1961
勺	-10.1961
Markdown	-10.1961
双边关系	-10.1961
む	-10.1961
孔	-10.1961
ろ	-10.1961
狱	-10.1961
稱	-10.1961
[0]	-10.1961
电池	-10.1961
互换	-10.1962
节奏	-10.1963
蓝色	-10.1964
历程	-10.1965
自动驾驶系统	-10.1968
审美	-10.1968
计算机科学	-10.1969
並且	-10.1969
办法	-10.1971
如果没有	-10.1974
支持多种	-10.1978
iOS	-10.1979
集合	-10.198
白色	-10.1985
创造力	-10.1998
2*	-10.1999
主动	-10.2005
Go	-10.202
篇文章	-10.2033
基本概念	-10.2037
私の	-10.2041
合成	-10.2069
print	-10.209
源代码	-10.2111
Mac	-10.2127
昌	-10.2156
危	-10.2156
秘	-10.2157
递	-10.2159
哥	-10.2159
複雜	-10.216
抓	-10.216
伸	-10.216
剪	-10.216
圣	-10.216
疲	-10.216
向我提问	-10.216
辈	-10.2161
芳	-10.2161
Image	-10.2161
なります	-10.2161
娘	-10.2161
RISC	-10.2161
かもしれません	-10.2161
遠	-10.2161
▁make	-10.2161
伊	-10.2161
菊花	-10.2161
慢慢	-10.2161
聪明	-10.2161
注册	-10.2161
环评	-10.2161
阵	-10.2161
樂	-10.2161
耳	-10.2161
注销	-10.2161
绩	-10.2162
晚餐	-10.2163
目录	-10.2163
about	-10.2164
问答	-10.2164
夫妻双方	-10.2164
集团	-10.2165
唐朝	-10.2165
境界	-10.2167
维持	-10.2169
唐代	-10.2171
波动	-10.2172
未知	-10.2172
阳光	-10.2172
克服	-10.2172
分支	-10.2178
少女	-10.2181
常见	-10.2184
引发	-10.2187
级别	-10.2202
义务	-10.2205
早上	-10.2244
しています	-10.2277
");	-10.2294
官网	-10.2302
あなた	-10.2324
できます	-10.2344
构	-10.2349
获	-10.235
▁has	-10.2353
娜	-10.2362
孤	-10.2363
累	-10.2364
祖	-10.2364
逼	-10.2364
洛	-10.2364
招	-10.2364
罚	-10.2364
贯	-10.2364
奔	-10.2364
剩	-10.2365
々	-10.2365
齐	-10.2365
畫	-10.2365
興	-10.2365
パ	-10.2365
▁have	-10.2365
职责	-10.2365
释放	-10.2365
ット	-10.2366
搭配	-10.2366
ック	-10.2367
机器翻译	-10.2367
配偶	-10.2367
百科	-10.2368
流畅	-10.2368
推断	-10.2368
關係	-10.2369
結果	-10.2369
专门	-10.2369
永远	-10.2369
相互作用	-10.2369
情報	-10.2369
普及	-10.237
样式	-10.2371
请问有什么	-10.2371
あなたは	-10.2377
层次	-10.2381
预期	-10.2382
どこ	-10.2383
接口	-10.2384
你也可以	-10.2384
离开	-10.2384
测量	-10.2393
类似于	-10.2395
并将其	-10.2397
分散	-10.2397
なら	-10.2407
">	-10.2417
ple	-10.2417
还有什么	-10.2426
将军	-10.2429
太多	-10.244
std	-10.2446
300	-10.2481
▁You	-10.2487
ることができ	-10.2498
400	-10.2499
意识到	-10.2531
是一个开源的	-10.2544
梦	-10.2545
関	-10.2551
返	-10.2563
尊	-10.2568
認	-10.2569
員	-10.2571
屏	-10.2571
朗	-10.2573
埃	-10.2573
摩	-10.2573
徐	-10.2573
indices	-10.2573
▁utiliza	-10.2573
幻想生物	-10.2573
body	-10.2573
瓦	-10.2573
workbook	-10.2573
項	-10.2573
actor	-10.2573
菌	-10.2573
▁Neo	-10.2573
欠	-10.2573
红外目标识别	-10.2573
詞	-10.2573
細	-10.2573
欧洲	-10.2573
房产	-10.2576
宋词	-10.2576
圖像	-10.2577
相關	-10.2579
感染	-10.2579
另一种	-10.2582
跨平台	-10.2582
想象力	-10.2583
あなたが	-10.2583
解释一下	-10.2584
优质	-10.2586
花费	-10.2586
立即	-10.259
重视	-10.2595
微服务	-10.2599
今日	-10.2605
case	-10.2611
相反	-10.2614
文物	-10.2634
美学	-10.2637
这是因为	-10.2673
form	-10.2728
希望能	-10.274
很重要	-10.2749
每个人	-10.2751
AR	-10.2754
許	-10.2775
成绩	-10.2781
操	-10.2781
較	-10.2781
软	-10.2782
勇	-10.2782
希	-10.2784
诸	-10.2784
梁	-10.2784
節	-10.2784
妻	-10.2785
鐵	-10.2785
眠	-10.2785
兒	-10.2785
晴	-10.2786
去中心化	-10.2786
隨	-10.2786
碧	-10.2786
維	-10.2786
clip	-10.2786
刺激	-10.2786
誤	-10.2786
LangChain	-10.2786
鲁	-10.2786
ベ	-10.2786
仕	-10.2786
will	-10.2786
寄	-10.2786
倡	-10.2786
新能源车	-10.2786
牛奶	-10.2786
违反	-10.2787
節點	-10.2787
戒指	-10.2787
响应	-10.2788
欲望	-10.2788
拆解	-10.2788
んでい	-10.2789
评论	-10.2791
调查	-10.2791
密切	-10.2792
這種	-10.2793
理念	-10.2793
也就是说	-10.2795
哪种	-10.2795
黄色	-10.2798
無法	-10.2802
计算资源	-10.2809
最初	-10.2814
大致	-10.2821
完成任务	-10.2843
电力	-10.2851
道家	-10.2854
If	-10.2857
否	-10.286
形态	-10.2861
内心	-10.2869
何か	-10.2914
▁How	-10.2964
面积	-10.2967
信心	-10.2987
摘	-10.2991
签	-10.2991
弟	-10.2998
處	-10.2999
拒绝	-10.3001
府	-10.3001
债	-10.3001
恋	-10.3002
脉	-10.3002
倍	-10.3002
DevOps	-10.3003
Project	-10.3003
凝	-10.3003
诱	-10.3003
吐	-10.3003
request	-10.3003
可持续发展	-10.3003
hysics	-10.3003
墓	-10.3003
至关重要	-10.3003
公积金	-10.3003
初学者	-10.3003
诊断	-10.3003
冒	-10.3003
続	-10.3003
対	-10.3003
皇帝	-10.3003
恩	-10.3003
び	-10.3003
観	-10.3004
突破	-10.3004
代谢	-10.3004
覆盖	-10.3004
粉丝	-10.3004
标签	-10.3004
歧视	-10.3004
运营	-10.3005
▁more	-10.3005
紧密	-10.3005
为用户提供	-10.3006
违法	-10.3006
形状	-10.3009
升级	-10.3009
敏感	-10.3011
平仓	-10.3012
黑色	-10.3012
固定	-10.3013
台北	-10.3014
人們	-10.3015
我可以为您	-10.3018
各国	-10.303
Ho	-10.3032
中国速度	-10.3035
敌人	-10.3055
精度	-10.3056
BT	-10.311
test	-10.3115
想起	-10.3124
概率	-10.3194
统	-10.3199
征	-10.3222
访	-10.3222
兵	-10.3224
煎	-10.3224
竞	-10.3224
飘	-10.3225
细胞	-10.3225
粗	-10.3225
哀	-10.3225
皆	-10.3225
局限性	-10.3225
乌	-10.3225
麼	-10.3225
闰	-10.3225
雾	-10.3225
鼓	-10.3225
实验室	-10.3225
谜	-10.3225
ь	-10.3225
联邦政府	-10.3225
vector	-10.3225
迪	-10.3225
False	-10.3225
泉	-10.3225
租	-10.3225
喻	-10.3225
胡	-10.3225
叹	-10.3226
晨	-10.3226
尤	-10.3226
mark	-10.3226
骨	-10.3226
脂	-10.3226
涨	-10.3226
突然	-10.3226
安裝	-10.3227
▁but	-10.3227
植物	-10.3228
总统	-10.3228
決定	-10.3228
暂时	-10.323
现有的	-10.3231
耐心	-10.3231
开发人员	-10.3236
示例代码	-10.3239
早期	-10.3241
2020	-10.3241
认可	-10.3245
之间的关系	-10.3247
口味	-10.3248
第一次	-10.325
取代	-10.3251
公正	-10.3252
长江	-10.3255
热情	-10.3255
2019	-10.3259
区分	-10.3266
多样性	-10.327
策	-10.3287
承认	-10.3295
融合	-10.3359
Int	-10.3388
祝你	-10.3391
▁function	-10.3402
高性能	-10.3422
确	-10.3432
輸	-10.3448
ありますか	-10.3449
荒	-10.3452
欺	-10.3452
马来西亚	-10.3452
GPL	-10.3452
翅	-10.3452
韩	-10.3452
Android	-10.3452
这首曲子	-10.3453
どんな	-10.3453
林黛玉	-10.3453
▁sentence	-10.3453
question	-10.3453
world	-10.3453
載	-10.3453
っている	-10.3453
餐厅	-10.3453
纪念	-10.3453
御	-10.3453
ハイエナ	-10.3453
價格	-10.3453
專業	-10.3454
父亲	-10.3454
しかし	-10.3455
模板	-10.3455
四川	-10.3456
輸入	-10.3457
视角	-10.3459
影片	-10.346
线程	-10.3463
的可能性	-10.3466
选择合适的	-10.3466
进程	-10.3469
研究人员	-10.3471
してください	-10.3506
实力	-10.3519
整合	-10.3571
ado	-10.3596
</	-10.3645
割	-10.367
耐	-10.3679
替	-10.368
疫	-10.368
吹	-10.3682
導	-10.3684
框	-10.3684
赔	-10.3685
帶	-10.3685
雅	-10.3685
刘慈欣	-10.3685
酷	-10.3685
simpleFoam	-10.3685
嫁妆	-10.3685
莱	-10.3685
聲	-10.3685
▁English	-10.3685
▁japonés	-10.3685
system	-10.3685
分辨率	-10.3685
十字路口	-10.3685
楽	-10.3685
模仿	-10.3685
範	-10.3685
ビ	-10.3685
Space	-10.3685
愉快	-10.3685
効	-10.3686
灰	-10.3686
描绘	-10.3686
張	-10.3686
拂	-10.3686
戒烟	-10.3686
bnt	-10.3686
印象	-10.3686
传输	-10.3686
始终	-10.3687
缓冲液	-10.3687
过滤	-10.3688
微积分	-10.3688
共识	-10.3689
早餐	-10.369
海洋	-10.369
商业模式	-10.3691
居住	-10.3691
но	-10.3692
比赛	-10.3692
创意	-10.3695
担心	-10.3696
开源社区	-10.3697
修正	-10.3699
是非常重要的	-10.3699
输出结果	-10.3699
▁err	-10.3702
たら	-10.3703
显示器	-10.3706
北方	-10.3707
本书	-10.3709
品质	-10.371
味道	-10.3711
高速	-10.3716
观看	-10.3719
定位	-10.3734
functions	-10.3738
法规	-10.3745
----	-10.3765
资本	-10.381
あります	-10.3846
图形	-10.3863
描	-10.3918
实例	-10.392
宣	-10.3921
幫	-10.3922
珍	-10.3922
雲	-10.3923
欧	-10.3923
備	-10.3923
邦	-10.3923
顯	-10.3923
周杰伦	-10.3923
哥德尔	-10.3923
专业人士	-10.3923
product	-10.3923
チョコレート	-10.3923
board	-10.3923
负面影响	-10.3923
Redis	-10.3923
宫	-10.3923
贝	-10.3923
層	-10.3923
初始化	-10.3923
簡單	-10.3923
拖	-10.3923
回忆	-10.3924
坛	-10.3924
杨	-10.3924
赤	-10.3924
秦始皇兵马俑	-10.3924
矿	-10.3924
奶粉	-10.3924
秘密	-10.3924
姆	-10.3925
Unity	-10.3925
优缺点	-10.3926
考试	-10.3926
胜利	-10.3927
穿越	-10.3929
OS	-10.3931
dden	-10.3931
さん	-10.3931
那样	-10.3934
▁dist	-10.3934
UX	-10.3934
便利	-10.3935
一段时间	-10.3939
表現	-10.394
开创	-10.3941
人类文明	-10.3943
各类	-10.3944
月份	-10.3946
类别	-10.3946
eam	-10.3951
意味	-10.3955
▁Un	-10.3984
字符	-10.4104
您想要	-10.415
籍	-10.4155
竟	-10.4164
汽	-10.4164
麦	-10.4165
锋	-10.4165
详	-10.4166
填	-10.4166
乌克兰	-10.4167
執	-10.4167
ブ	-10.4167
梨	-10.4167
Text	-10.4167
挺	-10.4167
拜	-10.4167
й	-10.4167
nginx	-10.4167
庫	-10.4167
朵	-10.4167
人际关系	-10.4167
短暂	-10.4167
驶	-10.4167
ナ	-10.4167
狀	-10.4167
蒙	-10.4167
▁está	-10.4167
冒险	-10.4167
▁desu	-10.4168
▁非常抱歉	-10.4168
Plus	-10.4168
仔细	-10.4168
済	-10.4168
さらに	-10.4168
ティ	-10.4168
ould	-10.4168
玻	-10.4168
兴趣爱好	-10.417
怎么办	-10.417
スト	-10.4171
消耗	-10.4171
的基础上	-10.4172
建模	-10.4174
定律	-10.4176
认真	-10.4177
权威	-10.4177
引导	-10.4178
第五	-10.4179
良い	-10.418
具体来说	-10.418
抱歉	-10.418
回报	-10.4189
撰写	-10.4191
来自于	-10.4193
日程	-10.4203
rsa	-10.4224
段落	-10.4229
でした	-10.4252
发展趋势	-10.4257
现实世界	-10.4308
婚姻法	-10.4312
ize	-10.4327
Ha	-10.438
答え	-10.4389
技	-10.4402
混	-10.4404
关汉卿	-10.441
乎	-10.4411
革	-10.4415
慰	-10.4415
催	-10.4415
川	-10.4415
Chat	-10.4415
猎	-10.4415
陷	-10.4416
連	-10.4416
邊	-10.4417
級	-10.4417
術	-10.4417
恰	-10.4417
訂	-10.4417
莫	-10.4417
醬	-10.4417
转化为	-10.4417
換	-10.4417
狼	-10.4417
繁體中文	-10.4417
莉	-10.4417
魂	-10.4417
砂	-10.4417
SQL	-10.4417
聯	-10.4417
巧克力	-10.4417
对您有所帮助	-10.4417
ありがとうございます	-10.4417
ublic	-10.4417
是否犯法	-10.4417
荷	-10.4417
▁number	-10.4417
信用卡	-10.4417
作为一名	-10.4417
tensor	-10.4417
▁Here	-10.4417
妈妈	-10.4417
抒	-10.4417
席	-10.4417
view	-10.4417
渠道	-10.4417
華	-10.4417
WLAN	-10.4417
被誉为	-10.4418
ぎ	-10.4418
缴纳	-10.4418
ズ	-10.4418
黨	-10.4418
揭示	-10.4418
邀请	-10.4418
幾個	-10.4419
失恋	-10.4419
折射	-10.4419
顺利	-10.4421
环节	-10.4422
確定	-10.4424
語音	-10.4425
指标	-10.4425
变得更加	-10.4426
來說	-10.4428
言語	-10.4428
保证金	-10.4431
產生	-10.4431
空格	-10.4431
場所	-10.4433
穿过	-10.4435
pip	-10.4438
long	-10.4439
时尚	-10.4446
自動	-10.4454
OR	-10.4463
道理	-10.4463
rial	-10.4468
▁len	-10.4641
run	-10.4648
畅	-10.4668
от	-10.4669
岗	-10.4669
公斤	-10.4669
佛	-10.4672
跃	-10.4672
袖	-10.4672
糊	-10.4672
墙	-10.4673
テ	-10.4673
番	-10.4673
崇	-10.4673
扣	-10.4673
宪	-10.4673
渗流系数	-10.4673
プラスチック	-10.4673
秦始皇	-10.4673
離	-10.4673
姐	-10.4673
逝	-10.4673
投掷	-10.4674
ч	-10.4674
OpenWrt	-10.4674
▁school	-10.4674
graph	-10.4674
秩序	-10.4674
▁indica	-10.4674
護	-10.4674
踏	-10.4674
兼	-10.4674
釋	-10.4674
姜	-10.4674
井	-10.4674
様	-10.4674
準備	-10.4674
LLM	-10.4674
詳細	-10.4674
纵	-10.4674
撒	-10.4674
▁some	-10.4674
瓶	-10.4674
繁荣	-10.4675
促進	-10.4675
士兵	-10.4675
递归	-10.4676
減少	-10.4676
气候	-10.4676
停止	-10.4677
思念	-10.4677
广东	-10.4682
less	-10.4684
列举	-10.4685
grad	-10.4687
Time	-10.4688
武器	-10.4688
身边	-10.4689
叫做	-10.4691
情境	-10.4692
未來	-10.4693
拥	-10.4773
唯	-10.4918
孩	-10.4921
終	-10.493
订	-10.4932
促	-10.4933
肠	-10.4934
腿	-10.4935
冥	-10.4935
歷	-10.4935
準	-10.4936
圍	-10.4937
殖	-10.4937
傳	-10.4937
協	-10.4937
溫	-10.4937
斷	-10.4937
極	-10.4937
仁	-10.4937
漢	-10.4937
扫	-10.4937
枝	-10.4937
锁	-10.4937
墨	-10.4938
稻	-10.4939
般	-10.5187
粒	-10.5196
價	-10.5201
奏	-10.5204
肝	-10.5205
烂	-10.5205
纪	-10.5205
嘴	-10.5205
歧	-10.5205
胆	-10.5206
援	-10.5206
萬	-10.5206
膜	-10.5206
號	-10.5207
親	-10.5207
赢	-10.5207
泊	-10.5207
湯	-10.5207
醫	-10.5207
秒	-10.5207
證	-10.5207
谋	-10.5207
尿	-10.5207
卓	-10.5207
糕	-10.5207
緒	-10.5207
杜	-10.5207
戦	-10.5207
掌	-10.5207
劲	-10.5207
塞	-10.5207
曼	-10.5208
饱	-10.5208
沒	-10.5442
屈	-10.548
罪	-10.5484
幕	-10.5484
勤	-10.5485
聘	-10.5485
冻	-10.5485
佩	-10.5485
哦	-10.5485
訊	-10.5485
劃	-10.5485
ネ	-10.5485
燕	-10.5485
捷	-10.5485
輪	-10.5485
買	-10.5485
夹	-10.5485
働	-10.5485
図	-10.5485
挂	-10.5485
購	-10.5485
针	-10.5724
概	-10.575
档	-10.5766
設	-10.5766
销	-10.5767
检	-10.5768
泛	-10.5769
屋	-10.5769
旱	-10.577
荣	-10.577
凭	-10.577
鞋	-10.577
届	-10.577
丹	-10.577
裤	-10.577
碗	-10.577
冯	-10.577
勒	-10.577
稿	-10.5771
談	-10.5771
丘	-10.5771
腹	-10.5771
ピ	-10.5771
纷	-10.5771
～	-10.5771
迟	-10.5771
ニ	-10.5771
獲	-10.5771
庞	-10.5771
猪	-10.5772
甚	-10.6059
署	-10.606
径	-10.6061
另	-10.6061
涉	-10.6062
晋	-10.6063
啥	-10.6064
ぜ	-10.6064
刑	-10.6064
仲	-10.6064
澳	-10.6064
鮮	-10.6064
迈	-10.6064
夺	-10.6064
橙	-10.6065
葉	-10.6065
傍	-10.6065
ж	-10.6065
х	-10.6065
飯	-10.6065
岩	-10.6065
穩	-10.6065
虫	-10.6065
複	-10.6065
昂	-10.6066
亏	-10.6066
默	-10.6234
艺	-10.6359
決	-10.636
添	-10.6363
荡	-10.6363
怕	-10.6364
亦	-10.6365
撞	-10.6365
港	-10.6365
丧	-10.6365
幾	-10.6366
劣	-10.6366
励	-10.6367
統	-10.6367
玄	-10.6367
削	-10.6367
氏	-10.6367
徒	-10.6367
振	-10.6367
讀	-10.6367
尖	-10.6367
辦	-10.6368
儲	-10.6368
蜂	-10.6368
😊	-10.6368
絡	-10.6368
—	-10.6368
披	-10.6368
欣	-10.6368
刊	-10.6368
愈	-10.6368
セ	-10.6368
暮	-10.6368
叛	-10.6369
儒	-10.6674
己	-10.6676
巧	-10.6678
稍	-10.6679
笼	-10.6679
练	-10.6679
漠	-10.6679
乔	-10.6679
旋	-10.6679
梯	-10.6679
勃	-10.668
搜	-10.668
兄	-10.668
泰	-10.668
碰	-10.668
翠	-10.668
込	-10.668
牙	-10.668
偷	-10.668
腦	-10.668
癌	-10.668
坡	-10.668
梅	-10.668
契	-10.6681
衰	-10.6681
赚	-10.6681
拓	-10.6944
戏	-10.6971
旦	-10.6984
址	-10.6988
妓	-10.6992
响	-10.6998
况	-10.6998
锦	-10.7
醉	-10.7
減	-10.7
扎	-10.7
攀	-10.7
戒	-10.7
肃	-10.7
擁	-10.7001
侠	-10.7002
兽	-10.7002
辅	-10.7002
丛	-10.7002
苗	-10.7002
ぶ	-10.7002
泄	-10.7003
陪	-10.7003
粘	-10.7003
滚	-10.7003
産	-10.7003
燥	-10.7003
覚	-10.7003
抚	-10.7003
斑	-10.7003
幼	-10.7003
阅	-10.7004
淋	-10.7004
敢	-10.7332
孟	-10.7333
卵	-10.7333
楚	-10.7333
蕴	-10.7333
厅	-10.7335
奠	-10.7335
瓜	-10.7335
尝	-10.7335
卧	-10.7335
乃	-10.7335
刺	-10.7335
瑞	-10.7335
慌	-10.7336
震	-10.7336
碑	-10.7336
辨	-10.7336
練	-10.7336
詢	-10.7336
摇	-10.7336
僕	-10.7336
狂	-10.7336
眾	-10.7336
傲	-10.7336
魚	-10.7336
巡	-10.7336
旁	-10.7336
盲	-10.7336
寂	-10.7336
宅	-10.7337
逛	-10.7337
穷	-10.7337
邪	-10.7337
→	-10.7337
垂	-10.7337
劳	-10.7504
陶	-10.7677
吴	-10.7679
钻	-10.7679
咸	-10.768
玛	-10.768
疹	-10.768
握	-10.768
纤	-10.768
樹	-10.7681
督	-10.7681
ソ	-10.7681
旗	-10.7681
尘	-10.7681
續	-10.7681
願	-10.7681
疼	-10.7681
媽	-10.7681
堅	-10.7681
贫	-10.7681
÷	-10.7681
拔	-10.7681
鳥	-10.7681
ダ	-10.7681
壁	-10.7681
紫	-10.7681
遥	-10.7681
召	-10.7681
忍	-10.7681
嘛	-10.7681
馬	-10.7682
铜	-10.803
植	-10.8031
烈	-10.8032
责	-10.8034
喷	-10.8035
膨	-10.8036
竹	-10.8036
г	-10.8037
園	-10.8037
忠	-10.8038
捕	-10.8038
拱	-10.8038
収	-10.8038
壓	-10.8038
慎	-10.8038
ю	-10.8038
呀	-10.8038
洒	-10.8038
韵	-10.8038
辉	-10.8038
ノ	-10.8038
跌	-10.8038
刘	-10.8038
賞	-10.8038
粮	-10.8038
礁	-10.8038
寝	-10.8039
突	-10.839
险	-10.8402
岳	-10.8404
務	-10.8404
仰	-10.8407
勾	-10.8407
芝	-10.8407
揭	-10.8407
浙	-10.8408
爸	-10.8408
氢	-10.8408
暇	-10.8408
酮	-10.8408
丸	-10.8408
檢	-10.8408
ィ	-10.8408
纱	-10.8408
ざ	-10.8408
桌	-10.8408
栈	-10.8408
沸	-10.8408
穴	-10.8408
爭	-10.8408
胀	-10.8408
棒	-10.8408
袋	-10.8408
爽	-10.8409
廷	-10.8409
値	-10.8409
翼	-10.8409
胸	-10.8409
ぐ	-10.8409
憶	-10.8409
阔	-10.8409
猿	-10.8409
输	-10.8772
析	-10.8782
哲	-10.8788
弃	-10.8789
弄	-10.8789
继	-10.879
森	-10.8792
漲	-10.8792
歡	-10.8792
须	-10.8792
仔	-10.8792
謝	-10.8792
愚	-10.8792
耀	-10.8793
蓋	-10.8793
稀	-10.8793
財	-10.8793
擦	-10.8793
堵	-10.8793
頂	-10.8793
唆	-10.8793
隊	-10.8793
乾	-10.8793
芭	-10.8793
伝	-10.8793
哭	-10.8793
仆	-10.8793
ガ	-10.8793
勢	-10.8793
ポ	-10.8793
廉	-10.8793
慈	-10.8793
復	-10.8793
雞	-10.8793
豐	-10.8793
ケ	-10.8793
泽	-10.8793
紅	-10.8793
孕	-10.8794
ひ	-10.8794
峡	-10.8795
够	-10.8949
奈	-10.9189
鬼	-10.9191
纹	-10.9191
孙	-10.9192
帐	-10.9192
浸	-10.9192
訪	-10.9192
乏	-10.9192
撤	-10.9192
閱	-10.9193
穆	-10.9193
缴	-10.9193
踪	-10.9193
裏	-10.9193
輕	-10.9193
滨	-10.9193
淹	-10.9193
凍	-10.9193
措	-10.9193
譜	-10.9193
毅	-10.9193
ォ	-10.9193
週	-10.9193
禮	-10.9193
ō	-10.9193
伪	-10.9193
縮	-10.9193
恨	-10.9193
绵	-10.9193
肢	-10.9193
浩	-10.9193
蛇	-10.9193
橋	-10.9193
碱	-10.9193
霍	-10.9193
塊	-10.9193
傻	-10.9193
狮	-10.9193
盈	-10.9193
芒	-10.9194
泳	-10.9194
剑	-10.9194
萄	-10.9194
弗	-10.9194
庄	-10.9194
拆	-10.9599
爆	-10.9599
溢	-10.9605
氛	-10.9606
腾	-10.9606
胖	-10.9607
抬	-10.9608
妇	-10.9609
盒	-10.9609
腐	-10.9609
拳	-10.9609
箭	-10.9609
づ	-10.9609
骗	-10.9609
麗	-10.9609
辩	-10.961
処	-10.961
宇	-10.961
筆	-10.961
肺	-10.961
瘾	-10.961
ワ	-10.961
雖	-10.961
傷	-10.961
淘	-10.961
犹	-10.961
腻	-10.961
珠	-10.9611
靖	-10.9611
驱	-10.9934
玲	-11.0031
媒	-11.0037
颜	-11.0039
铺	-11.004
拨	-11.004
裝	-11.0041
栖	-11.0042
羽	-11.0043
嘉	-11.0043
唤	-11.0043
邮	-11.0043
拟	-11.0043
涵	-11.0044
扭	-11.0044
奉	-11.0044
凌	-11.0044
徵	-11.0044
頻	-11.0044
妥	-11.0044
伍	-11.0044
麵	-11.0044
雙	-11.0044
挡	-11.0044
麽	-11.0044
挖	-11.0044
ú	-11.0044
僅	-11.0044
嫌	-11.0044
昏	-11.0045
忌	-11.0045
逸	-11.0045
薪	-11.0045
杆	-11.0045
滞	-11.0045
滩	-11.0045
モ	-11.0045
爾	-11.0045
衬	-11.0493
苍	-11.0496
碼	-11.0496
罩	-11.0496
骚	-11.0497
杠	-11.0498
胞	-11.0498
責	-11.0498
腊	-11.0499
恼	-11.0499
憾	-11.0499
悪	-11.0499
躲	-11.0499
鐘	-11.0499
焼	-11.0499
銀	-11.0499
盡	-11.0499
腌	-11.0499
戲	-11.0499
ç	-11.0499
ü	-11.0499
萧	-11.0499
辺	-11.0499
瓷	-11.0499
盗	-11.0499
採	-11.0499
泪	-11.0499
眉	-11.0499
県	-11.0499
狭	-11.0499
胃	-11.0499
億	-11.0499
霜	-11.05
屬	-11.05
狩	-11.05
卤	-11.05
违	-11.0968
肩	-11.097
捧	-11.097
弦	-11.0971
济	-11.0972
‘	-11.0974
贸	-11.0974
贞	-11.0974
貓	-11.0974
薯	-11.0975
枪	-11.0975
聽	-11.0975
仿	-11.0975
築	-11.0975
湛	-11.0975
翔	-11.0975
筋	-11.0975
抹	-11.0975
圓	-11.0975
à	-11.0975
熬	-11.0975
莓	-11.0975
ê	-11.0975
納	-11.0975
卢	-11.0975
職	-11.0975
獻	-11.0975
醋	-11.0975
】	-11.0975
緩	-11.0975
【	-11.0975
醇	-11.0976
裔	-11.0976
硫	-11.0976
悟	-11.0976
畴	-11.0976
浑	-11.0977
绑	-11.0977
亞	-11.0978
虽	-11.1463
怒	-11.1467
肯	-11.1467
〔	-11.1469
〕	-11.147
悔	-11.147
裂	-11.1471
遣	-11.1471
隋	-11.1474
册	-11.1474
履	-11.1474
什	-11.1474
條	-11.1474
帆	-11.1475
搏	-11.1475
蛙	-11.1475
汪	-11.1475
鸣	-11.1475
崩	-11.1475
爵	-11.1475
诵	-11.1475
舉	-11.1475
氮	-11.1475
庙	-11.1475
陣	-11.1475
ä	-11.1475
琴	-11.1475
縺	-11.1475
応	-11.1475
雕	-11.1475
飛	-11.1475
軽	-11.1475
鎖	-11.1475
順	-11.1475
碌	-11.1475
瑶	-11.1475
ハ	-11.1475
梳	-11.1475
横	-11.1476
藥	-11.1476
絕	-11.1476
雑	-11.1476
晕	-11.1477
柏	-11.1477
們	-11.1908
愤	-11.1992
绪	-11.1992
页	-11.1993
滤	-11.1996
雌	-11.1996
辖	-11.1999
摆	-11.1999
虑	-11.2
扰	-11.2
汝	-11.2
婉	-11.2
肌	-11.2
寺	-11.2001
舍	-11.2001
爷	-11.2001
額	-11.2001
缪	-11.2001
溝	-11.2001
敦	-11.2001
歇	-11.2001
監	-11.2001
竭	-11.2001
艳	-11.2001
懈	-11.2001
ゲ	-11.2001
妈	-11.2001
觸	-11.2001
靜	-11.2001
牵	-11.2001
谨	-11.2001
啦	-11.2001
凯	-11.2001
沫	-11.2001
胎	-11.2001
昔	-11.2001
乗	-11.2002
逢	-11.2002
瑟	-11.2002
涂	-11.2002
勝	-11.2002
渊	-11.2002
抛	-11.2002
蛛	-11.2002
曰	-11.2002
頓	-11.2002
敲	-11.2002
筹	-11.2002
養	-11.2002
滋	-11.2002
菇	-11.2002
剥	-11.2002
牢	-11.2003
撰	-11.2497
谢	-11.2549
吟	-11.255
妆	-11.2551
括	-11.2553
辆	-11.2553
讨	-11.2553
腔	-11.2554
鼻	-11.2555
溪	-11.2556
矩	-11.2556
舰	-11.2557
泥	-11.2557
潔	-11.2557
舆	-11.2557
妨	-11.2557
宰	-11.2557
夕	-11.2557
勞	-11.2557
淨	-11.2557
窄	-11.2557
島	-11.2557
宾	-11.2557
軟	-11.2557
ツ	-11.2557
緊	-11.2557
鬆	-11.2557
匠	-11.2557
券	-11.2557
泻	-11.2557
婆	-11.2557
丑	-11.2557
昭	-11.2557
瓣	-11.2557
蓄	-11.2557
朴	-11.2558
莲	-11.2558
葬	-11.2559
煞	-11.2559
劝	-11.314
嵌	-11.314
怎	-11.3142
池	-11.3142
沟	-11.3143
猴	-11.3143
颈	-11.3143
褒	-11.3144
亭	-11.3144
環	-11.3144
蓬	-11.3144
亨	-11.3144
惜	-11.3145
汚	-11.3145
帅	-11.3145
専	-11.3145
挤	-11.3145
飲	-11.3145
篡	-11.3145
捞	-11.3145
蝶	-11.3145
宮	-11.3145
ょ	-11.3145
祉	-11.3145
押	-11.3145
哺	-11.3145
弊	-11.3145
钠	-11.3145
敵	-11.3145
緑	-11.3145
ц	-11.3145
ш	-11.3145
琐	-11.3145
腸	-11.3145
炼	-11.3145
摸	-11.3146
凡	-11.3146
怜	-11.3146
虛	-11.3146
瘦	-11.3146
黃	-11.3146
粥	-11.3146
衷	-11.3146
朱	-11.3765
摧	-11.3765
齿	-11.3768
织	-11.3769
茄	-11.3769
浆	-11.3769
遮	-11.3769
啟	-11.377
拭	-11.377
邻	-11.377
埋	-11.377
叙	-11.377
轴	-11.377
吞	-11.377
窜	-11.377
泣	-11.377
ザ	-11.377
脫	-11.377
扑	-11.377
陳	-11.377
嚼	-11.377
煌	-11.377
嚴	-11.377
旺	-11.377
棉	-11.377
ö	-11.377
惡	-11.377
馍	-11.377
绽	-11.377
峭	-11.377
矮	-11.377
茫	-11.377
炮	-11.377
吊	-11.377
鹤	-11.377
診	-11.377
『	-11.377
逊	-11.3771
枢	-11.3771
菲	-11.3771
艾	-11.3771
聖	-11.3771
悦	-11.3771
惨	-11.3771
』	-11.3771
榜	-11.3771
廳	-11.3771
倦	-11.3771
謊	-11.3771
槽	-11.3771
津	-11.3772
颂	-11.3773
暂	-11.4417
释	-11.4428
歉	-11.4433
贬	-11.4433
怨	-11.4433
館	-11.4434
織	-11.4434
涯	-11.4435
扁	-11.4435
耍	-11.4435
赶	-11.4435
锡	-11.4436
驾	-11.4436
迅	-11.4436
匹	-11.4436
缸	-11.4436
匀	-11.4436
循	-11.4436
佈	-11.4436
炉	-11.4436
萝	-11.4436
睿	-11.4436
昼	-11.4437
伺	-11.4437
昨	-11.4437
ゅ	-11.4437
慧	-11.4437
霞	-11.4437
拡	-11.4437
嗯	-11.4437
扶	-11.4437
峻	-11.4437
羅	-11.4437
衝	-11.4437
贪	-11.4437
窃	-11.4437
硅	-11.4437
佐	-11.4437
酥	-11.4437
単	-11.4437
卜	-11.4437
覽	-11.4437
笛	-11.4437
糟	-11.4437
貨	-11.4437
蚁	-11.4437
宴	-11.4437
桶	-11.4437
罕	-11.4437
輛	-11.4437
營	-11.4437
馏	-11.4437
牧	-11.4437
績	-11.4437
広	-11.4437
俊	-11.4438
缀	-11.4438
囊	-11.4438
譬	-11.4438
ユ	-11.4438
俯	-11.4438
柱	-11.444
剔	-11.514
厘	-11.5146
焰	-11.5147
墩	-11.5149
肤	-11.515
卸	-11.515
赖	-11.515
彻	-11.515
領	-11.515
粤	-11.515
涌	-11.5151
両	-11.5151
枯	-11.5151
劇	-11.5151
嫁	-11.5151
洪	-11.5151
虎	-11.5151
泌	-11.5151
咳	-11.5151
擊	-11.5151
暑	-11.5151
噌	-11.5151
涛	-11.5151
肾	-11.5151
盤	-11.5151
綠	-11.5151
桂	-11.5151
徽	-11.5151
檔	-11.5151
馨	-11.5151
嘱	-11.5151
顧	-11.5151
臭	-11.5151
闹	-11.5151
擔	-11.5151
霸	-11.5152
誠	-11.5152
側	-11.5152
繞	-11.5152
鏡	-11.5152
妹	-11.5152
紛	-11.5152
廣	-11.5152
仄	-11.5152
贤	-11.5152
梭	-11.5153
頼	-11.5153
陕	-11.5153
係	-11.5905
谓	-11.5907
識	-11.5911
歪	-11.5913
灾	-11.5914
冈	-11.5916
捐	-11.5918
匆	-11.5918
疾	-11.5918
厌	-11.5918
叉	-11.5919
撑	-11.5919
寿	-11.592
熊	-11.592
驰	-11.592
侦	-11.592
祭	-11.592
靡	-11.592
镖	-11.592
幣	-11.592
勉	-11.592
貴	-11.592
惩	-11.592
徑	-11.592
憂	-11.592
奪	-11.592
歸	-11.592
仗	-11.592
拾	-11.592
飄	-11.592
曳	-11.592
隠	-11.592
骄	-11.592
喵	-11.592
刹	-11.592
唇	-11.592
鍋	-11.592
饼	-11.5921
蒂	-11.5921
戚	-11.5921
痕	-11.5921
羹	-11.5921
遷	-11.5921
俱	-11.5921
鼎	-11.5921
戈	-11.5921
遂	-11.5921
绳	-11.5921
谦	-11.5921
補	-11.5921
绣	-11.5921
揚	-11.5921
灿	-11.5921
炭	-11.5921
菠	-11.5921
懒	-11.5921
枚	-11.5921
啼	-11.5922
沃	-11.5922
臺	-11.5922
厄	-11.5922
摄	-11.6744
挣	-11.6746
授	-11.6748
幽	-11.6749
査	-11.675
蜀	-11.6751
辱	-11.6751
據	-11.6752
弓	-11.6752
霄	-11.6753
討	-11.6753
吓	-11.6753
盔	-11.6753
晓	-11.6753
芽	-11.6753
瑰	-11.6753
裕	-11.6753
弘	-11.6753
氨	-11.6754
沖	-11.6754
堤	-11.6754
腳	-11.6754
顔	-11.6754
仮	-11.6754
烛	-11.6754
ふ	-11.6754
庇	-11.6754
歐	-11.6754
暦	-11.6754
涼	-11.6754
磷	-11.6754
ァ	-11.6754
慨	-11.6754
炖	-11.6754
щ	-11.6754
屑	-11.6754
肿	-11.6754
團	-11.6754
渚	-11.6754
蓟	-11.6754
淇	-11.6754
閉	-11.6754
潭	-11.6754
畏	-11.6754
蝕	-11.6754
軍	-11.6754
咬	-11.6754
胺	-11.6754
酪	-11.6754
赦	-11.6754
椅	-11.6754
歴	-11.6754
芙	-11.6754
衫	-11.6754
顽	-11.6754
弯	-11.6755
樽	-11.6755
踩	-11.6755
瞻	-11.6755
哉	-11.6755
粹	-11.6755
価	-11.6755
傾	-11.6755
惟	-11.6756
庸	-11.6756
栽	-11.6756
–	-11.7172
塑	-11.7542
衍	-11.7655
誓	-11.7656
嘲	-11.7657
魄	-11.7658
犬	-11.7659
兔	-11.766
荆	-11.7661
挽	-11.7661
慮	-11.7661
炫	-11.7662
隻	-11.7662
蔓	-11.7662
厦	-11.7662
腥	-11.7662
茂	-11.7662
浴	-11.7662
篮	-11.7662
禅	-11.7662
笃	-11.7662
蹲	-11.7662
ゆ	-11.7663
芬	-11.7663
頁	-11.7663
硕	-11.7663
祈	-11.7663
転	-11.7663
妮	-11.7663
歲	-11.7663
疏	-11.7663
箇	-11.7663
裹	-11.7663
枕	-11.7663
驚	-11.7663
斩	-11.7663
針	-11.7663
ǎ	-11.7663
臨	-11.7663
©	-11.7663
損	-11.7663
祥	-11.7663
彈	-11.7663
腰	-11.7663
舌	-11.7663
铅	-11.7663
彰	-11.7663
厨	-11.7663
穹	-11.7663
渗	-11.7663
仑	-11.7663
郭	-11.7663
錄	-11.7663
魏	-11.7663
媚	-11.7664
驻	-11.7664
稽	-11.7664
莎	-11.7664
検	-11.7664
耕	-11.7664
禽	-11.7665
焗	-11.7665
吾	-11.7666
努	-11.865
捶	-11.8652
咽	-11.8653
赐	-11.8654
茅	-11.8657
壳	-11.8658
凑	-11.8659
扔	-11.8661
壤	-11.8661
凶	-11.8661
丰	-11.8661
渴	-11.8661
紀	-11.8662
柴	-11.8662
響	-11.8662
晒	-11.8662
砖	-11.8662
胰	-11.8662
譯	-11.8662
赌	-11.8662
羁	-11.8662
咖	-11.8662
谣	-11.8662
閒	-11.8662
殺	-11.8662
誕	-11.8663
攝	-11.8663
蹈	-11.8663
昆	-11.8663
诊	-11.8663
蘿	-11.8663
褲	-11.8663
怯	-11.8663
捌	-11.8663
搬	-11.8663
姑	-11.8663
趁	-11.8663
齡	-11.8663
逗	-11.8663
趨	-11.8663
宵	-11.8663
眺	-11.8663
澄	-11.8663
貧	-11.8663
董	-11.8663
鋼	-11.8663
胶	-11.8663
诡	-11.8663
農	-11.8663
饿	-11.8663
沥	-11.8663
嗨	-11.8663
ぞ	-11.8663
夢	-11.8663
朔	-11.8663
霧	-11.8663
靴	-11.8663
è	-11.8663
藍	-11.8663
喘	-11.8663
ā	-11.8663
蓮	-11.8663
琼	-11.8663
講	-11.8663
狡	-11.8663
寨	-11.8663
枫	-11.8663
侨	-11.8663
翘	-11.8663
餘	-11.8663
钢	-11.8663
駁	-11.8663
詳	-11.8663
橫	-11.8663
販	-11.8663
凿	-11.8663
俘	-11.8664
純	-11.8664
辰	-11.8664
酚	-11.8664
舊	-11.8664
侍	-11.8664
輯	-11.8664
証	-11.8665
辽	-11.8665
纲	-11.9757
躁	-11.9765
倚	-11.9765
筑	-11.9766
筝	-11.9766
饲	-11.9766
蒲	-11.9767
隶	-11.9768
狠	-11.9771
蕊	-11.9772
芯	-11.9772
呈	-11.9772
龍	-11.9772
咒	-11.9773
遺	-11.9773
牺	-11.9773
贾	-11.9773
漂	-11.9773
猛	-11.9773
咕	-11.9773
裙	-11.9773
羞	-11.9773
濾	-11.9773
堡	-11.9773
糯	-11.9773
駕	-11.9773
ホ	-11.9774
淌	-11.9774
頑	-11.9774
琳	-11.9774
邓	-11.9774
秉	-11.9774
兹	-11.9774
惹	-11.9774
淀	-11.9774
瞩	-11.9774
撐	-11.9774
飼	-11.9774
寶	-11.9774
汗	-11.9774
钾	-11.9774
锐	-11.9774
餅	-11.9774
哎	-11.9774
丢	-11.9774
鹽	-11.9774
鹿	-11.9774
嘎	-11.9774
儘	-11.9774
舵	-11.9774
茨	-11.9774
剛	-11.9774
繪	-11.9774
萌	-11.9774
Н	-11.9774
栄	-11.9774
Д	-11.9774
紙	-11.9774
彭	-11.9774
訳	-11.9774
氯	-11.9774
葛	-11.9774
诈	-11.9774
污	-11.9774
濕	-11.9774
罐	-11.9774
勿	-11.9774
逻	-11.9774
钩	-11.9774
輝	-11.9774
闷	-11.9774
岂	-11.9774
爪	-11.9774
団	-11.9774
劫	-11.9774
帕	-11.9774
総	-11.9774
笨	-11.9775
売	-11.9775
狐	-11.9775
摔	-11.9775
焯	-11.9775
縣	-11.9775
郑	-11.9775
睹	-11.9776
殉	-11.9779
狎	-12.1002
谑	-12.1016
歹	-12.1017
阎	-12.1019
榴	-12.1019
械	-12.102
堰	-12.1022
蜡	-12.1022
绞	-12.1023
蹄	-12.1023
隙	-12.1023
險	-12.1023
辟	-12.1023
捏	-12.1023
贱	-12.1023
熔	-12.1023
赣	-12.1023
鳞	-12.1023
楷	-12.1023
栋	-12.1024
丈	-12.1024
娅	-12.1024
棍	-12.1024
卿	-12.1024
渔	-12.1024
ぬ	-12.1024
呆	-12.1024
缚	-12.1024
飾	-12.1024
肖	-12.1024
暢	-12.1024
畜	-12.1024
铱	-12.1024
锂	-12.1024
酵	-12.1024
拒	-12.1024
扯	-12.1024
緣	-12.1024
莹	-12.1024
藤	-12.1024
円	-12.1024
巾	-12.1024
捲	-12.1024
賽	-12.1024
吻	-12.1024
彎	-12.1024
搓	-12.1024
া	-12.1024
掘	-12.1024
ǐ	-12.1024
呵	-12.1024
喧	-12.1024
屄	-12.1024
廊	-12.1024
怠	-12.1024
钗	-12.1024
👏	-12.1024
¡	-12.1024
У	-12.1024
磅	-12.1024
哩	-12.1024
渺	-12.1024
稠	-12.1024
聆	-12.1024
凤	-12.1024
呕	-12.1024
雜	-12.1024
伐	-12.1024
殿	-12.1024
扼	-12.1024
驅	-12.1024
卑	-12.1024
敷	-12.1024
譽	-12.1024
炬	-12.1024
撕	-12.1024
兑	-12.1024
眨	-12.1024
俩	-12.1025
吵	-12.1025
雀	-12.1025
阀	-12.1025
撃	-12.1025
廟	-12.1025
贈	-12.1025
刪	-12.1025
黒	-12.1025
螺	-12.1025
鳴	-12.1025
柄	-12.1025
陀	-12.1025
ヨ	-12.1025
赵	-12.1026
錢	-12.1026
裴	-12.1026
挪	-12.1026
钙	-12.1026
ぼ	-12.1026
恭	-12.1026
寅	-12.1027
韦	-12.1027
猟	-12.1027
梗	-12.103
旨	-12.2393
乍	-12.2444
挥	-12.2445
嗅	-12.2446
邀	-12.2447
屡	-12.2449
颇	-12.2449
妒	-12.2449
囲	-12.2451
趋	-12.2451
昧	-12.2451
骂	-12.2451
棵	-12.2452
疎	-12.2452
棄	-12.2452
轰	-12.2452
圧	-12.2452
吨	-12.2452
債	-12.2452
窝	-12.2452
審	-12.2452
恤	-12.2452
馅	-12.2452
摊	-12.2452
枣	-12.2452
柜	-12.2452
佔	-12.2452
丙	-12.2452
鏈	-12.2452
寧	-12.2452
帘	-12.2452
鹅	-12.2452
韻	-12.2452
晃	-12.2452
毯	-12.2452
誌	-12.2452
沾	-12.2452
棘	-12.2452
铭	-12.2452
熵	-12.2452
渣	-12.2452
焕	-12.2452
舶	-12.2452
銅	-12.2452
颁	-12.2452
喔	-12.2453
宛	-12.2453
惯	-12.2453
樓	-12.2453
И	-12.2453
嚐	-12.2453
漱	-12.2453
ū	-12.2453
ё	-12.2453
咋	-12.2453
燈	-12.2453
狙	-12.2453
👍	-12.2453
О	-12.2453
喽	-12.2453
崖	-12.2453
喂	-12.2453
陰	-12.2453
啸	-12.2453
沐	-12.2453
溅	-12.2453
鹰	-12.2453
従	-12.2453
臉	-12.2453
辭	-12.2453
嗜	-12.2453
瀚	-12.2453
贺	-12.2453
幹	-12.2453
穫	-12.2453
铸	-12.2453
挨	-12.2453
铃	-12.2453
豁	-12.2453
灣	-12.2453
塗	-12.2453
盎	-12.2453
谍	-12.2453
恣	-12.2453
炙	-12.2453
抢	-12.2453
伞	-12.2453
嘌	-12.2453
惫	-12.2453
畔	-12.2453
凸	-12.2454
崔	-12.2454
虾	-12.2455
歳	-12.2456
株	-12.2464
•	-12.3627
蹴	-12.4102
拘	-12.4103
匾	-12.4108
砍	-12.4112
闺	-12.4114
赴	-12.4114
黏	-12.4115
湾	-12.4116
骤	-12.4117
踢	-12.4117
虐	-12.4117
菊	-12.4118
幂	-12.4118
煨	-12.4118
営	-12.4118
喊	-12.4118
兆	-12.4118
紊	-12.4118
哇	-12.4118
姥	-12.4118
捉	-12.4118
纬	-12.4119
壞	-12.4119
巢	-12.4119
诽	-12.4119
谤	-12.4119
巷	-12.4119
絲	-12.4119
敘	-12.4119
帧	-12.4119
礙	-12.4119
郊	-12.4119
陇	-12.4119
悼	-12.4119
遵	-12.4119
颠	-12.4119
脈	-12.4119
苷	-12.4119
壯	-12.4119
邁	-12.4119
搂	-12.4119
桐	-12.4119
痴	-12.4119
柯	-12.4119
臂	-12.4119
侮	-12.4119
噛	-12.4119
奴	-12.4119
峙	-12.4119
戳	-12.4119
撿	-12.4119
羌	-12.4119
肆	-12.4119
簿	-12.4119
冗	-12.4119
崭	-12.4119
彙	-12.4119
柚	-12.4119
懷	-12.4119
卻	-12.4119
篆	-12.4119
苞	-12.4119
屁	-12.4119
夾	-12.4119
膝	-12.4119
ρ	-12.4119
凹	-12.4119
孫	-12.4119
烫	-12.4119
咯	-12.4119
ì	-12.4119
Р	-12.4119
勘	-12.4119
坂	-12.4119
娇	-12.4119
屎	-12.4119
瀑	-12.4119
铯	-12.4119
呦	-12.4119
ぴ	-12.4119
仇	-12.4119
癒	-12.4119
翁	-12.4119
馔	-12.4119
铝	-12.4119
傅	-12.4119
μ	-12.4119
亂	-12.4119
哨	-12.4119
δ	-12.4119
刃	-12.4119
扇	-12.4119
胫	-12.4119
闘	-12.4119
擾	-12.4119
熙	-12.412
〜	-12.412
澤	-12.412
満	-12.412
荫	-12.412
岱	-12.412
庁	-12.412
淵	-12.412
濒	-12.412
芹	-12.412
骡	-12.412
摯	-12.412
階	-12.412
ヌ	-12.412
芦	-12.412
歼	-12.412
镁	-12.412
苟	-12.412
煤	-12.412
缆	-12.4121
褪	-12.4121
悩	-12.4121
矣	-12.4121
諧	-12.4121
裸	-12.4121
俑	-12.4121
缕	-12.4121
妾	-12.4121
厳	-12.4123
賛	-12.4123
络	-12.4124
龄	-12.6101
阁	-12.6113
莽	-12.6114
忆	-12.6115
聪	-12.6116
斤	-12.6116
嘘	-12.6116
沧	-12.6117
焉	-12.6117
灼	-12.6117
録	-12.6117
猶	-12.6118
耶	-12.6118
塌	-12.6118
晏	-12.6118
駛	-12.6118
榮	-12.6118
坊	-12.6118
僧	-12.6118
坠	-12.6118
憲	-12.6118
磋	-12.6118
賀	-12.6118
町	-12.6119
拦	-12.6119
熹	-12.6119
靶	-12.6119
隱	-12.6119
帖	-12.6119
廃	-12.6119
玫	-12.6119
鞭	-12.6119
騎	-12.6119
涩	-12.6119
妍	-12.6119
欄	-12.6119
訓	-12.6119
儀	-12.6119
哄	-12.6119
垒	-12.6119
揪	-12.6119
敗	-12.6119
豬	-12.6119
騙	-12.6119
杏	-12.6119
屯	-12.6119
盆	-12.6119
ヘ	-12.6119
钓	-12.6119
煲	-12.6119
慷	-12.6119
浊	-12.6119
钧	-12.6119
ο	-12.6119
髮	-12.6119
«	-12.6119
»	-12.6119
ί	-12.6119
ν	-12.6119
َ	-12.6119
ぷ	-12.6119
償	-12.6119
垦	-12.6119
岭	-12.6119
曉	-12.6119
桩	-12.6119
煙	-12.6119
畢	-12.6119
薬	-12.6119
註	-12.6119
諾	-12.6119
貫	-12.6119
貶	-12.6119
雁	-12.6119
隧	-12.6119
骇	-12.6119
崎	-12.6119
绰	-12.6119
謀	-12.6119
謂	-12.6119
奸	-12.6119
姬	-12.6119
ぱ	-12.6119
澡	-12.6119
鄉	-12.6119
侃	-12.6119
酔	-12.6119
倉	-12.6119
脳	-12.6119
ヒ	-12.612
妄	-12.612
朦	-12.612
萊	-12.612
騰	-12.612
俠	-12.612
奢	-12.612
丟	-12.612
凛	-12.612
孝	-12.612
慕	-12.612
戻	-12.612
溜	-12.612
薩	-12.612
蠻	-12.612
诫	-12.612
锤	-12.612
🌟	-12.612
🌈	-12.612
垫	-12.612
酌	-12.612
幌	-12.612
晦	-12.612
殷	-12.612
焚	-12.612
謎	-12.612
恍	-12.612
缠	-12.612
塘	-12.612
蜕	-12.6121
拙	-12.6121
脾	-12.6121
澜	-12.6121
晔	-12.6121
笠	-12.6122
筒	-12.6122
缝	-12.6123
聴	-12.6123
杉	-12.6124
鞠	-12.8593
攧	-12.8596
圻	-12.8601
兀	-12.8604
锄	-12.8605
佻	-12.8607
寵	-12.8612
ゼ	-12.8615
絶	-12.8616
馈	-12.8616
殊	-12.8617
踊	-12.8617
榆	-12.8618
憎	-12.8618
揣	-12.8618
癢	-12.8618
賦	-12.8618
钉	-12.8618
搔	-12.8618
冤	-12.8618
嗡	-12.8618
坨	-12.8618
抜	-12.8618
苯	-12.8618
麟	-12.8618
衆	-12.8618
碉	-12.8618
夯	-12.8619
喃	-12.8619
嘖	-12.8619
搖	-12.8619
睦	-12.8619
粼	-12.8619
縛	-12.8619
吕	-12.8619
戍	-12.8619
沢	-12.8619
穎	-12.8619
紐	-12.8619
谚	-12.8619
遁	-12.8619
钨	-12.8619
顆	-12.8619
厥	-12.8619
濃	-12.8619
腺	-12.8619
艱	-12.8619
茵	-12.8619
攜	-12.8619
叽	-12.8619
寬	-12.8619
澈	-12.8619
篦	-12.8619
谎	-12.8619
谭	-12.8619
駭	-12.8619
鸿	-12.8619
嬉	-12.8619
卒	-12.8619
敞	-12.8619
芸	-12.8619
拠	-12.8619
า	-12.8619
ใ	-12.8619
ぽ	-12.8619
亩	-12.8619
募	-12.8619
匈	-12.8619
噢	-12.8619
囚	-12.8619
娥	-12.8619
廻	-12.8619
戸	-12.8619
祠	-12.8619
纺	-12.8619
腕	-12.8619
荔	-12.8619
藩	-12.8619
蛤	-12.8619
謹	-12.8619
躍	-12.8619
钇	-12.8619
饥	-12.8619
侯	-12.8619
ゴ	-12.8619
併	-12.8619
帯	-12.8619
揺	-12.8619
暫	-12.8619
遙	-12.8619
黙	-12.8619
◕	-12.8619
ぁ	-12.8619
賃	-12.8619
🌿	-12.8619
α	-12.8619
τ	-12.8619
ي	-12.8619
ब	-12.8619
哮	-12.8619
垮	-12.8619
寰	-12.8619
尸	-12.8619
怅	-12.8619
悸	-12.8619
捅	-12.8619
揉	-12.8619
旷	-12.8619
暠	-12.8619
曄	-12.8619
札	-12.8619
涿	-12.8619
淅	-12.8619
漁	-12.8619
漉	-12.8619
潰	-12.8619
濁	-12.8619
焖	-12.8619
爹	-12.8619
珊	-12.8619
瑚	-12.8619
盼	-12.8619
窺	-12.8619
糸	-12.8619
绸	-12.8619
莺	-12.8619
觅	-12.8619
辕	-12.8619
霉	-12.8619
💰	-12.8619
🛍	-12.8619
ī	-12.8619
偉	-12.8619
🔥	-12.8619
ù	-12.8619
ا	-12.8619
涙	-12.8619
裘	-12.8619
鈕	-12.8619
ボ	-12.8619
唑	-12.8619
拧	-12.8619
貼	-12.8619
闯	-12.8619
雹	-12.8619
獣	-12.8619
酰	-12.8619
憩	-12.8619
濫	-12.8619
蚊	-12.8619
趟	-12.8619
恕	-12.8619
祛	-12.8619
銷	-12.862
撫	-12.862
妊	-12.862
暈	-12.862
浣	-12.862
熒	-12.862
妖	-12.862
肱	-12.862
鑑	-12.862
魯	-12.862
诀	-12.862
佼	-12.862
倘	-12.862
栗	-12.862
潘	-12.862
珀	-12.862
鵝	-12.862
栅	-12.862
貪	-12.862
嘆	-12.862
跡	-12.862
劄	-12.862
憐	-12.862
癖	-12.862
饒	-12.862
莊	-12.862
遨	-12.8621
暝	-12.8621
璠	-12.8621
祸	-12.8621
臣	-12.8621
禧	-12.8621
躺	-12.8621
掛	-12.8621
豹	-12.8621
誇	-12.8622
宕	-12.8622
扱	-12.8622
縠	-12.8623
顎	-12.8623
骸	-12.8623
旭	-12.8623
旻	-12.8623
嘻	-13.1918
斟	-13.192
驯	-13.1937
蕃	-13.1941
砾	-13.1942
牆	-13.1944
魅	-13.1944
糜	-13.1945
飽	-13.1949
疆	-13.195
庐	-13.1951
懦	-13.1951
掰	-13.1951
龟	-13.1951
挟	-13.1951
瘤	-13.1951
楓	-13.1951
瞎	-13.1951
篷	-13.1951
酯	-13.1951
窥	-13.1951
爐	-13.1951
詰	-13.1951
躬	-13.1952
侄	-13.1952
払	-13.1952
棕	-13.1952
洽	-13.1952
秽	-13.1952
隅	-13.1952
徹	-13.1952
戎	-13.1952
邃	-13.1952
愧	-13.1952
寡	-13.1952
撩	-13.1952
斋	-13.1952
焊	-13.1952
眸	-13.1952
罰	-13.1952
芜	-13.1952
錦	-13.1952
鸦	-13.1952
舱	-13.1952
擘	-13.1952
斌	-13.1952
晤	-13.1952
闊	-13.1952
麺	-13.1952
慘	-13.1952
僻	-13.1952
甫	-13.1952
อ	-13.1952
剖	-13.1952
栓	-13.1952
獄	-13.1952
茏	-13.1952
蔡	-13.1952
鞏	-13.1952
เ	-13.1952
娃	-13.1952
捎	-13.1952
瓢	-13.1952
膏	-13.1952
虞	-13.1952
詠	-13.1952
ع	-13.1952
ِ	-13.1953
冶	-13.1953
â	-13.1953
č	-13.1953
ά	-13.1953
η	-13.1953
λ	-13.1953
А	-13.1953
ب	-13.1953
ة	-13.1953
ল	-13.1953
่	-13.1953
傘	-13.1953
児	-13.1953
喚	-13.1953
嘤	-13.1953
捆	-13.1953
攒	-13.1953
斥	-13.1953
晾	-13.1953
榨	-13.1953
槌	-13.1953
疱	-13.1953
窟	-13.1953
竜	-13.1953
紓	-13.1953
綱	-13.1953
肅	-13.1953
蔗	-13.1953
諦	-13.1953
遲	-13.1953
邱	-13.1953
酞	-13.1953
鉛	-13.1953
ヤ	-13.1953
Х	-13.1953
廖	-13.1953
Е	-13.1953
邵	-13.1953
絨	-13.1953
綴	-13.1953
芋	-13.1953
拝	-13.1953
蒼	-13.1953
覧	-13.1953
勋	-13.1953
贮	-13.1953
锚	-13.1953
漆	-13.1953
叩	-13.1953
喋	-13.1953
娠	-13.1953
揽	-13.1953
籠	-13.1953
缨	-13.1953
諷	-13.1953
趕	-13.1953
鋒	-13.1953
叮	-13.1953
沼	-13.1953
糠	-13.1953
坎	-13.1954
継	-13.1954
鞍	-13.1954
嗪	-13.1954
頗	-13.1954
獎	-13.1954
箩	-13.1954
叨	-13.1954
霾	-13.1954
亜	-13.1955
眯	-13.1955
蟹	-13.1955
苑	-13.1955
镊	-13.1955
縁	-13.1956
禍	-13.1956
鬓	-13.1956
圏	-13.1956
彝	-13.1956
椰	-13.1956
韓	-13.1958
簇	-13.1959
腋	-13.196
恬	-13.1962
咧	-13.6927
凳	-13.6931
伙	-13.6936
媳	-13.6937
乖	-13.6942
斫	-13.6943
娼	-13.6946
弑	-13.6946
恁	-13.6948
掏	-13.6948
膳	-13.6948
泵	-13.6949
荐	-13.6949
忒	-13.6949
娓	-13.6949
惺	-13.6949
晰	-13.695
掷	-13.695
愉	-13.695
渠	-13.695
苹	-13.6951
凇	-13.6951
夭	-13.6951
嫖	-13.6951
徙	-13.6951
懇	-13.6951
拈	-13.6951
毡	-13.6951
毳	-13.6951
垠	-13.6951
柁	-13.6951
哟	-13.6952
捂	-13.6952
〇	-13.6952
伶	-13.6952
侏	-13.6952
俐	-13.6952
冕	-13.6952
厢	-13.6952
呂	-13.6952
嘚	-13.6952
屉	-13.6952
抿	-13.6952
晝	-13.6952
枉	-13.6952
槟	-13.6952
権	-13.6952
毀	-13.6952
氦	-13.6952
桨	-13.6952
俺	-13.6952
奧	-13.6952
ล	-13.6952
แ	-13.6952
匂	-13.6952
哆	-13.6952
啃	-13.6952
喪	-13.6952
墮	-13.6952
姮	-13.6952
孵	-13.6952
尧	-13.6952
憤	-13.6952
曹	-13.6952
贡	-13.6952
懶	-13.6952
จ	-13.6952
ู	-13.6952
〈	-13.6952
〉	-13.6952
僵	-13.6952
勸	-13.6952
囱	-13.6952
撇	-13.6952
枠	-13.6952
桅	-13.6952
棚	-13.6952
橱	-13.6952
î	-13.6952
Α	-13.6952
γ	-13.6952
ن	-13.6952
ভ	-13.6952
☆	-13.6952
剽	-13.6952
嶷	-13.6952
Т	-13.6953
ъ	-13.6953
Á	-13.6953
Ç	-13.6953
É	-13.6953
ı	-13.6953
Ō	-13.6953
ǒ	-13.6953
Φ	-13.6953
π	-13.6953
ה	-13.6953
ח	-13.6953
ל	-13.6953
מ	-13.6953
ح	-13.6953
ر	-13.6953
त	-13.6953
म	-13.6953
ह	-13.6953
ो	-13.6953
्	-13.6953
স	-13.6953
ก	-13.6953
ด	-13.6953
ร	-13.6953
ส	-13.6953
ự	-13.6953
‿	-13.6953
↳	-13.6953
∪	-13.6953
♡	-13.6953
ゔ	-13.6953
ゾ	-13.6953
ヴ	-13.6953
䄉	-13.6953
丫	-13.6953
亶	-13.6953
佇	-13.6953
俏	-13.6953
俭	-13.6953
僱	-13.6953
冊	-13.6953
冢	-13.6953
冪	-13.6953
勁	-13.6953
叟	-13.6953
咄	-13.6953
唢	-13.6953
嘿	-13.6953
噓	-13.6953
噩	-13.6953
囤	-13.6953
垢	-13.6953
妃	-13.6953
娴	-13.6953
婿	-13.6953
寢	-13.6953
屆	-13.6953
屦	-13.6953
岷	-13.6953
峦	-13.6953
巍	-13.6953
巒	-13.6953
帜	-13.6953
弼	-13.6953
彷	-13.6953
怼	-13.6953
恆	-13.6953
恸	-13.6953
悄	-13.6953
悚	-13.6953
憋	-13.6953
憔	-13.6953
憫	-13.6953
挐	-13.6953
掣	-13.6953
敛	-13.6953
曠	-13.6953
曬	-13.6953
桡	-13.6953
椿	-13.6953
樵	-13.6953
蘭	-13.6953
М	-13.6953
烏	-13.6953
ː	-13.6953
Ч	-13.6953
∩	-13.6953
哗	-13.6953
唉	-13.6953
弾	-13.6953
暸	-13.6953
殤	-13.6953
ł	-13.6953
і	-13.6953
偲	-13.6953
嫣	-13.6953
孰	-13.6953
徨	-13.6953
桿	-13.6953
ǔ	-13.6953
吠	-13.6953
圭	-13.6953
坝	-13.6953
塢	-13.6953
壑	-13.6953
惱	-13.6953
棧	-13.6953
氾	-13.6953
丐	-13.6953
傑	-13.6953
匕	-13.6953
奂	-13.6953
尉	-13.6953
弩	-13.6953
悍	-13.6953
曦	-13.6953
栉	-13.6953
桑	-13.6953
殃	-13.6953
霖	-13.6953
壩	-13.6954
夙	-13.6954
撸	-13.6954
旬	-13.6954
厮	-13.6954
唠	-13.6954
喇	-13.6954
惦	-13.6954
岔	-13.6955
欽	-13.6955
氅	-13.6955
悧	-13.6956
晉	-13.6956
壇	-13.6956
剤	-13.6957
奚	-13.6957
孀	-13.6957
惚	-13.6957
亥	-13.6959
侗	-13.6959
傣	-13.6959
卯	-13.6959
巳	-13.6959
戌	-13.6959
樟	-13.6959
摹	-13.696
剃	-13.6965
殼	-14.6338
歯	-14.6339
橘	-14.634
榈	-14.6341
椎	-14.6342
棱	-14.6343
慾	-14.6344
慶	-14.6345
惆	-14.6346
恺	-14.6347
恵	-14.6348
姨	-14.6349
奮	-14.635
壽	-14.6351
壺	-14.6352
垩	-14.6353
噻	-14.6354
卦	-14.6355
劉	-14.6356
剰	-14.6357
剁	-14.6358
侬	-14.6359
♁	-14.636
⊙	-14.6361
ї	-14.6362
Б	-14.6363
̄	-14.6364
Ü	-14.6365
±	-14.6366
📎	-14.6367
麒	-14.6368
鹳	-14.6369
骼	-14.637
驼	-14.6371
雰	-14.6372
锈	-14.6373
鄙	-14.6374
遞	-14.6375
遐	-14.6376
辗	-14.6377
辄	-14.6378
蹤	-14.6379
贏	-14.638
賓	-14.6381
貸	-14.6382
貝	-14.6383
诅	-14.6384
讚	-14.6385
衔	-14.6386
蝎	-14.6387
蜴	-14.6388
蜥	-14.6389
蜗	-14.639
荤	-14.6391
臻	-14.6392
臟	-14.6393
肽	-14.6394
聂	-14.6395
籬	-14.6396
籀	-14.6397
箴	-14.6398
竣	-14.6399
窮	-14.64
秃	-14.6401
砌	-14.6402
矶	-14.6403
瞰	-14.6404
烽	-14.6405
潦	-14.6406
漾	-14.6407
滕	-14.6408
浇	-14.6409
沌	-14.641
楂	-14.6411
朽	-14.6412
掀	-14.6413
捨	-14.6414
戀	-14.6415
懸	-14.6416
慑	-14.6417
恃	-14.6418
廂	-14.6419
媲	-14.642
婦	-14.6421
娲	-14.6422
墟	-14.6423
喩	-14.6424
啬	-14.6425
唾	-14.6426
咙	-14.6427
咀	-14.6428
吝	-14.6429
厕	-14.643
匪	-14.6431
倣	-14.6432
倆	-14.6433
俚	-14.6434
ব	-14.6435
φ	-14.6436
麥	-14.6437
鸥	-14.6438
鲸	-14.6439
饺	-14.644
饶	-14.6441
饯	-14.6442
顷	-14.6443
頸	-14.6444
霓	-14.6445
隘	-14.6446
阄	-14.6447
鐠	-14.6448
銪	-14.6449
鈾	-14.645
逍	-14.6451
迥	-14.6452
辙	-14.6453
輔	-14.6454
躯	-14.6455
谞	-14.6456
诋	-14.6457
詫	-14.6458
訣	-14.6459
訝	-14.646
蝇	-14.6461
藜	-14.6462
蔚	-14.6463
蔑	-14.6464
萱	-14.6465
菓	-14.6466
茁	-14.6467
臆	-14.6468
聰	-14.6469
翱	-14.647
翎	-14.6471
翌	-14.6472
羲	-14.6473
羔	-14.6474
缭	-14.6475
缛	-14.6476
绎	-14.6477
繰	-14.6478
筷	-14.6479
碾	-14.648
盹	-14.6481
皎	-14.6482
琶	-14.6483
琵	-14.6484
琢	-14.6485
瀏	-14.6486
湲	-14.6487
湮	-14.6488
涝	-14.6489
橿	-14.649
梵	-14.6491
柷	-14.6492
柬	-14.6493
暧	-14.6494
晖	-14.6495
旖	-14.6496
旎	-14.6497
搐	-14.6498
拮	-14.6499
拏	-14.65
抨	-14.6501
憬	-14.6502
憧	-14.6503
惋	-14.6504
廬	-14.6505
巣	-14.6506
崽	-14.6507
屌	-14.6508
孱	-14.6509
夔	-14.651
坟	-14.6511
噬	-14.6512
咏	-14.6513
剌	-14.6514
兖	-14.6515
侑	-14.6516
佑	-14.6517
С	-14.6518
鹭	-14.6519
隸	-14.652
遜	-14.6521
遏	-14.6522
踐	-14.6523
襲	-14.6524
蠢	-14.6525
蛮	-14.6526
蘋	-14.6527
薙	-14.6528
葫	-14.6529
芩	-14.653
芡	-14.6531
脍	-14.6532
缮	-14.6533
綻	-14.6534
粟	-14.6535
籤	-14.6536
祁	-14.6537
睫	-14.6538
睐	-14.6539
疡	-14.654
疇	-14.6541
甄	-14.6542
渉	-14.6543
汲	-14.6544
橡	-14.6545
樱	-14.6546
晷	-14.6547
撼	-14.6548
掙	-14.6549
拷	-14.655
拶	-14.6551
惰	-14.6552
弈	-14.6553
巫	-14.6554
嫡	-14.6555
Я	-14.6556
鸝	-14.6557
驳	-14.6558
陋	-14.6559
铠	-14.656
轭	-14.6561
踝	-14.6562
赡	-14.6563
赎	-14.6564
蝠	-14.6565
蝙	-14.6566
虏	-14.6567
蘑	-14.6568
荏	-14.6569
荀	-14.657
苒	-14.6571
綜	-14.6572
砸	-14.6573
盪	-14.6574
瘸	-14.6575
疯	-14.6576
珑	-14.6577
烁	-14.6578
灸	-14.6579
濤	-14.658
濑	-14.6581
澗	-14.6582
漼	-14.6583
淆	-14.6584
涓	-14.6585
沛	-14.6586
汎	-14.6587
欖	-14.6588
斓	-14.6589
攪	-14.659
掺	-14.6591
挿	-14.6592
懿	-14.6593
愜	-14.6594
忱	-14.6595
岑	-14.6596
嫉	-14.6597
嘈	-14.6598
哔	-14.6599
呤	-14.66
卉	-14.6601
勧	-14.6602
儇	-14.6603
僖	-14.6604
偎	-14.6605
Э	-14.6606
餃	-14.6607
鄰	-14.6608
貿	-14.6609
袤	-14.661
蒋	-14.6611
繫	-14.6612
絮	-14.6613
硝	-14.6614
瞒	-14.6615
疵	-14.6616
瑕	-14.6617
爛	-14.6618
燦	-14.6619
汕	-14.662
曙	-14.6621
挠	-14.6622
抉	-14.6623
恳	-14.6624
彦	-14.6625
弛	-14.6626
巅	-14.6627
奨	-14.6628
垄	-14.6629
伎	-14.663
П	-14.6631
驭	-14.6632
閃	-14.6633
钦	-14.6634
鑭	-14.6635
軌	-14.6636
蹦	-14.6637
豊	-14.6638
谛	-14.6639
蔔	-14.664
禹	-14.6641
矽	-14.6642
癥	-14.6643
瘙	-14.6644
牲	-14.6645
爍	-14.6646
沈	-14.6647
椭	-14.6648
揮	-14.6649
惶	-14.665
坞	-14.6651
喱	-14.6652
喉	-14.6653
吁	-14.6654
劑	-14.6655
凄	-14.6656
儡	-14.6657
傀	-14.6658
佬	-14.6659
佣	-14.666
▄	-14.6661
′	-14.6662
К	-14.6663
З	-14.6664
骋	-14.6665
餚	-14.6666
颊	-14.6667
険	-14.6668
闆	-14.6669
鈞	-14.667
谴	-14.6671
谬	-14.6672
讶	-14.6673
苔	-14.6674
肚	-14.6675
糾	-14.6676
猾	-14.6677
涣	-14.6678
涡	-14.6679
汐	-14.668
昇	-14.6681
捍	-14.6682
抖	-14.6683
В	-14.6684
ě	-14.6685
鹂	-14.6686
鸽	-14.6687
顏	-14.6688
隽	-14.6689
陌	-14.669
镥	-14.6691
辜	-14.6692
課	-14.6693
艘	-14.6694
瞄	-14.6695
漪	-14.6696
涟	-14.6697
栩	-14.6698
枸	-14.6699
杞	-14.67
懼	-14.6701
帳	-14.6702
峨	-14.6703
屠	-14.6704
娛	-14.6705
壶	-14.6706
堪	-14.6707
э	-14.6708
ã	-14.6709
ß	-14.671
靈	-14.6711
蚂	-14.6712
胥	-14.6713
癫	-14.6714
痫	-14.6715
汰	-14.6716
檬	-14.6717
槛	-14.6718
柠	-14.6719
怡	-14.672
屿	-14.6721
啤	-14.6722
谪	-14.6723
蓉	-14.6724
瑜	-14.6725
琦	-14.6726
珰	-14.6727
猩	-14.6728
煸	-14.6729
溺	-14.673
溃	-14.6731
榄	-14.6732
掠	-14.6733
孢	-14.6734
婴	-14.6735
匿	-14.6736
ギ	-14.6737
迄	-14.6738
諮	-14.6739
競	-14.674
痒	-14.6741
溉	-14.6742
慣	-14.6743
崛	-14.6744
寞	-14.6745
婪	-14.6746
嗽	-14.6747
僚	-14.6748
陡	-14.6749
阈	-14.675
閏	-14.6751
诙	-14.6752
衅	-14.6753
荨	-14.6754
糙	-14.6755
濠	-14.6756
浦	-14.6757
汨	-14.6758
掃	-14.6759
拯	-14.676
勻	-14.6761
骁	-14.6762
颖	-14.6763
蝴	-14.6764
蕾	-14.6765
瞭	-14.6766
毎	-14.6767
歩	-14.6768
帰	-14.6769
厉	-14.677
伽	-14.6771
醛	-14.6772
豌	-14.6773
蚀	-14.6774
翰	-14.6775
瞳	-14.6776
燒	-14.6777
潺	-14.6778
漸	-14.6779
沮	-14.678
擂	-14.6781
弥	-14.6782
匮	-14.6783
阐	-14.6784
豫	-14.6785
蜘	-14.6786
虹	-14.6787
擬	-14.6788
挫	-14.6789
択	-14.679
宠	-14.6791
ф	-14.6792
籃	-14.6793
橄	-14.6794
孜	-14.6795
須	-14.6796
赁	-14.6797
貢	-14.6798
蔥	-14.6799
爺	-14.68
徴	-14.6801
尴	-14.6802
尬	-14.6803
増	-14.6804
嘗	-14.6805
▀	-14.6806
韧	-14.6807
陸	-14.6808
鍵	-14.6809
蔽	-14.681
翩	-14.6811
煽	-14.6812
詹	-14.6813
潛	-14.6814
曆	-14.6815
挚	-14.6816
齢	-14.6817
饋	-14.6818
酬	-14.6819
灌	-14.682
巩	-14.6821
勵	-14.6822
黎	-14.6823
験	-14.6824
兮	-14.6825
轼	-14.6826
賴	-14.6827
谅	-14.6828
葡	-14.6829
耦	-14.683
岡	-14.6831
労	-14.6832
‰	-14.6833
骰	-14.6834
訴	-14.6835
挙	-14.6836
衛	-14.6837
藝	-14.6838
焙	-14.6839
埔	-14.684
讽	-14.6841
彪	-14.6842
叠	-14.6843
甸	-14.6844
滥	-14.6845
擴	-14.6846
嬸	-14.6847
辐	-14.6848
廓	-14.6849
匙	-14.685
轨	-14.6851
毫	-14.6852
侣	-14.6853
膀	-14.6854
筛	-14.6855
渲	-14.6856
ñ	-14.6857
谊	-14.6858
璃	-14.6859
烘	-14.686
杭	-14.6861
寓	-14.6862
氷	-14.6863
叔	-14.6864
鉴	-14.6865
搅	-14.6866
惕	-14.6867
倫	-14.6868
瞬	-14.6869
曝	-14.687
驟	-14.6871
肴	-14.6872
泼	-14.6873
鲨	-14.6874
蕉	-14.6875
矛	-14.6876
惧	-14.6877
怖	-14.6878
郁	-14.6879
盟	-14.688
黛	-14.6881
紹	-14.6882
█	-14.6883
違	-14.6884
濟	-14.6885
脏	-14.6886
谐	-14.6887
胁	-14.6888
垃	-14.6889
圾	-14.689
迭	-14.6891
纽	-14.6892
б	-14.6893
钥	-14.6894
饪	-14.6895
療	-14.6896
寸	-14.6897
雇	-14.6898
诞	-14.6899
烦	-14.69
贷	-14.6901
評	-14.6902
擅	-14.6903
央	-14.6904
毕	-14.6905
娱	-14.6906
況	-14.6907
脹	-14.6908
経	-14.6909
ュ	-14.691
ェ	-14.6911
蔬	-14.6912
讼	-14.6913
浏	-14.6914
忽	-14.6915
狒	-14.6916
扮	-14.6917
з	-14.6918
碍	-14.6919
ャ	-14.692
睛	-14.6921
圳	-14.6922
ョ	-14.6923
擇	-14.6924
恢	-14.6925
删	-14.6926
允	-14.6927
¿	-14.6928
钮	-14.6929
夠	-14.693
悉	-14.6931
啡	-14.6932
際	-14.6933
習	-14.6934
咨	-14.6935
フ	-14.6936
░	-14.6937
综	-14.6938
培	-14.6939
姻	-14.694
践	-14.6941
扩	-14.6942
擎	-14.6943
淫	-14.6943
朋	-14.6943
辑	-14.6944
绍	-14.6945
企	-14.6946
监	-14.6947
肪	-14.6948
疗	-14.6948
柿	-14.6949
询	-14.6949
阱	-14.695
础	-14.695
瘟	-14.6951
薦	-14.6951
礎	-14.6951
诉	-14.6951
秩	-14.6952
宙	-14.6952
函	-14.6952
斐	-14.6953
胤	-14.6953
训	-14.6953
繼	-14.6954
际	-14.6954
验	-14.6955
择	-14.6956
锻	-14.6956
