<pad>	0
<unk>	0
<s>	0
</s>	0
<USER>	0
<ASSISTANT>	0
<SYSTEM>	0
▁	-3.03757
,	-3.04556
的	-3.553
。	-3.56216
和	-4.3466
、	-4.39089
:	-4.82781
在	-5.13992
是	-5.26494
)	-5.44184
(	-5.51916
了	-5.53145
.	-5.54269
s	-5.59598
?	-5.68493
有	-5.70074
中	-5.73413
等	-5.84314
我	-5.93408
不	-5.94558
可以	-6.00603
人	-6.02757
对	-6.07913
或	-6.08153
▁-	-6.12168
_	-6.14353
你	-6.15067
上	-6.18528
为	-6.22066
使用	-6.22093
一个	-6.26232
来	-6.27951
一	-6.297
の	-6.29749
e	-6.30139
年	-6.33178
并	-6.34261
“	-6.35131
与	-6.36441
需要	-6.4072
大	-6.43301
到	-6.45241
地	-6.47559
进行	-6.51834
▁=	-6.51948
出	-6.52675
-	-6.53199
を	-6.54359
用	-6.55715
将	-6.5675
而	-6.57514
性	-6.57675
以	-6.58568
这	-6.59305
o	-6.6122
一些	-6.61285
也	-6.62798
”	-6.63763
a	-6.64932
时	-6.6507
/	-6.65205
会	-6.66017
t	-6.67859
下	-6.68357
i	-6.7015
に	-6.71205
1	-6.7186
は	-6.7212
》	-6.72565
它	-6.73496
;	-6.74464
要	-6.75228
n	-6.76821
学习	-6.77746
2	-6.78488
提供	-6.79602
u	-6.7976
技术	-6.80842
更	-6.81965
y	-6.82432
多	-6.82765
后	-6.83744
c	-6.84258
p	-6.84755
"	-6.85285
可能	-6.8562
他	-6.85819
我们	-6.86667
您	-6.87267
**	-6.87275
子	-6.88543
d	-6.88684
能	-6.89074
问题	-6.90003
如	-6.90704
AI	-6.91253
高	-6.91642
C	-6.92627
小	-6.92697
が	-6.93084
被	-6.93751
这些	-6.94603
但	-6.94864
于	-6.96235
▁1.	-6.97412
行	-6.98686
好	-6.99482
!	-7.01101
《	-7.0131
化	-7.01599
吗	-7.02671
从	-7.03185
例如	-7.04053
3	-7.04085
你的	-7.06274
▁2.	-7.06909
这个	-7.08832
5	-7.09224
都	-7.10273
数据	-7.10319
就	-7.11404
或者	-7.11656
▁3.	-7.13235
通过	-7.13449
生	-7.1425
4	-7.14324
模型	-7.145
包括	-7.16007
▁(	-7.16573
▁#	-7.18203
其	-7.18445
▁|	-7.19235
力	-7.19393
面	-7.20317
`	-7.20538
f	-7.21001
人工智能	-7.21579
水	-7.21661
选择	-7.21673
中国	-7.21736
体	-7.22429
天	-7.22554
者	-7.22652
可	-7.22923
信息	-7.23291
な	-7.23316
之	-7.23544
S	-7.23654
最	-7.23684
度	-7.23728
新	-7.23806
如果	-7.24565
向	-7.24781
前	-7.25068
分	-7.2628
8	-7.26381
い	-7.26528
还	-7.27244
▁the	-7.27317
m	-7.27529
re	-7.27552
人类	-7.28191
生成	-7.2842
自己的	-7.2912
系统	-7.2942
能够	-7.29468
说	-7.2962
6	-7.30087
日	-7.3016
l	-7.30367
着	-7.31471
er	-7.31608
と	-7.32003
社会	-7.32198
7	-7.3317
A	-7.33432
心	-7.33514
成	-7.33573
他们	-7.33955
方法	-7.34093
当	-7.34149
时间	-7.34368
r	-7.34476
了解	-7.34702
外	-7.3513
自己	-7.36103
x	-7.36285
帮助	-7.36403
所	-7.36618
法	-7.37018
点	-7.37107
ar	-7.3757
语言	-7.38007
h	-7.38124
▁4.	-7.38422
家	-7.38678
量	-7.38794
▁```	-7.39001
]	-7.39147
▁**	-7.40343
ing	-7.4071
研究	-7.40802
去	-7.4123
个	-7.41393
D	-7.41432
▁"	-7.41433
任务	-7.42877
世界	-7.43848
名	-7.4387
▁a	-7.43934
数	-7.44883
光	-7.45268
但是	-7.45392
很	-7.45826
手	-7.46135
月	-7.46183
其他	-7.46481
以及	-7.46739
b	-7.46931
用户	-7.46959
做	-7.46994
如何	-7.47193
k	-7.47235
E	-7.48004
w	-7.49752
因此	-7.50007
建议	-7.50346
得	-7.50616
提高	-7.50847
公司	-7.51345
▁in	-7.51633
自	-7.51661
P	-7.51689
理解	-7.51712
让	-7.51956
没有	-7.52001
g	-7.52005
能力	-7.52127
无	-7.52849
作	-7.52975
意	-7.53634
长	-7.5436
过	-7.54864
是一个	-7.54916
か	-7.5498
发	-7.55035
非常	-7.55212
具有	-7.56158
请	-7.56526
知识	-7.56745
项目	-7.56844
物	-7.57395
T	-7.57428
它们	-7.57671
看	-7.57738
in	-7.57758
不同	-7.58325
里	-7.58388
中的	-7.58545
工作	-7.58756
存在	-7.58846
支持	-7.58926
M	-7.59155
学	-7.59231
服务	-7.59753
主要	-7.59991
实现	-7.6039
·	-7.60407
应用	-7.60614
v	-7.60699
部	-7.60931
本	-7.61355
发展	-7.61362
入	-7.61764
该	-7.62022
相	-7.62244
重	-7.62943
把	-7.62959
=	-7.63045
[	-7.63192
加	-7.64794
'	-7.64874
器	-7.65248
ed	-7.65326
B	-7.65571
写	-7.66538
文化	-7.66595
N	-7.66777
方式	-7.66809
代码	-7.66828
位	-7.67349
由	-7.674
处理	-7.67744
您的	-7.68225
):	-7.68235
ch	-7.68497
山	-7.6859
因为	-7.69115
る	-7.69121
分析	-7.69143
想	-7.69204
on	-7.69432
字	-7.69596
同	-7.69644
给	-7.69782
使	-7.69787
明	-7.70081
根据	-7.70093
则	-7.70163
美	-7.70491
设计	-7.70541
al	-7.70571
文本	-7.70913
情	-7.71631
是一种	-7.71952
▁*	-7.72065
深	-7.72225
it	-7.72459
国	-7.72652
先	-7.72802
领域	-7.73025
那	-7.73296
し	-7.73775
9	-7.73878
an	-7.73995
▁5.	-7.74081
回答	-7.74191
で	-7.74408
更加	-7.74523
内	-7.74843
影响	-7.75033
安全	-7.75034
流	-7.75231
函数	-7.75245
环境	-7.75416
管理	-7.75428
▁1	-7.75614
or	-7.75954
开	-7.76064
感	-7.76378
L	-7.77011
文件	-7.77167
同时	-7.78161
三	-7.78231
不同的	-7.78301
です	-7.78654
en	-7.788
20	-7.79046
动	-7.79064
制	-7.79175
这种	-7.79717
り	-7.80148
经济	-7.80178
通常	-7.80206
方	-7.80387
你可以	-7.80531
定	-7.80598
I	-7.81068
事	-7.81159
方面	-7.81477
文	-7.81726
0	-7.81898
一种	-7.82363
对于	-7.82399
比	-7.8268
应该	-7.82766
▁《	-7.82913
用于	-7.82992
机	-7.83147
所以	-7.83513
▁2	-7.84423
所有	-7.84452
le	-7.84573
es	-7.84875
主	-7.85182
▁for	-7.85252
起	-7.85419
算法	-7.85428
も	-7.85451
▁and	-7.85751
▁p	-7.85821
我的	-7.85974
再	-7.86295
()	-7.86316
R	-7.86377
%	-7.86671
ro	-7.87161
需求	-7.87338
作为	-7.87364
可能会	-7.87639
工具	-7.87898
开始	-7.88272
道	-7.89136
目标	-7.89511
政治	-7.89852
未来	-7.90058
▁of	-7.9013
各种	-7.90515
生活	-7.90525
内容	-7.90533
已经	-7.90705
国家	-7.90775
功能	-7.91066
任何	-7.91306
控制	-7.91464
她	-7.91494
花	-7.91637
解	-7.92538
合	-7.92926
▁我	-7.93107
く	-7.93715
▁to	-7.93828
理	-7.94089
as	-7.94275
什么	-7.94304
希望	-7.94319
F	-7.9554
开发	-7.95725
全	-7.96259
保持	-7.97074
值	-7.97082
呢	-7.97276
此	-7.9729
▁你好	-7.97386
O	-7.97425
比如	-7.97508
期	-7.98128
变	-7.98386
图像	-7.99028
然后	-7.99064
只	-7.99123
ー	-7.99219
每	-7.99228
G	-7.99741
进	-7.99745
人们	-8.00002
真	-8.00065
や	-8.00324
网络	-8.00324
原	-8.00636
头	-8.00752
并且	-8.0084
程序	-8.00934
气	-8.01091
為	-8.01135
训练	-8.01304
特	-8.01359
风	-8.01408
个人	-8.02322
un	-8.02471
相关	-8.02491
完成	-8.02528
计划	-8.02561
利用	-8.02676
类	-8.02917
要求	-8.02955
▁C	-8.03116
▁Assistant	-8.0318
之一	-8.03193
游戏	-8.03258
表	-8.03312
对话	-8.03381
都是	-8.04229
元	-8.04245
两	-8.04261
金	-8.04408
放	-8.04476
以下	-8.04597
低	-8.046
输入	-8.0485
其中	-8.04901
那么	-8.05086
共同	-8.05129
色	-8.05174
无法	-8.05209
产生	-8.0547
基于	-8.0572
关于	-8.05893
比较	-8.06011
关系	-8.06018
10	-8.06234
市场	-8.06265
回	-8.06292
产品	-8.06482
成为	-8.06962
て	-8.07066
▁P	-8.07146
來	-8.07157
海	-8.07447
次	-8.07652
计算	-8.07701
受	-8.07712
▁{	-8.07815
式	-8.07901
强	-8.08145
自然	-8.08392
平	-8.08736
南	-8.08829
▁is	-8.08949
法律	-8.09065
又	-8.09074
き	-8.09336
at	-8.09643
▁f	-8.09662
书	-8.10008
する	-8.10009
星	-8.10057
表示	-8.10077
像	-8.10199
對	-8.10296
智能	-8.10464
清	-8.10552
▁你	-8.10556
健康	-8.11047
公	-8.11168
口	-8.11417
情感	-8.11548
正	-8.11794
ra	-8.11934
率	-8.12049
是否	-8.12291
代	-8.12301
非	-8.1276
空	-8.12891
平台	-8.13078
电	-8.13105
反	-8.1317
品	-8.13344
不能	-8.14124
▁S	-8.14814
▁}	-8.14882
ic	-8.14903
节	-8.14971
语言模型	-8.15705
执行	-8.15847
白	-8.16252
路	-8.16273
应	-8.16278
れ	-8.16322
取	-8.16492
就是	-8.1676
少	-8.16958
st	-8.17122
增加	-8.17551
认为	-8.17849
部分	-8.17958
如果你	-8.17988
除	-8.18031
出现	-8.181
活动	-8.18202
com	-8.18272
解决	-8.18341
://	-8.18452
▁self	-8.18789
此外	-8.1879
二	-8.18957
菜	-8.18977
约	-8.1917
H	-8.19558
才	-8.20006
時	-8.20038
台	-8.2024
例	-8.20296
权	-8.20466
编程	-8.20804
id	-8.20814
斯	-8.20858
问	-8.20874
▁x	-8.21352
词	-8.21365
這	-8.21367
实	-8.2137
数学	-8.21512
il	-8.22486
食	-8.22637
西	-8.22719
W	-8.22752
不断	-8.22776
推荐	-8.22778
车	-8.22782
我可以	-8.22792
19	-8.23067
▁de	-8.2311
也是	-8.23394
质	-8.23406
▁E	-8.23409
型	-8.23546
▁在	-8.23709
十	-8.23721
お	-8.23864
目前	-8.23939
上的	-8.24068
吃	-8.24075
现在	-8.24105
de	-8.24244
市	-8.24265
单	-8.24355
具体	-8.24386
质量	-8.24633
Open	-8.24679
总	-8.24712
步	-8.24741
▁A	-8.24842
香	-8.24989
建立	-8.25034
科学	-8.25066
▁print	-8.25115
▁好的	-8.25214
财产	-8.25632
语	-8.25648
身	-8.25731
不是	-8.25783
通	-8.26142
历史	-8.26165
言	-8.26249
▁c	-8.26417
K	-8.26727
最后	-8.26738
见	-8.26953
的问题	-8.2699
女	-8.27004
您可以	-8.27011
诗	-8.27051
https	-8.27082
带	-8.27115
成本	-8.27473
利	-8.27938
▁B	-8.27949
民	-8.28138
▁//	-8.28208
资源	-8.28447
▁'	-8.28568
「	-8.28761
不要	-8.28881
源	-8.28973
操作	-8.28995
场	-8.29239
号	-8.29327
很多	-8.29438
四	-8.29643
」	-8.29646
▁0	-8.29759
政府	-8.29946
及	-8.30384
精	-8.30406
即	-8.30418
准备	-8.30452
避免	-8.30541
得到	-8.30613
太	-8.30762
种	-8.30925
打	-8.31083
至	-8.31391
並	-8.31428
库	-8.31622
确定	-8.31822
的发展	-8.32028
ン	-8.32035
一個	-8.32157
发生	-8.3252
安	-8.32578
神	-8.32578
python	-8.32655
日本	-8.33122
ri	-8.33268
确保	-8.33299
2.	-8.33361
z	-8.33514
▁M	-8.338
许多	-8.33873
获得	-8.33893
条件	-8.33898
论	-8.34041
ma	-8.34133
火	-8.34192
设备	-8.34201
还是	-8.3443
表达	-8.34496
▁+	-8.34518
#	-8.34708
基础	-8.34783
万	-8.34814
た	-8.34877
j	-8.34962
立	-8.34978
以下是	-8.35384
V	-8.3543
知	-8.35581
老	-8.35714
▁>	-8.35854
数字	-8.35869
导致	-8.35929
新的	-8.36023
保护	-8.36076
这是	-8.36088
发现	-8.36158
交	-8.362
us	-8.36229
會	-8.36271
之间的	-8.36354
转	-8.36357
调	-8.36467
教	-8.36542
从而	-8.36592
近	-8.36612
油	-8.36674
克	-8.36683
挑战	-8.36712
▁d	-8.3683
更多	-8.36867
雪	-8.37018
复	-8.37199
句	-8.37202
行为	-8.37279
商	-8.37288
U	-8.37527
ta	-8.37585
技能	-8.37648
("	-8.37678
ます	-8.37717
接	-8.37776
生物	-8.37789
可以通过	-8.37802
▁m	-8.37941
音乐	-8.38009
因素	-8.38028
声	-8.38048
▁6.	-8.38074
情况	-8.38366
已	-8.38526
美国	-8.38569
:“	-8.38585
找到	-8.38591
ter	-8.38624
冷	-8.38625
专业	-8.38642
++	-8.38648
th	-8.38669
每个	-8.38841
适合	-8.38871
te	-8.3895
交流	-8.38999
热	-8.39175
这样	-8.39505
建	-8.39602
is	-8.4005
▁D	-8.40144
结构	-8.40174
▁G	-8.40259
虽然	-8.40273
考虑	-8.40273
一般	-8.40277
图	-8.40285
温	-8.40509
曲	-8.40558
几	-8.40639
全球	-8.40941
作品	-8.40997
有什么	-8.41096
ChatGPT	-8.41117
线	-8.41336
爱	-8.41447
两个	-8.41535
定义	-8.4154
注意	-8.41542
获取	-8.41607
快	-8.41997
合作	-8.42071
共	-8.42147
一下	-8.42261
第	-8.42269
输出	-8.4259
更多的	-8.42776
复杂	-8.42796
级	-8.42986
重要	-8.42999
故事	-8.43161
演	-8.43214
▁if	-8.43232
以上	-8.43256
处	-8.43662
他的	-8.43718
开源	-8.43831
け	-8.43882
方向	-8.43931
运动	-8.43971
me	-8.44118
计算机	-8.44188
首	-8.44248
後	-8.44281
远	-8.44287
端	-8.44293
风险	-8.44304
编程语言	-8.44379
由于	-8.44454
味	-8.44472
企业	-8.44984
拉	-8.44989
代表	-8.45034
片	-8.45284
材料	-8.45346
▁b	-8.45587
效率	-8.45667
做出	-8.45778
软件	-8.46031
添加	-8.46034
思考	-8.46041
思想	-8.46063
别	-8.46135
▁T	-8.46305
更好地	-8.4635
条	-8.46359
参数	-8.46383
台湾	-8.46402
ら	-8.46499
——	-8.46728
称	-8.46732
电影	-8.46747
size	-8.46784
运行	-8.46852
學	-8.47073
理论	-8.47124
各	-8.47174
GPT	-8.47226
形	-8.47275
价值	-8.47308
Python	-8.47605
超	-8.47703
简	-8.47757
题	-8.47791
层	-8.48095
落	-8.48413
して	-8.48454
选	-8.48475
经验	-8.48617
存	-8.48646
拥有	-8.48726
って	-8.48776
报	-8.4878
持	-8.48799
听	-8.48864
政策	-8.48864
的信息	-8.48914
元素	-8.48967
观	-8.48993
水平	-8.49096
肉	-8.49218
间	-8.49381
指	-8.49401
す	-8.49509
马	-8.49579
米	-8.4959
的人	-8.49711
项	-8.50004
”,	-8.50233
某些	-8.5031
关注	-8.50319
う	-8.50627
\	-8.50671
局	-8.50674
受到	-8.50701
sh	-8.50706
ve	-8.50799
и	-8.5104
结果	-8.51249
▁3	-8.51294
▁se	-8.51297
界	-8.51304
必须	-8.51407
谢谢	-8.51408
背景	-8.51411
喜欢	-8.51411
话	-8.51466
难	-8.51492
消	-8.51583
自由	-8.51844
文章	-8.52024
详细	-8.52132
數	-8.52145
何	-8.52178
集	-8.52274
多个	-8.52374
工	-8.52413
感到	-8.52483
介绍	-8.52498
幸福	-8.52519
動	-8.52521
百度	-8.52564
优化	-8.52594
短	-8.52884
网站	-8.52902
贡献	-8.53261
投资	-8.53263
视频	-8.53273
制定	-8.53352
私	-8.53361
▁la	-8.53394
”。	-8.53441
性能	-8.53492
ま	-8.5355
切	-8.53615
华	-8.53638
款	-8.5384
音	-8.5392
战	-8.53981
科技	-8.54021
学生	-8.54041
变化	-8.54174
▁如果	-8.54221
乐	-8.54321
过程中	-8.54326
德	-8.54357
古	-8.54368
效果	-8.54417
▁[	-8.54424
推	-8.54477
快速	-8.54617
的影响	-8.54694
简单	-8.54774
50	-8.54776
im	-8.54776
创新	-8.55181
主题	-8.55586
la	-8.55869
▁you	-8.5587
识别	-8.55922
教育	-8.55938
因	-8.55976
ir	-8.56037
提出	-8.56079
收	-8.56171
不会	-8.56306
干	-8.56312
el	-8.56337
▁be	-8.56446
列	-8.5652
完全	-8.56715
成功	-8.56725
身体	-8.568
较	-8.56817
包	-8.57033
笑	-8.57063
防	-8.57078
直接	-8.57102
15	-8.57123
深度学习	-8.57136
他们的	-8.57257
准确	-8.57268
任	-8.57463
命令	-8.57485
预测	-8.57487
▁请	-8.57609
▁R	-8.5767
12	-8.57764
つ	-8.57873
00	-8.57875
地区	-8.57984
规定	-8.5819
然	-8.58234
人的	-8.58532
然而	-8.58568
se	-8.58586
传	-8.58647
满足	-8.58663
作用	-8.58813
如果您	-8.58903
备	-8.59027
参与	-8.59099
经	-8.59205
容	-8.59329
红	-8.59827
客	-8.59828
▁return	-8.59858
作者	-8.59993
引	-8.6
微	-8.60155
於	-8.6017
创造	-8.60188
服	-8.60212
to	-8.60216
传统	-8.6026
判断	-8.60264
▁5	-8.60317
果	-8.60404
区	-8.60436
與	-8.60662
价格	-8.60671
是什么	-8.60879
可以使用	-8.609
之前	-8.60943
尔	-8.61062
青	-8.61064
個	-8.61071
一样	-8.61104
云	-8.61473
河	-8.61473
包含	-8.61538
11	-8.6155
编写	-8.61821
标准	-8.61889
以下是一些	-8.62059
30	-8.62133
极	-8.62254
石	-8.62291
);	-8.62646
周	-8.62659
它的	-8.62687
е	-8.62703
社区	-8.63105
国际	-8.63115
地球	-8.63199
天气	-8.63251
目	-8.63316
▁4	-8.63414
助手	-8.6349
搜索	-8.63529
▁总之	-8.63537
2023	-8.63545
▁I	-8.63691
ol	-8.63748
景	-8.63783
江	-8.6389
料	-8.63904
保	-8.63913
解释	-8.63928
ス	-8.63941
按照	-8.6396
限制	-8.63986
之间	-8.64047
未	-8.64125
>	-8.64132
具	-8.64342
將	-8.64367
预	-8.64372
え	-8.64458
讲	-8.64761
城市	-8.64807
事件	-8.64854
加入	-8.64923
实际	-8.65124
装	-8.65187
联系	-8.65214
才能	-8.65235
self	-8.65509
我会	-8.65511
关	-8.6555
越	-8.65596
血	-8.65634
还有	-8.65717
常	-8.65805
▁t	-8.65976
可以在	-8.66053
持续	-8.66075
位置	-8.66096
目的	-8.6624
第一	-8.66284
边	-8.66351
治	-8.66432
主义	-8.66501
第二	-8.66524
观点	-8.66561
尝试	-8.66598
尽	-8.66732
达到	-8.66841
lo	-8.66898
分割	-8.66925
系列	-8.6708
do	-8.67251
性的	-8.67254
自动	-8.67321
眼	-8.67345
王	-8.67346
形式	-8.67376
门	-8.67483
医	-8.67649
一定	-8.67686
飞	-8.6778
减少	-8.67794
应用程序	-8.67873
▁F	-8.67873
▁i	-8.67977
创建	-8.68029
all	-8.6804
达	-8.68123
+	-8.68152
ha	-8.68161
势	-8.68194
努力	-8.68218
风格	-8.6824
药	-8.68276
改	-8.68432
。”	-8.68499
体验	-8.68594
酒	-8.68605
归	-8.68642
▁n	-8.687
信	-8.68817
ない	-8.6889
ur	-8.68963
类型	-8.68999
剧	-8.6908
夜	-8.69088
")	-8.69259
数量	-8.69291
描述	-8.69318
200	-8.6934
今	-8.69357
知道	-8.69478
log	-8.69629
具体的	-8.6965
优	-8.69767
北	-8.69882
失	-8.69897
组织	-8.69973
改变	-8.70007
导	-8.70322
if	-8.70347
五	-8.7038
李白	-8.70443
带来	-8.70658
过程	-8.7072
并不	-8.70763
群	-8.70791
散	-8.70792
み	-8.70862
寻找	-8.70867
空间	-8.70888
こと	-8.71151
ate	-8.71205
为了	-8.71256
草	-8.7131
num	-8.71319
人类的	-8.71331
没	-8.71433
提供了	-8.71543
更新	-8.71644
测	-8.71666
奇	-8.71669
离	-8.71702
差	-8.71749
吧	-8.7176
语法	-8.71862
也可以	-8.72057
视	-8.72091
った	-8.72181
效	-8.7219
住	-8.72198
NLP	-8.72214
以便	-8.72449
李	-8.72583
о	-8.72641
轻	-8.72653
朋友	-8.72669
继续	-8.72673
这里	-8.72715
属于	-8.72952
ce	-8.73071
举	-8.73108
调整	-8.73149
心理	-8.73218
你需要	-8.7326
业	-8.73397
实践	-8.73583
角色	-8.73608
提取	-8.73609
自然语言处理	-8.73624
18	-8.73642
排	-8.73888
只是	-8.73995
你能	-8.74
众	-8.74014
▁import	-8.74045
错误	-8.74052
优势	-8.74065
時間	-8.74066
交易	-8.74071
证	-8.74109
如下	-8.7413
から	-8.74183
都有	-8.74193
状态	-8.74203
看到	-8.74243
tra	-8.74253
只有	-8.74281
J	-8.74506
さ	-8.74531
等等	-8.74557
算	-8.74566
深入	-8.74644
现代	-8.74652
中文	-8.74734
东	-8.7487
望	-8.74929
os	-8.75351
歌	-8.75371
現	-8.75393
维	-8.75399
經	-8.75438
模式	-8.75447
的能力	-8.75564
行动	-8.75694
mo	-8.75861
整	-8.75878
练习	-8.75911
精神	-8.75942
-3	-8.75999
▁def	-8.76038
▁as	-8.76058
程	-8.76245
特定	-8.76284
走	-8.76303
州	-8.76375
自我	-8.7641
面试	-8.76425
适	-8.76468
制度	-8.76571
按	-8.76839
怎么	-8.76842
思	-8.77141
军	-8.77148
',	-8.7719
有助于	-8.77333
ん	-8.77366
一份	-8.774
性和	-8.77464
nd	-8.77635
ver	-8.77769
治疗	-8.77809
查询	-8.77811
ent	-8.77841
而且	-8.77928
他人	-8.7797
的方法	-8.77997
嗎	-8.78291
問題	-8.78292
改进	-8.78329
制作	-8.78346
这一	-8.7838
こ	-8.7839
件	-8.78405
造	-8.78641
限	-8.78655
我是	-8.78698
送	-8.78723
照	-8.78736
雨	-8.78772
わ	-8.78773
體	-8.78774
國	-8.78934
機	-8.7921
画	-8.79211
世	-8.79224
ation	-8.79263
开放	-8.79384
qu	-8.79419
生产	-8.79538
ly	-8.79622
几个	-8.79642
開	-8.7973
病	-8.79737
千	-8.79746
广泛	-8.7999
素	-8.80007
め	-8.80023
▁L	-8.80112
压	-8.80149
管	-8.80184
农业	-8.80234
長	-8.80236
阅读	-8.80241
随着	-8.80279
增	-8.80353
稳定	-8.80641
换	-8.80679
16	-8.80844
时期	-8.81047
ですか	-8.81072
ct	-8.81075
造成	-8.81225
领域的	-8.81226
聊天	-8.81241
形成	-8.81317
大量	-8.81462
亲	-8.81712
游	-8.81717
疑	-8.81723
指令	-8.81731
加强	-8.81759
▁w	-8.81826
易	-8.82085
友	-8.82116
组	-8.8224
基	-8.82384
一起	-8.82443
早	-8.82473
▁–	-8.82488
首先	-8.82518
是指	-8.82582
気	-8.82718
决定	-8.82737
论文	-8.82788
意义	-8.82962
帮	-8.83117
却	-8.8322
翻译	-8.83226
男	-8.83227
掌握	-8.8323
检查	-8.83232
|	-8.83532
▁range	-8.83759
意思	-8.83789
机会	-8.83804
来说	-8.8381
相关的	-8.83955
した	-8.83976
100	-8.84019
表现	-8.8406
ル	-8.84243
明确	-8.84259
修改	-8.84265
物质	-8.84445
重新	-8.84492
基本	-8.84556
人民	-8.84749
還	-8.8476
家庭	-8.84813
特点	-8.8491
行业	-8.85106
配	-8.8513
po	-8.85181
液	-8.85268
應	-8.85272
了一个	-8.85281
图片	-8.85302
速度	-8.85315
找	-8.85328
ww	-8.85387
▁en	-8.85589
▁are	-8.85635
战争	-8.85803
到了	-8.85864
重要的	-8.86275
策略	-8.86321
14	-8.86343
是由	-8.86582
这个问题	-8.86638
一定的	-8.867
▁el	-8.86764
修	-8.86767
玩	-8.86782
哲学	-8.86844
对象	-8.86986
符合	-8.87006
自然语言	-8.87132
а	-8.87358
見	-8.87365
设置	-8.87373
安装	-8.87396
生命	-8.87416
说明	-8.87489
格	-8.87601
▁con	-8.8763
便	-8.8768
特征	-8.879
英	-8.88095
春	-8.88298
X	-8.88402
寻求	-8.88432
我們	-8.8846
为什么	-8.88857
领	-8.8892
续	-8.8894
提升	-8.88966
机构	-8.88976
交通	-8.89023
文字	-8.8903
创作	-8.89079
人口	-8.8912
全面	-8.8915
合理	-8.89288
概念	-8.89376
so	-8.89428
给出	-8.89439
显示	-8.89446
では	-8.8947
参加	-8.89514
指导	-8.89523
不过	-8.89528
积极	-8.89538
方面的	-8.89546
*	-8.89693
们	-8.89829
步骤	-8.90007
士	-8.9003
评估	-8.90042
进一步	-8.90051
▁or	-8.9013
一直	-8.90208
よ	-8.90491
置	-8.90509
张	-8.90537
偏	-8.90546
end	-8.9055
話	-8.90552
死	-8.90572
协议	-8.90586
甚至	-8.90586
返回	-8.9061
最终	-8.90617
▁7.	-8.90672
ため	-8.9082
供	-8.91085
過	-8.91087
框架	-8.9113
互联网	-8.91132
评价	-8.91133
资料	-8.91142
▁The	-8.91161
可以帮助	-8.91192
我们的	-8.9127
▁v	-8.91279
活	-8.91367
初	-8.91606
告	-8.91644
т	-8.91688
规则	-8.91693
その	-8.91716
不仅	-8.91909
▁是的	-8.91977
提	-8.92014
工程	-8.92114
师	-8.92171
站	-8.9222
付	-8.92225
树	-8.9223
且	-8.92448
必	-8.92667
進	-8.92691
范围	-8.92746
著	-8.92761
夫妻	-8.92778
帮我	-8.929
ng	-8.93335
糖	-8.93345
value	-8.93347
促进	-8.93353
访问	-8.93353
的生活	-8.93468
有很多	-8.93585
Y	-8.93617
结	-8.9365
需	-8.93767
广	-8.93854
队	-8.93885
bo	-8.93902
省	-8.93908
求	-8.93914
仍然	-8.9392
测试	-8.93922
网	-8.94027
最好	-8.94411
с	-8.94472
结合	-8.94506
art	-8.94589
房	-8.95028
桥	-8.95029
午	-8.95043
序列	-8.95096
道德	-8.95096
手机	-8.95217
员	-8.95389
更好的	-8.95473
唐	-8.95563
城	-8.95575
假	-8.95603
土	-8.9561
batch	-8.95612
存储	-8.95619
改善	-8.95623
编	-8.95657
变量	-8.95784
的方式	-8.95812
足	-8.95897
可以帮助你	-8.95909
布	-8.96055
one	-8.96074
很好	-8.96078
异	-8.9613
循环	-8.96177
には	-8.96178
啊	-8.96183
追求	-8.96195
}	-8.96285
数据库	-8.96417
座	-8.96603
多种	-8.96617
朝	-8.9675
抗	-8.96758
建筑	-8.96762
今天	-8.96859
美元	-8.96875
per	-8.96906
直	-8.96954
哪些	-8.96982
来源	-8.97128
想要	-8.97159
不可	-8.9733
富	-8.97344
使得	-8.97406
采用	-8.97417
接受	-8.97513
人生	-8.97542
q	-8.97617
控	-8.97889
н	-8.97912
皮	-8.97926
▁with	-8.9793
沟通	-8.97934
探索	-8.97939
提示	-8.97943
还可以	-8.97973
▁<	-8.98247
哪	-8.98372
語	-8.98446
罗	-8.98507
安排	-8.98548
及时	-8.98557
觉得	-8.98594
▁根据	-8.98607
压力	-8.9861
13	-8.98682
小时	-8.98899
だ	-8.9891
移	-8.98922
建设	-8.98971
中心	-8.99022
百	-8.99028
ry	-8.99034
感受	-8.99106
せ	-8.99108
從	-8.99109
▁cv	-8.99132
证明	-8.99167
int	-8.99381
这是一个	-8.99471
原因	-8.99526
問	-8.99698
繁	-8.99703
措施	-8.99706
团队	-8.99712
维护	-8.99714
区别	-8.99739
交互	-8.99811
ok	-9.00142
止	-9.00271
职	-9.00282
宇宙	-9.00304
リ	-9.00305
认识	-9.00306
▁`	-9.00307
讨论	-9.00307
检测	-9.00309
社交	-9.00324
right	-9.0034
核心	-9.00352
进步	-9.00377
必要	-9.00431
▁g	-9.00434
应对	-9.00683
出来	-9.00703
ment	-9.00792
击	-9.00837
小说	-9.00837
-4	-9.00872
政	-9.00886
室	-9.00904
完整	-9.00918
name	-9.00931
女孩	-9.01024
给我	-9.01208
▁y	-9.01214
一次	-9.0129
版	-9.01318
投	-9.01353
em	-9.01394
专	-9.01417
时候	-9.0142
點	-9.0151
請	-9.01512
取决于	-9.01513
▁Japanese	-9.01615
ga	-9.01642
人物	-9.01915
务	-9.01927
联	-9.02061
射	-9.0208
展示	-9.02114
▁that	-9.02125
机器学习	-9.02174
反应	-9.02199
$	-9.02222
注	-9.02527
分钟	-9.02543
份	-9.02562
责任	-9.02689
的代码	-9.02715
車	-9.02737
林	-9.02738
降低	-9.0277
ca	-9.02864
起来	-9.02881
▁AI	-9.0304
现	-9.0324
大量的	-9.03268
黄	-9.03321
業	-9.03348
方案	-9.03354
那些	-9.03365
预算	-9.03379
之后	-9.03381
分享	-9.03385
针对	-9.03457
标	-9.03606
No	-9.03625
state	-9.03641
类似	-9.03895
让我们	-9.03934
的话	-9.03951
兴	-9.03962
跟	-9.03973
逻辑	-9.03975
购买	-9.0398
尊重	-9.0399
分类	-9.04169
想法	-9.04217
角	-9.04438
兴趣	-9.04555
input	-9.04555
▁su	-9.04592
采取	-9.04611
配置	-9.04617
银行	-9.0482
同时也	-9.04834
当前	-9.04991
降	-9.05063
院	-9.05154
追	-9.05203
六	-9.05217
na	-9.05246
有着	-9.0533
ac	-9.05407
程度	-9.05409
试	-9.0571
あ	-9.05749
息	-9.05818
钱	-9.0586
text	-9.05861
派	-9.05861
left	-9.05861
温度	-9.05998
官	-9.06
版本	-9.06006
中国的	-9.06124
而是	-9.06256
参考	-9.06265
曾	-9.06435
季	-9.06465
イ	-9.06474
久	-9.06498
反馈	-9.06499
收集	-9.06531
权利	-9.06557
居	-9.06689
的数据	-9.06718
ge	-9.06722
code	-9.06726
間	-9.0687
遇	-9.06974
質	-9.07139
ア	-9.07143
双方	-9.07162
考	-9.07263
out	-9.07356
ist	-9.07401
随	-9.0741
ion	-9.07602
场景	-9.07775
烤	-9.07786
宝	-9.07787
消息	-9.07816
请求	-9.07846
put	-9.08
的故事	-9.08029
有关	-9.08035
数组	-9.08383
豆	-9.08416
颜色	-9.08423
决策	-9.08435
态	-9.08436
data	-9.08453
▁que	-9.08469
程序员	-9.08472
增长	-9.08503
界面	-9.08566
为您	-9.08574
ie	-9.08697
25	-9.08752
愿	-9.09026
吸引	-9.091
▁H	-9.09101
除了	-9.09184
校	-9.09191
遇到	-9.09246
res	-9.09277
▁19	-9.09509
▁com	-9.09523
而不是	-9.09636
ul	-9.09699
書	-9.09748
课程	-9.09752
太阳	-9.09764
商业	-9.09764
艺术	-9.0982
しい	-9.10017
请问	-9.10141
的重要	-9.10168
独	-9.10181
待	-9.10221
第三	-9.10302
影	-9.10354
域	-9.10377
登	-9.10384
炒	-9.10402
木	-9.1041
打开	-9.10505
1.	-9.106
▁10	-9.10734
ia	-9.10754
是中国	-9.1079
费	-9.10876
{	-9.10955
封	-9.11064
讓	-9.11073
介	-9.11074
go	-9.11263
▁Open	-9.11335
晚	-9.1153
答案	-9.11562
在线	-9.11594
威	-9.11716
Q	-9.1172
保证	-9.11738
静	-9.11741
编译	-9.11751
的目标	-9.11848
数据集	-9.11882
机制	-9.11894
80	-9.1216
她的	-9.12271
孩子	-9.12323
境	-9.12351
的内容	-9.1236
冲	-9.12412
竞争	-9.12424
半	-9.12427
社交媒体	-9.1243
连接	-9.12444
wa	-9.12491
原则	-9.1256
美好	-9.12801
pe	-9.1289
我们可以	-9.13101
什麼	-9.13102
传感器	-9.13102
链接	-9.13114
利益	-9.13126
新闻	-9.1313
原理	-9.13211
无论	-9.13221
**。	-9.13509
類	-9.13524
留	-9.13644
示	-9.13667
跨	-9.13753
关键	-9.13772
ラ	-9.13788
選	-9.13789
部门	-9.13866
ll	-9.13921
推动	-9.1396
当地	-9.14038
组成	-9.14083
py	-9.14143
有哪些	-9.14221
刻	-9.14304
享受	-9.14414
The	-9.14439
神经网络	-9.14458
巴	-9.14464
智慧	-9.14471
汉	-9.14472
當	-9.14477
适应	-9.14622
语音	-9.14662
服务器	-9.14701
io	-9.14761
现实	-9.1485
金融	-9.14912
板	-9.15121
暖	-9.15147
北京	-9.15179
负责	-9.15228
食物	-9.153
可能是	-9.15657
块	-9.15672
诗人	-9.15681
略	-9.1584
农	-9.15851
弹	-9.15864
列表	-9.15865
幫助	-9.15872
密	-9.16138
长期	-9.16222
')	-9.16274
大学	-9.16428
黑	-9.16537
细	-9.16539
占	-9.16544
ち	-9.1655
史	-9.16562
误	-9.16564
&	-9.16574
买	-9.16576
独立	-9.16605
话题	-9.16645
复杂的	-9.16876
劳动	-9.16934
含	-9.16941
社	-9.17082
有效	-9.17189
um	-9.17277
店	-9.1728
^	-9.17283
经历	-9.17302
ine	-9.1742
很大	-9.17472
模型的	-9.17539
發	-9.17893
益	-9.17909
容易	-9.17918
激	-9.17929
县	-9.17956
价	-9.17976
技巧	-9.17997
▁您好	-9.18042
和平	-9.18052
的时间	-9.18141
ab	-9.18214
随时	-9.183
更高	-9.18306
co	-9.18461
('	-9.18655
儿	-9.18707
別	-9.18715
经典	-9.18725
引起	-9.18787
美食	-9.18836
面对	-9.18871
许	-9.18884
▁j	-9.18917
速	-9.19069
相比	-9.19304
烟	-9.19434
死亡	-9.19444
债务	-9.19445
现象	-9.19448
流程	-9.19509
真实	-9.19531
します	-9.19539
会议	-9.19548
涉及到	-9.19596
▁In	-9.19959
高效	-9.19987
有些	-9.20101
伤	-9.20156
內	-9.20171
上下文	-9.20173
汽车	-9.2018
左右	-9.20192
感觉	-9.20196
17	-9.20408
动物	-9.20465
只能	-9.20508
▁no	-9.20522
的历史	-9.20688
涉及	-9.20757
穿	-9.20837
规划	-9.20906
強	-9.20907
・	-9.2091
读取	-9.20935
回复	-9.2098
的时候	-9.21123
每天	-9.2117
▁Python	-9.21294
》(	-9.21312
▁can	-9.21342
的工作	-9.21573
以确保	-9.21577
历	-9.21604
說	-9.21613
杀	-9.21645
亮	-9.2165
世纪	-9.21653
支付	-9.21659
业务	-9.21667
语句	-9.21708
分别	-9.21795
过去	-9.21972
可以根据	-9.21994
强大的	-9.22332
连	-9.2236
聚	-9.2239
風	-9.22392
じ	-9.22394
取得	-9.22534
地方	-9.22537
▁int	-9.22606
流行	-9.22796
▁首先	-9.22807
往	-9.23022
人工	-9.23074
▁Y	-9.23087
示例	-9.23128
架构	-9.23149
记录	-9.23152
增强	-9.23193
的情况	-9.2326
承	-9.2366
▁torch	-9.23667
助	-9.23783
也有	-9.23798
波	-9.23863
依	-9.23863
實	-9.23887
恐	-9.23896
в	-9.23903
员工	-9.23923
より	-9.23959
的主要	-9.23976
▁当然可以	-9.24089
中药	-9.24469
ant	-9.24478
等方面	-9.24554
争	-9.24636
逐渐	-9.24665
泡	-9.24667
怀	-9.24668
很高兴	-9.24672
客户	-9.2468
困难	-9.24683
正常	-9.24721
進行	-9.24794
60	-9.24869
事物	-9.24886
事实	-9.24943
人员	-9.24948
格式	-9.24971
错	-9.25
不足	-9.25027
球	-9.252
OpenAI	-9.25264
▁V	-9.25388
卡	-9.25413
范	-9.25427
組	-9.25434
酸	-9.25434
惊	-9.25436
open	-9.25436
雷	-9.25441
攻击	-9.25443
lu	-9.25443
构建	-9.25445
另外	-9.2545
电脑	-9.25465
书籍	-9.25475
等领域	-9.25477
▁es	-9.25636
值得	-9.25636
str	-9.25659
进入	-9.25993
也会	-9.26037
など	-9.26071
资	-9.2618
痛	-9.26202
志	-9.26213
睡眠	-9.26216
科幻小说	-9.26221
思维	-9.26236
られ	-9.26274
ni	-9.26368
展	-9.26486
难以	-9.26503
开发的	-9.26515
电子	-9.2653
一点	-9.26608
ity	-9.26698
作为一个	-9.26842
倒	-9.26991
掉	-9.26991
變	-9.26992
array	-9.26992
數據	-9.26993
状况	-9.26995
安全性	-9.27262
模	-9.27671
读	-9.27675
丰富	-9.27686
双	-9.27727
科幻	-9.27774
亚	-9.27775
冰	-9.27775
野	-9.27776
贵	-9.27785
饭	-9.27787
总结	-9.2782
对方	-9.27827
内存	-9.28101
est	-9.28115
为你	-9.28376
▁$	-9.28443
命	-9.28478
叫	-9.2852
园	-9.28545
杯	-9.28549
余	-9.28572
扩展	-9.28573
锅	-9.28575
弱	-9.28577
一切	-9.2858
移动	-9.28796
24	-9.28932
就可以	-9.29088
ou	-9.29102
常见的	-9.29262
宗	-9.29325
湖	-9.29369
詩	-9.29369
奖	-9.2937
尼	-9.29372
英雄	-9.29382
文档	-9.29387
事情	-9.2945
费用	-9.29556
ure	-9.29558
set	-9.29619
ai	-9.29658
婚姻	-9.29709
喜	-9.30039
支	-9.30068
脑	-9.30144
让我	-9.30151
正确	-9.30151
餐	-9.30152
害	-9.30161
毒	-9.30165
判	-9.30165
猫	-9.30171
調	-9.30179
途	-9.30183
他們	-9.30194
差异	-9.30205
美丽	-9.30206
和其他	-9.30207
整个	-9.30281
ang	-9.30456
的行为	-9.30613
升	-9.30742
いた	-9.30779
ba	-9.30792
oo	-9.30801
され	-9.30819
显	-9.30896
語言	-9.30925
记	-9.30943
__	-9.31016
导师	-9.31018
商品	-9.3107
pa	-9.31085
相信	-9.31085
ell	-9.31089
某个	-9.31142
当然	-9.31217
认	-9.31367
独特的	-9.3139
感受到	-9.31403
给你	-9.31489
70	-9.316
序	-9.31669
適	-9.31776
結	-9.31783
楼	-9.31802
盐	-9.31808
九	-9.3181
影響	-9.31812
л	-9.31812
同样	-9.31839
丰富的	-9.31911
本身	-9.31955
注重	-9.31972
正在	-9.32117
真正	-9.3226
补	-9.32338
可以尝试	-9.32426
需求和	-9.32453
ク	-9.32628
欢迎	-9.32643
man	-9.32644
确实	-9.32648
官方	-9.32693
礼	-9.3276
不知道	-9.32976
实时	-9.33031
="	-9.3321
我认为	-9.3336
一部	-9.33421
露	-9.33439
状	-9.3344
底	-9.33451
種	-9.33461
亿	-9.33467
习惯	-9.33472
タ	-9.33473
情绪	-9.33475
股票	-9.33481
东西	-9.33518
面临	-9.33531
read	-9.33538
的事情	-9.33568
超过	-9.33602
...	-9.33623
机器人	-9.3366
旅行	-9.33663
角度	-9.33683
row	-9.33711
时代	-9.3372
帮助你	-9.3379
即使	-9.33794
向量	-9.33977
的地方	-9.34038
ff	-9.34058
国内	-9.34123
▁on	-9.34182
px	-9.34229
婚	-9.34263
助理	-9.34279
沙	-9.34303
警	-9.34313
实施	-9.34325
在中国	-9.34475
特别	-9.34566
科	-9.3461
载	-9.34641
的结果	-9.34642
系	-9.34925
满	-9.35063
無	-9.35096
武	-9.35105
地位	-9.35137
衣	-9.35145
养	-9.35152
总的来说	-9.35161
申请	-9.35187
文明	-9.353
場合	-9.3536
大家	-9.35396
もの	-9.35441
▁by	-9.35449
があります	-9.35452
段	-9.35608
并在	-9.35661
验证	-9.35762
案	-9.35939
负	-9.3594
区块链	-9.36014
愛	-9.36015
寫	-9.36015
ド	-9.3602
相互	-9.36022
阶段	-9.36026
饮食	-9.36039
具备	-9.36053
また	-9.36073
ので	-9.36111
代理	-9.36138
名称	-9.36161
对比	-9.36221
一首	-9.36236
感情	-9.36239
我想	-9.36308
某	-9.36685
▁这是	-9.367
仍	-9.36854
構	-9.36866
剂	-9.36879
卖	-9.36882
别人	-9.36914
合法	-9.36962
ad	-9.36981
态度	-9.37026
con	-9.37037
节点	-9.37092
ig	-9.37218
核	-9.3722
▁para	-9.37331
产	-9.37512
我不	-9.37557
tion	-9.37558
议	-9.37577
减	-9.37704
打印	-9.37726
批	-9.37727
old	-9.37734
模拟	-9.3775
旅游	-9.37755
相应的	-9.37758
用於	-9.37889
另一	-9.38169
▁8.	-9.38241
力量	-9.38284
的过程	-9.38286
da	-9.38343
善	-9.38593
航	-9.38594
á	-9.38623
培养	-9.38624
網	-9.38624
卫	-9.38626
).	-9.38631
结束	-9.38632
意识	-9.38815
▁•	-9.38868
深度	-9.38886
这样的	-9.39028
ること	-9.39057
states	-9.39151
最大	-9.39241
充	-9.39387
隐	-9.39465
盘	-9.39507
汇	-9.39508
權	-9.39509
媒体	-9.3951
足球	-9.39522
一方	-9.3955
string	-9.39579
法院	-9.39598
为您提供	-9.39799
▁ex	-9.39838
看法	-9.39897
この	-9.40012
材	-9.4004
票	-9.40098
ble	-9.40352
舞	-9.4038
既	-9.40383
蛋	-9.40384
煮	-9.40394
杰	-9.40397
若	-9.404
末	-9.40401
前往	-9.40488
空气	-9.40512
开源项目	-9.40537
各个	-9.40554
▁作为一个	-9.40563
谁	-9.4063
mm	-9.40742
都可以	-9.40913
▁whi	-9.40954
述	-9.4109
故	-9.41218
篇	-9.4123
侧	-9.41298
JavaScript	-9.41301
Google	-9.41301
Java	-9.41302
按钮	-9.41303
八	-9.41304
服務	-9.41305
营养	-9.41309
谷歌	-9.41311
硬件	-9.41312
尽管	-9.41331
专家	-9.4136
都会	-9.41367
我也	-9.4137
期间	-9.41388
col	-9.41493
▁##	-9.41525
例子	-9.41754
来自	-9.41841
族	-9.42092
阳	-9.42126
自身	-9.42132
虚	-9.42196
缩	-9.42206
預	-9.42211
刚	-9.42212
延	-9.42213
铁	-9.42219
也不	-9.42235
诗歌	-9.42257
99	-9.42311
▁wa	-9.42349
应当	-9.4244
**:	-9.4253
解决问题	-9.42561
写一个	-9.42584
▁ChatGPT	-9.4261
的基本	-9.42744
开源的	-9.42985
饮	-9.43086
育	-9.43105
链	-9.43106
龙	-9.43111
ッ	-9.43114
記	-9.43128
脱	-9.43129
台灣	-9.4313
file	-9.43134
保障	-9.43138
平衡	-9.43146
有限	-9.43172
两种	-9.43228
下降	-9.43307
▁我是	-9.43367
不错	-9.43636
查	-9.43668
的值	-9.43675
使其	-9.4382
SS	-9.43845
么	-9.43857
经过	-9.43939
均	-9.44013
大模型	-9.44013
90	-9.44021
永	-9.44029
抽	-9.44044
べ	-9.44052
advantage	-9.44055
電	-9.44056
咖啡	-9.44056
良好的	-9.44059
宣传	-9.44064
需要注意的是	-9.44065
API	-9.44067
学术	-9.44091
身份	-9.44096
正确的	-9.44101
有趣的	-9.44119
我没有	-9.4415
教学	-9.44203
可能需要	-9.4452
团	-9.44941
特殊	-9.44978
鸟	-9.44981
í	-9.44989
货币	-9.44994
それ	-9.45009
der	-9.45038
礼物	-9.45054
充分	-9.45068
强调	-9.45079
物理	-9.45211
back	-9.45251
私は	-9.45293
最高	-9.45361
▁me	-9.45513
▁GPT	-9.45539
充满	-9.45544
绝	-9.45702
ください	-9.45713
义	-9.45749
一天	-9.45768
文学	-9.45778
告诉我	-9.45783
准	-9.45818
福	-9.45883
固	-9.45895
▁mini	-9.45903
键	-9.45917
ました	-9.45927
參	-9.45931
м	-9.45932
カ	-9.45933
讲述了	-9.45933
运	-9.45938
微软	-9.45942
证据	-9.45948
排序	-9.45951
ように	-9.46106
开发者	-9.46262
人類	-9.46295
断	-9.46297
our	-9.46404
十分	-9.46473
属	-9.46483
就会	-9.46666
根	-9.46828
Windows	-9.46885
浪漫	-9.46889
帮助您	-9.46906
整理	-9.46956
制造	-9.46981
医生	-9.47061
である	-9.47215
able	-9.47217
val	-9.47406
▁__	-9.47566
是一種	-9.47644
在于	-9.47674
的概念	-9.47692
app	-9.47717
觉	-9.4773
困	-9.47827
苦	-9.47837
岳阳	-9.47837
规范	-9.47846
區	-9.47847
羊	-9.47847
灯	-9.47847
哈	-9.47849
香港	-9.47851
视觉	-9.4786
這些	-9.47865
":	-9.47893
手段	-9.47915
适用于	-9.47981
1000	-9.48048
上述	-9.48068
先进	-9.48087
▁from	-9.48211
bit	-9.4848
一段	-9.48744
码	-9.48767
伦敦	-9.48795
鲜	-9.48805
example	-9.48817
沉	-9.48817
熟悉	-9.48818
轮	-9.48818
急	-9.48822
洞	-9.48824
ですね	-9.48854
体现	-9.48875
因為	-9.48902
add	-9.48923
玩家	-9.48932
多少	-9.49225
这将	-9.49401
致	-9.49434
完	-9.49563
我们需要	-9.49735
即可	-9.49751
▁==	-9.49781
茶	-9.49785
杜甫	-9.49795
乡	-9.49796
借	-9.49796
達	-9.49797
越来越	-9.49799
利率	-9.49898
套	-9.49913
药物	-9.49915
最重要的	-9.49942
不够	-9.49969
有效的	-9.49982
?”	-9.49988
相同	-9.50096
核算	-9.50313
います	-9.5043
中國	-9.50455
hu	-9.50591
有许多	-9.5061
据	-9.50699
欢	-9.50733
プ	-9.50785
恶	-9.50786
によって	-9.50786
技術	-9.50788
税	-9.50789
二进制	-9.50789
距离	-9.50803
让人	-9.50821
推理	-9.50882
优点	-9.50928
著名的	-9.51111
设	-9.51664
缺	-9.51716
消费	-9.51748
40	-9.51755
索	-9.51763
播	-9.51769
饰	-9.51775
俗	-9.51775
実	-9.51784
忙	-9.51786
運	-9.51787
零	-9.51788
▁很抱歉	-9.51788
迷	-9.51788
給	-9.51788
という	-9.51789
帽	-9.5179
感谢	-9.51793
搜索引擎	-9.51797
参观	-9.51801
战斗	-9.51804
隐私	-9.51811
体系	-9.51874
定制	-9.52016
类型的	-9.52055
实体	-9.52059
其次	-9.5211
▁我想	-9.52238
而言	-9.52273
但也	-9.52418
足够的	-9.5248
停	-9.52771
您需要	-9.52778
博士	-9.52789
レ	-9.52799
字符串	-9.52801
鱼	-9.52801
》、《	-9.52815
假设	-9.52819
情况下	-9.52859
喜好	-9.52914
每次	-9.52943
简单的	-9.53074
and	-9.53094
として	-9.53228
样	-9.53354
ik	-9.53367
生活中	-9.5347
場	-9.5351
三个	-9.53764
左	-9.53815
ロ	-9.53816
Excel	-9.5382
完善	-9.53825
我是一个	-9.53826
运算	-9.53837
普通	-9.53843
观察	-9.53847
认知	-9.53853
旨在	-9.53857
报告	-9.53858
有可能	-9.53865
通過	-9.53866
协作	-9.53868
大小	-9.53959
一致	-9.54013
放入	-9.5404
ag	-9.5406
loss	-9.54069
tic	-9.5412
并不是	-9.54144
因为它	-9.54361
不需要	-9.5463
關	-9.5478
普	-9.54787
▁抱歉	-9.54791
护	-9.54816
悲	-9.54826
犯	-9.5484
兵马俑	-9.54845
救	-9.5485
冲突	-9.5485
~	-9.54851
托	-9.54852
(0)	-9.54861
所在	-9.54869
防止	-9.54876
领导	-9.54881
星球	-9.54895
点击	-9.54958
沒有	-9.55007
get	-9.55037
高质量的	-9.55237
各自	-9.55285
灵	-9.55497
36	-9.55625
世界上	-9.55737
上海	-9.55762
始	-9.55792
ト	-9.55831
吸	-9.55841
伴	-9.55845
迹	-9.55877
可靠	-9.55882
七	-9.55886
纳	-9.55888
船	-9.55889
宽	-9.5589
六西格玛	-9.55891
退	-9.55894
源氏	-9.55903
周围	-9.55904
安娜	-9.55906
否则	-9.55913
职业	-9.55916
解决方案	-9.55939
通信	-9.55952
这么	-9.5604
定期	-9.56109
成长	-9.56109
tive	-9.5612
较高	-9.56163
查看	-9.56273
line	-9.56383
规模	-9.56535
age	-9.56544
一系列	-9.56569
休	-9.56916
彩	-9.56916
渐	-9.56923
堂	-9.56942
難	-9.56943
圆	-9.56945
乘	-9.5695
bu	-9.56978
患者	-9.56985
方便	-9.5703
合约	-9.5706
我希望	-9.57165
尽可能	-9.57205
补充	-9.57324
保存	-9.57544
提问	-9.57847
我无法	-9.57882
鸡	-9.57949
免	-9.57984
隔	-9.57991
暗	-9.57998
净	-9.58006
確保	-9.5802
免费	-9.58024
选项	-9.58068
感兴趣	-9.58077
人工智能助理	-9.58099
注意力	-9.58248
ことを	-9.58302
权力	-9.58307
虚拟	-9.58463
通用	-9.58538
实用	-9.58567
基本的	-9.58578
大型	-9.586
▁当然	-9.58697
会有	-9.58799
199	-9.5885
协	-9.58998
透	-9.59006
min	-9.5908
兩	-9.5908
苏	-9.59082
result	-9.59082
▁class	-9.59082
線	-9.59085
争议	-9.59097
共享	-9.59098
灵活	-9.59098
编码	-9.59098
产业	-9.59104
透明	-9.59128
食品	-9.59199
动力	-9.5928
意见	-9.59289
在未来	-9.59489
广泛的	-9.59638
功	-9.5997
等因素	-9.60065
临	-9.6009
陵	-9.60148
清晰	-9.60159
魔	-9.60161
暴	-9.60166
废	-9.60167
について	-9.60168
遵守	-9.60169
script	-9.6017
▁sympy	-9.6017
::::	-9.60176
赞	-9.60176
积	-9.60183
求婚	-9.60195
构成	-9.60203
している	-9.60224
日常	-9.60277
转换为	-9.60304
整体	-9.6034
ている	-9.60485
名为	-9.60674
下载	-9.6084
ies	-9.60869
pre	-9.60914
公开	-9.60915
需要考虑	-9.61016
或其他	-9.61025
评	-9.61201
敏	-9.61224
印	-9.61238
禁	-9.61256
粉	-9.61261
共产主义	-9.61267
げ	-9.61268
總	-9.61268
夫	-9.6127
秀	-9.61271
财务	-9.61277
岸	-9.61281
神秘	-9.61282
模块	-9.61283
深刻	-9.61339
发布	-9.61377
人工智能技术	-9.61386
及其	-9.61476
其实	-9.61525
处理器	-9.616
进化	-9.6173
一家	-9.61798
强大	-9.62141
ive	-9.62154
需要根据	-9.62174
▁arr	-9.62193
我觉得	-9.62302
潜	-9.62307
牌	-9.62336
松	-9.62339
偶	-9.62361
是一款	-9.62365
避	-9.62372
喝	-9.62377
浓	-9.62378
消息队列	-9.62378
頭	-9.62379
優	-9.62379
ご	-9.62379
谈	-9.62381
坚持	-9.62399
成就	-9.62469
军事	-9.62489
光线	-9.62579
与其他	-9.62766
高度	-9.62837
是基于	-9.62881
加密	-9.63016
高级	-9.63064
位于	-9.63104
你们	-9.63275
尚	-9.63362
▁Co	-9.63364
终	-9.63403
ight	-9.63437
ね	-9.63461
章	-9.63465
背	-9.63473
斗	-9.6349
睡	-9.635
依赖	-9.63503
溶	-9.63503
環境	-9.63504
視	-9.63504
革命	-9.63507
替代	-9.63519
互动	-9.63531
细节	-9.63552
求解	-9.63576
发送	-9.63626
集成	-9.63705
设施	-9.63793
for	-9.63899
最新	-9.63985
up	-9.6424
的例子	-9.64508
26	-9.64538
坚	-9.64567
京	-9.64604
顿	-9.64611
划	-9.64622
COSER	-9.64637
尺	-9.64638
ы	-9.64639
創	-9.6464
柔	-9.64641
叶	-9.64647
奥	-9.64647
發展	-9.64652
建造	-9.64691
经常	-9.64691
你想	-9.64704
在这个	-9.64726
能源	-9.64866
成立	-9.64878
Da	-9.6491
3.	-9.64983
症	-9.65005
GB	-9.65037
がある	-9.6549
ど	-9.65589
zh	-9.65631
▁1)	-9.65639
似	-9.65685
いて	-9.65746
洁	-9.65748
藏	-9.65762
遗	-9.65778
秋	-9.65781
マ	-9.65787
诚	-9.65788
ジ	-9.65789
炸	-9.65792
发挥	-9.65797
舒适	-9.658
どう	-9.65808
绿色	-9.65811
让你	-9.65812
2022	-9.65824
它可以	-9.65835
进展	-9.65843
下面是	-9.65883
item	-9.65925
れば	-9.65991
是一個	-9.66168
英文	-9.66338
45	-9.66564
▁else	-9.66755
提供一些	-9.66872
拿	-9.66947
惑	-9.66949
ず	-9.66952
裡	-9.66952
疾病	-9.66954
欣赏	-9.66956
额	-9.66956
シ	-9.66957
律	-9.67007
超导	-9.67007
可以用于	-9.67201
将其	-9.67208
科学家	-9.6724
数据结构	-9.67295
ide	-9.67307
日期	-9.67319
可以帮助您	-9.67377
的原因	-9.6741
民族	-9.67428
ke	-9.6743
new	-9.67432
6.	-9.6744
IP	-9.67665
趋势	-9.67705
产生了	-9.67785
旅	-9.67842
办	-9.6798
そ	-9.67989
审	-9.68066
启	-9.68085
博	-9.68089
频	-9.68097
偿	-9.68124
架	-9.68125
甲	-9.68126
堆	-9.68128
Hello	-9.68128
床	-9.68129
探讨	-9.68129
系統	-9.6813
监督	-9.68131
摄入	-9.68133
解答	-9.68153
转移	-9.68173
提交	-9.68176
开展	-9.68193
主张	-9.68216
常用的	-9.68216
东方	-9.68227
提前	-9.68285
特色	-9.68306
很难	-9.68314
念	-9.68426
的答案	-9.68441
看看	-9.68551
巨大的	-9.68663
ost	-9.68782
我的回答	-9.68801
等方面的	-9.68901
户	-9.69232
熟	-9.69234
彼	-9.69285
折	-9.69299
р	-9.69304
蒸	-9.6931
脸	-9.69317
中华人民共和国	-9.69318
я	-9.69319
Web	-9.69319
抵	-9.69319
积累	-9.6932
附	-9.69322
一条	-9.69339
顺序	-9.6934
语义	-9.69354
最佳	-9.69366
电视	-9.69398
哪里	-9.69417
香精	-9.6942
▁As	-9.69437
题目	-9.69496
等待	-9.69499
](	-9.69759
できる	-9.69828
另一个	-9.69867
-2	-9.69876
mp	-9.69904
表面	-9.69922
作业	-9.69927
婚礼	-9.70267
逐	-9.70493
唱	-9.70501
察	-9.70502
箱	-9.70514
街	-9.7052
乱	-9.70521
遵循	-9.70524
牛	-9.70524
燃	-9.70525
车辆	-9.70529
轻松	-9.70542
病毒	-9.70546
宗李	-9.70553
漫	-9.70583
随机	-9.70592
路线	-9.70629
Wi	-9.70639
心理学	-9.70648
0.	-9.70842
っ	-9.70884
重点	-9.70889
提到	-9.70972
ことが	-9.71021
影响力	-9.7107
相对	-9.7121
action	-9.71363
特性	-9.71382
预训练	-9.71478
录	-9.71706
营	-9.71707
恒	-9.71739
鼓励	-9.7174
兰	-9.71741
沿	-9.71741
贸易	-9.71742
▁综上所述	-9.71744
汤	-9.71746
无人机	-9.71747
酱	-9.71751
伦敦桥	-9.71755
物联网	-9.71765
缓解	-9.71768
反映	-9.71769
严重	-9.71776
上面	-9.71829
指定	-9.71869
更容易	-9.71935
hash	-9.71946
教えて	-9.71991
来实现	-9.72075
晚上	-9.72121
大规模	-9.72226
最大的	-9.72512
ru	-9.72544
一位	-9.72609
称为	-9.72663
识	-9.72846
合适的	-9.7291
挑	-9.72956
欲	-9.72962
探	-9.72967
线性代数	-9.72976
纯	-9.72977
洗	-9.72978
售	-9.72979
是因为	-9.7302
币	-9.73039
客观	-9.73042
Live	-9.73049
出版	-9.73092
公共	-9.73095
▁9.	-9.73115
尽量	-9.73158
ack	-9.73257
最近	-9.73261
句子	-9.73378
最新的	-9.7361
以下是我	-9.73649
创	-9.73678
不一定	-9.74104
机器	-9.74112
21	-9.74113
える	-9.7414
tro	-9.74189
生态	-9.74214
晶	-9.74224
論	-9.74227
у	-9.74227
к	-9.74227
True	-9.74228
戴	-9.74228
則	-9.74229
缺乏	-9.7423
特摄	-9.74235
许可证	-9.74238
這個	-9.74312
的一部分	-9.74332
英国	-9.74333
(0,	-9.74415
较为	-9.74439
结婚	-9.74521
一个人	-9.74881
真正的	-9.7497
回答问题	-9.7498
还需要	-9.75004
有所	-9.75018
训练数据	-9.75213
留下	-9.75291
list	-9.75346
氣	-9.7542
紧	-9.75469
忧	-9.75476
破	-9.75487
岁	-9.75491
阻	-9.75492
天气预报	-9.75492
count	-9.75494
逃	-9.75494
盛	-9.75495
贴	-9.75496
机械	-9.75496
岛	-9.75498
そう	-9.75513
区域	-9.75517
▁希望这些	-9.75522
erson	-9.75541
以下几个方面	-9.75548
互相	-9.75555
英语	-9.75557
满意	-9.75573
生存	-9.75778
做什么	-9.75844
方程	-9.75863
ign	-9.75933
arr	-9.75945
工资	-9.76204
个体	-9.76259
55	-9.76389
特别是	-9.76517
76	-9.76527
独特	-9.76534
ratio	-9.76557
other	-9.76646
习	-9.76701
君	-9.76727
毛	-9.76743
旧	-9.76753
损	-9.76754
耗	-9.76758
試	-9.76771
比特币	-9.76772
顶	-9.76774
規	-9.76774
訓練	-9.76775
▁Chinese	-9.76775
Prolog	-9.76775
ó	-9.76775
厚	-9.76776
発	-9.76776
怪	-9.76785
承担	-9.76786
應該	-9.76788
脚本	-9.76823
投入	-9.76873
应用场景	-9.76875
key	-9.76895
神明	-9.76968
知名	-9.77015
表明	-9.77036
变得	-9.77048
你知道	-9.77242
▁It	-9.77244
建议您	-9.77311
更好地理解	-9.77361
金属	-9.77427
▁not	-9.77467
第一个	-9.77686
的情况下	-9.77866
担	-9.77995
予	-9.78
胜	-9.78047
呼	-9.78068
仙	-9.78075
°	-9.78075
index	-9.78075
似乎	-9.78081
計算	-9.78086
律师	-9.78089
严格	-9.78091
往往	-9.78096
离婚	-9.78098
它們	-9.78122
start	-9.78142
分布	-9.78201
UI	-9.7824
再次	-9.7828
同事	-9.78288
▁以上是	-9.78298
でも	-9.78371
请你	-9.78448
令人	-9.78452
解決	-9.78469
基地	-9.78481
什么是	-9.78721
学会	-9.78735
只要	-9.78769
ian	-9.78908
做好	-9.79008
ice	-9.79145
化学	-9.79172
cal	-9.79195
符	-9.79284
ki	-9.79335
変	-9.79387
懂	-9.79387
金字塔	-9.79389
绕	-9.7939
这句话	-9.7939
副	-9.79391
迅速	-9.79392
赠	-9.79393
逆	-9.79393
年龄	-9.79401
审查	-9.79401
语音识别	-9.79424
案例	-9.79432
修复	-9.79449
有所不同	-9.79494
当时	-9.79564
民主	-9.79567
重复	-9.79593
友好	-9.79636
我不能	-9.79664
公里	-9.7967
有效地	-9.79681
操作系统	-9.79699
更改	-9.79725
性格	-9.79736
祝	-9.79744
三体	-9.79939
作家	-9.79986
自行	-9.80091
需要注意	-9.80263
有用的	-9.80345
考え	-9.80392
脚	-9.80675
硬	-9.80699
乙	-9.80714
翻	-9.80717
拍	-9.80722
谱	-9.80722
烹	-9.80723
污染	-9.80723
type	-9.80724
觀	-9.80725
信仰	-9.80731
冬	-9.80736
建議	-9.80741
宗教	-9.80762
动态	-9.8081
潜力	-9.80812
哪个	-9.80858
活力	-9.80907
但它	-9.80936
low	-9.80938
5%	-9.80996
500	-9.8101
驱动	-9.81069
直到	-9.81093
是为了	-9.81103
是否有	-9.81109
内部	-9.81118
能否	-9.81129
可能會	-9.81172
帮助人们	-9.81219
一款	-9.81393
大部分	-9.81542
居民	-9.81617
用来	-9.81866
典	-9.8198
ません	-9.82016
健	-9.82048
甜	-9.82054
滿	-9.82074
標	-9.82076
CPU	-9.82076
PHP	-9.82077
坐	-9.82077
规律	-9.82081
柳	-9.82081
開始	-9.8209
登记	-9.82095
肯定	-9.82096
React	-9.82102
快乐	-9.82155
至少	-9.82202
美味	-9.82254
道路	-9.82272
更快	-9.8228
心情	-9.82613
ando	-9.83169
64	-9.83204
27	-9.83265
每个人都	-9.8337
尾	-9.83415
采用了	-9.83418
幻	-9.83431
慢	-9.83437
メ	-9.83437
潮	-9.83439
袭	-9.83441
大多数	-9.83445
尤其是	-9.83445
吉	-9.83446
跳	-9.83447
冠	-9.83451
购物车	-9.83466
接触	-9.83468
部署	-9.83473
以下几个	-9.83477
队友	-9.83479
标题	-9.83491
▁Thi	-9.83506
信号	-9.8353
集中	-9.83544
放在	-9.83558
あなたの	-9.83568
读者	-9.83569
公平	-9.83618
img	-9.83643
For	-9.83693
作為	-9.83777
说道	-9.83918
明天	-9.84063
たい	-9.84063
更好	-9.84117
bin	-9.84149
过度	-9.84156
ones	-9.84324
女性	-9.84352
银	-9.84352
不太	-9.84515
夸	-9.84816
仅	-9.84818
俄罗斯	-9.84829
究	-9.8483
锻炼	-9.84833
World	-9.84833
Flutter	-9.84834
next	-9.84834
烧	-9.84835
静脉	-9.84844
ssh	-9.84849
页面	-9.84851
處理	-9.84857
健身	-9.84861
OpenAssistant	-9.84866
享	-9.84868
放松	-9.84874
以下是一个	-9.84875
设定	-9.84884
反射	-9.84903
摘要	-9.84916
介绍一下	-9.84918
这意味着	-9.84949
大象	-9.84982
主观	-9.84983
约定	-9.85056
物理学	-9.85082
不良	-9.85088
排名	-9.85144
在一起	-9.85251
actions	-9.8526
》《	-9.855
以来	-9.85542
ust	-9.85628
工艺	-9.86022
浪	-9.86169
丽	-9.86172
杂	-9.86203
货	-9.86209
司	-9.86213
笔	-9.86222
貌	-9.86222
译	-9.86223
妙	-9.86232
右	-9.86236
測	-9.86236
費	-9.86241
赏	-9.86243
サ	-9.86243
倾	-9.86243
芯片	-9.86244
共有	-9.86245
雄	-9.86248
确认	-9.86249
逐步	-9.86272
教程	-9.86312
接近	-9.86345
可能会导致	-9.86413
prob	-9.86419
适量	-9.86428
群体	-9.86475
单位	-9.86481
合同	-9.86566
回到	-9.86621
水分	-9.86706
有些人	-9.86763
可靠性	-9.8677
里面	-9.86779
é	-9.87196
▁hi	-9.87262
表格	-9.87273
ten	-9.87285
良	-9.87325
展现	-9.87337
能量	-9.87466
家人	-9.87556
你会	-9.87567
產	-9.8759
п	-9.87603
赛	-9.8762
顾	-9.87639
映	-9.87639
樣	-9.87643
卷	-9.87653
東	-9.87663
应该是	-9.87663
辞	-9.87668
麻	-9.87668
掩	-9.87668
製	-9.87668
チ	-9.87669
窗	-9.87669
寒	-9.8767
HTTP	-9.8767
丁	-9.8767
導致	-9.87672
爲	-9.87672
折腾	-9.87676
男孩	-9.87679
清楚	-9.87679
毁	-9.87682
母亲	-9.87683
批判	-9.87687
岗位	-9.87696
基因	-9.87724
粒子	-9.87733
打印机	-9.87739
是一名	-9.87781
范围内	-9.87783
愿意	-9.87784
入门	-9.87791
梦想	-9.87864
比例	-9.87884
明白	-9.87916
水果	-9.87934
难度	-9.87955
上升	-9.88036
35	-9.88181
也许	-9.88192
充满了	-9.88279
我们应该	-9.88483
实际情况	-9.88703
首都	-9.88739
变成	-9.88864
班	-9.89062
org	-9.89079
豪	-9.89086
淡	-9.89087
阿	-9.89093
遭	-9.89094
該	-9.89109
甘	-9.89116
態	-9.89117
伯	-9.89118
骑	-9.89118
宁	-9.89118
我会尽力	-9.89119
д	-9.8912
闭	-9.8912
馆	-9.89122
奋	-9.89122
玉	-9.89124
银河帝国	-9.89127
呼吸	-9.8913
大型语言模型	-9.8916
相似	-9.89184
偏见	-9.89189
演讲	-9.89195
color	-9.89199
虚拟世界	-9.892
order	-9.89245
单词	-9.8925
收入	-9.89306
可以考虑	-9.89426
属性	-9.89523
自主	-9.89541
model	-9.89663
▁he	-9.89809
▁si	-9.89825
做法	-9.89827
准确性	-9.89887
成分	-9.90042
令	-9.90107
并没有	-9.9012
年代	-9.90174
术	-9.9036
采	-9.90398
束	-9.90525
计	-9.90532
滑	-9.90566
遍	-9.90568
阴	-9.9057
通貨膨脹	-9.90585
簡	-9.90586
迁	-9.90587
assistant	-9.90589
ほ	-9.90589
仪	-9.9059
約	-9.90591
览	-9.90591
守	-9.90591
田	-9.90592
坏	-9.90593
通膨	-9.90594
temp	-9.90621
文献	-9.90627
异形	-9.90657
ある	-9.90724
太空	-9.90736
李明	-9.9074
有没有	-9.90742
两国	-9.90874
23	-9.90912
因子	-9.90994
平等	-9.91026
发票	-9.9115
请问你	-9.91445
有不同的	-9.91451
观念	-9.91577
top	-9.91589
Min	-9.91708
lt	-9.91711
一个简单的	-9.91785
较大	-9.91803
巨	-9.91921
容量	-9.91927
洋	-9.91979
围	-9.92023
闲	-9.92062
辣	-9.92068
残	-9.92074
半平面	-9.9208
椒	-9.9208
蒜	-9.92081
浮	-9.92083
policy	-9.92083
Transformer	-9.92085
浅	-9.92085
戰	-9.92086
统计	-9.92087
环保	-9.92098
音频	-9.92104
形象	-9.92115
工业	-9.92146
一旦	-9.92148
一般来说	-9.92153
混合	-9.92163
28	-9.92168
▁St	-9.92174
些	-9.92318
请告诉我	-9.92322
成果	-9.92323
行程	-9.92375
有一定的	-9.9268
象	-9.92861
▁cu	-9.93102
一步	-9.93104
充电	-9.93116
確	-9.93505
聊	-9.93526
忘	-9.93571
黑暗	-9.93579
題	-9.93583
説	-9.93597
役	-9.93597
MATLAB	-9.93597
跑	-9.93597
以下几点	-9.93598
ゃ	-9.93598
裁	-9.93598
博物馆	-9.93599
root	-9.93599
森林	-9.936
辅助	-9.936
父母	-9.93604
遍历	-9.93608
89	-9.93612
伤害	-9.93617
開發	-9.93628
描写	-9.93628
地址	-9.93663
福流	-9.93674
缺点	-9.93678
(2)	-9.9378
real	-9.93813
max	-9.93917
大概	-9.93925
发表	-9.93952
exp	-9.93996
女生	-9.94014
可以根据自己的	-9.94077
调用	-9.94287
了许多	-9.94349
融	-9.94791
▁los	-9.94844
财	-9.94858
32	-9.95015
著作	-9.95017
pos	-9.95037
表现出	-9.95061
義	-9.95095
绿	-9.95101
丝	-9.95112
伏	-9.95115
阶	-9.95116
積	-9.95133
秦	-9.95133
誉	-9.95134
截	-9.95135
葱	-9.95136
记忆	-9.95136
磁	-9.95137
优先级	-9.95137
狗	-9.95138
One	-9.95138
悠	-9.95139
党	-9.9514
犯罪	-9.95142
所需的	-9.95148
命运	-9.95152
简洁	-9.95164
科學	-9.95174
各種	-9.95175
曾经	-9.95177
收益	-9.95179
2021	-9.95182
答	-9.95201
签名	-9.95215
如果你想	-9.9559
价值观	-9.95744
如果您需要	-9.95951
各地	-9.95957
如何使用	-9.95983
组合	-9.96015
请问您	-9.96029
-----	-9.96141
古代	-9.9622
<	-9.96291
本地	-9.96389
学校	-9.96437
rate	-9.96495
素数	-9.96533
严	-9.96613
申	-9.96652
想象	-9.96671
障	-9.96675
計	-9.96679
奶	-9.96687
圈	-9.96695
グ	-9.96698
爬	-9.96698
ましょう	-9.96698
村	-9.96699
肥	-9.96699
拌	-9.96699
摄像头	-9.96699
委	-9.967
红外图像	-9.967
宏	-9.967
Linux	-9.967
オ	-9.967
涵盖	-9.967
个性化	-9.96702
桃	-9.96703
辣椒	-9.96704
time	-9.96711
批评	-9.96712
image	-9.96728
面试官	-9.96738
過程	-9.96744
公园	-9.96751
交换	-9.96769
ber	-9.96832
表达式	-9.96857
show	-9.96885
range	-9.96887
学科	-9.96892
提出了	-9.96916
自动化	-9.9703
全部	-9.97052
历史上	-9.97107
可能导致	-9.9723
灵感	-9.9727
相对较	-9.97415
我很	-9.97596
ite	-9.97767
rm	-9.97907
Fi	-9.97947
ば	-9.98001
角度来	-9.98073
IN	-9.98182
宋	-9.98229
触	-9.98265
搭	-9.98271
童	-9.98276
’	-9.98278
刷	-9.98278
塔	-9.98284
伟	-9.98284
▁Native	-9.98286
▁こんにちは	-9.98286
轉	-9.98287
诺	-9.98287
坦	-9.98288
txt	-9.98288
迫	-9.98288
怎样	-9.98289
碎	-9.98289
缘	-9.98289
赛博	-9.98291
保险	-9.98294
故障	-9.98295
路径	-9.983
紧张	-9.98301
显卡	-9.98306
含义	-9.98306
经营	-9.98311
传播	-9.98315
實現	-9.9832
某种	-9.98335
试图	-9.98344
联合	-9.98376
步道	-9.98501
失去	-9.98505
性质	-9.98554
理想	-9.98612
主流	-9.98652
自信	-9.9881
49	-9.98951
都市	-9.99124
format	-9.99167
运用	-9.992
资金	-9.99416
敌	-9.99507
http	-9.99529
帝	-9.99828
闻	-9.99828
串	-9.99866
母	-9.99878
康	-9.99879
斜	-9.99881
夏	-9.99894
遊	-9.99897
バ	-9.99898
壮	-9.99899
like	-9.99899
編	-9.999
屏幕	-9.999
棋	-9.99901
VPN	-9.99901
账户	-9.99902
噪	-9.99903
汁	-9.99904
捐精	-9.99904
▁this	-9.99905
教授	-9.99905
苹果	-9.99905
邮件	-9.99906
火焰	-9.99907
東京	-9.99909
改革	-9.99911
插件	-9.99914
佛教	-9.99914
解析	-9.99919
博客	-9.99925
認為	-9.99926
分布式	-9.99942
战略	-9.99943
温暖	-9.99949
原始	-9.99949
指的是	-9.99953
照片	-9.99965
季节	-9.99975
完美	-9.99976
积分	-9.99986
主板	-9.99992
期望	-10.0002
看待	-10.0002
基础知识	-10.0003
统一	-10.0003
mini	-10.0005
长春	-10.0006
▁characters	-10.0008
inter	-10.0013
空方	-10.0016
url	-10.0018
▁ne	-10.0019
▁your	-10.0021
这使得	-10.0028
指出	-10.0056
这两个	-10.0057
创建一个	-10.0062
也就是	-10.0067
ther	-10.0073
典型	-10.0074
{}	-10.0076
iz	-10.0077
给您	-10.0088
▁那你	-10.0089
那个	-10.0092
巨大	-10.0097
症状	-10.01
著名	-10.0107
展开	-10.0132
转换	-10.014
智	-10.0144
衡	-10.0145
非常重要	-10.0149
寻	-10.0151
愁	-10.0151
距	-10.0152
抄	-10.0153
湿	-10.0153
惠	-10.0153
课	-10.0153
缓冲	-10.0154
聞	-10.0154
夫妻共同财产	-10.0154
▁hiragana	-10.0154
同性恋	-10.0154
尋	-10.0154
焦虑	-10.0154
嫩	-10.0154
ウ	-10.0154
task	-10.0154
破坏	-10.0155
代碼	-10.0155
遗产	-10.0155
休息	-10.0156
记住	-10.0157
广告	-10.0158
load	-10.0158
工程师	-10.0158
品牌	-10.0158
约束	-10.0159
权益	-10.0159
イン	-10.016
超越	-10.0162
期待	-10.0163
整数	-10.0175
公元	-10.0176
▁const	-10.0176
爱情	-10.0176
稳定性	-10.0187
理由	-10.0191
好处	-10.0199
node	-10.02
智能化	-10.0215
如此	-10.0233
可以让你	-10.0241
分解	-10.0271
over	-10.0277
gen	-10.0291
nn	-10.0296
执	-10.0311
意味着	-10.0311
患	-10.0313
顺	-10.0315
でしょう	-10.0315
缓	-10.0316
染	-10.0317
資	-10.0318
谷	-10.0319
迎	-10.032
股	-10.032
庆	-10.032
厂	-10.032
绘	-10.032
GPU	-10.0321
down	-10.0321
赫	-10.0321
峰	-10.0321
CLIP	-10.0321
token	-10.0321
摄影	-10.0321
普遍	-10.0321
任務	-10.0321
老师	-10.0328
重大	-10.0331
平均	-10.0332
具体情况	-10.0336
什么样的	-10.034
感知	-10.0343
前景	-10.0349
投资者	-10.0354
ish	-10.0355
物品	-10.0355
個人	-10.0359
ただ	-10.0359
2000	-10.036
有趣	-10.0364
含有	-10.0376
更适合	-10.0378
▁let	-10.0401
线性	-10.0402
成都	-10.0412
▁10.	-10.0442
可以用来	-10.0454
cv	-10.0465
在这里	-10.0483
報	-10.0486
败	-10.0488
携	-10.0488
驾驶	-10.0488
皇	-10.0489
赋	-10.0489
悬	-10.049
師	-10.049
鸭	-10.049
主人公	-10.049
意大利	-10.049
脆	-10.049
rustup	-10.049
heap	-10.049
润	-10.049
被视为	-10.049
異	-10.049
渡	-10.049
土壤	-10.049
销售	-10.0491
▁than	-10.0491
冰箱	-10.0491
......	-10.0492
法律法规	-10.0492
期货	-10.0493
伦理	-10.0493
研发	-10.0494
彼此	-10.0495
食材	-10.0495
突出	-10.0496
结论	-10.0497
笑话	-10.0499
生态系统	-10.05
思路	-10.05
表演	-10.0504
医学	-10.051
正式	-10.0512
这段	-10.0513
达成	-10.0516
生物学	-10.0516
还没有	-10.0517
你说的	-10.0523
好奇	-10.0526
js	-10.0529
绝对	-10.0533
79	-10.0538
人間	-10.0555
__(	-10.0571
我知道	-10.0571
描述了	-10.0573
第三方	-10.0602
是谁	-10.0612
女人	-10.0626
成员	-10.0628
真人	-10.0636
幸	-10.0658
蓝	-10.0659
抑	-10.0659
圖	-10.0659
焦	-10.066
引擎	-10.066
滴	-10.0661
磨	-10.0662
▁对不起	-10.0662
志愿者	-10.0662
氛围	-10.0662
錯	-10.0663
接下来	-10.0663
乳	-10.0663
坑	-10.0663
匹配	-10.0663
提醒	-10.0664
购物	-10.0664
显著	-10.0665
施工	-10.0665
になる	-10.0667
信任	-10.067
適合	-10.067
明显	-10.0671
然後	-10.0672
工程项目	-10.0679
發生	-10.0682
語言模型	-10.0685
易于	-10.0695
一场	-10.0709
列出	-10.0715
准备好	-10.0716
还有其他	-10.0729
很高	-10.0751
长度	-10.0754
数据分析	-10.0767
cla	-10.0772
まで	-10.0788
Ace	-10.079
没有任何	-10.0795
参	-10.0802
互	-10.0813
规	-10.0817
环	-10.083
写作	-10.0831
舒	-10.0832
插	-10.0835
储	-10.0836
word	-10.0836
估	-10.0837
萨	-10.0838
薄	-10.0838
陽	-10.0838
伙伴	-10.0838
根據	-10.0838
对你有所帮助	-10.0838
BERT	-10.0838
random	-10.0838
label	-10.0838
Z	-10.0838
鴨	-10.0838
辛	-10.0838
驗	-10.0838
舟	-10.0838
領域	-10.0838
铁拳	-10.0838
讯	-10.0838
善良	-10.0839
密码	-10.084
损失	-10.084
怎么样	-10.0841
协商	-10.0842
精准	-10.0843
ありません	-10.0846
成熟	-10.0847
主角	-10.0849
消费者	-10.0851
最著名的	-10.0851
红色	-10.0852
报道	-10.0856
带来了	-10.0857
发达	-10.0859
景点	-10.0865
热量	-10.0871
Rust	-10.0873
爱好	-10.0879
代码块	-10.0886
一座	-10.0887
钟	-10.0894
ué	-10.0897
()`	-10.091
你应该	-10.0924
有意义的	-10.0941
<=	-10.0945
多样	-10.0951
duc	-10.0955
一套	-10.0994
init	-10.1001
研	-10.101
盖	-10.1013
扬	-10.1014
議	-10.1014
理性	-10.1014
亡	-10.1015
凉	-10.1016
搞	-10.1016
ミ	-10.1016
幅	-10.1016
姿	-10.1016
コ	-10.1016
抱	-10.1016
氧	-10.1016
覺	-10.1016
▁不客气	-10.1016
エ	-10.1016
考慮	-10.1017
闪	-10.1017
CISC	-10.1017
渗透	-10.1017
隆	-10.1017
盾	-10.1017
科研	-10.1017
几乎	-10.1018
知乎	-10.1018
web	-10.1018
”、“	-10.102
气象	-10.102
这段代码	-10.1021
组件	-10.1022
でしょうか	-10.1022
回应	-10.1039
塑造	-10.104
复制	-10.104
春天	-10.1041
样本	-10.1044
lan	-10.1044
一種	-10.1046
人工智能助手	-10.1049
时刻	-10.1051
だけ	-10.1057
要素	-10.1059
sub	-10.1065
要注意	-10.1079
一件	-10.1086
expr	-10.1097
写一篇	-10.1112
这就是	-10.1121
靠	-10.1131
趣	-10.1132
user	-10.1136
人工智能系统	-10.114
不确定	-10.1154
SE	-10.1161
现场	-10.1164
决	-10.1181
佳	-10.1188
仓	-10.1191
郎	-10.1192
郡	-10.1192
自动驾驶	-10.1193
洲	-10.1196
攻	-10.1197
attention	-10.1197
鼠	-10.1198
痛苦	-10.1198
宿	-10.1198
單	-10.1198
拼	-10.1198
纸	-10.1198
title	-10.1198
呈现	-10.1198
蜜	-10.1199
門	-10.1199
sort	-10.1199
继承	-10.1199
的重要性	-10.12
放弃	-10.12
抽象	-10.12
失败	-10.12
乐趣	-10.12
比較	-10.1202
被认为是	-10.1202
▁你是谁	-10.1203
帝国	-10.1204
农业生产	-10.1204
办理	-10.1204
色彩	-10.1204
社會	-10.1204
网上	-10.1205
根本	-10.1208
这本书	-10.1209
更大的	-10.1211
rand	-10.1219
许可	-10.1221
走向	-10.1226
无线	-10.1229
一篇	-10.1233
ated	-10.1241
などの	-10.1242
处于	-10.125
base	-10.1252
引用	-10.1264
小吃	-10.1265
保留	-10.1266
推出	-10.1269
实际上	-10.1285
ance	-10.1306
加速	-10.1307
施	-10.1329
▁del	-10.1333
购	-10.1377
献	-10.1379
伦	-10.138
湘	-10.1381
陈	-10.1382
醒	-10.1382
へ	-10.1383
誰	-10.1383
@	-10.1383
仿佛	-10.1383
openpyxl	-10.1383
颗	-10.1383
炎	-10.1383
読	-10.1384
生酮饮食	-10.1384
栏	-10.1384
mask	-10.1384
浏览器	-10.1384
爆炸	-10.1384
跟踪	-10.1384
魅力	-10.1384
交割	-10.1384
肌肉	-10.1384
旋律	-10.1385
预计	-10.1386
大纲	-10.1386
疫情	-10.1387
卡门	-10.1388
交往	-10.1389
航空	-10.139
推广	-10.139
直线	-10.1391
关键词	-10.1391
しました	-10.1392
許多	-10.1392
供应	-10.1393
不同类型的	-10.1394
指南	-10.1399
原油	-10.1401
电源	-10.1402
无限	-10.1404
用户体验	-10.1408
分配	-10.1414
从事	-10.1419
29	-10.1421
一边	-10.1431
39	-10.1448
同意	-10.1455
主体	-10.1456
一门	-10.1464
等多种	-10.1479
んだ	-10.1549
账	-10.1571
覆	-10.1572
LGBT	-10.1572
熱	-10.1572
纠	-10.1572
ム	-10.1572
language	-10.1572
html	-10.1572
镜	-10.1572
幽默	-10.1572
黑百合	-10.1572
キ	-10.1572
New	-10.1572
sheet	-10.1572
脂肪	-10.1573
艰	-10.1573
知識	-10.1573
检索	-10.1573
活跃	-10.1573
漏	-10.1573
虚构	-10.1573
审核	-10.1574
登录	-10.1574
查找	-10.1575
标注	-10.1576
儒家	-10.1576
减轻	-10.1576
终端	-10.1576
ート	-10.1577
指示	-10.1578
事故	-10.1581
對話	-10.1583
唯一	-10.1585
math	-10.1587
激发	-10.1587
看起来	-10.1588
される	-10.1594
拓展	-10.1606
中国大陆	-10.1633
可以参考	-10.1643
长时间	-10.1661
my	-10.1669
庭	-10.1744
陆	-10.1747
することで	-10.1749
稳	-10.176
灭	-10.1762
是一位	-10.1763
侵	-10.1764
負	-10.1764
姓	-10.1764
デ	-10.1764
Function	-10.1764
entropy	-10.1764
ペ	-10.1764
微積分	-10.1764
HTML	-10.1764
这首诗	-10.1765
猜	-10.1765
危险	-10.1765
Max	-10.1765
宜	-10.1765
刀	-10.1765
强烈	-10.1766
依据	-10.1766
資料	-10.1766
聊天机器人	-10.1768
符号	-10.1768
正確	-10.1768
爱好者	-10.1772
微信	-10.1773
歌曲	-10.1774
以下步骤	-10.1776
接收	-10.1776
微调	-10.1776
公众	-10.1777
立场	-10.178
被称为	-10.178
动画	-10.1781
used	-10.1788
西方	-10.1792
Code	-10.1794
之处	-10.1806
适用	-10.1814
就像	-10.1829
中国古代	-10.1839
][	-10.1843
360	-10.1847
不断地	-10.1874
这次	-10.1877
之外	-10.1888
大陆	-10.1915
声音	-10.1925
候	-10.1928
▁use	-10.1931
のような	-10.195
CNN	-10.1958
父	-10.1959
專	-10.1959
work	-10.196
敬	-10.196
溯	-10.196
獨	-10.196
稱	-10.196
戶	-10.196
ろ	-10.196
光刻机	-10.196
双边关系	-10.196
×	-10.1961
Markdown	-10.1961
狱	-10.1961
俄	-10.1961
碳	-10.1961
勺	-10.1961
孔	-10.1961
镇	-10.1961
む	-10.1961
[0]	-10.1961
电池	-10.1961
互换	-10.1962
节奏	-10.1964
蓝色	-10.1965
历程	-10.1965
自动驾驶系统	-10.1968
审美	-10.1968
计算机科学	-10.1969
並且	-10.1969
办法	-10.1972
如果没有	-10.1974
支持多种	-10.1978
iOS	-10.198
集合	-10.198
白色	-10.1986
创造力	-10.1998
2*	-10.1999
主动	-10.2004
Go	-10.202
篇文章	-10.2033
基本概念	-10.2037
私の	-10.2041
合成	-10.2069
print	-10.209
源代码	-10.2111
Mac	-10.2127
危	-10.2156
秘	-10.2157
昌	-10.2158
递	-10.2158
樂	-10.216
圣	-10.216
疲	-10.216
複雜	-10.216
辈	-10.216
なります	-10.216
かもしれません	-10.216
向我提问	-10.216
芳	-10.216
Image	-10.216
剪	-10.2161
娘	-10.2161
哥	-10.2161
抓	-10.2161
阵	-10.2161
RISC	-10.2161
▁make	-10.2161
环评	-10.2161
遠	-10.2161
伊	-10.2161
耳	-10.2161
聪明	-10.2161
菊花	-10.2161
注销	-10.2161
注册	-10.2161
绩	-10.2162
慢慢	-10.2162
伸	-10.2162
晚餐	-10.2163
目录	-10.2163
about	-10.2164
唐朝	-10.2164
问答	-10.2164
夫妻双方	-10.2164
集团	-10.2165
境界	-10.2167
维持	-10.217
唐代	-10.2171
波动	-10.2172
克服	-10.2172
未知	-10.2173
阳光	-10.2173
分支	-10.2178
少女	-10.218
常见	-10.2184
引发	-10.2187
级别	-10.2202
义务	-10.2205
早上	-10.2244
しています	-10.2276
");	-10.2294
官网	-10.2302
あなた	-10.2324
できます	-10.2344
构	-10.235
获	-10.235
▁has	-10.2353
娜	-10.2362
逼	-10.2363
孤	-10.2364
罚	-10.2364
興	-10.2364
累	-10.2364
奔	-10.2364
齐	-10.2364
剩	-10.2364
祖	-10.2365
贯	-10.2365
パ	-10.2365
洛	-10.2365
々	-10.2365
畫	-10.2365
职责	-10.2365
▁have	-10.2365
招	-10.2365
释放	-10.2366
ット	-10.2366
搭配	-10.2367
ック	-10.2367
机器翻译	-10.2367
配偶	-10.2367
百科	-10.2368
流畅	-10.2368
關係	-10.2368
結果	-10.2369
相互作用	-10.2369
普及	-10.237
永远	-10.237
专门	-10.237
情報	-10.237
推断	-10.2371
样式	-10.2371
请问有什么	-10.2371
あなたは	-10.2377
预期	-10.2382
层次	-10.2383
どこ	-10.2383
接口	-10.2384
你也可以	-10.2384
离开	-10.2385
测量	-10.2394
类似于	-10.2395
并将其	-10.2396
分散	-10.2397
なら	-10.2407
">	-10.2417
ple	-10.2417
还有什么	-10.2426
将军	-10.243
太多	-10.244
std	-10.2446
300	-10.2483
▁You	-10.2487
ることができ	-10.2498
400	-10.25
意识到	-10.2531
是一个开源的	-10.2544
梦	-10.2545
関	-10.2552
返	-10.2563
尊	-10.2568
認	-10.2569
屏	-10.257
朗	-10.257
員	-10.2571
詞	-10.2573
瓦	-10.2573
欠	-10.2573
細	-10.2573
埃	-10.2573
徐	-10.2573
摩	-10.2573
indices	-10.2573
▁utiliza	-10.2573
菌	-10.2573
actor	-10.2573
body	-10.2573
幻想生物	-10.2573
红外目标识别	-10.2573
項	-10.2573
workbook	-10.2573
▁Neo	-10.2573
欧洲	-10.2573
房产	-10.2576
宋词	-10.2576
圖像	-10.2577
感染	-10.2579
相關	-10.2579
另一种	-10.2582
跨平台	-10.2582
あなたが	-10.2583
想象力	-10.2583
解释一下	-10.2584
优质	-10.2586
花费	-10.2589
立即	-10.259
重视	-10.2595
微服务	-10.2599
今日	-10.2606
case	-10.2611
相反	-10.2614
文物	-10.2633
美学	-10.2637
这是因为	-10.2674
form	-10.2728
希望能	-10.2741
很重要	-10.275
每个人	-10.2751
AR	-10.2754
許	-10.2775
操	-10.2781
較	-10.2782
软	-10.2782
勇	-10.2783
诸	-10.2784
成绩	-10.2784
希	-10.2784
節	-10.2784
眠	-10.2785
仕	-10.2785
梁	-10.2785
倡	-10.2785
妻	-10.2785
晴	-10.2785
維	-10.2785
刺激	-10.2786
隨	-10.2786
鐵	-10.2786
clip	-10.2786
兒	-10.2786
碧	-10.2786
LangChain	-10.2786
ベ	-10.2786
新能源车	-10.2786
will	-10.2786
去中心化	-10.2786
寄	-10.2786
誤	-10.2786
鲁	-10.2786
牛奶	-10.2787
违反	-10.2787
節點	-10.2787
戒指	-10.2787
欲望	-10.2787
响应	-10.2788
んでい	-10.2789
拆解	-10.2789
评论	-10.279
调查	-10.2791
密切	-10.2792
這種	-10.2793
理念	-10.2793
也就是说	-10.2795
哪种	-10.2795
黄色	-10.2797
無法	-10.2802
计算资源	-10.2809
最初	-10.2814
大致	-10.2821
完成任务	-10.2843
电力	-10.2851
道家	-10.2853
If	-10.2857
否	-10.2859
形态	-10.2861
内心	-10.2869
何か	-10.2914
▁How	-10.2964
面积	-10.2966
信心	-10.2986
签	-10.2991
摘	-10.2991
弟	-10.2997
處	-10.2999
府	-10.3001
恋	-10.3002
拒绝	-10.3002
债	-10.3002
吐	-10.3002
脉	-10.3002
诱	-10.3003
恩	-10.3003
Project	-10.3003
続	-10.3003
冒	-10.3003
request	-10.3003
hysics	-10.3003
凝	-10.3003
墓	-10.3003
対	-10.3003
可持续发展	-10.3003
観	-10.3003
至关重要	-10.3003
び	-10.3003
初学者	-10.3003
DevOps	-10.3003
倍	-10.3003
诊断	-10.3003
公积金	-10.3003
代谢	-10.3004
覆盖	-10.3004
粉丝	-10.3004
突破	-10.3004
皇帝	-10.3004
歧视	-10.3004
标签	-10.3004
紧密	-10.3005
▁more	-10.3005
运营	-10.3005
为用户提供	-10.3005
违法	-10.3006
形状	-10.3009
升级	-10.301
平仓	-10.301
敏感	-10.3011
固定	-10.3013
黑色	-10.3013
人們	-10.3015
台北	-10.3016
我可以为您	-10.3018
各国	-10.303
Ho	-10.3032
中国速度	-10.3035
敌人	-10.3055
精度	-10.3056
BT	-10.3111
test	-10.3115
想起	-10.3126
概率	-10.3194
统	-10.3199
征	-10.3221
访	-10.3223
哀	-10.3223
粗	-10.3224
兵	-10.3224
竞	-10.3224
煎	-10.3224
麼	-10.3225
联邦政府	-10.3225
迪	-10.3225
晨	-10.3225
实验室	-10.3225
局限性	-10.3225
谜	-10.3225
皆	-10.3225
鼓	-10.3225
雾	-10.3225
飘	-10.3225
ь	-10.3225
False	-10.3225
vector	-10.3225
乌	-10.3225
闰	-10.3225
喻	-10.3225
泉	-10.3225
叹	-10.3226
尤	-10.3226
mark	-10.3226
租	-10.3226
涨	-10.3226
脂	-10.3226
细胞	-10.3226
突然	-10.3226
安裝	-10.3227
▁but	-10.3227
胡	-10.3227
骨	-10.3227
总统	-10.3228
決定	-10.3228
植物	-10.3229
暂时	-10.323
耐心	-10.3231
现有的	-10.3232
开发人员	-10.3236
示例代码	-10.3239
2020	-10.3241
早期	-10.3241
认可	-10.3246
口味	-10.3247
之间的关系	-10.3248
第一次	-10.325
取代	-10.3251
公正	-10.3253
热情	-10.3253
长江	-10.3254
2019	-10.3259
区分	-10.3265
多样性	-10.327
策	-10.3287
承认	-10.3295
融合	-10.3359
Int	-10.3388
祝你	-10.3391
▁function	-10.3402
高性能	-10.3422
确	-10.3432
輸	-10.3448
ありますか	-10.3449
荒	-10.3452
御	-10.3452
马来西亚	-10.3452
っている	-10.3452
欺	-10.3452
这首曲子	-10.3452
翅	-10.3452
韩	-10.3452
どんな	-10.3452
Android	-10.3453
▁sentence	-10.3453
world	-10.3453
question	-10.3453
GPL	-10.3453
載	-10.3453
林黛玉	-10.3453
餐厅	-10.3453
纪念	-10.3453
ハイエナ	-10.3454
價格	-10.3454
專業	-10.3454
しかし	-10.3454
父亲	-10.3454
四川	-10.3455
模板	-10.3456
輸入	-10.3458
视角	-10.3459
影片	-10.346
线程	-10.3463
的可能性	-10.3466
选择合适的	-10.3466
进程	-10.3469
研究人员	-10.3471
してください	-10.3506
实力	-10.3519
整合	-10.3571
ado	-10.3596
</	-10.3645
割	-10.3671
耐	-10.3678
替	-10.3679
疫	-10.3681
吹	-10.3683
框	-10.3684
導	-10.3685
ビ	-10.3685
聲	-10.3685
効	-10.3685
張	-10.3685
赔	-10.3685
嫁妆	-10.3685
莱	-10.3685
酷	-10.3685
simpleFoam	-10.3685
▁English	-10.3685
▁japonés	-10.3685
楽	-10.3685
Space	-10.3685
帶	-10.3685
system	-10.3685
範	-10.3685
刘慈欣	-10.3685
十字路口	-10.3685
愉快	-10.3685
雅	-10.3685
分辨率	-10.3685
模仿	-10.3686
描绘	-10.3686
灰	-10.3686
戒烟	-10.3686
bnt	-10.3686
印象	-10.3686
拂	-10.3686
传输	-10.3686
始终	-10.3687
缓冲液	-10.3687
过滤	-10.3687
微积分	-10.3688
共识	-10.3689
早餐	-10.369
海洋	-10.369
商业模式	-10.3691
居住	-10.3691
比赛	-10.3691
но	-10.3692
创意	-10.3696
担心	-10.3697
开源社区	-10.3698
修正	-10.3699
是非常重要的	-10.3699
输出结果	-10.3699
▁err	-10.3702
たら	-10.3702
显示器	-10.3706
北方	-10.3707
本书	-10.3709
品质	-10.371
味道	-10.3711
高速	-10.3716
观看	-10.3719
定位	-10.3734
functions	-10.3737
法规	-10.3745
----	-10.3764
资本	-10.381
あります	-10.3846
图形	-10.3863
描	-10.3918
实例	-10.392
宣	-10.392
幫	-10.3922
雲	-10.3922
備	-10.3923
層	-10.3923
チョコレート	-10.3923
哥德尔	-10.3923
顯	-10.3923
珍	-10.3923
欧	-10.3923
product	-10.3923
board	-10.3923
专业人士	-10.3923
贝	-10.3923
Redis	-10.3923
杨	-10.3923
邦	-10.3923
负面影响	-10.3923
拖	-10.3923
初始化	-10.3923
宫	-10.3923
周杰伦	-10.3923
坛	-10.3924
簡單	-10.3924
姆	-10.3924
秦始皇兵马俑	-10.3924
回忆	-10.3924
赤	-10.3924
矿	-10.3924
奶粉	-10.3924
秘密	-10.3924
Unity	-10.3925
优缺点	-10.3926
胜利	-10.3927
考试	-10.3929
穿越	-10.3929
OS	-10.3931
dden	-10.3932
さん	-10.3932
那样	-10.3934
▁dist	-10.3934
UX	-10.3934
便利	-10.3935
一段时间	-10.394
表現	-10.394
开创	-10.3941
人类文明	-10.3943
各类	-10.3945
类别	-10.3946
月份	-10.3947
eam	-10.3951
意味	-10.3955
▁Un	-10.3984
字符	-10.4104
您想要	-10.415
籍	-10.4155
竟	-10.416
麦	-10.4165
汽	-10.4165
さらに	-10.4166
锋	-10.4166
填	-10.4166
乌克兰	-10.4167
挺	-10.4167
Text	-10.4167
人际关系	-10.4167
详	-10.4167
驶	-10.4167
庫	-10.4167
蒙	-10.4167
nginx	-10.4167
й	-10.4167
執	-10.4167
玻	-10.4167
ブ	-10.4167
拜	-10.4167
冒险	-10.4167
▁está	-10.4167
梨	-10.4167
狀	-10.4167
ティ	-10.4167
▁非常抱歉	-10.4167
済	-10.4167
Plus	-10.4167
▁desu	-10.4168
ナ	-10.4168
短暂	-10.4168
仔细	-10.4168
朵	-10.4168
ould	-10.4168
兴趣爱好	-10.4169
怎么办	-10.417
消耗	-10.4171
スト	-10.4171
的基础上	-10.4173
建模	-10.4174
定律	-10.4176
权威	-10.4177
引导	-10.4177
认真	-10.4178
良い	-10.4179
第五	-10.4179
具体来说	-10.418
抱歉	-10.418
回报	-10.4189
撰写	-10.4191
来自于	-10.4193
日程	-10.4203
rsa	-10.4224
段落	-10.4229
でした	-10.4251
发展趋势	-10.4257
现实世界	-10.4309
婚姻法	-10.4312
ize	-10.4327
Ha	-10.438
答え	-10.439
技	-10.4401
混	-10.4401
关汉卿	-10.4406
乎	-10.4412
慰	-10.4413
川	-10.4414
革	-10.4415
猎	-10.4415
Chat	-10.4415
催	-10.4416
魂	-10.4416
陷	-10.4416
術	-10.4417
席	-10.4417
荷	-10.4417
級	-10.4417
華	-10.4417
莉	-10.4417
被誉为	-10.4417
換	-10.4417
邊	-10.4417
ぎ	-10.4417
恰	-10.4417
view	-10.4417
是否犯法	-10.4417
繁體中文	-10.4417
ublic	-10.4417
巧克力	-10.4417
醬	-10.4417
抒	-10.4417
tensor	-10.4417
对您有所帮助	-10.4417
SQL	-10.4417
聯	-10.4417
ありがとうございます	-10.4417
莫	-10.4417
狼	-10.4417
砂	-10.4417
妈妈	-10.4417
▁Here	-10.4417
转化为	-10.4417
WLAN	-10.4417
ズ	-10.4417
作为一名	-10.4417
連	-10.4417
▁number	-10.4417
黨	-10.4417
訂	-10.4417
信用卡	-10.4417
渠道	-10.4417
缴纳	-10.4418
揭示	-10.4418
邀请	-10.4418
幾個	-10.4419
失恋	-10.4419
折射	-10.442
顺利	-10.4421
环节	-10.4421
確定	-10.4424
語音	-10.4426
指标	-10.4426
变得更加	-10.4426
來說	-10.4428
言語	-10.4428
保证金	-10.443
空格	-10.4431
產生	-10.4431
場所	-10.4433
穿过	-10.4436
pip	-10.4438
long	-10.4439
时尚	-10.4447
自動	-10.4454
OR	-10.4463
道理	-10.4463
rial	-10.4468
▁len	-10.4641
run	-10.4648
袖	-10.4667
от	-10.4669
岗	-10.4669
畅	-10.4669
跃	-10.4672
佛	-10.4672
プラスチック	-10.4672
秦始皇	-10.4673
宪	-10.4673
釋	-10.4673
扣	-10.4673
様	-10.4673
詳細	-10.4673
兼	-10.4673
崇	-10.4673
護	-10.4673
graph	-10.4673
墙	-10.4673
踏	-10.4673
OpenWrt	-10.4674
ч	-10.4674
▁school	-10.4674
番	-10.4674
▁indica	-10.4674
撒	-10.4674
逝	-10.4674
姜	-10.4674
糊	-10.4674
姐	-10.4674
離	-10.4674
テ	-10.4674
投掷	-10.4674
準備	-10.4674
LLM	-10.4674
渗流系数	-10.4674
井	-10.4674
秩序	-10.4674
纵	-10.4674
▁some	-10.4674
公斤	-10.4674
瓶	-10.4675
促進	-10.4675
繁荣	-10.4675
士兵	-10.4675
递归	-10.4676
減少	-10.4676
气候	-10.4676
停止	-10.4677
思念	-10.4677
广东	-10.468
less	-10.4684
列举	-10.4684
grad	-10.4687
Time	-10.4687
武器	-10.4688
身边	-10.4689
情境	-10.4691
叫做	-10.4692
未來	-10.4693
拥	-10.4773
唯	-10.4919
孩	-10.4922
終	-10.4929
订	-10.4932
肠	-10.4932
促	-10.4933
歷	-10.4934
腿	-10.4935
冥	-10.4935
準	-10.4935
仁	-10.4936
極	-10.4936
協	-10.4936
殖	-10.4937
傳	-10.4937
圍	-10.4937
溫	-10.4937
漢	-10.4937
斷	-10.4937
扫	-10.4937
锁	-10.4937
墨	-10.4938
枝	-10.4938
稻	-10.494
般	-10.5187
粒	-10.5197
價	-10.52
奏	-10.5204
烂	-10.5205
纪	-10.5205
嘴	-10.5205
胆	-10.5205
歧	-10.5205
援	-10.5206
戦	-10.5206
肝	-10.5206
號	-10.5206
膜	-10.5207
秒	-10.5207
萬	-10.5207
杜	-10.5207
掌	-10.5207
湯	-10.5207
親	-10.5207
谋	-10.5207
塞	-10.5207
糕	-10.5207
證	-10.5207
卓	-10.5207
曼	-10.5207
劲	-10.5207
泊	-10.5207
尿	-10.5207
緒	-10.5207
醫	-10.5207
赢	-10.5207
饱	-10.5207
沒	-10.5442
屈	-10.5482
罪	-10.5484
ネ	-10.5484
幕	-10.5484
働	-10.5484
夹	-10.5484
購	-10.5485
劃	-10.5485
訊	-10.5485
哦	-10.5485
佩	-10.5485
買	-10.5485
勤	-10.5485
冻	-10.5485
輪	-10.5485
挂	-10.5485
燕	-10.5485
聘	-10.5485
図	-10.5485
捷	-10.5485
针	-10.5724
概	-10.575
設	-10.5766
档	-10.5767
销	-10.5767
检	-10.5769
屋	-10.5769
泛	-10.5769
荣	-10.577
旱	-10.577
届	-10.577
談	-10.577
裤	-10.577
丘	-10.577
纷	-10.577
鞋	-10.5771
庞	-10.5771
凭	-10.5771
勒	-10.5771
碗	-10.5771
稿	-10.5771
腹	-10.5771
ニ	-10.5771
丹	-10.5771
冯	-10.5771
獲	-10.5771
～	-10.5771
迟	-10.5771
ピ	-10.5771
猪	-10.5772
甚	-10.6057
署	-10.6059
径	-10.6061
另	-10.6061
昂	-10.6062
涉	-10.6062
晋	-10.6063
啥	-10.6064
穩	-10.6064
ぜ	-10.6064
飯	-10.6064
刑	-10.6064
夺	-10.6064
葉	-10.6065
х	-10.6065
ж	-10.6065
澳	-10.6065
虫	-10.6065
仲	-10.6065
鮮	-10.6065
傍	-10.6065
迈	-10.6065
複	-10.6065
橙	-10.6065
亏	-10.6065
岩	-10.6065
默	-10.6234
艺	-10.6358
決	-10.636
添	-10.6363
港	-10.6364
怕	-10.6365
撞	-10.6365
幾	-10.6366
荡	-10.6366
丧	-10.6366
氏	-10.6366
劣	-10.6366
統	-10.6366
励	-10.6367
—	-10.6367
尖	-10.6367
玄	-10.6367
亦	-10.6367
刊	-10.6367
振	-10.6367
蜂	-10.6368
儲	-10.6368
欣	-10.6368
絡	-10.6368
叛	-10.6368
😊	-10.6368
削	-10.6368
讀	-10.6368
徒	-10.6368
辦	-10.6368
暮	-10.6368
愈	-10.6368
披	-10.6368
セ	-10.6368
儒	-10.6673
己	-10.6675
笼	-10.6677
巧	-10.6677
练	-10.6679
漠	-10.6679
搜	-10.6679
勃	-10.6679
旋	-10.668
坡	-10.668
乔	-10.668
衰	-10.668
碰	-10.668
泰	-10.668
梅	-10.668
牙	-10.668
偷	-10.668
兄	-10.668
込	-10.668
癌	-10.668
翠	-10.668
契	-10.668
腦	-10.668
梯	-10.668
赚	-10.668
稍	-10.6681
拓	-10.6945
戏	-10.6968
妓	-10.6982
旦	-10.6984
址	-10.6986
况	-10.6997
醉	-10.6998
肃	-10.6998
响	-10.6999
減	-10.6999
戒	-10.7
锦	-10.7
扎	-10.7001
辅	-10.7002
産	-10.7002
ぶ	-10.7002
擁	-10.7002
陪	-10.7002
苗	-10.7002
阅	-10.7002
丛	-10.7002
侠	-10.7002
兽	-10.7002
覚	-10.7003
泄	-10.7003
粘	-10.7003
幼	-10.7003
抚	-10.7003
滚	-10.7003
燥	-10.7003
斑	-10.7003
攀	-10.7003
淋	-10.7004
楚	-10.7333
敢	-10.7334
厅	-10.7334
乃	-10.7334
卵	-10.7335
蕴	-10.7335
瑞	-10.7335
魚	-10.7335
刺	-10.7335
尝	-10.7335
奠	-10.7335
練	-10.7336
盲	-10.7336
宅	-10.7336
眾	-10.7336
傲	-10.7336
狂	-10.7336
寂	-10.7336
僕	-10.7336
詢	-10.7336
瓜	-10.7336
→	-10.7336
震	-10.7336
慌	-10.7336
逛	-10.7336
摇	-10.7336
卧	-10.7336
辨	-10.7336
邪	-10.7336
旁	-10.7337
碑	-10.7337
巡	-10.7337
垂	-10.7337
穷	-10.7337
孟	-10.7337
劳	-10.7503
陶	-10.7675
吴	-10.768
咸	-10.768
尘	-10.768
疹	-10.768
馬	-10.768
樹	-10.7681
續	-10.7681
握	-10.7681
召	-10.7681
願	-10.7681
旗	-10.7681
嘛	-10.7681
ソ	-10.7681
媽	-10.7681
÷	-10.7681
钻	-10.7681
堅	-10.7681
疼	-10.7681
拔	-10.7681
壁	-10.7681
ダ	-10.7681
鳥	-10.7681
忍	-10.7681
督	-10.7681
紫	-10.7681
遥	-10.7681
玛	-10.7681
纤	-10.7681
贫	-10.7682
植	-10.8031
铜	-10.8031
竹	-10.8033
烈	-10.8034
责	-10.8034
膨	-10.8035
喷	-10.8036
г	-10.8037
収	-10.8037
賞	-10.8038
慎	-10.8038
跌	-10.8038
刘	-10.8038
拱	-10.8038
忠	-10.8038
ノ	-10.8038
ю	-10.8038
壓	-10.8038
園	-10.8038
洒	-10.8038
辉	-10.8038
捕	-10.8039
呀	-10.8039
粮	-10.8039
寝	-10.8039
韵	-10.8039
礁	-10.804
突	-10.839
险	-10.8402
岳	-10.8404
務	-10.8405
仰	-10.8407
ざ	-10.8407
揭	-10.8407
値	-10.8408
阔	-10.8408
浙	-10.8408
勾	-10.8408
ィ	-10.8408
暇	-10.8408
栈	-10.8408
憶	-10.8408
檢	-10.8408
氢	-10.8408
ぐ	-10.8408
爸	-10.8408
胀	-10.8408
袋	-10.8408
廷	-10.8408
沸	-10.8408
纱	-10.8408
棒	-10.8409
爽	-10.8409
桌	-10.8409
穴	-10.8409
翼	-10.8409
胸	-10.8409
爭	-10.8409
酮	-10.8409
猿	-10.8409
芝	-10.841
丸	-10.841
输	-10.8771
析	-10.8782
弄	-10.8787
哲	-10.8788
弃	-10.879
继	-10.8791
森	-10.8792
仔	-10.8792
须	-10.8792
歡	-10.8792
謝	-10.8792
ポ	-10.8792
泽	-10.8792
堵	-10.8792
財	-10.8792
漲	-10.8793
ケ	-10.8793
復	-10.8793
愚	-10.8793
雞	-10.8793
紅	-10.8793
唆	-10.8793
稀	-10.8793
慈	-10.8793
乾	-10.8793
耀	-10.8793
伝	-10.8793
哭	-10.8793
仆	-10.8793
ガ	-10.8793
頂	-10.8793
廉	-10.8793
ひ	-10.8793
勢	-10.8793
擦	-10.8793
芭	-10.8793
孕	-10.8793
豐	-10.8793
蓋	-10.8793
隊	-10.8793
峡	-10.8794
够	-10.895
奈	-10.9191
纹	-10.9191
鬼	-10.9191
庄	-10.9191
踪	-10.9192
訪	-10.9192
橋	-10.9192
剑	-10.9192
缴	-10.9192
浸	-10.9192
撤	-10.9192
傻	-10.9192
乏	-10.9192
帐	-10.9192
孙	-10.9192
肢	-10.9193
恨	-10.9193
毅	-10.9193
狮	-10.9193
淹	-10.9193
縮	-10.9193
禮	-10.9193
浩	-10.9193
裏	-10.9193
穆	-10.9193
塊	-10.9193
ō	-10.9193
凍	-10.9193
ォ	-10.9193
週	-10.9193
伪	-10.9193
閱	-10.9193
蛇	-10.9193
泳	-10.9193
弗	-10.9193
譜	-10.9193
霍	-10.9193
措	-10.9193
輕	-10.9193
滨	-10.9193
绵	-10.9193
碱	-10.9193
萄	-10.9193
芒	-10.9194
盈	-10.9194
拆	-10.9599
爆	-10.9601
氛	-10.9603
溢	-10.9603
箭	-10.9608
腐	-10.9609
拳	-10.9609
妇	-10.9609
処	-10.9609
抬	-10.9609
筆	-10.9609
づ	-10.9609
淘	-10.961
盒	-10.961
雖	-10.961
瘾	-10.961
ワ	-10.961
骗	-10.961
肺	-10.961
麗	-10.961
宇	-10.961
傷	-10.961
辩	-10.961
腻	-10.961
犹	-10.961
珠	-10.961
胖	-10.9611
靖	-10.9611
腾	-10.9611
驱	-10.9932
玲	-11.0033
颜	-11.0036
媒	-11.0037
拨	-11.0038
伍	-11.0038
铺	-11.004
羽	-11.004
裝	-11.0042
拟	-11.0042
唤	-11.0042
邮	-11.0043
栖	-11.0043
嘉	-11.0043
杆	-11.0044
雙	-11.0044
頻	-11.0044
昏	-11.0044
涵	-11.0044
滞	-11.0044
徵	-11.0044
挡	-11.0044
挖	-11.0044
爾	-11.0044
嫌	-11.0044
妥	-11.0044
ú	-11.0044
扭	-11.0044
麽	-11.0044
僅	-11.0045
奉	-11.0045
忌	-11.0045
凌	-11.0045
滩	-11.0045
逸	-11.0045
麵	-11.0045
モ	-11.0045
薪	-11.0045
苍	-11.0492
罩	-11.0494
碼	-11.0496
骚	-11.0496
衬	-11.0497
胞	-11.0497
杠	-11.0498
恼	-11.0498
銀	-11.0498
霜	-11.0498
躲	-11.0499
憾	-11.0499
瓷	-11.0499
採	-11.0499
屬	-11.0499
悪	-11.0499
億	-11.0499
胃	-11.0499
盡	-11.0499
県	-11.0499
責	-11.0499
ç	-11.0499
ü	-11.0499
萧	-11.0499
盗	-11.0499
辺	-11.0499
腌	-11.0499
鐘	-11.0499
焼	-11.0499
眉	-11.0499
腊	-11.0499
戲	-11.0499
泪	-11.0499
狭	-11.05
卤	-11.05
狩	-11.0501
违	-11.0967
捧	-11.0968
肩	-11.0968
弦	-11.0968
济	-11.0973
枪	-11.0973
‘	-11.0973
贸	-11.0974
亞	-11.0974
仿	-11.0974
贞	-11.0975
納	-11.0975
裔	-11.0975
薯	-11.0975
聽	-11.0975
卢	-11.0975
翔	-11.0975
圓	-11.0975
【	-11.0975
抹	-11.0975
貓	-11.0975
à	-11.0975
ê	-11.0975
】	-11.0975
緩	-11.0975
湛	-11.0975
獻	-11.0975
莓	-11.0975
築	-11.0975
熬	-11.0975
畴	-11.0975
醋	-11.0975
硫	-11.0975
職	-11.0975
筋	-11.0975
醇	-11.0975
悟	-11.0976
浑	-11.0976
绑	-11.0977
虽	-11.1461
肯	-11.1465
〕	-11.1467
〔	-11.1467
遣	-11.1468
怒	-11.1469
裂	-11.147
悔	-11.1472
條	-11.1474
瑶	-11.1474
什	-11.1474
册	-11.1474
隋	-11.1474
帆	-11.1474
履	-11.1475
蛙	-11.1475
軽	-11.1475
絕	-11.1475
横	-11.1475
碌	-11.1475
搏	-11.1475
诵	-11.1475
陣	-11.1475
舉	-11.1475
鸣	-11.1475
順	-11.1475
氮	-11.1475
ä	-11.1475
庙	-11.1475
飛	-11.1475
応	-11.1475
縺	-11.1475
梳	-11.1475
雕	-11.1475
琴	-11.1475
崩	-11.1475
汪	-11.1475
鎖	-11.1475
ハ	-11.1475
爵	-11.1475
藥	-11.1476
晕	-11.1476
雑	-11.1476
柏	-11.1477
們	-11.1908
页	-11.1992
绪	-11.1994
愤	-11.1995
滤	-11.1996
敦	-11.1999
辖	-11.1999
扰	-11.1999
肌	-11.2
缪	-11.2
汝	-11.2
虑	-11.2
勝	-11.2
剥	-11.2001
寺	-11.2001
舍	-11.2001
谨	-11.2001
曰	-11.2001
妈	-11.2001
蛛	-11.2001
摆	-11.2001
胎	-11.2001
觸	-11.2001
艳	-11.2001
懈	-11.2001
敲	-11.2001
昔	-11.2001
爷	-11.2001
瑟	-11.2001
乗	-11.2001
額	-11.2001
ゲ	-11.2001
凯	-11.2001
沫	-11.2001
涂	-11.2001
監	-11.2001
竭	-11.2001
溝	-11.2002
筹	-11.2002
逢	-11.2002
靜	-11.2002
養	-11.2002
牵	-11.2002
啦	-11.2002
滋	-11.2002
牢	-11.2002
歇	-11.2002
婉	-11.2002
頓	-11.2002
渊	-11.2002
菇	-11.2002
抛	-11.2002
雌	-11.2005
撰	-11.2494
妆	-11.2547
谢	-11.255
括	-11.2552
吟	-11.2553
讨	-11.2554
辆	-11.2554
腔	-11.2556
蓄	-11.2556
匠	-11.2557
矩	-11.2557
葬	-11.2557
鼻	-11.2557
舆	-11.2557
婆	-11.2557
淨	-11.2557
島	-11.2557
窄	-11.2557
潔	-11.2557
軟	-11.2557
券	-11.2557
昭	-11.2557
夕	-11.2557
鬆	-11.2557
ツ	-11.2557
緊	-11.2557
妨	-11.2557
泥	-11.2557
勞	-11.2557
瓣	-11.2557
宰	-11.2557
朴	-11.2557
宾	-11.2557
溪	-11.2557
舰	-11.2558
煞	-11.2558
莲	-11.2558
泻	-11.2558
丑	-11.2558
劝	-11.3136
褒	-11.3137
嵌	-11.314
怎	-11.314
池	-11.3142
沟	-11.3143
猴	-11.3144
環	-11.3144
黃	-11.3144
腸	-11.3145
挤	-11.3145
緑	-11.3145
惜	-11.3145
汚	-11.3145
亨	-11.3145
钠	-11.3145
亭	-11.3145
押	-11.3145
怜	-11.3145
炼	-11.3145
祉	-11.3145
虛	-11.3145
篡	-11.3145
敵	-11.3145
ょ	-11.3145
ц	-11.3145
ш	-11.3145
弊	-11.3145
捞	-11.3145
摸	-11.3145
蝶	-11.3145
琐	-11.3145
蓬	-11.3145
宮	-11.3145
瘦	-11.3146
飲	-11.3146
颈	-11.3146
衷	-11.3146
帅	-11.3146
凡	-11.3146
粥	-11.3146
哺	-11.3146
専	-11.3147
朱	-11.3761
摧	-11.3767
槽	-11.3768
煌	-11.3768
织	-11.3769
叙	-11.3769
吊	-11.3769
啟	-11.3769
拭	-11.377
惨	-11.377
茄	-11.377
診	-11.377
炮	-11.377
扑	-11.377
菲	-11.377
脫	-11.377
艾	-11.377
嚴	-11.377
惡	-11.377
茫	-11.377
謊	-11.377
棉	-11.377
廳	-11.377
轴	-11.377
ö	-11.377
吞	-11.377
榜	-11.377
泣	-11.377
悦	-11.377
旺	-11.377
峭	-11.377
窜	-11.377
矮	-11.377
『	-11.377
倦	-11.377
聖	-11.3771
埋	-11.3771
遮	-11.3771
逊	-11.3771
馍	-11.3771
绽	-11.3771
ザ	-11.3771
鹤	-11.3771
邻	-11.3771
』	-11.3771
枢	-11.3771
陳	-11.3771
嚼	-11.3771
颂	-11.3771
津	-11.3771
浆	-11.3772
齿	-11.3772
暂	-11.4413
贬	-11.4418
怨	-11.4427
释	-11.4428
歉	-11.4433
驾	-11.4435
迅	-11.4435
锡	-11.4436
拡	-11.4436
涯	-11.4436
缸	-11.4436
循	-11.4436
桶	-11.4436
牧	-11.4436
匹	-11.4436
館	-11.4436
匀	-11.4436
衝	-11.4436
炉	-11.4436
霞	-11.4436
俊	-11.4436
峻	-11.4436
窃	-11.4437
耍	-11.4437
囊	-11.4437
昨	-11.4437
輛	-11.4437
慧	-11.4437
卜	-11.4437
笛	-11.4437
織	-11.4437
營	-11.4437
羅	-11.4437
ゅ	-11.4437
績	-11.4437
覽	-11.4437
伺	-11.4437
睿	-11.4437
佈	-11.4437
硅	-11.4437
馏	-11.4437
蚁	-11.4437
酥	-11.4437
萝	-11.4437
佐	-11.4437
宴	-11.4437
広	-11.4437
貨	-11.4437
罕	-11.4437
嗯	-11.4437
ユ	-11.4437
単	-11.4437
贪	-11.4437
昼	-11.4437
扶	-11.4437
糟	-11.4437
缀	-11.4437
扁	-11.4438
俯	-11.4438
柱	-11.4438
赶	-11.4438
譬	-11.4439
剔	-11.5129
焰	-11.5148
粤	-11.5149
領	-11.515
肤	-11.515
仄	-11.515
赖	-11.515
卸	-11.515
彻	-11.515
梭	-11.515
洪	-11.5151
両	-11.5151
虎	-11.5151
誠	-11.5151
繞	-11.5151
嫁	-11.5151
擊	-11.5151
闹	-11.5151
咳	-11.5151
廣	-11.5151
盤	-11.5151
肾	-11.5151
噌	-11.5151
劇	-11.5151
馨	-11.5151
臭	-11.5151
紛	-11.5151
鏡	-11.5151
側	-11.5151
霸	-11.5151
擔	-11.5151
綠	-11.5151
涌	-11.5151
嘱	-11.5151
檔	-11.5151
徽	-11.5151
暑	-11.5151
贤	-11.5152
顧	-11.5152
涛	-11.5152
桂	-11.5152
枯	-11.5152
泌	-11.5152
陕	-11.5152
妹	-11.5152
墩	-11.5153
頼	-11.5154
厘	-11.5154
谓	-11.5901
係	-11.5905
識	-11.5911
冈	-11.5913
歪	-11.5914
灾	-11.5915
捐	-11.5917
厌	-11.5918
叉	-11.5918
疾	-11.5919
撑	-11.5919
仗	-11.5919
揚	-11.5919
臺	-11.5919
寿	-11.5919
俱	-11.592
灿	-11.592
刹	-11.592
戚	-11.592
幣	-11.592
靡	-11.592
勉	-11.592
鍋	-11.592
歸	-11.592
厄	-11.592
熊	-11.592
徑	-11.592
拾	-11.592
绳	-11.592
饼	-11.592
匆	-11.592
隠	-11.592
憂	-11.592
祭	-11.592
喵	-11.592
唇	-11.592
蒂	-11.592
飄	-11.592
侦	-11.592
谦	-11.5921
炭	-11.5921
補	-11.5921
惩	-11.5921
遷	-11.5921
镖	-11.5921
貴	-11.5921
驰	-11.5921
戈	-11.5921
曳	-11.5921
遂	-11.5921
奪	-11.5921
羹	-11.5921
绣	-11.5921
骄	-11.5921
鼎	-11.5921
沃	-11.5921
痕	-11.5921
枚	-11.5922
菠	-11.5922
懒	-11.5922
啼	-11.5922
摄	-11.6744
授	-11.6749
挣	-11.6749
幽	-11.6749
弓	-11.675
據	-11.675
衫	-11.6753
討	-11.6753
瑰	-11.6753
傾	-11.6753
椅	-11.6753
歴	-11.6753
胺	-11.6753
潭	-11.6753
価	-11.6753
慨	-11.6753
肿	-11.6754
霄	-11.6754
弘	-11.6754
蝕	-11.6754
吓	-11.6754
歐	-11.6754
團	-11.6754
氨	-11.6754
沖	-11.6754
腳	-11.6754
堤	-11.6754
踩	-11.6754
щ	-11.6754
仮	-11.6754
哉	-11.6754
渚	-11.6754
ふ	-11.6754
惟	-11.6754
盔	-11.6754
蓟	-11.6754
屑	-11.6754
炖	-11.6754
裕	-11.6754
顔	-11.6754
涼	-11.6754
畏	-11.6754
芙	-11.6754
閉	-11.6754
辱	-11.6754
ァ	-11.6754
庇	-11.6754
瞻	-11.6754
晓	-11.6754
暦	-11.6754
磷	-11.6754
芽	-11.6754
咬	-11.6754
樽	-11.6754
酪	-11.6754
烛	-11.6754
蜀	-11.6754
軍	-11.6754
査	-11.6754
赦	-11.6755
淇	-11.6755
顽	-11.6755
栽	-11.6755
弯	-11.6755
粹	-11.6755
庸	-11.6755
–	-11.7171
塑	-11.7542
誓	-11.7649
嘲	-11.7649
衍	-11.7655
魄	-11.7659
ゆ	-11.7661
焗	-11.7661
慮	-11.7662
舌	-11.7662
蔓	-11.7662
篮	-11.7662
媚	-11.7662
挽	-11.7662
炫	-11.7662
疏	-11.7662
荆	-11.7662
祥	-11.7662
腰	-11.7662
禅	-11.7662
笃	-11.7662
郭	-11.7663
浴	-11.7663
芬	-11.7663
兔	-11.7663
祈	-11.7663
彰	-11.7663
蹲	-11.7663
転	-11.7663
厨	-11.7663
箇	-11.7663
耕	-11.7663
臨	-11.7663
茂	-11.7663
隻	-11.7663
魏	-11.7663
©	-11.7663
ǎ	-11.7663
歲	-11.7663
莎	-11.7663
検	-11.7663
彈	-11.7663
驚	-11.7663
硕	-11.7663
犬	-11.7663
裹	-11.7663
損	-11.7663
穹	-11.7663
腥	-11.7663
枕	-11.7663
稽	-11.7663
針	-11.7663
斩	-11.7663
妮	-11.7663
渗	-11.7663
铅	-11.7663
頁	-11.7663
仑	-11.7663
吾	-11.7663
錄	-11.7663
禽	-11.7664
驻	-11.7664
厦	-11.7664
努	-11.8649
茅	-11.8653
赐	-11.8654
咽	-11.8655
捶	-11.8656
凑	-11.8658
壳	-11.866
紀	-11.8661
晒	-11.8661
渴	-11.8661
輯	-11.8662
辽	-11.8662
凶	-11.8662
赌	-11.8662
響	-11.8662
譯	-11.8662
柴	-11.8662
鋼	-11.8662
蓮	-11.8662
趁	-11.8662
褲	-11.8662
丰	-11.8662
砖	-11.8662
宵	-11.8662
枫	-11.8662
殺	-11.8662
扔	-11.8662
昆	-11.8662
蘿	-11.8662
咖	-11.8663
壤	-11.8663
诊	-11.8663
凿	-11.8663
捌	-11.8663
橫	-11.8663
谣	-11.8663
羁	-11.8663
貧	-11.8663
趨	-11.8663
餘	-11.8663
饿	-11.8663
狡	-11.8663
寨	-11.8663
诡	-11.8663
胶	-11.8663
靴	-11.8663
è	-11.8663
嗨	-11.8663
怯	-11.8663
沥	-11.8663
講	-11.8663
澄	-11.8663
喘	-11.8663
夢	-11.8663
ぞ	-11.8663
俘	-11.8663
ā	-11.8663
董	-11.8663
姑	-11.8663
逗	-11.8663
閒	-11.8663
攝	-11.8663
舊	-11.8663
農	-11.8663
侨	-11.8663
齡	-11.8663
眺	-11.8663
酚	-11.8663
駁	-11.8663
詳	-11.8663
钢	-11.8663
誕	-11.8663
藍	-11.8663
翘	-11.8663
蹈	-11.8663
販	-11.8663
霧	-11.8663
琼	-11.8664
侍	-11.8664
証	-11.8664
純	-11.8665
搬	-11.8665
胰	-11.8665
辰	-11.8665
朔	-11.8674
倚	-11.9757
纲	-11.9757
筝	-11.9758
躁	-11.9766
蒲	-11.9768
饲	-11.977
隶	-11.9771
芯	-11.9771
筑	-11.9772
牺	-11.9773
濾	-11.9773
郑	-11.9773
猛	-11.9773
羞	-11.9773
呈	-11.9773
殉	-11.9773
頑	-11.9773
撐	-11.9773
儘	-11.9773
ホ	-11.9773
邓	-11.9774
縣	-11.9774
污	-11.9774
琳	-11.9774
咒	-11.9774
裙	-11.9774
钩	-11.9774
団	-11.9774
秉	-11.9774
遺	-11.9774
氯	-11.9774
劫	-11.9774
哎	-11.9774
輝	-11.9774
剛	-11.9774
贾	-11.9774
诈	-11.9774
笨	-11.9774
繪	-11.9774
飼	-11.9774
Д	-11.9774
漂	-11.9774
汗	-11.9774
糯	-11.9774
龍	-11.9774
Н	-11.9774
嘎	-11.9774
紙	-11.9774
堡	-11.9774
岂	-11.9774
帕	-11.9774
勿	-11.9774
彭	-11.9774
茨	-11.9774
瞩	-11.9774
丢	-11.9774
寶	-11.9774
爪	-11.9774
锐	-11.9774
鹽	-11.9774
兹	-11.9774
淌	-11.9774
狐	-11.9774
総	-11.9774
葛	-11.9774
訳	-11.9774
栄	-11.9774
餅	-11.9774
钾	-11.9774
淀	-11.9774
逻	-11.9774
舵	-11.9774
惹	-11.9774
濕	-11.9774
罐	-11.9774
鹿	-11.9774
萌	-11.9774
闷	-11.9774
売	-11.9774
駕	-11.9775
摔	-11.9775
焯	-11.9775
咕	-11.9775
狠	-11.9776
睹	-11.9776
蕊	-11.9777
狎	-12.0996
谑	-12.1003
歹	-12.1016
阎	-12.1016
韦	-12.1016
蜡	-12.1018
械	-12.102
熔	-12.1021
辟	-12.1022
裴	-12.1022
俩	-12.1022
螺	-12.1022
捏	-12.1022
拒	-12.1023
險	-12.1023
譽	-12.1023
隙	-12.1023
钙	-12.1023
扼	-12.1023
呆	-12.1023
撃	-12.1023
丈	-12.1023
ぬ	-12.1023
蹄	-12.1023
巾	-12.1024
雀	-12.1024
娅	-12.1024
扯	-12.1024
酵	-12.1024
柄	-12.1024
錢	-12.1024
榴	-12.1024
殿	-12.1024
畜	-12.1024
鳴	-12.1024
莹	-12.1024
飾	-12.1024
廟	-12.1024
伐	-12.1024
緣	-12.1024
ヨ	-12.1024
缚	-12.1024
贈	-12.1024
捲	-12.1024
磅	-12.1024
渔	-12.1024
吵	-12.1024
吻	-12.1024
锂	-12.1024
彎	-12.1024
藤	-12.1024
驅	-12.1024
¡	-12.1024
聆	-12.1024
凤	-12.1024
屄	-12.1024
ǐ	-12.1024
円	-12.1024
栋	-12.1024
稠	-12.1024
👏	-12.1024
敷	-12.1024
У	-12.1024
া	-12.1024
兑	-12.1024
卿	-12.1024
喧	-12.1024
陀	-12.1024
呵	-12.1024
渺	-12.1024
搓	-12.1024
掘	-12.1024
雜	-12.1024
呕	-12.1024
廊	-12.1024
賽	-12.1024
撕	-12.1024
肖	-12.1024
炬	-12.1024
卑	-12.1024
刪	-12.1024
赣	-12.1024
鳞	-12.1024
阀	-12.1024
铱	-12.1024
暢	-12.1024
ぼ	-12.1024
棍	-12.1025
哩	-12.1025
钗	-12.1025
眨	-12.1025
贱	-12.1025
楷	-12.1025
赵	-12.1025
怠	-12.1025
黒	-12.1026
绞	-12.1026
挪	-12.1026
堰	-12.1027
恭	-12.1027
猟	-12.1027
梗	-12.1028
寅	-12.103
旨	-12.2394
乍	-12.2439
窝	-12.2444
挥	-12.2445
邀	-12.2447
灣	-12.2447
圧	-12.245
崔	-12.245
趋	-12.2451
幹	-12.2451
嗅	-12.2451
炙	-12.2452
颇	-12.2452
柜	-12.2452
囲	-12.2452
贺	-12.2452
韻	-12.2452
恤	-12.2452
舶	-12.2452
屡	-12.2452
畔	-12.2452
佔	-12.2452
昧	-12.2452
铭	-12.2452
豁	-12.2452
疎	-12.2452
枣	-12.2452
毯	-12.2452
盎	-12.2452
轰	-12.2452
挨	-12.2452
歳	-12.2452
抢	-12.2452
漱	-12.2452
燈	-12.2452
誌	-12.2452
铃	-12.2452
啸	-12.2452
丙	-12.2452
晃	-12.2452
颁	-12.2452
陰	-12.2453
ū	-12.2453
И	-12.2453
О	-12.2453
債	-12.2453
吨	-12.2453
咋	-12.2453
喔	-12.2453
喽	-12.2453
寧	-12.2453
棄	-12.2453
瀚	-12.2453
👍	-12.2453
熵	-12.2453
ё	-12.2453
嚐	-12.2453
伞	-12.2453
従	-12.2453
狙	-12.2453
鏈	-12.2453
渣	-12.2453
溅	-12.2453
喂	-12.2453
銅	-12.2453
沾	-12.2453
樓	-12.2453
臉	-12.2453
帘	-12.2453
惫	-12.2453
馅	-12.2453
棘	-12.2453
恣	-12.2453
谍	-12.2453
鹅	-12.2453
骂	-12.2453
塗	-12.2453
摊	-12.2453
審	-12.2453
鹰	-12.2453
崖	-12.2453
穫	-12.2453
凸	-12.2453
焕	-12.2453
宛	-12.2453
嗜	-12.2454
铸	-12.2454
棵	-12.2454
惯	-12.2454
沐	-12.2454
嘌	-12.2454
辭	-12.2454
虾	-12.2455
妒	-12.2457
株	-12.2458
•	-12.3627
拘	-12.4091
匾	-12.4108
蹴	-12.4109
骤	-12.4116
黏	-12.4116
菊	-12.4117
湾	-12.4117
紊	-12.4117
喊	-12.4118
諧	-12.4118
捉	-12.4118
歼	-12.4118
兆	-12.4118
庁	-12.4118
澤	-12.4118
営	-12.4118
颠	-12.4118
遵	-12.4118
赴	-12.4118
脈	-12.4119
壞	-12.4119
帧	-12.4119
癒	-12.4119
膝	-12.4119
賛	-12.4119
哇	-12.4119
敘	-12.4119
幂	-12.4119
虐	-12.4119
勘	-12.4119
噛	-12.4119
姥	-12.4119
巷	-12.4119
撿	-12.4119
镁	-12.4119
奴	-12.4119
坂	-12.4119
壯	-12.4119
懷	-12.4119
瀑	-12.4119
邁	-12.4119
仇	-12.4119
摯	-12.4119
満	-12.4119
篆	-12.4119
絲	-12.4119
翁	-12.4119
苞	-12.4119
呦	-12.4119
亂	-12.4119
卻	-12.4119
肆	-12.4119
Р	-12.4119
ì	-12.4119
δ	-12.4119
μ	-12.4119
ぴ	-12.4119
咯	-12.4119
哨	-12.4119
屎	-12.4119
巢	-12.4119
淵	-12.4119
孫	-12.4119
扇	-12.4119
铯	-12.4119
ρ	-12.4119
傅	-12.4119
擾	-12.4119
柚	-12.4119
屁	-12.4119
冗	-12.4119
夾	-12.4119
悼	-12.4119
柯	-12.4119
彙	-12.4119
礙	-12.4119
缆	-12.4119
臂	-12.4119
凹	-12.4119
岱	-12.4119
羌	-12.4119
荫	-12.4119
峙	-12.4119
戳	-12.4119
桐	-12.4119
搂	-12.412
崭	-12.412
〜	-12.412
刃	-12.412
痴	-12.412
胫	-12.412
階	-12.412
悩	-12.412
苟	-12.412
ヌ	-12.412
侮	-12.412
煤	-12.412
簿	-12.412
闘	-12.412
踢	-12.412
娇	-12.412
缕	-12.412
苷	-12.412
郊	-12.412
闺	-12.412
铝	-12.412
裸	-12.412
诽	-12.412
谤	-12.412
陇	-12.412
熙	-12.412
砍	-12.4121
俑	-12.4121
烫	-12.4121
褪	-12.4121
馔	-12.4121
濒	-12.4121
煨	-12.4121
芹	-12.4121
骡	-12.4121
厳	-12.4121
矣	-12.4122
妾	-12.4122
纬	-12.4122
芦	-12.4122
络	-12.4125
龄	-12.6103
殷	-12.6111
忆	-12.6115
斤	-12.6116
聪	-12.6116
奢	-12.6117
恍	-12.6117
焉	-12.6118
嘘	-12.6118
澜	-12.6118
揪	-12.6118
焚	-12.6118
垫	-12.6118
拦	-12.6118
耶	-12.6118
坠	-12.6118
塘	-12.6118
録	-12.6118
酔	-12.6118
玫	-12.6119
幌	-12.6119
屯	-12.6119
侃	-12.6119
晔	-12.6119
蠻	-12.6119
貶	-12.6119
騙	-12.6119
倉	-12.6119
戻	-12.6119
杏	-12.6119
憲	-12.6119
儀	-12.6119
沧	-12.6119
锤	-12.6119
廃	-12.6119
慷	-12.6119
畢	-12.6119
脳	-12.6119
蜕	-12.6119
賀	-12.6119
骇	-12.6119
岭	-12.6119
謂	-12.6119
靶	-12.6119
髮	-12.6119
隧	-12.6119
ぷ	-12.6119
訓	-12.6119
浊	-12.6119
薬	-12.6119
謀	-12.6119
註	-12.6119
曉	-12.6119
猶	-12.6119
盆	-12.6119
«	-12.6119
»	-12.6119
ί	-12.6119
ヒ	-12.6119
坊	-12.6119
妄	-12.6119
孝	-12.6119
帖	-12.6119
欄	-12.6119
灼	-12.6119
町	-12.6119
脾	-12.6119
钓	-12.6119
钧	-12.6119
َ	-12.6119
崎	-12.6119
煲	-12.6119
諾	-12.6119
ν	-12.6119
ο	-12.6119
涩	-12.6119
鄉	-12.6119
奸	-12.6119
ぱ	-12.6119
垦	-12.6119
熹	-12.6119
薩	-12.6119
鞭	-12.6119
騰	-12.6119
豬	-12.6119
垒	-12.6119
绰	-12.6119
償	-12.6119
凛	-12.6119
榮	-12.6119
妍	-12.612
隱	-12.612
澡	-12.612
煙	-12.612
塌	-12.612
笠	-12.612
酌	-12.612
姬	-12.612
俠	-12.612
敗	-12.612
駛	-12.612
丟	-12.612
雁	-12.612
🌟	-12.612
拙	-12.612
🌈	-12.612
萊	-12.612
莽	-12.612
騎	-12.612
晏	-12.612
ヘ	-12.612
謎	-12.612
诫	-12.612
僧	-12.612
慕	-12.612
朦	-12.612
磋	-12.612
溜	-12.612
貫	-12.612
晦	-12.6121
聴	-12.6121
桩	-12.6121
哄	-12.6122
缠	-12.6122
缝	-12.6122
筒	-12.6122
阁	-12.6122
杉	-12.6125
攧	-12.8578
佻	-12.8581
兀	-12.8601
鞠	-12.8601
圻	-12.8605
璠	-12.8609
縠	-12.8612
栗	-12.8613
娥	-12.8614
馈	-12.8614
旻	-12.8614
旭	-12.8615
踊	-12.8616
祠	-12.8616
鵝	-12.8616
殊	-12.8617
偉	-12.8617
豹	-12.8617
榆	-12.8617
賦	-12.8618
寵	-12.8618
絶	-12.8618
誇	-12.8618
衆	-12.8618
揉	-12.8618
潘	-12.8618
賃	-12.8618
敞	-12.8618
栅	-12.8618
糸	-12.8618
嘖	-12.8619
暈	-12.8619
睦	-12.8619
貪	-12.8619
匈	-12.8619
癖	-12.8619
銷	-12.8619
麟	-12.8619
憐	-12.8619
躍	-12.8619
遁	-12.8619
闯	-12.8619
绸	-12.8619
า	-12.8619
佼	-12.8619
妊	-12.8619
茵	-12.8619
蛤	-12.8619
谭	-12.8619
钨	-12.8619
霉	-12.8619
鸿	-12.8619
禧	-12.8619
囚	-12.8619
拧	-12.8619
紐	-12.8619
谚	-12.8619
酰	-12.8619
腺	-12.8619
ใ	-12.8619
揺	-12.8619
沢	-12.8619
涿	-12.8619
碉	-12.8619
荔	-12.8619
裘	-12.8619
謹	-12.8619
侯	-12.8619
撫	-12.8619
潰	-12.8619
憎	-12.8619
寬	-12.8619
濫	-12.8619
莺	-12.8619
辕	-12.8619
旷	-12.8619
噢	-12.8619
垮	-12.8619
妖	-12.8619
焖	-12.8619
寰	-12.8619
ù	-12.8619
ī	-12.8619
α	-12.8619
ब	-12.8619
◕	-12.8619
叽	-12.8619
哮	-12.8619
喃	-12.8619
嗡	-12.8619
夯	-12.8619
廻	-12.8619
怅	-12.8619
戸	-12.8619
捅	-12.8619
搖	-12.8619
曄	-12.8619
札	-12.8619
涙	-12.8619
淅	-12.8619
漉	-12.8619
濁	-12.8619
珊	-12.8619
瑚	-12.8619
盼	-12.8619
窺	-12.8619
縛	-12.8619
腕	-12.8619
臣	-12.8619
苯	-12.8619
藩	-12.8619
貼	-12.8619
跡	-12.8619
遙	-12.8619
钇	-12.8619
魯	-12.8619
黙	-12.8619
🌿	-12.8619
🔥	-12.8619
🛍	-12.8619
ا	-12.8619
💰	-12.8619
τ	-12.8619
ي	-12.8619
亩	-12.8619
浣	-12.8619
漁	-12.8619
ぁ	-12.8619
雹	-12.8619
募	-12.8619
暫	-12.8619
濃	-12.8619
觅	-12.8619
趟	-12.8619
鈕	-12.8619
诀	-12.8619
嬉	-12.8619
ぽ	-12.8619
併	-12.8619
厥	-12.8619
帯	-12.8619
攜	-12.8619
ゴ	-12.8619
唑	-12.8619
ボ	-12.862
冤	-12.862
卒	-12.862
嘆	-12.862
抜	-12.862
熒	-12.862
爹	-12.862
珀	-12.862
穎	-12.862
蚊	-12.862
鑑	-12.862
饒	-12.862
顆	-12.862
憩	-12.862
芸	-12.862
戍	-12.862
獣	-12.862
谎	-12.862
肱	-12.862
ゼ	-12.862
吕	-12.862
尸	-12.862
悸	-12.862
暝	-12.862
暠	-12.862
篦	-12.862
粼	-12.862
纺	-12.862
钉	-12.862
駭	-12.862
艱	-12.862
饥	-12.862
祛	-12.862
躺	-12.862
拠	-12.862
搔	-12.862
掛	-12.862
澈	-12.862
宕	-12.8621
恕	-12.8621
劄	-12.8621
揣	-12.8621
莊	-12.8621
遨	-12.8621
锄	-12.8621
癢	-12.8621
祸	-12.8621
倘	-12.8622
扱	-12.8622
顎	-12.8623
骸	-12.8623
坨	-12.8624
斟	-13.1892
嘻	-13.193
驯	-13.1945
庐	-13.1947
魅	-13.1947
砾	-13.1948
疆	-13.1949
苑	-13.195
懦	-13.195
蟹	-13.1951
糜	-13.1951
坎	-13.1951
戎	-13.1951
獎	-13.1951
窟	-13.1951
韓	-13.1951
斌	-13.1951
児	-13.1952
攒	-13.1952
斥	-13.1952
楓	-13.1952
洽	-13.1952
瞎	-13.1952
篷	-13.1952
糠	-13.1952
舱	-13.1952
鞏	-13.1952
飽	-13.1952
龟	-13.1952
芋	-13.1952
娠	-13.1952
廖	-13.1952
払	-13.1952
窥	-13.1952
頗	-13.1952
捆	-13.1952
晾	-13.1952
捎	-13.1952
撩	-13.1952
晤	-13.1952
肅	-13.1952
蔡	-13.1952
躬	-13.1952
酯	-13.1952
僻	-13.1952
徹	-13.1952
栓	-13.1952
爐	-13.1952
λ	-13.1952
อ	-13.1952
เ	-13.1952
娃	-13.1952
疱	-13.1952
絨	-13.1952
茏	-13.1952
锚	-13.1952
闊	-13.1952
蒼	-13.1952
冶	-13.1953
隅	-13.1953
č	-13.1953
ά	-13.1953
η	-13.1953
А	-13.1953
Е	-13.1953
ب	-13.1953
ة	-13.1953
่	-13.1953
ヤ	-13.1953
傘	-13.1953
叩	-13.1953
嘤	-13.1953
彝	-13.1953
拝	-13.1953
挟	-13.1953
槌	-13.1953
焊	-13.1953
禍	-13.1953
竜	-13.1953
紓	-13.1953
綱	-13.1953
缨	-13.1953
詠	-13.1953
諷	-13.1953
鬓	-13.1953
â	-13.1953
Х	-13.1953
侄	-13.1953
ع	-13.1953
ِ	-13.1953
ল	-13.1953
趕	-13.1953
喚	-13.1953
擘	-13.1953
瓢	-13.1953
籠	-13.1953
綴	-13.1953
虞	-13.1953
覧	-13.1953
邱	-13.1953
鸦	-13.1953
詰	-13.1953
鉛	-13.1953
甫	-13.1953
勋	-13.1953
慘	-13.1953
沼	-13.1953
漆	-13.1953
牆	-13.1953
獄	-13.1953
継	-13.1953
諦	-13.1953
邃	-13.1953
霾	-13.1953
麺	-13.1953
叮	-13.1953
邵	-13.1953
剖	-13.1953
叨	-13.1953
錦	-13.1953
喋	-13.1953
愧	-13.1953
棕	-13.1953
眯	-13.1953
贮	-13.1953
遲	-13.1953
罰	-13.1953
膏	-13.1953
寡	-13.1953
瘤	-13.1953
秽	-13.1953
芜	-13.1953
縁	-13.1953
亜	-13.1954
蔗	-13.1954
蕃	-13.1954
鋒	-13.1954
酞	-13.1954
圏	-13.1954
揽	-13.1954
斋	-13.1954
嗪	-13.1954
榨	-13.1954
恬	-13.1955
眸	-13.1955
鞍	-13.1955
掰	-13.1956
箩	-13.1956
簇	-13.1956
椰	-13.1957
腋	-13.1957
镊	-13.1957
娼	-13.6871
媳	-13.6943
弑	-13.6945
凳	-13.6946
妃	-13.6946
弼	-13.6946
凇	-13.6948
渠	-13.6948
毳	-13.6949
婿	-13.6949
侗	-13.6949
夭	-13.6949
屉	-13.6949
恁	-13.6949
惚	-13.6949
晰	-13.695
壇	-13.695
愉	-13.695
苹	-13.6951
丐	-13.6951
冢	-13.6951
囤	-13.6951
悄	-13.6951
悧	-13.6951
懇	-13.6951
斫	-13.6951
殃	-13.6951
泵	-13.6951
〇	-13.6952
ゾ	-13.6952
勁	-13.6952
厢	-13.6952
叟	-13.6952
呂	-13.6952
哟	-13.6952
唠	-13.6952
坝	-13.6952
徙	-13.6952
憔	-13.6952
捂	-13.6952
曦	-13.6952
霖	-13.6952
ก	-13.6952
ร	-13.6952
侏	-13.6952
吠	-13.6952
垠	-13.6952
壑	-13.6952
姮	-13.6952
彷	-13.6952
徨	-13.6952
怼	-13.6952
憤	-13.6952
憫	-13.6952
懶	-13.6952
旬	-13.6952
柁	-13.6952
贡	-13.6952
暸	-13.6952
ł	-13.6952
จ	-13.6952
ด	-13.6952
ล	-13.6952
ู	-13.6952
แ	-13.6952
☆	-13.6952
〈	-13.6952
〉	-13.6952
唢	-13.6952
噓	-13.6952
屦	-13.6952
悚	-13.6952
掣	-13.6952
桡	-13.6952
棚	-13.6952
î	-13.6952
撇	-13.6952
枠	-13.6952
ر	-13.6952
丫	-13.6952
Á	-13.6953
Ç	-13.6953
É	-13.6953
ı	-13.6953
ǒ	-13.6953
ǔ	-13.6953
ː	-13.6953
Α	-13.6953
Φ	-13.6953
γ	-13.6953
π	-13.6953
М	-13.6953
Т	-13.6953
Ч	-13.6953
ה	-13.6953
ח	-13.6953
ל	-13.6953
מ	-13.6953
ح	-13.6953
त	-13.6953
म	-13.6953
ह	-13.6953
ो	-13.6953
्	-13.6953
স	-13.6953
ส	-13.6953
ự	-13.6953
‿	-13.6953
↳	-13.6953
∩	-13.6953
∪	-13.6953
♡	-13.6953
ゔ	-13.6953
ヴ	-13.6953
䄉	-13.6953
亶	-13.6953
佇	-13.6953
俏	-13.6953
俭	-13.6953
偲	-13.6953
傑	-13.6953
冕	-13.6953
剤	-13.6953
剽	-13.6953
勸	-13.6953
匂	-13.6953
厮	-13.6953
咄	-13.6953
唉	-13.6953
啃	-13.6953
嘚	-13.6953
嘿	-13.6953
噩	-13.6953
塢	-13.6953
夙	-13.6953
嫖	-13.6953
嫣	-13.6953
孀	-13.6953
孰	-13.6953
孵	-13.6953
寢	-13.6953
尉	-13.6953
尧	-13.6953
屆	-13.6953
峦	-13.6953
巒	-13.6953
帜	-13.6953
弾	-13.6953
恆	-13.6953
恸	-13.6953
惦	-13.6953
抿	-13.6953
挐	-13.6953
敛	-13.6953
曬	-13.6953
曹	-13.6953
桨	-13.6953
棧	-13.6953
欽	-13.6953
殤	-13.6953
毀	-13.6953
毡	-13.6953
氦	-13.6953
氾	-13.6953
烏	-13.6953
Ō	-13.6953
ъ	-13.6953
奧	-13.6953
巍	-13.6953
і	-13.6953
ن	-13.6953
ভ	-13.6953
哗	-13.6953
嶷	-13.6953
曠	-13.6953
囱	-13.6953
垢	-13.6953
岷	-13.6953
忒	-13.6953
桅	-13.6953
樵	-13.6953
橱	-13.6953
惱	-13.6953
桿	-13.6953
掷	-13.6953
伶	-13.6953
俐	-13.6953
僵	-13.6953
哆	-13.6953
喪	-13.6953
墮	-13.6953
撸	-13.6953
荐	-13.6953
膳	-13.6953
俺	-13.6953
僱	-13.6953
冊	-13.6953
冪	-13.6953
晝	-13.6953
枉	-13.6953
桑	-13.6953
槟	-13.6953
圭	-13.6954
傣	-13.6954
匕	-13.6954
奂	-13.6954
岔	-13.6954
惺	-13.6954
椿	-13.6954
権	-13.6955
乖	-13.6955
壩	-13.6955
悍	-13.6955
憋	-13.6955
拈	-13.6955
栉	-13.6955
伙	-13.6955
奚	-13.6955
喇	-13.6956
弩	-13.6956
掏	-13.6956
摹	-13.6956
晉	-13.6956
氅	-13.6957
娓	-13.6959
蘭	-13.696
亥	-13.6962
樟	-13.6962
咧	-13.6965
戌	-13.6965
卯	-13.6968
娴	-13.6968
巳	-13.6968
剃	-13.6984
殼	-14.6342
歯	-14.6343
橘	-14.6344
榈	-14.6345
椎	-14.6346
棱	-14.6347
慾	-14.6348
慶	-14.6349
惆	-14.635
恺	-14.6351
恵	-14.6352
姨	-14.6353
奮	-14.6354
壽	-14.6355
壺	-14.6356
垩	-14.6357
噻	-14.6358
卦	-14.6359
劉	-14.636
剰	-14.6361
剁	-14.6362
侬	-14.6363
♁	-14.6364
⊙	-14.6365
ї	-14.6366
Б	-14.6367
̄	-14.6368
Ü	-14.6369
±	-14.637
📎	-14.6371
麒	-14.6372
鹳	-14.6373
骼	-14.6374
驼	-14.6375
雰	-14.6376
锈	-14.6377
鄙	-14.6378
遞	-14.6379
遐	-14.638
辗	-14.6381
辄	-14.6382
蹤	-14.6383
贏	-14.6384
賓	-14.6385
貸	-14.6386
貝	-14.6387
诅	-14.6388
讚	-14.6389
衔	-14.639
蝎	-14.6391
蜴	-14.6392
蜥	-14.6393
蜗	-14.6394
荤	-14.6395
臻	-14.6396
臟	-14.6397
肽	-14.6398
聂	-14.6399
籬	-14.64
籀	-14.6401
箴	-14.6402
竣	-14.6403
窮	-14.6404
秃	-14.6405
砌	-14.6406
矶	-14.6407
瞰	-14.6408
烽	-14.6409
潦	-14.641
漾	-14.6411
滕	-14.6412
浇	-14.6413
沌	-14.6414
楂	-14.6415
朽	-14.6416
掀	-14.6417
捨	-14.6418
戀	-14.6419
懸	-14.642
慑	-14.6421
恃	-14.6422
廂	-14.6423
媲	-14.6424
婦	-14.6425
娲	-14.6426
墟	-14.6427
喩	-14.6428
啬	-14.6429
唾	-14.643
咙	-14.6431
咀	-14.6432
吝	-14.6433
厕	-14.6434
匪	-14.6435
倣	-14.6436
倆	-14.6437
俚	-14.6438
ব	-14.6439
φ	-14.644
麥	-14.6441
鸥	-14.6442
鲸	-14.6443
饺	-14.6444
饶	-14.6445
饯	-14.6446
顷	-14.6447
頸	-14.6448
霓	-14.6449
隘	-14.645
阄	-14.6451
鐠	-14.6452
銪	-14.6453
鈾	-14.6454
逍	-14.6455
迥	-14.6456
辙	-14.6457
輔	-14.6458
躯	-14.6459
谞	-14.646
诋	-14.6461
詫	-14.6462
訣	-14.6463
訝	-14.6464
蝇	-14.6465
藜	-14.6466
蔚	-14.6467
蔑	-14.6468
萱	-14.6469
菓	-14.647
茁	-14.6471
臆	-14.6472
聰	-14.6473
翱	-14.6474
翎	-14.6475
翌	-14.6476
羲	-14.6477
羔	-14.6478
缭	-14.6479
缛	-14.648
绎	-14.6481
繰	-14.6482
筷	-14.6483
碾	-14.6484
盹	-14.6485
皎	-14.6486
琶	-14.6487
琵	-14.6488
琢	-14.6489
瀏	-14.649
湲	-14.6491
湮	-14.6492
涝	-14.6493
橿	-14.6494
梵	-14.6495
柷	-14.6496
柬	-14.6497
暧	-14.6498
晖	-14.6499
旖	-14.65
旎	-14.6501
搐	-14.6502
拮	-14.6503
拏	-14.6504
抨	-14.6505
憬	-14.6506
憧	-14.6507
惋	-14.6508
廬	-14.6509
巣	-14.651
崽	-14.6511
屌	-14.6512
孱	-14.6513
夔	-14.6514
坟	-14.6515
噬	-14.6516
咏	-14.6517
剌	-14.6518
兖	-14.6519
侑	-14.652
佑	-14.6521
С	-14.6522
鹭	-14.6523
隸	-14.6524
遜	-14.6525
遏	-14.6526
踐	-14.6527
襲	-14.6528
蠢	-14.6529
蛮	-14.653
蘋	-14.6531
薙	-14.6532
葫	-14.6533
芩	-14.6534
芡	-14.6535
脍	-14.6536
缮	-14.6537
綻	-14.6538
粟	-14.6539
籤	-14.654
祁	-14.6541
睫	-14.6542
睐	-14.6543
疡	-14.6544
疇	-14.6545
甄	-14.6546
渉	-14.6547
汲	-14.6548
橡	-14.6549
樱	-14.655
晷	-14.6551
撼	-14.6552
掙	-14.6553
拷	-14.6554
拶	-14.6555
惰	-14.6556
弈	-14.6557
巫	-14.6558
嫡	-14.6559
Я	-14.656
鸝	-14.6561
驳	-14.6562
陋	-14.6563
铠	-14.6564
轭	-14.6565
踝	-14.6566
赡	-14.6567
赎	-14.6568
蝠	-14.6569
蝙	-14.657
虏	-14.6571
蘑	-14.6572
荏	-14.6573
荀	-14.6574
苒	-14.6575
綜	-14.6576
砸	-14.6577
盪	-14.6578
瘸	-14.6579
疯	-14.658
珑	-14.6581
烁	-14.6582
灸	-14.6583
濤	-14.6584
濑	-14.6585
澗	-14.6586
漼	-14.6587
淆	-14.6588
涓	-14.6589
沛	-14.659
汎	-14.6591
欖	-14.6592
斓	-14.6593
攪	-14.6594
掺	-14.6595
挿	-14.6596
懿	-14.6597
愜	-14.6598
忱	-14.6599
岑	-14.66
嫉	-14.6601
嘈	-14.6602
哔	-14.6603
呤	-14.6604
卉	-14.6605
勧	-14.6606
儇	-14.6607
僖	-14.6608
偎	-14.6609
Э	-14.661
餃	-14.6611
鄰	-14.6612
貿	-14.6613
袤	-14.6614
蒋	-14.6615
繫	-14.6616
絮	-14.6617
硝	-14.6618
瞒	-14.6619
疵	-14.662
瑕	-14.6621
爛	-14.6622
燦	-14.6623
汕	-14.6624
曙	-14.6625
挠	-14.6626
抉	-14.6627
恳	-14.6628
彦	-14.6629
弛	-14.663
巅	-14.6631
奨	-14.6632
垄	-14.6633
伎	-14.6634
П	-14.6635
驭	-14.6636
閃	-14.6637
钦	-14.6638
鑭	-14.6639
軌	-14.664
蹦	-14.6641
豊	-14.6642
谛	-14.6643
蔔	-14.6644
禹	-14.6645
矽	-14.6646
癥	-14.6647
瘙	-14.6648
牲	-14.6649
爍	-14.665
沈	-14.6651
椭	-14.6652
揮	-14.6653
惶	-14.6654
坞	-14.6655
喱	-14.6656
喉	-14.6657
吁	-14.6658
劑	-14.6659
凄	-14.666
儡	-14.6661
傀	-14.6662
佬	-14.6663
佣	-14.6664
▄	-14.6665
′	-14.6666
К	-14.6667
З	-14.6668
骋	-14.6669
餚	-14.667
颊	-14.6671
険	-14.6672
闆	-14.6673
鈞	-14.6674
谴	-14.6675
谬	-14.6676
讶	-14.6677
苔	-14.6678
肚	-14.6679
糾	-14.668
猾	-14.6681
涣	-14.6682
涡	-14.6683
汐	-14.6684
昇	-14.6685
捍	-14.6686
抖	-14.6687
В	-14.6688
ě	-14.6689
鹂	-14.669
鸽	-14.6691
顏	-14.6692
隽	-14.6693
陌	-14.6694
镥	-14.6695
辜	-14.6696
課	-14.6697
艘	-14.6698
瞄	-14.6699
漪	-14.67
涟	-14.6701
栩	-14.6702
枸	-14.6703
杞	-14.6704
懼	-14.6705
帳	-14.6706
峨	-14.6707
屠	-14.6708
娛	-14.6709
壶	-14.671
堪	-14.6711
э	-14.6712
ã	-14.6713
ß	-14.6714
靈	-14.6715
蚂	-14.6716
胥	-14.6717
癫	-14.6718
痫	-14.6719
汰	-14.672
檬	-14.6721
槛	-14.6722
柠	-14.6723
怡	-14.6724
屿	-14.6725
啤	-14.6726
谪	-14.6727
蓉	-14.6728
瑜	-14.6729
琦	-14.673
珰	-14.6731
猩	-14.6732
煸	-14.6733
溺	-14.6734
溃	-14.6735
榄	-14.6736
掠	-14.6737
孢	-14.6738
婴	-14.6739
匿	-14.674
ギ	-14.6741
迄	-14.6742
諮	-14.6743
競	-14.6744
痒	-14.6745
溉	-14.6746
慣	-14.6747
崛	-14.6748
寞	-14.6749
婪	-14.675
嗽	-14.6751
僚	-14.6752
陡	-14.6753
阈	-14.6754
閏	-14.6755
诙	-14.6756
衅	-14.6757
荨	-14.6758
糙	-14.6759
濠	-14.676
浦	-14.6761
汨	-14.6762
掃	-14.6763
拯	-14.6764
勻	-14.6765
骁	-14.6766
颖	-14.6767
蝴	-14.6768
蕾	-14.6769
瞭	-14.677
毎	-14.6771
歩	-14.6772
帰	-14.6773
厉	-14.6774
伽	-14.6775
醛	-14.6776
豌	-14.6777
蚀	-14.6778
翰	-14.6779
瞳	-14.678
燒	-14.6781
潺	-14.6782
漸	-14.6783
沮	-14.6784
擂	-14.6785
弥	-14.6786
匮	-14.6787
阐	-14.6788
豫	-14.6789
蜘	-14.679
虹	-14.6791
擬	-14.6792
挫	-14.6793
択	-14.6794
宠	-14.6795
ф	-14.6796
籃	-14.6797
橄	-14.6798
孜	-14.6799
須	-14.68
赁	-14.6801
貢	-14.6802
蔥	-14.6803
爺	-14.6804
徴	-14.6805
尴	-14.6806
尬	-14.6807
増	-14.6808
嘗	-14.6809
▀	-14.681
韧	-14.6811
陸	-14.6812
鍵	-14.6813
蔽	-14.6814
翩	-14.6815
煽	-14.6816
詹	-14.6817
潛	-14.6818
曆	-14.6819
挚	-14.682
齢	-14.6821
饋	-14.6822
酬	-14.6823
灌	-14.6824
巩	-14.6825
勵	-14.6826
黎	-14.6827
験	-14.6828
兮	-14.6829
轼	-14.683
賴	-14.6831
谅	-14.6832
葡	-14.6833
耦	-14.6834
岡	-14.6835
労	-14.6836
‰	-14.6837
骰	-14.6838
訴	-14.6839
挙	-14.684
衛	-14.6841
藝	-14.6842
焙	-14.6843
埔	-14.6844
讽	-14.6845
彪	-14.6846
叠	-14.6847
甸	-14.6848
滥	-14.6849
擴	-14.685
嬸	-14.6851
辐	-14.6852
廓	-14.6853
匙	-14.6854
轨	-14.6855
毫	-14.6856
侣	-14.6857
膀	-14.6858
筛	-14.6859
渲	-14.686
ñ	-14.6861
谊	-14.6862
璃	-14.6863
烘	-14.6864
杭	-14.6865
寓	-14.6866
氷	-14.6867
叔	-14.6868
鉴	-14.6869
搅	-14.687
惕	-14.6871
倫	-14.6872
瞬	-14.6873
曝	-14.6874
驟	-14.6875
肴	-14.6876
泼	-14.6877
鲨	-14.6878
蕉	-14.6879
矛	-14.688
惧	-14.6881
怖	-14.6882
郁	-14.6883
盟	-14.6884
黛	-14.6885
紹	-14.6886
█	-14.6887
違	-14.6888
濟	-14.6889
脏	-14.689
谐	-14.6891
胁	-14.6892
垃	-14.6893
圾	-14.6894
迭	-14.6895
纽	-14.6896
б	-14.6897
钥	-14.6898
饪	-14.6899
療	-14.69
寸	-14.6901
雇	-14.6902
诞	-14.6903
烦	-14.6904
贷	-14.6905
評	-14.6906
擅	-14.6907
央	-14.6908
毕	-14.6909
娱	-14.691
況	-14.6911
脹	-14.6912
経	-14.6913
ュ	-14.6914
ェ	-14.6915
蔬	-14.6916
讼	-14.6917
浏	-14.6918
忽	-14.6919
狒	-14.692
扮	-14.6921
з	-14.6922
碍	-14.6923
ャ	-14.6924
睛	-14.6925
圳	-14.6926
ョ	-14.6927
擇	-14.6928
恢	-14.6929
删	-14.693
允	-14.6931
¿	-14.6932
钮	-14.6933
夠	-14.6934
悉	-14.6935
啡	-14.6936
際	-14.6937
習	-14.6938
咨	-14.6939
フ	-14.694
░	-14.6941
综	-14.6942
培	-14.6943
姻	-14.6944
践	-14.6945
扩	-14.6946
擎	-14.6947
朋	-14.6947
辑	-14.6948
绍	-14.6949
礎	-14.695
宙	-14.695
企	-14.695
柿	-14.6951
薦	-14.6951
繼	-14.6951
监	-14.6951
秩	-14.6952
肪	-14.6952
疗	-14.6952
斐	-14.6953
询	-14.6953
胤	-14.6954
阱	-14.6954
础	-14.6954
诉	-14.6955
函	-14.6956
淫	-14.6957
训	-14.6957
际	-14.6958
瘟	-14.6959
验	-14.6959
择	-14.696
锻	-14.696
