<pad>	0
<unk>	0
<s>	0
</s>	0
<USER>	0
<ASSISTANT>	0
<SYSTEM>	0
、	-2.74794
の	-2.95038
。	-3.23486
▁	-3.66531
は	-4.00929
:	-4.05673
を	-4.29486
と	-4.3804
に	-4.54202
が	-4.56776
で	-4.87726
▁User	-5.29493
▁Assistant	-5.29664
?	-5.34452
です	-5.38999
(	-5.58045
)	-5.63267
▁-	-5.64745
し	-5.68833
ます	-5.71488
や	-5.77768
する	-5.83568
か	-5.9014
」	-5.91332
または	-6.03125
から	-6.09257
1	-6.10847
な	-6.1845
2	-6.21271
この	-6.23003
します	-6.23977
「	-6.27195
て	-6.32393
には	-6.34605
ス	-6.36605
る	-6.39672
であり	-6.42461
・	-6.44437
い	-6.4723
.	-6.4733
3	-6.59259
ました	-6.60712
ために	-6.6276
など	-6.6305
があります	-6.63051
これは	-6.65257
された	-6.66452
s	-6.66971
-	-6.6828
!	-6.6964
ル	-6.6999
私は	-6.70265
および	-6.70735
として	-6.72697
その	-6.72851
た	-6.78481
を使用して	-6.79051
つの	-6.79394
などの	-6.79612
あなたの	-6.80093
く	-6.80622
的な	-6.81106
した	-6.83425
ト	-6.83767
である	-6.84209
して	-6.86779
a	-6.90608
人	-6.93529
も	-6.93907
多くの	-6.9536
より	-6.96916
他の	-6.97777
ク	-6.98916
これらの	-6.98919
▁1.	-6.99735
では	-7.00189
こと	-7.00647
5	-7.01054
ア	-7.01076
ことができます	-7.01129
C	-7.02017
年	-7.02101
いくつかの	-7.02294
方法	-7.02334
S	-7.03018
ラ	-7.03446
4	-7.03505
もの	-7.05011
さまざまな	-7.07409
それは	-7.07465
ています	-7.07591
/	-7.08666
リ	-7.0947
▁*	-7.09564
できます	-7.10258
y	-7.11162
▁2.	-7.1132
ド	-7.12032
性	-7.12561
によって	-7.13592
▁3.	-7.1386
彼の	-7.14868
特定の	-7.14955
新しい	-7.14995
について	-7.158
り	-7.15837
すべての	-7.16289
日	-7.1652
時間	-7.17041
彼は	-7.18704
マ	-7.19811
できる	-7.20287
システム	-7.20702
D	-7.21167
o	-7.2183
ている	-7.22789
水	-7.23302
ー	-7.23732
▁=	-7.24377
問題	-7.2544
x	-7.25495
あなたが	-7.26069
力	-7.2627
e	-7.2712
され	-7.2746
P	-7.27624
イ	-7.27822
者	-7.28087
データ	-7.29514
n	-7.29684
ロ	-7.30839
A	-7.30913
必要があります	-7.31142
ゲーム	-7.31502
数	-7.31617
私の	-7.32125
的	-7.33186
言語	-7.33205
▁4.	-7.34497
それ	-7.35652
i	-7.35884
_	-7.36851
は何ですか	-7.36904
ン	-7.37586
への	-7.37731
つ	-7.38194
そして	-7.38584
u	-7.38984
M	-7.39257
b	-7.3933
t	-7.39704
機能	-7.39813
情報	-7.40891
コード	-7.41547
AI	-7.41857
ため	-7.4292
ための	-7.42951
さらに	-7.42973
d	-7.43135
場合	-7.43835
モデル	-7.44214
月	-7.44623
レ	-7.45832
また	-7.46433
]	-7.46788
非常に	-7.47303
カ	-7.47595
フ	-7.47665
体	-7.48043
たとえば	-7.48296
7	-7.48994
g	-7.49284
彼らは	-7.49997
r	-7.50107
される	-7.50267
最も	-7.50449
てください	-7.50575
シ	-7.50688
R	-7.51581
のために	-7.51901
国	-7.52926
ナ	-7.53515
しています	-7.53681
プロセス	-7.53908
コ	-7.53969
アプリケーション	-7.54129
p	-7.546
している	-7.54604
関数	-7.54869
各	-7.55381
er	-7.55809
あなたは	-7.56452
6	-7.56675
c	-7.56696
ム	-7.56802
▁「	-7.56953
本	-7.56997
ことを	-7.57007
▁5.	-7.57907
世界	-7.58338
タ	-7.60371
しました	-7.60589
き	-7.60907
されます	-7.61363
エ	-7.61721
しかし	-7.61751
B	-7.62105
L	-7.62123
化	-7.62195
ウ	-7.62276
テキスト	-7.6283
に関する	-7.62856
よりも	-7.63579
8	-7.64145
ように	-7.64732
不	-7.64883
説明	-7.65529
す	-7.65812
10	-7.66035
オ	-7.6663
れ	-7.6682
9	-7.68725
大	-7.68754
T	-7.68764
異なる	-7.69338
でした	-7.69387
O	-7.69431
重要な	-7.69998
I	-7.70386
ですか	-7.70627
F	-7.70669
リー	-7.70699
ミ	-7.70742
チ	-7.7081
▁この	-7.7184
ことができる	-7.7202
デ	-7.72452
するために	-7.72612
E	-7.72793
、「	-7.73185
は次のとおりです	-7.7341
グ	-7.7367
ない	-7.73751
バ	-7.73939
ブ	-7.74334
がある	-7.74804
ただ	-7.74984
を含む	-7.75886
G	-7.75913
オブジェクト	-7.76067
後	-7.7611
ニ	-7.76931
まで	-7.77167
う	-7.77248
場所	-7.78323
最初の	-7.78471
があり	-7.78535
ことは	-7.78795
プロジェクト	-7.78825
家	-7.78837
さ	-7.79005
め	-7.79089
出	-7.79286
という	-7.79428
f	-7.79712
使用	-7.79772
質問	-7.80372
ファイル	-7.80389
サ	-7.8076
光	-7.80833
k	-7.80933
してください	-7.814
プログラム	-7.81795
理解	-7.82261
されている	-7.82389
in	-7.83138
コンピューター	-7.83158
色	-7.8329
されています	-7.83478
スト	-7.83829
学習	-7.8421
行動	-7.84266
したがって	-7.84533
社会	-7.84716
Web	-7.85031
ズ	-7.85639
エネルギー	-7.85791
開発	-7.8608
ら	-7.86179
l	-7.86306
結果	-7.86751
約	-7.86826
研究	-7.8686
み	-7.8697
値	-7.87228
次の	-7.87733
テ	-7.8783
v	-7.88047
ダ	-7.88624
することができます	-7.88915
それを	-7.88937
画像	-7.89103
能力	-7.89204
▁私は	-7.89426
リスト	-7.89923
手	-7.90348
ッ	-7.90948
N	-7.91619
お	-7.91655
re	-7.91879
経験	-7.92471
に対する	-7.92591
V	-7.92594
行	-7.92622
たり	-7.93003
技術	-7.93056
構造	-7.93278
例	-7.9337
関係	-7.93491
ツール	-7.93556
度	-7.93585
金	-7.93606
学	-7.93942
一	-7.94157
発	-7.94178
法	-7.94249
キ	-7.95069
かもしれません	-7.95143
による	-7.95157
ar	-7.95447
った	-7.95528
を提供する	-7.95601
ジ	-7.95681
サービス	-7.9576
X	-7.95761
人の	-7.96425
気	-7.9644
により	-7.96788
環境	-7.9686
それが	-7.96934
生	-7.97022
人間の	-7.97104
答え	-7.97593
タスク	-7.98095
仕事	-7.9812
目	-7.9813
的に	-7.9817
ディ	-7.983
中	-7.98681
▁**	-7.98952
良い	-7.99231
材料	-7.99379
物	-7.99408
ており	-7.99438
を持つ	-7.99461
ット	-7.99587
m	-7.99639
▁+	-7.99886
"	-8.00059
彼らの	-8.00291
プ	-8.00331
20	-8.00347
のに役立ちます	-8.00484
トレーニング	-8.00527
前	-8.00616
前に	-8.00672
ネ	-8.0103
h	-8.01031
場合は	-8.01045
を使用する	-8.01462
小さな	-8.01473
製品	-8.01947
0	-8.02269
要素	-8.02374
これにより	-8.03395
al	-8.03452
理論	-8.03478
ではありません	-8.03495
私たちの	-8.03815
ガ	-8.03876
別の	-8.03927
イン	-8.03929
になる	-8.03983
メ	-8.04044
大きな	-8.04073
健康	-8.04467
▁2	-8.04483
愛	-8.04593
人間	-8.04804
映画	-8.04934
スキル	-8.05101
目的	-8.05466
可能性があります	-8.05492
ック	-8.06087
意味	-8.06109
モ	-8.06326
に基づいて	-8.06708
グループ	-8.06801
▁"	-8.06832
▁`	-8.07792
心	-8.0798
オプション	-8.08116
する必要があります	-8.08466
管理	-8.08627
テクノロジー	-8.09679
ことです	-8.09732
地	-8.098
分	-8.09876
U	-8.10358
一般的な	-8.10392
む	-8.10493
ま	-8.10848
私が	-8.10995
考え	-8.11003
ソフトウェア	-8.11094
バー	-8.11232
私たちは	-8.11603
って	-8.11734
高	-8.1182
個人	-8.11859
[	-8.12052
アルゴリズム	-8.12088
ユーザー	-8.12141
▁6.	-8.12184
目標	-8.12565
同じ	-8.12987
le	-8.13173
パ	-8.1373
状態	-8.14114
上	-8.14145
▁もちろん	-8.14325
知識	-8.14375
え	-8.14786
H	-8.15137
変更	-8.15165
になります	-8.15315
年に	-8.15349
音楽	-8.15463
わ	-8.15795
量	-8.15953
が必要です	-8.15977
セ	-8.16048
います	-8.1622
ではなく	-8.17213
▁C	-8.17274
Python	-8.17281
人工知能	-8.17784
ティ	-8.17865
,	-8.17895
用	-8.18064
を作成する	-8.1808
キャラクター	-8.18479
回	-8.18591
の使用	-8.18917
▁1	-8.19118
▁[	-8.19124
を提供します	-8.1918
中に	-8.1919
〜	-8.19317
卵	-8.19459
人生	-8.19678
における	-8.19881
理由	-8.19882
動物	-8.19906
すること	-8.19939
z	-8.19967
が含まれます	-8.20149
リソース	-8.20222
ビ	-8.20485
適切な	-8.20489
▁こんにちは	-8.20489
ノ	-8.20661
常に	-8.2085
私	-8.20862
分析	-8.20977
熱	-8.20996
スタイル	-8.21591
ある	-8.21666
ことが重要です	-8.21998
計画	-8.2291
何	-8.2295
19	-8.22989
▁|	-8.23085
複雑な	-8.23418
ra	-8.23785
にとって	-8.2385
語	-8.2436
デバイス	-8.24511
間	-8.24533
価値	-8.24812
外	-8.24849
自分の	-8.24968
なら	-8.25048
特に	-8.25311
状況	-8.25319
都市	-8.25405
セット	-8.25947
基本的な	-8.26042
いた	-8.26065
神	-8.26275
太陽	-8.26296
を持っている	-8.26336
▁これらの	-8.26373
▁S	-8.26487
のある	-8.26582
だ	-8.2678
子供	-8.27056
すべて	-8.27149
あなた	-8.27191
人々	-8.27339
宇宙	-8.27621
ポイント	-8.27669
an	-8.27719
改善	-8.28597
プログラミング	-8.28627
子	-8.28637
入	-8.28882
合	-8.28885
on	-8.28892
ビデオ	-8.2901
en	-8.29202
したり	-8.2946
ここに	-8.29546
されました	-8.29683
;	-8.30049
ること	-8.30222
文化	-8.30319
部分	-8.30435
`	-8.30628
12	-8.30754
要因	-8.31053
速度	-8.31341
経済	-8.31644
現在の	-8.31826
st	-8.32177
ステップ	-8.32205
を備えた	-8.32209
▁``	-8.32531
どの	-8.33111
コミュニティ	-8.33165
アン	-8.33188
ピ	-8.33299
計算	-8.33348
テスト	-8.33408
を作成します	-8.3351
可能な	-8.33595
チーム	-8.34138
ときに	-8.34141
いる	-8.34149
今日	-8.34253
ポ	-8.346
非	-8.34633
条件	-8.34792
地球	-8.3503
%	-8.3512
を持っています	-8.35241
自然	-8.35459
ハ	-8.35579
どのように	-8.35731
下	-8.35759
一部の	-8.3586
選択	-8.35894
プラットフォーム	-8.35947
通常	-8.35962
処理	-8.36076
道	-8.36107
制限	-8.36292
にある	-8.36431
形	-8.36481
特性	-8.36491
空	-8.36602
ダー	-8.368
|	-8.369
コンテンツ	-8.36948
方法で	-8.37067
存在	-8.37085
'	-8.37231
ロー	-8.37274
彼が	-8.37284
を見つける	-8.37448
ホ	-8.37528
車	-8.37757
に応じて	-8.37936
内	-8.37939
ゴ	-8.37999
30	-8.3804
米国	-8.38163
決定	-8.38349
感情	-8.3841
ですが	-8.38512
ター	-8.38528
他の人	-8.38529
サイト	-8.38679
注意	-8.3868
名	-8.38696
無	-8.3879
ri	-8.38845
入力	-8.38863
音	-8.3914
より多くの	-8.3916
のための	-8.39264
アイデア	-8.39641
サポート	-8.39733
方	-8.39752
プログラミング言語	-8.39799
猫	-8.39839
ペ	-8.39909
温度	-8.40011
レベル	-8.40046
▁A	-8.40151
ではない	-8.40158
はありません	-8.40188
それら	-8.40355
彼らが	-8.40434
であること	-8.40488
式	-8.40672
かどうか	-8.40815
ネットワーク	-8.40872
科学	-8.40975
▁•	-8.41103
旅行	-8.41179
のみ	-8.41185
提案	-8.41202
できますか	-8.41388
K	-8.41464
何か	-8.41539
とき	-8.41598
ch	-8.41604
ro	-8.41713
▁3	-8.4184
▁B	-8.42389
ボ	-8.42393
成長	-8.4283
概念	-8.43077
マー	-8.43186
...	-8.43353
or	-8.43405
するための	-8.43777
犬	-8.43888
必要な	-8.43945
ていました	-8.44215
生産	-8.44217
戦略	-8.44252
▁7.	-8.44486
会社	-8.44505
クラス	-8.45067
オンライン	-8.45084
議論	-8.45338
200	-8.45422
作品	-8.45708
ことをお勧めします	-8.45808
付け	-8.46237
名前	-8.46241
彼女は	-8.46278
始め	-8.46541
を教えてください	-8.46582
手順	-8.4665
生活	-8.46896
惑星	-8.46977
の一部	-8.4713
100	-8.47142
のような	-8.47182
の例	-8.47267
制御	-8.47286
実行	-8.4752
つまり	-8.4775
これ	-8.47817
ることができます	-8.47898
定	-8.47928
を作成し	-8.48024
機会	-8.48492
私に	-8.48544
強力な	-8.48674
でしょう	-8.48776
利点	-8.48869
ラン	-8.49186
の場合	-8.49211
可能性	-8.49494
**	-8.49617
リア	-8.49632
今	-8.49685
活動	-8.4971
指	-8.49752
at	-8.49972
パターン	-8.50009
ファ	-8.50035
ず	-8.5018
長	-8.5027
に依存します	-8.503
感	-8.50359
海	-8.50382
全体	-8.50383
部	-8.50787
低	-8.50966
現在	-8.51223
▁{	-8.51247
教育	-8.5135
ケ	-8.51497
de	-8.51662
▁そして	-8.51728
W	-8.51741
定義	-8.51754
通	-8.51836
us	-8.51854
認識	-8.51978
動き	-8.52055
どのような	-8.52167
企業	-8.5232
を提供し	-8.52419
させる	-8.52533
動	-8.52628
よく	-8.5282
のリスト	-8.53017
提供	-8.53278
はありますか	-8.5336
は非常に	-8.53378
設計	-8.53526
表現	-8.53616
ール	-8.53676
悪	-8.53891
植物	-8.54096
見	-8.54113
ません	-8.54122
リング	-8.54135
作成	-8.54376
っている	-8.54513
ツ	-8.54582
価格	-8.55006
なる	-8.55288
トピック	-8.55416
星	-8.55665
ことで	-8.55674
ソ	-8.55748
自由	-8.55766
社会的	-8.55934
サーバー	-8.56128
器	-8.56552
18	-8.56805
15	-8.57012
のですか	-8.57027
パフォーマンス	-8.57034
生成	-8.5704
el	-8.57116
政府	-8.57126
▁```	-8.57165
操作	-8.57263
番目の	-8.57282
詳細	-8.57507
セキュリティ	-8.57537
戦争	-8.57537
影響	-8.57617
地域	-8.57729
ソース	-8.57859
it	-8.57978
彼女の	-8.58002
家族	-8.58168
運動	-8.58173
要約する	-8.58364
最終的に	-8.58374
友人	-8.58418
デザイン	-8.58573
変数	-8.58824
位置	-8.59204
解	-8.59327
組織	-8.59408
ing	-8.59417
保護	-8.59459
J	-8.59572
どこ	-8.59622
場合があります	-8.59816
リン	-8.60074
私たちが	-8.60192
文字	-8.60244
単語	-8.60258
ラー	-8.60536
使用する	-8.60572
ことが	-8.60657
実	-8.6079
la	-8.60812
食	-8.60814
主義	-8.60889
数学	-8.60982
線	-8.61066
ください	-8.61077
攻撃	-8.61101
評価	-8.61139
ベ	-8.61313
させ	-8.61362
▁P	-8.61455
▁はい	-8.61496
たい	-8.61786
ライ	-8.61807
ート	-8.61934
の問題	-8.6199
を通じて	-8.62136
分野	-8.62155
に関連する	-8.62713
キー	-8.62714
パー	-8.62823
メッセージ	-8.62825
コマンド	-8.62915
変化	-8.6294
点	-8.62985
味	-8.63009
文	-8.63022
についての	-8.63127
であるため	-8.63188
▁4	-8.63193
にも	-8.63194
間の	-8.63275
する方法	-8.63287
正しい	-8.63478
のように	-8.63554
パン	-8.63586
独自の	-8.63696
死	-8.63898
th	-8.6409
詩	-8.64135
w	-8.64279
反応	-8.64358
立	-8.64515
責任	-8.64576
オープンソース	-8.64599
曲	-8.64679
11	-8.64719
一般に	-8.64797
設定	-8.64957
を学ぶ	-8.65004
と呼ばれる	-8.65009
アプローチ	-8.65019
を作る	-8.65113
型	-8.65235
ご	-8.65452
複数の	-8.65464
▁M	-8.65596
▁#	-8.66065
書	-8.66205
上の	-8.66269
木	-8.66358
マン	-8.66451
先	-8.6658
ページ	-8.66822
簡単な	-8.66908
最高の	-8.66924
作業	-8.67048
▁しかし	-8.67152
カー	-8.67246
ライブラリ	-8.67266
アクセス	-8.6727
種	-8.67274
サイズ	-8.67336
ング	-8.6742
バージョン	-8.67511
構成	-8.67551
タイプ	-8.67631
源	-8.67957
女性	-8.67994
統合	-8.6818
可能性のある	-8.68211
方法は	-8.68243
を書く	-8.68246
内の	-8.68293
示	-8.68361
面	-8.68515
の中で	-8.68575
その他の	-8.68594
中国	-8.68681
▁私の	-8.68699
せ	-8.6875
タイ	-8.68836
50	-8.6885
側面	-8.68878
j	-8.68968
市場	-8.68984
^2	-8.69007
成功	-8.69013
課題	-8.69098
インストール	-8.69349
私たち	-8.69472
とは何ですか	-8.69513
質	-8.69784
}	-8.6979
反	-8.7
の両方	-8.70095
可能性がある	-8.70342
▁これは	-8.7036
進	-8.70365
ニーズ	-8.70679
話	-8.70698
コンポーネント	-8.7073
食事	-8.70741
イベント	-8.70964
ことを意味します	-8.71054
完全に	-8.7111
プロ	-8.71118
アル	-8.71118
空気	-8.71486
まだ	-8.71567
レン	-8.72004
エラー	-8.72205
を理解する	-8.72278
効果	-8.72548
のいくつか	-8.72593
ic	-8.72741
▁L	-8.72797
細胞	-8.72865
ルール	-8.73133
これには	-8.73151
年の	-8.73202
個人的な	-8.73297
専門家	-8.73335
塩	-8.73349
いて	-8.7363
言葉	-8.73797
コン	-8.73961
▁T	-8.74251
違い	-8.74275
のに役立つ	-8.74385
波	-8.7456
接続	-8.74592
困難	-8.74598
言	-8.74659
こともできます	-8.74759
構築	-8.74804
自己	-8.74805
es	-8.74806
ドル	-8.74914
代わりに	-8.75051
を使用します	-8.75126
コスト	-8.75181
州	-8.75296
ビジネス	-8.75297
障害	-8.75324
の名前	-8.75347
人が	-8.75412
安全	-8.75435
物語	-8.75456
フィ	-8.7564
ますか	-8.75671
べき	-8.75767
歴史	-8.75941
ん	-8.76205
テーブル	-8.76286
一般的に	-8.76683
そう	-8.76746
意識	-8.76782
分野で	-8.76814
治療	-8.77034
戦	-8.77095
is	-8.77484
リスク	-8.77771
証拠	-8.77788
インターネット	-8.77788
最初に	-8.77828
ザ	-8.7795
et	-8.77954
un	-8.77962
品質	-8.78047
と一緒に	-8.78206
スクリプト	-8.78294
as	-8.78383
政治的	-8.78505
▁G	-8.78637
の数	-8.7867
準備	-8.78744
ば	-8.78762
ol	-8.78858
の作成	-8.79134
それらを	-8.79212
調整	-8.79228
▁x	-8.79236
ギ	-8.79289
に従って	-8.79378
時	-8.79416
ドイツ	-8.79568
▁}	-8.79576
なります	-8.79602
を受け	-8.79644
的で	-8.79688
原因	-8.79827
se	-8.80005
=	-8.80128
すると	-8.80527
▁あなたの	-8.80581
▁D	-8.80584
ことにより	-8.8064
練習	-8.80769
ヒ	-8.80861
▁0	-8.80876
▁c	-8.81067
次に	-8.81073
連	-8.81089
コミュニケーション	-8.81115
写真	-8.81122
多	-8.81342
っています	-8.8139
時代	-8.81391
素晴らしい	-8.81646
進化	-8.81697
全	-8.81851
サン	-8.81936
大学	-8.82001
簡単に	-8.82288
人気のある	-8.82411
人は	-8.82449
を見る	-8.82462
カル	-8.82465
出力	-8.82589
着	-8.82633
小	-8.82661
優れた	-8.82707
ち	-8.82717
最大	-8.82962
Y	-8.82964
領域	-8.83074
プレイ	-8.8316
学生	-8.83178
開発者	-8.83259
平均	-8.83385
を見	-8.83462
原則	-8.83495
その後	-8.83506
正確な	-8.83563
け	-8.83631
世紀	-8.83762
芸術	-8.83764
解決	-8.83821
再	-8.8387
更新	-8.83974
ことができ	-8.83998
あなたに	-8.84014
になり	-8.84094
▁あなたは	-8.84102
流	-8.84165
会話	-8.8417
料理	-8.8431
好み	-8.84314
追加	-8.84416
▁あなたが	-8.84433
それぞれ	-8.84592
一緒に	-8.84664
ニー	-8.84728
応答	-8.8484
スペース	-8.84881
アシスタント	-8.85104
を生成する	-8.8523
▁それは	-8.85267
調査	-8.85375
近	-8.856
数字	-8.85679
スペイン	-8.85812
脳	-8.85892
現実	-8.85898
の間に	-8.859
特徴	-8.85929
シリーズ	-8.85929
電気	-8.85953
レシピ	-8.86204
すぐに	-8.86513
▁8.	-8.86561
物質	-8.86572
世界の	-8.86624
は通常	-8.86637
主要な	-8.86753
助け	-8.86822
そのような	-8.86934
んだ	-8.86961
開	-8.86961
層	-8.87027
に対して	-8.87031
だけ	-8.87031
中の	-8.87257
少し	-8.87268
からの	-8.8727
第	-8.87296
頭	-8.87302
オープンアシスタント	-8.87317
導	-8.87323
白	-8.8743
ほとんどの	-8.87446
ブル	-8.8745
ライン	-8.87473
なぜ	-8.87495
▁F	-8.87497
夜	-8.87584
予測	-8.87745
作	-8.87752
命	-8.87802
でも	-8.87851
を説明する	-8.87862
一連の	-8.87864
できない	-8.87948
フランス	-8.88114
利益	-8.8814
ことに	-8.88149
シー	-8.88439
かつ	-8.88512
経済的	-8.88519
Linux	-8.88663
歌	-8.887
JavaScript	-8.88704
増加	-8.89112
カード	-8.89175
発見	-8.89262
人々が	-8.89341
メモリ	-8.89434
することは	-8.89549
睡眠	-8.89552
野菜	-8.89552
ことはできません	-8.89684
16	-8.89755
したい	-8.89887
ゲ	-8.9004
山	-8.90107
座	-8.9012
▁'	-8.90212
繰り返し	-8.90405
の開発	-8.90498
び	-8.90588
000	-8.90611
ce	-8.90673
潜在的な	-8.90691
言語モデル	-8.90728
たら	-8.90754
後に	-8.90771
によると	-8.90792
法律	-8.90979
翻訳	-8.9098
格	-8.91028
主に	-8.91042
国の	-8.91183
カップ	-8.91321
効率	-8.91445
ヴ	-8.91556
するか	-8.91585
()	-8.91676
足	-8.91793
ジェ	-8.91807
方程式	-8.91846
スター	-8.92041
os	-8.9228
もっと	-8.92314
人々の	-8.92491
実装	-8.92554
肉	-8.92686
コーヒー	-8.92716
ッド	-8.92798
げ	-8.9287
サー	-8.92897
実際の	-8.92936
彼ら	-8.9301
がどのように	-8.93039
レー	-8.93083
te	-8.93101
きます	-8.9311
大規模な	-8.93176
これが	-8.93299
必要がある	-8.93365
の間の	-8.93367
重力	-8.93371
am	-8.93433
科学的	-8.93436
を理解し	-8.93512
緑	-8.93603
販売	-8.93604
興味深い	-8.93613
(1	-8.93727
オン	-8.93759
火	-8.93865
リンク	-8.93924
ブロック	-8.93926
ヤ	-8.94109
風	-8.94174
表面	-8.9418
デジタル	-8.94195
ソリューション	-8.94197
▁5	-8.94238
測定	-8.94316
とその	-8.94394
産	-8.94443
なり	-8.94493
解釈	-8.94493
場	-8.94554
王	-8.94653
万	-8.94787
ストーリー	-8.94792
顧客	-8.94792
分類	-8.94818
続け	-8.94887
れた	-8.95046
とても	-8.9514
+	-8.95186
フェ	-8.95207
ma	-8.95445
sh	-8.95538
何を	-8.95618
率	-8.95685
▁これらは	-8.95716
ユニークな	-8.95717
▁\	-8.95739
用語	-8.95748
ガス	-8.95806
のない	-8.95817
おそらく	-8.95993
タンパク質	-8.95993
敵	-8.95995
ッチ	-8.96002
主	-8.96018
機械学習	-8.96024
毎日	-8.96026
ニア	-8.96133
もあります	-8.96154
高度な	-8.96297
追加の	-8.96362
レイ	-8.96564
セル	-8.96571
なければなりません	-8.96579
ップ	-8.96642
物理学	-8.96896
パッケージ	-8.96908
電子	-8.96914
):	-8.9692
キャ	-8.96947
パス	-8.96989
の量	-8.9699
、19	-8.96999
危険	-8.97034
相互作用	-8.97214
彼女	-8.97253
データの	-8.97311
本当に	-8.97394
um	-8.97489
を通して	-8.97524
害	-8.97816
石	-8.97822
もう	-8.97838
タイプの	-8.97869
);	-8.98016
自分自身	-8.98042
調理	-8.98051
を実行する	-8.98052
ることができる	-8.9806
哲学	-8.98213
食品	-8.98456
25	-8.98535
高い	-8.98624
適用	-8.98819
になる可能性があります	-8.98874
必要に応じて	-8.99111
それらは	-8.99123
されており	-8.99215
長い	-8.99288
di	-8.99302
食べ物	-8.99396
を示す	-8.99439
を使って	-8.99474
最後に	-8.99685
を書いてください	-8.99703
会	-8.99778
お金	-8.99798
尋ね	-8.99862
ヘ	-8.99872
理	-8.99892
事	-9.00182
口	-9.00184
加	-9.00256
トン	-9.00285
実験	-9.00323
しますか	-9.00358
するには	-9.00435
する必要がある	-9.00582
データを	-9.00595
Q	-9.00619
がない	-9.00645
ことができますか	-9.00673
データベース	-9.00789
ないように	-9.00912
分間	-9.00925
知	-9.00941
に最適な	-9.00952
を選択する	-9.00955
意見	-9.00976
そ	-9.01173
重	-9.01237
を維持し	-9.01341
lo	-9.01576
アクション	-9.01595
ot	-9.01621
一方	-9.01697
をより	-9.01792
検索	-9.01821
要件	-9.01856
オペレーティングシステム	-9.01917
▁b	-9.01919
形式	-9.01922
ウェブサイト	-9.01923
すでに	-9.0198
日に	-9.02063
可能	-9.02163
il	-9.02514
を取り	-9.02522
深い	-9.02544
主な	-9.02684
エル	-9.02736
つは	-9.02975
色の	-9.03008
距離	-9.03035
貢献	-9.03075
業	-9.03159
所	-9.03179
なかった	-9.03246
ファン	-9.03297
を維持する	-9.03363
られた	-9.03474
粒子	-9.03538
購入	-9.03573
をどのように	-9.03763
空間	-9.03798
エンジン	-9.03853
Z	-9.03862
トマト	-9.0387
共有	-9.03961
ナー	-9.04207
配	-9.04425
ほど	-9.0445
ッシュ	-9.04505
美しい	-9.04518
原子	-9.04529
しない	-9.04535
ストレス	-9.0455
エン	-9.04611
除	-9.04807
変	-9.04834
こ	-9.04846
を行う	-9.0487
修正	-9.04938
動作	-9.05097
にもかかわらず	-9.05176
回答	-9.05178
#	-9.05211
残	-9.05508
化学	-9.05565
ボール	-9.0561
関連	-9.05737
真	-9.05799
▁/	-9.05809
日本	-9.05828
ニューラルネットワーク	-9.05843
完全な	-9.05844
▁N	-9.05894
私はあなたが	-9.05939
赤	-9.06023
引	-9.06055
料	-9.06082
必要	-9.06172
それらの	-9.06182
文化的	-9.06184
アプリ	-9.06221
れば	-9.0626
移動	-9.06297
おり	-9.06343
ここでは	-9.06394
花	-9.06508
使用されます	-9.06656
ほとんど	-9.06678
にはどうすればよいですか	-9.0677
少なくとも	-9.0685
ドキュメント	-9.06851
情報を	-9.06882
オー	-9.07145
極	-9.07181
権利	-9.07193
の結果	-9.07198
ここで	-9.07215
より良い	-9.07341
ヒント	-9.07359
々	-9.07695
機	-9.07777
補	-9.07867
冒険	-9.07867
アドバイス	-9.07868
過	-9.07911
ロン	-9.07961
直接	-9.07964
最後の	-9.08212
▁なぜ	-9.08286
しており	-9.08294
収	-9.08514
ロシア	-9.0874
を減らす	-9.08861
Google	-9.08895
規制	-9.089
数値	-9.08915
ロボット	-9.08921
人口	-9.09002
電	-9.09107
he	-9.09133
伝	-9.09135
側	-9.09163
論	-9.0918
ダン	-9.0922
40	-9.09366
ことを願っています	-9.09428
ていない	-9.0963
男性	-9.09711
API	-9.09724
最も重要な	-9.0982
北	-9.09932
コー	-9.09933
テーマ	-9.09934
発展	-9.09934
未来	-9.09938
強い	-9.10105
運	-9.10187
部屋	-9.10289
は何	-9.10349
」、「	-9.10405
元	-9.10405
to	-9.10482
ベースの	-9.10491
置	-9.10532
地球の	-9.10639
期間	-9.10757
しないでください	-9.10812
ないでください	-9.10829
方向	-9.10903
14	-9.10943
60	-9.10969
深く	-9.11008
特別な	-9.1105
英語	-9.1116
自	-9.11173
ります	-9.11264
適応	-9.11291
類	-9.11371
ed	-9.11436
んで	-9.11717
いました	-9.11899
列	-9.11986
声	-9.12011
訓練	-9.1204
チーズ	-9.12044
id	-9.12051
われ	-9.1208
薬	-9.12093
変換	-9.12204
可能性があり	-9.1221
and	-9.12223
で最も	-9.12242
バイ	-9.12318
よう	-9.12368
幅広い	-9.124
近く	-9.12542
を決定する	-9.12567
▁V	-9.12573
ろ	-9.12598
ソン	-9.12646
▁a	-9.12724
ベース	-9.12732
int	-9.12753
かもしれない	-9.12755
筋肉	-9.12759
重要です	-9.12809
コンテキスト	-9.12828
me	-9.12833
の存在	-9.12913
指示	-9.13144
十分な	-9.13169
多く	-9.13241
を取得する	-9.13353
最大の	-9.13436
の歴史	-9.13508
短い	-9.13545
使	-9.13613
最適化	-9.13665
しばしば	-9.13703
▁Python	-9.1371
からです	-9.13713
意	-9.13738
大きく	-9.13833
統計	-9.13835
マル	-9.13992
市民	-9.14204
正	-9.14277
減少	-9.14326
やその他の	-9.14327
大気	-9.14346
戦い	-9.14379
を持って	-9.14385
達成	-9.1439
両方の	-9.14455
実践	-9.14561
同時に	-9.14669
ベル	-9.14712
コース	-9.14818
ブラ	-9.14919
魚	-9.14925
強く	-9.15002
ていた	-9.15104
男	-9.15157
血	-9.15285
ta	-9.15411
画	-9.15631
鍋	-9.15661
li	-9.15733
を促進する	-9.15797
切り	-9.15841
来	-9.15938
あなたを助ける	-9.15998
島	-9.16027
Windows	-9.16029
Java	-9.1603
を与える	-9.1603
信念	-9.16033
になりました	-9.16247
システムの	-9.16278
歳	-9.16297
人類	-9.16308
ss	-9.1636
*	-9.1638
ループ	-9.16382
用の	-9.16383
を介して	-9.16403
パラメーター	-9.16407
視点	-9.16414
分布	-9.16493
17	-9.16502
協力	-9.16537
っ	-9.16562
アップ	-9.16592
の種類	-9.16625
ルー	-9.16648
人々は	-9.16684
効果的な	-9.16714
The	-9.16861
生物	-9.16918
ad	-9.16958
適切に	-9.16989
^	-9.17043
油	-9.17144
だけでなく	-9.17148
ur	-9.17283
青	-9.17363
ものです	-9.17381
定期的に	-9.17518
ジョン	-9.17533
▁9.	-9.17537
支配	-9.17658
トリ	-9.17692
80	-9.18101
良	-9.18115
建設	-9.18271
が含まれています	-9.18334
データセット	-9.18477
送信	-9.18483
を構築する	-9.18561
拡張	-9.18588
感覚	-9.18599
を使用し	-9.18632
バッテリー	-9.18651
モン	-9.18729
取り	-9.19022
核	-9.1903
進歩	-9.19038
比較	-9.19089
方法です	-9.19136
興味	-9.19344
することが重要です	-9.19368
参照	-9.19403
において	-9.19409
学校	-9.19414
されていない	-9.19457
利用可能な	-9.1964
魔法の	-9.19673
を選択します	-9.19769
レス	-9.19769
支援	-9.19772
新	-9.19777
ましょう	-9.19794
検証	-9.19799
量子	-9.19879
以前の	-9.20032
を改善する	-9.20046
編集	-9.20184
真実	-9.20199
形成	-9.20368
ut	-9.20566
個々の	-9.20566
▁10	-9.20585
を提供できます	-9.20668
生地	-9.20672
ビデオゲーム	-9.20673
重要	-9.20775
アメリカ	-9.20862
向け	-9.20943
現象	-9.20957
につながる可能性があります	-9.20977
関連する	-9.20982
同	-9.21158
独	-9.21321
標準	-9.21343
数学的	-9.21402
以上	-9.21544
シャ	-9.21607
演	-9.21721
予算	-9.21736
過去	-9.21738
画面	-9.21753
を知る	-9.21789
半	-9.21824
監視	-9.21904
消費	-9.21935
▁f	-9.21936
素	-9.21965
▁K	-9.21993
顔	-9.22118
競争	-9.22123
合計	-9.22136
ことを忘れないでください	-9.22324
と比較して	-9.2247
に加えて	-9.22519
印刷	-9.2252
プロンプト	-9.2252
読み	-9.22549
を指します	-9.22551
▁さらに	-9.2262
年間	-9.22873
批判	-9.22913
どんな	-9.22916
革命	-9.22916
あたり	-9.22939
ザー	-9.22974
可能性があるため	-9.2306
ユーザーが	-9.2314
能	-9.23225
バランス	-9.23308
プレーヤー	-9.23312
を使用できます	-9.23466
▁E	-9.23497
独立	-9.23558
信	-9.23642
仮想	-9.23701
中央	-9.23708
配置	-9.23723
を与え	-9.23757
ul	-9.23799
られ	-9.2384
病気	-9.24144
倫理的	-9.24176
彼	-9.24199
の主な	-9.24225
最	-9.24314
マーク	-9.24357
いつ	-9.24365
最新の	-9.24413
える	-9.24451
市	-9.24484
代	-9.24496
あらゆる	-9.24503
大統領	-9.24511
HTML	-9.24512
保存	-9.24556
▁>	-9.24616
試	-9.24691
▁++	-9.24723
if	-9.24787
骨	-9.24915
質量	-9.24963
▁確かに	-9.24965
でき	-9.24987
まれ	-9.25006
を使用すると	-9.25184
持	-9.25188
表示	-9.25244
機械	-9.25281
科学者	-9.25354
ながら	-9.25375
中心	-9.25393
要約	-9.25554
集中	-9.25682
夢	-9.25698
優	-9.25711
喜び	-9.25727
痛み	-9.25739
電話	-9.25756
▁//	-9.25848
ジャ	-9.25887
成	-9.25893
バル	-9.25898
事実	-9.25946
できるように	-9.25961
あなたを	-9.26069
南	-9.2608
を引き起こす	-9.26102
同様の	-9.26134
がいくつかあります	-9.26136
ロード	-9.26149
自動化	-9.26241
める	-9.26252
セン	-9.26288
する可能性があります	-9.26349
選択肢	-9.26443
タン	-9.26503
私を	-9.26523
言及	-9.26526
年代	-9.26633
どう	-9.26709
が必要	-9.26768
政治	-9.26812
時に	-9.26838
るために	-9.26953
端	-9.26954
小説	-9.26959
ユニット	-9.26964
分離	-9.26985
見え	-9.27113
宗教	-9.27349
抵抗	-9.27368
テクニック	-9.27369
タイム	-9.27461
の概念	-9.27588
することを	-9.27752
親	-9.27755
撃	-9.27782
メートル	-9.27783
ことに注意することが重要です	-9.27785
で知られています	-9.27834
2)	-9.27918
ピン	-9.27944
学ぶ	-9.28002
を発見し	-9.28065
失	-9.28067
ワ	-9.2817
鉄	-9.282
左	-9.28201
の影響	-9.28254
古い	-9.28256
ne	-9.28336
▁H	-9.28382
ヨーロッパ	-9.28388
税	-9.28583
病	-9.28583
ケーキ	-9.28601
機関	-9.28621
地元の	-9.2865
を計算する	-9.28667
でしょうか	-9.28793
ルート	-9.28849
サイ	-9.28975
を説明してください	-9.29018
YouTube	-9.2904
)=	-9.29064
70	-9.29067
コードを	-9.29105
創造	-9.29144
ter	-9.29157
ガー	-9.29356
ことに注意してください	-9.29461
を必要とする	-9.29461
確率	-9.29471
を作成できます	-9.29519
将来	-9.29519
サブ	-9.29735
ゲームの	-9.29852
鳥	-9.29884
記憶	-9.29884
紛争	-9.29885
公式	-9.29906
2.	-9.30141
使用できる	-9.30185
を改善し	-9.3021
維持	-9.30272
混合物	-9.30328
ために使用されます	-9.30349
:**	-9.30383
:「	-9.30416
▁19	-9.30565
視	-9.30575
最良の	-9.30738
13	-9.30783
信号	-9.30881
にあります	-9.30944
を得る	-9.31025
観察	-9.31044
身	-9.31095
フレーズ	-9.31126
これらは	-9.31134
母	-9.31154
始まり	-9.31165
内部	-9.31216
▁AI	-9.31382
確認	-9.31405
以下	-9.31494
ca	-9.31532
政策	-9.31595
洗	-9.31597
フィールド	-9.31598
生き	-9.31603
公開	-9.31611
1,	-9.31658
開始	-9.3171
アー	-9.31741
がある場合	-9.31788
の重要性	-9.31794
オープン	-9.31892
モデルは	-9.31903
文法	-9.31929
無料	-9.32004
ポート	-9.32017
メディア	-9.3202
街	-9.32031
マシン	-9.32078
の研究	-9.32129
離	-9.3231
黒	-9.32311
じ	-9.32377
に直面し	-9.32408
com	-9.32414
有	-9.32464
上で	-9.3253
私はあなたに	-9.32643
冷	-9.32737
機器	-9.32764
人気	-9.32857
ct	-9.32866
基準	-9.32903
ない場合	-9.33031
ir	-9.3316
ーション	-9.33164
プラ	-9.332
将来の	-9.3328
結	-9.33292
平和	-9.33342
最近	-9.33355
付き	-9.33395
と考えられています	-9.33415
ブランド	-9.33494
1.	-9.33527
高速	-9.33528
するのに役立ちます	-9.33654
レベルの	-9.33663
▁R	-9.33745
プライバシー	-9.33782
フレームワーク	-9.33786
を求め	-9.33812
pa	-9.33927
ことを確認する	-9.34035
co	-9.34045
を使用すること	-9.34108
リズム	-9.3419
対	-9.34215
逆	-9.34222
有名な	-9.34333
たとき	-9.34459
を持ち	-9.34475
することで	-9.34485
全体として	-9.34506
を追加する	-9.34522
するように	-9.34535
化された	-9.34543
広	-9.3456
急	-9.34585
散	-9.34631
スポーツ	-9.34668
タイトル	-9.3468
vi	-9.34937
グラ	-9.35024
公	-9.35053
位	-9.3507
詳細な	-9.35082
右	-9.35115
かなり	-9.35116
参加	-9.35133
若い	-9.35133
飲	-9.35142
使用できます	-9.35166
自分	-9.35181
表	-9.35185
ハイ	-9.35225
▁ただ	-9.35349
に基づいています	-9.3537
ゼ	-9.35408
がより	-9.35457
ぶ	-9.35522
根	-9.35556
携帯電話	-9.35563
特	-9.3569
多くの場合	-9.35728
記	-9.35982
ex	-9.36
首	-9.36008
記録	-9.36014
産業	-9.36027
回復	-9.36033
複雑さ	-9.36046
フォーム	-9.36058
まず	-9.36082
ドア	-9.36116
ことなく	-9.36208
em	-9.36291
ませんでした	-9.3634
メカニズム	-9.36465
建物	-9.36466
液体	-9.36488
密	-9.36513
▁m	-9.36542
ション	-9.36599
通常の	-9.36625
切	-9.36674
低い	-9.36692
調	-9.36882
OS	-9.36939
なければならない	-9.36956
を感じ	-9.36963
明確な	-9.37012
ような	-9.37013
▁g	-9.37115
流れ	-9.37129
当	-9.37303
億	-9.37359
これら	-9.37392
果物	-9.37393
なしで	-9.37408
を開発し	-9.37432
ード	-9.37558
ために使用される	-9.37605
対話	-9.37637
収集	-9.37687
美	-9.37835
懸念	-9.37836
砂糖	-9.3784
手紙	-9.37873
外部	-9.37898
質問を	-9.37914
do	-9.37942
24	-9.37943
高さ	-9.37968
の組み合わせ	-9.38076
国家	-9.38097
ている場合	-9.38194
紹介	-9.38579
ために必要な	-9.38591
に従う	-9.38705
紙	-9.38722
剤	-9.38759
ベクトル	-9.3876
気候	-9.3876
を向上させる	-9.38769
▁W	-9.38846
PC	-9.38996
▁10.	-9.39008
通信	-9.39096
がありますか	-9.39105
利	-9.3916
を開発する	-9.39207
壁	-9.39222
店	-9.39225
不安	-9.39226
スペイン語	-9.3927
低下	-9.39279
元の	-9.39413
ロック	-9.39476
発生する	-9.39491
トーン	-9.39547
リック	-9.39579
検	-9.39644
を選択し	-9.39653
皮	-9.39671
まま	-9.3969
そこで	-9.39691
内で	-9.39833
手法	-9.3985
{	-9.39857
ステ	-9.39981
労働者	-9.4016
輸送	-9.40161
メンバー	-9.40186
単純な	-9.40248
▁6	-9.40271
の欠如	-9.40313
ファイルを	-9.40345
と思います	-9.40365
がある場合は	-9.40394
ありません	-9.40443
im	-9.40536
直	-9.40579
スク	-9.4058
転	-9.40589
規	-9.40623
供給	-9.40632
幸福	-9.40636
ジャンル	-9.40672
モード	-9.40767
スペインの	-9.40837
私はあなたの	-9.40884
接	-9.40959
世界で	-9.40969
できるようにする	-9.4098
ビー	-9.41041
室	-9.41106
比	-9.41106
概要	-9.41109
業界	-9.41113
コピー	-9.41141
許可	-9.41201
なく	-9.41277
残り	-9.41476
することです	-9.41504
破壊	-9.41564
カメラ	-9.41582
楽しい	-9.41584
単一の	-9.41584
広告	-9.41587
財産	-9.41587
関心	-9.41592
レビュー	-9.41611
▁_	-9.4166
90	-9.41676
言う	-9.41735
はどのように	-9.41768
アイ	-9.4177
に参加し	-9.41847
女	-9.4195
プレイヤー	-9.41973
ジャー	-9.41981
東	-9.42059
期待	-9.42061
に基づいた	-9.42062
Android	-9.42062
モジュール	-9.42062
ジャガイモ	-9.42062
推奨事項	-9.42062
ゼロ	-9.42224
については	-9.4228
バス	-9.42288
服	-9.42332
種類の	-9.42349
意図	-9.42427
明らか	-9.42477
旅	-9.42507
ho	-9.4254
番号	-9.42544
それとも	-9.42551
に影響を与える	-9.42602
していない	-9.42616
段階	-9.4264
明	-9.42671
宇宙の	-9.42691
をもたらす	-9.42732
▁I	-9.42741
om	-9.42839
食物	-9.43101
互いに	-9.43184
何が	-9.43199
リス	-9.43249
あります	-9.43261
止	-9.43485
解決策	-9.43515
推定	-9.43521
配列	-9.43527
望	-9.43576
積	-9.43827
検出	-9.43838
>	-9.43874
品	-9.43894
周	-9.43911
難しい	-9.43916
想像	-9.43928
虫	-9.43997
スケジュール	-9.43999
鶏肉	-9.44004
キャリア	-9.4403
ていません	-9.4403
発明	-9.44036
時点で	-9.44065
日付	-9.44068
メイン	-9.44077
広く	-9.44113
エリア	-9.44122
上げ	-9.44162
500	-9.4425
効率的	-9.44304
悪い	-9.44378
伝統	-9.4438
国際	-9.44399
&	-9.44489
脂肪	-9.4449
症状	-9.44494
上昇	-9.44498
のアイデア	-9.44561
ニュース	-9.44588
効果的に	-9.4467
op	-9.4468
に関する情報	-9.44703
健康的な	-9.4494
緊張	-9.44981
雨	-9.44981
構文	-9.44982
船	-9.44983
教	-9.45112
彼女が	-9.45251
通り	-9.45255
ましたか	-9.45387
観	-9.45405
がありますが	-9.45463
役	-9.45473
を引き起こし	-9.45475
底	-9.45475
疾患	-9.45476
をもたらし	-9.45477
を次に示します	-9.45478
停止	-9.45478
費用	-9.45489
▁一方	-9.45491
2023	-9.45497
より大きな	-9.45517
-1	-9.45561
体重	-9.45565
暗い	-9.45571
のリスク	-9.45665
彼に	-9.45689
の変化	-9.45742
始めました	-9.45952
背景	-9.45974
プログラマー	-9.45974
友達	-9.45975
手段	-9.45978
一致	-9.45982
土地	-9.45993
外観	-9.46
トラ	-9.46012
以上の	-9.46163
精神	-9.46276
ているため	-9.46282
最も一般的な	-9.46316
を見つけ	-9.46452
ent	-9.46459
Open	-9.46471
シーケンス	-9.46473
コントロール	-9.46474
意思決定	-9.46475
損傷	-9.46476
法則	-9.46479
幸せ	-9.46487
と感じ	-9.46576
シーン	-9.46635
はまだ	-9.46796
▁私が	-9.468
の間で	-9.46875
理論は	-9.46902
恐怖	-9.46975
兆候	-9.46977
センター	-9.47004
することもできます	-9.4724
ate	-9.47272
グラフィック	-9.47294
の可能性	-9.47307
」(	-9.47412
ね	-9.47453
症	-9.47466
小麦粉	-9.47482
問題を解決する	-9.47587
すぎ	-9.47644
ようです	-9.47711
の増加	-9.47765
することはできません	-9.47886
的および	-9.47897
得	-9.4793
犯罪	-9.47988
リクエスト	-9.47988
ごとに	-9.4802
てみてください	-9.48064
正しく	-9.48098
log	-9.48119
いくつか	-9.48132
ージ	-9.48144
ーター	-9.4823
スタン	-9.48259
探	-9.48374
角	-9.48463
軌道	-9.48498
円	-9.48499
メソッド	-9.48499
に行く	-9.48513
法的	-9.48556
---	-9.48678
教え	-9.48813
に関しては	-9.4891
期	-9.48962
あまり	-9.48997
レストラン	-9.49013
瞑想	-9.49013
▁n	-9.49037
彼を	-9.49065
歴史的	-9.49068
た場合	-9.49341
▁また	-9.49475
の違い	-9.49482
アイテム	-9.49528
この場合	-9.49531
注文	-9.4954
最小	-9.49546
がありました	-9.49641
ine	-9.49642
分割	-9.49815
利用	-9.49911
差	-9.50015
傷	-9.50035
アーキテクチャ	-9.50046
渡	-9.50046
高品質の	-9.50048
mp	-9.5006
加熱	-9.5009
自分自身を	-9.5021
ub	-9.5027
を実行し	-9.50311
であると	-9.50317
傾向	-9.50344
を高める	-9.50395
順	-9.5053
ギリシャ	-9.50562
森	-9.50566
アクティビティ	-9.50568
ブラウザ	-9.50568
アニメーション	-9.50573
記事	-9.50581
回転	-9.50597
ia	-9.50651
強	-9.50729
トー	-9.50794
組み合わせ	-9.50814
放出	-9.50962
言った	-9.50968
つです	-9.5103
リリース	-9.51091
フィードバック	-9.51092
ランド	-9.51104
の高い	-9.51122
ピザ	-9.51141
グラム	-9.5116
最も人気のある	-9.51171
pe	-9.51229
デン	-9.5126
以下は	-9.51342
ライト	-9.51356
の物語	-9.51395
識別	-9.51447
基本	-9.51588
に到達する	-9.51615
$	-9.51688
現	-9.5173
ack	-9.51774
好きな	-9.5178
尋ねる	-9.51862
ユーザーの	-9.51975
フォー	-9.51996
集	-9.52049
アナ	-9.5209
クリック	-9.52105
ランダム	-9.52146
マルチ	-9.52212
ワーク	-9.52239
できません	-9.52244
伝統的な	-9.52266
ニック	-9.52455
の観点から	-9.52459
インターフェイス	-9.52648
割り当て	-9.52678
コンパイル	-9.52678
監督	-9.52678
うまく	-9.52679
人に	-9.52718
テン	-9.52733
教えてください	-9.52743
不可欠です	-9.5278
分子	-9.52784
タスクを	-9.52786
ion	-9.52892
ありがとう	-9.52932
本当	-9.52955
を防ぐ	-9.53029
ve	-9.53115
ミー	-9.53188
出来事	-9.53212
メキシコ	-9.53212
保険	-9.53213
財務	-9.53215
程度	-9.53216
反対	-9.53219
する前に	-9.5324
見られ	-9.53315
ケット	-9.53374
In	-9.53473
安全な	-9.53473
使用されている	-9.53529
リンゴ	-9.53588
を書き	-9.536
圧	-9.53657
受	-9.53668
に対処する	-9.53669
軍	-9.53733
粉	-9.53737
安全性	-9.5374
新鮮な	-9.53751
ボウル	-9.53761
金属	-9.53772
ビーチ	-9.53802
効果的	-9.53808
かった	-9.53875
会社の	-9.54074
判断	-9.54111
io	-9.54138
可能です	-9.5422
川	-9.5429
のパフォーマンス	-9.54536
訪問	-9.54687
ガイド	-9.54821
しません	-9.54829
岩	-9.54832
定期的な	-9.54834
文字列	-9.54862
フラ	-9.54943
歳の	-9.54983
ワイン	-9.54984
ことができました	-9.5503
?」	-9.55042
スタ	-9.55069
信頼	-9.55081
場所に	-9.5515
で使用される	-9.5525
民	-9.5525
感情的な	-9.55265
アート	-9.55273
初期	-9.55335
テレビ	-9.5538
ウイルス	-9.5538
従来の	-9.5538
支払い	-9.5538
ハードウェア	-9.5538
タマネギ	-9.55382
気候変動	-9.55383
燃料	-9.55385
name	-9.55394
機能します	-9.55396
加速	-9.55398
現代の	-9.55434
で構成されています	-9.55445
再び	-9.55494
00	-9.55495
かについて	-9.55515
次のように	-9.55557
者は	-9.55615
シン	-9.55626
ab	-9.55645
週	-9.55782
ていること	-9.55817
推奨	-9.55874
それぞれの	-9.55886
を再	-9.55899
都	-9.55921
道徳的	-9.55928
建築	-9.55931
終了	-9.55931
ペット	-9.56037
要求	-9.56255
勉強	-9.56394
セクション	-9.56483
取引	-9.56493
を示し	-9.56503
精度	-9.5651
De	-9.56612
バター	-9.56623
付	-9.56637
シング	-9.56637
白い	-9.56773
製	-9.57024
レイヤー	-9.57029
代替	-9.5703
脚	-9.57036
イギリス	-9.57038
例えば	-9.57039
ディレクトリ	-9.57039
ハン	-9.5706
酸	-9.5736
ver	-9.57532
°	-9.57554
負	-9.57586
イタリア	-9.57596
たくさん	-9.57596
▁of	-9.57609
q	-9.57649
メール	-9.57678
ノード	-9.57709
学び	-9.5771
たいです	-9.57788
クス	-9.57811
チャ	-9.57832
を教え	-9.57968
ハー	-9.57998
宣言	-9.58158
を減らし	-9.58158
どうすれば	-9.5816
サンプル	-9.58172
暴力	-9.58173
トロ	-9.58186
チャット	-9.58189
なぜなら	-9.58217
py	-9.58327
と同じ	-9.584
メン	-9.58407
よ	-9.58471
に使用される	-9.58505
私はあなた	-9.58583
てきました	-9.58683
栄養	-9.58713
アルゼンチン	-9.58723
チェス	-9.58724
分散	-9.58745
Co	-9.58746
を強調し	-9.58779
no	-9.58806
につながる	-9.58849
▁J	-9.58852
が高く	-9.58903
ow	-9.58942
である場合	-9.58969
使用され	-9.59085
使用されています	-9.59116
ユ	-9.59249
▁これが	-9.59273
秒	-9.59292
銀行	-9.59308
英国	-9.59311
を使用した	-9.59393
異	-9.59439
他に	-9.59485
速く	-9.59489
いつも	-9.59495
あ	-9.59514
感じる	-9.59556
複雑	-9.596
ぎ	-9.59766
の基本	-9.59778
ーン	-9.59781
知られている	-9.59795
は約	-9.59821
チェーン	-9.5985
スーパー	-9.59861
のいずれか	-9.59863
形態	-9.5987
神経	-9.59871
に入れ	-9.59936
る可能性があります	-9.60016
書き	-9.60194
すべき	-9.60205
のを助ける	-9.60296
システムは	-9.60373
ヨ	-9.60406
息	-9.60412
ボード	-9.60432
唯一の	-9.60436
チョコレート	-9.60438
包	-9.60438
圧縮	-9.60444
古典的な	-9.60487
ティング	-9.60506
ry	-9.60577
できること	-9.60594
感じ	-9.606
性格	-9.606
話す	-9.60672
ダウンロード	-9.60707
**:	-9.60753
結論	-9.60771
ell	-9.60789
▁p	-9.60855
▁Ma	-9.60857
▁O	-9.60877
弱	-9.60997
カスタマイズ	-9.61016
クライアント	-9.61016
シンプルな	-9.61016
ヒーロー	-9.61016
汚染	-9.61016
モバイル	-9.61017
共通	-9.61029
メント	-9.6107
神話	-9.61078
を加え	-9.61147
カン	-9.61219
依存	-9.61239
ノー	-9.61385
困難な	-9.61475
主張	-9.61528
IP	-9.61534
敬	-9.61586
失敗	-9.61596
わかりません	-9.61598
生き物	-9.61642
著者	-9.61663
の専門家	-9.6167
ai	-9.61681
ボタン	-9.61775
信頼できる	-9.61789
限り	-9.61838
ip	-9.61839
した場合	-9.6189
押し	-9.61981
GB	-9.62067
に影響を与え	-9.62074
▁$	-9.62106
楽	-9.6213
士	-9.62163
取得	-9.62164
農業	-9.62189
グラフ	-9.62259
番目	-9.62341
確	-9.62342
させます	-9.6242
ない場合は	-9.62546
ショー	-9.62557
を表す	-9.62635
を特定し	-9.62675
水を	-9.62697
生まれ	-9.62705
コア	-9.62749
呼吸	-9.62752
アウト	-9.62767
暗号化	-9.62771
瞬間	-9.62774
運転	-9.62784
分解	-9.62856
落ち	-9.62884
ll	-9.62985
誰か	-9.63255
証明	-9.63268
文学	-9.63278
▁次の	-9.6336
住宅	-9.63361
髪	-9.63361
ユーロ	-9.63364
アルコール	-9.63366
ようとする	-9.63373
知られています	-9.6343
のに十分な	-9.63463
ベン	-9.63534
魅力的な	-9.63552
my	-9.63556
の感覚	-9.63563
ガン	-9.63674
どちら	-9.63859
da	-9.63871
刺激	-9.63917
取	-9.6392
ight	-9.63958
次元	-9.64
オイル	-9.64024
住民	-9.64069
申し訳ありませんが	-9.64081
心配	-9.64082
なっています	-9.64222
提供する	-9.64232
性と	-9.64312
向	-9.64354
受け入れ	-9.64392
に必要な	-9.64401
リオ	-9.64412
葉	-9.6454
抗	-9.64551
降	-9.64555
従業員	-9.64556
忍耐	-9.64557
アーティスト	-9.64557
形状	-9.64577
使用される	-9.64719
哲学的	-9.64756
バン	-9.64798
ke	-9.64853
長く	-9.64903
ID	-9.64905
ッグ	-9.6491
プル	-9.64977
hi	-9.65128
相互	-9.65155
up	-9.65156
GPT	-9.65158
ケース	-9.65158
治	-9.65158
初心者	-9.65158
登録	-9.65158
推測	-9.6516
の終わり	-9.65193
ac	-9.65232
▁最後に	-9.65277
を保護する	-9.65281
が含まれ	-9.65285
見る	-9.65295
みます	-9.65384
タル	-9.65554
専門	-9.65582
を示します	-9.6561
ラス	-9.65633
強化	-9.65666
コンピューティング	-9.65753
毛	-9.65757
フィルター	-9.65765
区別	-9.65767
ことに留意することが重要です	-9.65769
起源	-9.65778
強度	-9.65806
るため	-9.65848
Ch	-9.65861
する能力	-9.65879
ローマ	-9.66031
することにより	-9.66101
レット	-9.66187
はるかに	-9.66248
しか	-9.66266
断	-9.66315
チェック	-9.66341
脱	-9.66374
既存の	-9.66375
上記の	-9.66379
軍事	-9.66386
無限	-9.6639
道路	-9.66391
電流	-9.66401
ge	-9.6642
権	-9.66465
時間と	-9.66528
アルゴリズムは	-9.6659
つながり	-9.66626
を促進し	-9.66905
やすい	-9.66939
劇	-9.66984
サウンド	-9.66988
互換性	-9.66988
希望	-9.66988
寝	-9.66989
閉じ	-9.66989
Microsoft	-9.66989
主題	-9.6699
電子メール	-9.67003
圧力	-9.67066
すべてが	-9.67122
気分	-9.67153
45	-9.67162
るように	-9.67241
mm	-9.67349
を提供しています	-9.67404
▁ありがとう	-9.67488
を認識し	-9.67488
IT	-9.67552
求	-9.67581
追	-9.67581
務	-9.67598
ターゲット	-9.67602
おいしい	-9.67605
js	-9.67617
ci	-9.67647
na	-9.67734
眠	-9.67789
nd	-9.67804
年から	-9.67866
知性	-9.67881
に依存し	-9.67885
ことがあります	-9.67987
始めます	-9.68174
帰	-9.68197
整数	-9.68204
聴	-9.68215
決定を下す	-9.68225
脅威	-9.68227
ことは困難です	-9.68264
深刻な	-9.6827
スパイ	-9.68323
不足	-9.68329
や他の	-9.68508
ファー	-9.68555
たいと思います	-9.68629
飛行	-9.68639
そのため	-9.68677
確立	-9.68739
を開始する	-9.68797
99	-9.68824
豆	-9.6885
十分	-9.68861
次	-9.6889
▁Linux	-9.68945
哲学者	-9.69106
を獲得し	-9.69232
線形	-9.69264
ることができますか	-9.69267
▁8	-9.69421
落	-9.69464
官	-9.69479
教師	-9.6948
単に	-9.69488
キーボード	-9.69499
太陽系	-9.69502
混乱	-9.69506
クリーム	-9.6951
を与えます	-9.69516
生命	-9.69523
を引き起こす可能性があります	-9.6953
権力	-9.69553
実際に	-9.69557
ことを確認してください	-9.69627
▁結論	-9.69761
自動	-9.69902
sk	-9.69938
さて	-9.70059
ないため	-9.70087
継	-9.70111
習慣	-9.70112
ビジョン	-9.70159
重量	-9.70169
るまで	-9.7025
誰が	-9.70283
完了	-9.70344
バンド	-9.70372
説明してください	-9.70512
を簡単に	-9.70515
ことを学ぶ	-9.70515
チャー	-9.7056
人にとって	-9.70573
のサイズ	-9.70606
クラ	-9.70683
設立	-9.70741
縮	-9.70743
早	-9.70748
オレンジ	-9.7075
オリーブオイル	-9.70751
を含める	-9.70779
収入	-9.70798
決して	-9.70799
進行	-9.70849
現代	-9.70925
ことができない	-9.70933
ようとし	-9.70973
らず	-9.71008
全体的な	-9.7112
魅力的	-9.71188
笑	-9.71191
た後	-9.71211
であるか	-9.71251
歩	-9.71358
が必要な場合は	-9.71386
破	-9.7139
を生み出す	-9.7139
チュートリアル	-9.71392
ルーチン	-9.71399
酸素	-9.71401
車両	-9.71405
を探し	-9.71407
面白い	-9.7141
世界中の	-9.7153
ーク	-9.7153
信頼性	-9.71534
続ける	-9.71536
際に	-9.71612
メモ	-9.71704
という事実	-9.71717
選択した	-9.71762
Mo	-9.71816
▁7	-9.71861
以下の	-9.71894
倫理	-9.71924
少ない	-9.71967
を見て	-9.71998
終わり	-9.71999
幸	-9.72016
明るい	-9.72036
戻	-9.72036
満足	-9.72047
の違いは何ですか	-9.72131
という言葉	-9.72146
ワー	-9.72231
の下で	-9.72236
走	-9.72307
役立つ	-9.72328
メタ	-9.72339
思い出	-9.72346
64	-9.72421
トル	-9.72567
ためです	-9.72577
AT	-9.72611
ジー	-9.72632
復	-9.7264
影	-9.72679
<	-9.72687
ソーシャルメディア	-9.72689
ジャンプ	-9.72699
きました	-9.72702
一般的	-9.72717
言語モデルとして	-9.72737
を避ける	-9.72751
アメリカの	-9.72752
に焦点を当てています	-9.72766
されていません	-9.72791
マスター	-9.72854
2,	-9.72918
を生成します	-9.73011
音声	-9.73202
ポリ	-9.73229
ボー	-9.7327
移	-9.73282
在	-9.73329
砂	-9.73334
報酬	-9.73339
プロセッサ	-9.7334
牛乳	-9.73343
パワー	-9.73369
密度	-9.73388
AP	-9.73391
比較的	-9.73449
好き	-9.73595
を避けるために	-9.73665
ヨーロッパの	-9.73701
状況で	-9.73708
ズム	-9.73722
適	-9.73734
十分に	-9.73783
を確立し	-9.73831
父	-9.73987
ChatGpt	-9.73996
カテゴリ	-9.73997
具体的な	-9.73997
マトリックス	-9.73997
損失	-9.74
突然	-9.74
パスワード	-9.74006
クロ	-9.74162
を完全に	-9.74221
の長さ	-9.74339
ポー	-9.74352
の性質	-9.74403
誰もが	-9.74495
制	-9.74548
放	-9.74585
プレイヤーは	-9.74609
乳	-9.74656
富	-9.74657
執筆	-9.74658
カロリー	-9.74659
メニュー	-9.74686
があるため	-9.74797
ハリー	-9.74839
を制御する	-9.74853
を追加します	-9.7496
アラ	-9.75123
最初	-9.75197
革新	-9.75216
慎重に	-9.75237
細	-9.75319
貴重な	-9.75326
美しさ	-9.75326
秘密	-9.75328
スライス	-9.75328
ベッド	-9.75366
定理	-9.7537
コメント	-9.75388
によって異なります	-9.75392
トレーニングデータ	-9.75398
スキルと	-9.75418
微	-9.7542
現れ	-9.75422
あり	-9.7553
を開始し	-9.75716
危険な	-9.75717
の役割	-9.75912
れる	-9.75918
だった	-9.75971
超	-9.75995
総	-9.75997
自転車	-9.75997
ライセンス	-9.75997
アドレス	-9.75998
サラダ	-9.75999
正義	-9.76001
CSS	-9.76002
としても	-9.76019
成分	-9.76069
mi	-9.76135
電力	-9.76135
せずに	-9.76156
の基礎	-9.76323
を共有し	-9.76387
だけで	-9.76453
ったり	-9.76588
に焦点を当て	-9.76612
ことも	-9.76631
二	-9.7664
帯	-9.76644
幅	-9.76668
キロメートル	-9.7667
合成	-9.76672
エクササイズ	-9.76673
マーケティング	-9.76673
銀河	-9.76675
永遠	-9.76676
対立	-9.76698
はずです	-9.76731
あなたがあなたの	-9.76859
たい場合は	-9.76865
んでいる	-9.76888
消	-9.76903
ST	-9.76937
ないこと	-9.77149
ers	-9.77172
すぎる	-9.77237
系	-9.77298
状	-9.77319
倒	-9.77347
られています	-9.7735
博物館	-9.77353
アフリカ	-9.77353
正方形	-9.77353
結婚	-9.77356
部門	-9.77358
探求	-9.77402
を達成する	-9.77468
作られ	-9.77547
ist	-9.77559
と同様に	-9.7766
ation	-9.777
ue	-9.77702
曲線	-9.77717
たいですか	-9.77731
個の	-9.77777
球	-9.77936
カス	-9.77973
西	-9.78016
退	-9.78032
時間の経過とともに	-9.78037
プロトコル	-9.78038
豊かな	-9.78038
ファンタジー	-9.78039
mo	-9.78062
している場合	-9.78124
杯の	-9.78356
インド	-9.78412
")	-9.78564
35	-9.78584
他の多くの	-9.78596
の上に	-9.786
積分	-9.78621
を分析し	-9.78685
Sh	-9.78709
継続的な	-9.78727
メンテナンス	-9.78728
順序	-9.78728
マネージャー	-9.78729
冷却	-9.7873
公共	-9.78733
ソーシャルネットワーク	-9.78738
節約	-9.78763
立ち	-9.78774
黄色	-9.78785
を構築し	-9.789
喜んで	-9.78957
を支援する	-9.79012
-3	-9.79047
ni	-9.79187
ボン	-9.79326
を変更する	-9.79332
助	-9.79332
ブー	-9.79341
実行できる	-9.79383
苦	-9.79419
任	-9.7942
ホーム	-9.79421
盗	-9.79422
スケール	-9.79423
プロパティ	-9.79423
爆発	-9.79426
という名前の	-9.79431
情熱	-9.79437
マイル	-9.79482
するのに役立つ	-9.795
事前に	-9.79531
声明	-9.79628
飛行機	-9.79674
カット	-9.79766
人間が	-9.79841
何も	-9.7985
チリ	-9.79852
英語の	-9.79884
知っている	-9.79942
を学び	-9.79964
正確に	-9.80021
導入	-9.80111
ダウン	-9.80112
片	-9.80115
█	-9.80115
主人公	-9.8012
を生み出し	-9.80121
絶対	-9.80125
バイアス	-9.80131
に適した	-9.80131
受信	-9.80135
bo	-9.8017
次のような	-9.80174
文書	-9.80177
話し	-9.80212
らない	-9.80282
を明確に	-9.80289
ang	-9.8038
に大きな影響を与え	-9.80494
ように見える	-9.8051
古代の	-9.80575
欠	-9.80582
いません	-9.80583
天	-9.80608
それらが	-9.80622
平	-9.80693
精	-9.80752
を確立する	-9.80767
につながり	-9.80802
にわたって	-9.80823
床	-9.80823
プラスチック	-9.80825
カタロニア	-9.80825
日常生活	-9.80826
クラウド	-9.80826
商品	-9.8083
整理	-9.80834
あなた自身	-9.80848
ヘッド	-9.80856
削減	-9.80861
実用的な	-9.80873
連絡	-9.80943
専門的な	-9.80955
シート	-9.8096
削除	-9.81077
守	-9.81106
ということです	-9.81298
について話し	-9.8131
言語で	-9.81314
wa	-9.81364
pl	-9.81366
米	-9.81386
だけです	-9.81404
科	-9.8149
混合	-9.81515
することをお勧めします	-9.81527
歯	-9.81534
コロンビア	-9.81535
ストレージ	-9.81535
LED	-9.81537
照明	-9.8154
有用な	-9.81635
認知	-9.81689
を確認する	-9.81774
技術的	-9.81796
誰かが	-9.81804
を探している	-9.81816
することができる	-9.81858
con	-9.81864
ard	-9.82092
勝	-9.82179
節	-9.822
平等	-9.82205
ボックス	-9.82249
オーブン	-9.82249
プレゼンテーション	-9.8225
AR	-9.82293
することが	-9.82332
一定	-9.82335
役割	-9.82342
いますか	-9.82357
もちろん	-9.8256
pt	-9.82565
ロール	-9.82577
などの他の	-9.82614
送	-9.82623
ティー	-9.82648
ha	-9.82679
ミン	-9.82719
end	-9.82777
するまで	-9.82832
溶	-9.82862
やすく	-9.82936
▁print	-9.82963
コレクション	-9.82968
再生	-9.82978
遺伝子	-9.82979
持っている	-9.83032
プリ	-9.83038
所有者	-9.83057
無料の	-9.83065
に行き	-9.83068
を準備する	-9.83127
である可能性があります	-9.83158
移動する	-9.83167
に依存する	-9.83188
をよりよく理解	-9.83209
を楽しむ	-9.83231
を決定します	-9.83268
世	-9.83336
伝え	-9.83439
効率的な	-9.83463
がありません	-9.83502
クリ	-9.83505
を説明し	-9.83547
ていますか	-9.83556
に貢献し	-9.83625
機能する	-9.83687
徐々に	-9.83692
需要	-9.83693
雪	-9.83695
file	-9.83722
視聴者	-9.83727
結合	-9.83736
-4	-9.83766
見つける	-9.83873
会議	-9.83889
記述	-9.83945
実際	-9.83997
常	-9.84022
安定性	-9.84024
起	-9.84035
質問に答える	-9.84056
を示しています	-9.84069
身体	-9.84147
地域で	-9.84191
を取得し	-9.84362
になった	-9.84389
限	-9.8439
につれて	-9.84394
フレーム	-9.84415
小さく	-9.84422
ブラジル	-9.84423
報告	-9.84424
診断	-9.84424
武器	-9.84435
be	-9.84437
自動的に	-9.84486
長期的な	-9.84495
まり	-9.84604
いくつかの例	-9.8468
をサポートする	-9.84691
アリ	-9.84703
オンラインで	-9.84705
したら	-9.84714
を訪れ	-9.84733
覚え	-9.84741
実行される	-9.84796
えます	-9.84835
自分で	-9.84945
半分	-9.84982
を意味します	-9.85046
サイクル	-9.85075
ft	-9.85139
育	-9.85149
売	-9.85156
倍	-9.85157
インフレ	-9.85158
大さじ	-9.8516
戦闘	-9.85164
自信	-9.85179
これを	-9.85201
ギター	-9.85223
奇妙な	-9.85248
for	-9.85489
ダイ	-9.85496
そこに	-9.85532
Fi	-9.85606
ive	-9.8573
ニューロン	-9.85883
判	-9.85892
SQL	-9.85901
all	-9.85903
代表	-9.85914
と考えられ	-9.85918
回路	-9.85925
否定的な	-9.85958
を確認し	-9.86005
適切	-9.86013
を満たす	-9.86092
へのアクセス	-9.86104
を解決する	-9.86171
学的	-9.86192
このような	-9.86275
実施	-9.863
女の子	-9.86576
注	-9.86584
▁次に	-9.86591
ゾ	-9.86636
採用	-9.86642
環	-9.86643
シナリオ	-9.86643
塗	-9.86644
ひ	-9.86644
大きい	-9.86645
アイデンティティ	-9.86645
一貫性	-9.86645
用途	-9.86652
世代	-9.86654
患者	-9.86655
従	-9.8666
差別	-9.8669
オーバー	-9.86714
▁the	-9.86772
ワイ	-9.86796
を作り	-9.86823
行う	-9.86914
も重要です	-9.86942
高価	-9.87006
にどのように	-9.87082
があること	-9.87197
をインストールする	-9.87199
を助ける	-9.87308
相	-9.87338
報	-9.8739
ヌ	-9.87395
シンボル	-9.87395
インスタンス	-9.87396
チャネル	-9.87396
仮説	-9.87396
疑問	-9.87399
小さじ	-9.87399
2021	-9.874
ああ	-9.87408
est	-9.87544
それほど	-9.87544
カバー	-9.87599
らせ	-9.87784
最終	-9.88011
マックス	-9.88091
想	-9.88132
ピー	-9.88136
イメージ	-9.88147
過剰	-9.88155
朝食	-9.88171
知られ	-9.88186
ゴール	-9.88313
の一人	-9.8837
環境で	-9.88431
創造性	-9.88527
日間	-9.88552
ソー	-9.88608
世界で最も	-9.88729
を調整し	-9.88776
その結果	-9.88813
ぐ	-9.88815
に直接	-9.88822
を求める	-9.88828
興	-9.88899
張	-9.88901
突	-9.88913
給	-9.88913
シェル	-9.88916
に関係なく	-9.88917
村	-9.88917
を増やす	-9.88917
炭素	-9.88924
ブロックチェーン	-9.88936
学者	-9.88971
を食べ	-9.88971
自体	-9.88975
以前に	-9.88976
知りたい	-9.89025
に相談する	-9.89144
を助け	-9.89283
役立ちます	-9.89356
ML	-9.89375
スコア	-9.89398
快適	-9.89441
__	-9.89449
研究者	-9.89525
実現	-9.89581
短	-9.89597
去	-9.89663
自身	-9.89669
及	-9.8967
横	-9.89685
土壌	-9.89687
エッセイ	-9.89688
の向上	-9.89688
規則	-9.89689
と考えています	-9.89703
動機	-9.89711
センサー	-9.89714
トップ	-9.89756
ナッツ	-9.89768
を含め	-9.89795
キング	-9.89807
創造的な	-9.8989
を経験し	-9.89927
しようとする	-9.89945
実行できます	-9.9001
art	-9.9018
を書いて	-9.90267
ep	-9.90359
庭	-9.90422
を見つけることができます	-9.90445
tor	-9.90457
周波数	-9.9046
腐敗	-9.90462
丸	-9.90463
インスピレーション	-9.90463
玉ねぎ	-9.90464
は誰ですか	-9.90468
解放	-9.90484
はどうですか	-9.90502
べきですか	-9.90536
物事	-9.90544
族	-9.90552
22	-9.90566
プロット	-9.90575
最適な	-9.90581
することができ	-9.90658
保持	-9.90696
はしばしば	-9.90742
青い	-9.90783
ていただけますか	-9.90848
いい	-9.90882
遠	-9.90975
代数	-9.90982
たりする	-9.90993
物理的	-9.91038
活	-9.91078
なければ	-9.91179
毒	-9.912
エンジニア	-9.91224
員	-9.91229
に向かって	-9.91242
多様性	-9.91243
迅速に	-9.91243
冗談	-9.91244
罰	-9.91244
コンソール	-9.91245
献身	-9.91249
刻んだ	-9.91249
推論	-9.9125
商業	-9.91251
栄養素	-9.91256
ようとします	-9.91261
時期	-9.91267
ボトル	-9.91271
ドライブ	-9.91287
ど	-9.91305
間違い	-9.9132
していること	-9.91385
大量の	-9.91391
を私に	-9.91392
静	-9.91401
できるようにします	-9.91411
たこと	-9.91469
人種	-9.91472
を表し	-9.91582
を読む	-9.91648
混ぜ	-9.91693
ti	-9.91783
Pa	-9.91792
書く	-9.91801
挙	-9.91814
動的	-9.91932
路	-9.91976
を必要とし	-9.91999
易	-9.9203
腕	-9.9203
ゆっくりと	-9.92031
コンテナ	-9.92032
アニメ	-9.92032
ニンニク	-9.92033
するとき	-9.92034
論理	-9.9206
サッカー	-9.92068
ホスト	-9.92212
週間	-9.92232
最高	-9.92361
エンド	-9.92417
高く	-9.92452
II	-9.92471
暗	-9.92558
フリー	-9.92566
Re	-9.92571
可能な限り	-9.9258
go	-9.92602
異なります	-9.92671
満	-9.9271
▁km	-9.9279
cm	-9.928
可	-9.92801
算	-9.92809
熟	-9.92815
を伴う	-9.92822
兄弟	-9.92823
腹	-9.92824
冬	-9.92824
成果	-9.92824
翼	-9.92826
製造	-9.92829
ニンジン	-9.92829
クエリ	-9.9283
単位	-9.92833
転送	-9.92834
エンジニアリング	-9.92845
をとる	-9.9286
読者	-9.9293
を食べる	-9.92934
自然な	-9.92949
戦う	-9.9296
物理的な	-9.93032
より高い	-9.93175
読	-9.93225
到着	-9.93247
つであり	-9.93279
を加えます	-9.93283
ウム	-9.93345
ンド	-9.93346
実際には	-9.93431
理解し	-9.93572
吸収	-9.93592
略	-9.93607
レート	-9.93619
護	-9.93619
滅	-9.93621
ラテンアメリカ	-9.93625
インタビュー	-9.93625
ドライバー	-9.93625
典型的な	-9.93626
燃焼	-9.93628
レンズ	-9.93757
レース	-9.93777
すべての人	-9.93808
ショ	-9.93821
続けています	-9.93887
実行する	-9.93912
CO	-9.93945
Pl	-9.93978
起動	-9.93979
を提供すること	-9.94023
と呼ばれ	-9.94082
ラップ	-9.94223
スキー	-9.94271
を変える	-9.94271
土	-9.9438
装	-9.94392
放射	-9.94419
乱	-9.94427
雰囲気	-9.94431
境界	-9.94432
撮影	-9.94434
を持っていません	-9.94446
割合	-9.94449
アカウント	-9.94484
とともに	-9.94508
保つ	-9.94508
殺	-9.94614
リーダー	-9.94652
を処理する	-9.94673
が低い	-9.94676
インチ	-9.94735
ようにしてください	-9.94844
住んで	-9.94863
28	-9.95107
\	-9.95126
巨大な	-9.95241
賞	-9.95243
夏	-9.95244
ミッション	-9.95245
長所と短所	-9.95245
パートナー	-9.95245
として知られる	-9.95246
多数の	-9.95257
住	-9.95257
母親	-9.9526
電圧	-9.95261
ポリシー	-9.95262
React	-9.95269
追跡	-9.95273
電源	-9.95286
IA	-9.953
が必要な	-9.95305
ャ	-9.95318
していた	-9.95346
作家	-9.95366
持続可能な	-9.95371
ことができません	-9.95402
を購入する	-9.95494
が好きです	-9.955
1/2	-9.95571
を達成し	-9.95687
がいます	-9.95689
を作成すること	-9.95709
オフ	-9.95751
クロス	-9.95841
に役立つ	-9.95851
確かに	-9.95975
ビン	-9.95977
で構成され	-9.96037
許	-9.96059
箱	-9.96064
喫煙	-9.96064
トルティーヤ	-9.96065
ノイズ	-9.96065
血液	-9.96068
充電	-9.96072
除去	-9.96076
シンプルで	-9.96076
反射	-9.9608
ベイ	-9.96097
per	-9.96144
方向に	-9.9616
提示	-9.96168
のに役立つことを願っています	-9.96277
個	-9.96314
ナル	-9.96333
を防ぐために	-9.96344
を実装する	-9.96377
を評価し	-9.96385
強さ	-9.96387
ある日	-9.9646
ことを保証する	-9.96536
ユーザーに	-9.96576
-19	-9.96616
質問に答え	-9.96749
術	-9.96798
協	-9.9682
ターン	-9.96831
基	-9.96834
原	-9.9685
32	-9.96852
増	-9.96854
安全で	-9.96876
雲	-9.96889
エイリアン	-9.9689
のほんの一部です	-9.96892
細菌	-9.96895
公平	-9.96901
を引き付け	-9.96902
ガラス	-9.96933
ill	-9.9694
乾燥	-9.96945
が高い	-9.96953
変化する	-9.96954
をかけ	-9.97001
ミング	-9.97105
していますか	-9.97109
ていて	-9.9712
古代	-9.97182
正確	-9.97191
彼らに	-9.972
tion	-9.97348
別	-9.9735
でさえ	-9.97351
しなければならない	-9.97357
リップ	-9.97379
日光	-9.97565
相談	-9.97622
を考慮する	-9.97628
選	-9.97654
ジョ	-9.97698
氷	-9.97721
キャプチャ	-9.97722
トランス	-9.97724
楽しみ	-9.97725
蓄積	-9.97727
しましょう	-9.97727
素材	-9.97728
複雑で	-9.97748
arr	-9.97755
ショット	-9.9776
それ自体	-9.97792
はありませんが	-9.97807
ラム	-9.97872
住んでいる	-9.98036
を改善するために	-9.98097
カラー	-9.98115
ペン	-9.98214
po	-9.98252
知っていますか	-9.98334
ウス	-9.98405
を行い	-9.98447
書かれ	-9.9845
デル	-9.98504
鶏	-9.9855
救	-9.98562
大幅に	-9.98564
てもらえますか	-9.98579
ライフスタイル	-9.98584
発生します	-9.98647
共	-9.9866
恐れ	-9.9871
マップ	-9.98774
目的地	-9.98777
りました	-9.98782
ローン	-9.98797
97	-9.98858
ya	-9.98966
文脈	-9.99012
sc	-9.99059
受け入れられ	-9.99077
取る	-9.99126
を実行します	-9.9915
ケア	-9.99184
人物	-9.99276
と言う	-9.99285
られる	-9.99327
未	-9.99394
罪	-9.99407
剣	-9.99409
共産主義	-9.99409
町	-9.9941
カフェイン	-9.9941
偽	-9.9941
賢	-9.9941
厚	-9.99412
必ずしも	-9.99412
対象	-9.99419
広く使用され	-9.99421
時々	-9.99448
天気	-9.99454
トラック	-9.99467
ボット	-9.99501
に参加する	-9.99509
エア	-9.99538
どちらも	-9.9955
ツールです	-9.99581
毎	-9.99615
入手	-9.99616
を探す	-9.99655
さまざまな種類の	-9.99717
を保存	-9.99744
を信じ	-9.99777
誤	-9.9981
kg	-9.99821
マイクロ	-9.9994
歴史的な	-10
を超える	-10.0002
イル	-10.0004
便利	-10.0007
保	-10.0014
を説明します	-10.0014
と見なされ	-10.0015
を考慮し	-10.0019
パル	-10.002
コラボレーション	-10.0027
鉱	-10.0027
折	-10.0027
休憩	-10.0027
ほぼ	-10.0027
ケーブル	-10.0027
子供たち	-10.0029
論文	-10.0031
Ma	-10.0032
火星	-10.0032
見つか	-10.0038
書かれた	-10.0038
を知り	-10.0046
を追加し	-10.0047
ock	-10.0054
訓練された	-10.0058
いくつかのヒント	-10.007
組	-10.0072
いています	-10.0074
から始めて	-10.0076
多くの要因	-10.0077
目標を達成する	-10.0087
の選択は	-10.0088
ニュー	-10.009
にあり	-10.0092
自然言語	-10.0093
望んでい	-10.0099
屋	-10.0107
農	-10.011
界	-10.011
焼	-10.0111
困	-10.0112
お気に入りの	-10.0113
スピーカー	-10.0113
ポッター	-10.0113
シミュレーション	-10.0113
と思う	-10.0113
キャンペーン	-10.0113
任意の	-10.0113
コーディング	-10.0114
行為	-10.0114
を生成し	-10.0119
75	-10.0123
プレート	-10.0124
試み	-10.0124
していません	-10.0131
をください	-10.0143
誰も	-10.0143
クター	-10.0155
厳	-10.0155
res	-10.0155
を作成して	-10.016
ロス	-10.016
他	-10.0161
と思いますか	-10.0164
Al	-10.017
ことが含まれます	-10.0172
シア	-10.0172
それから	-10.0175
ビル	-10.018
促進	-10.018
に影響を与える可能性があります	-10.0195
便	-10.0199
菌	-10.0199
矛盾	-10.02
のおかげで	-10.02
バナナ	-10.02
がたくさんあります	-10.02
ラップトップ	-10.02
を手に入れ	-10.02
どれほど	-10.0201
ピア	-10.0205
ass	-10.0225
置く	-10.0227
聞いて	-10.0229
バック	-10.0229
ラベル	-10.0232
ヘル	-10.0234
RE	-10.0237
▁for	-10.0241
人々に	-10.0243
には多くの	-10.0259
wi	-10.026
炎	-10.0287
局	-10.0287
園	-10.0287
善	-10.0287
春	-10.0287
激しい	-10.0287
承認	-10.0287
残念ながら	-10.0287
エジプト	-10.0287
リアルタイム	-10.0288
前向きな	-10.0288
暗号通貨	-10.0288
風景	-10.0288
グル	-10.0289
人生の意味	-10.0289
に役立ちます	-10.0292
通知	-10.0293
していました	-10.0293
が何であるか	-10.0297
ディング	-10.03
ビット	-10.0308
でなければなりません	-10.0309
27	-10.031
影響を与え	-10.0312
対処	-10.0321
を定義します	-10.0325
に興味がある	-10.0329
利用できる	-10.0329
外国	-10.0345
協力して	-10.035
見た	-10.0367
射	-10.0374
絵	-10.0375
買	-10.0376
西洋	-10.0376
植民地	-10.0376
World	-10.0376
有益	-10.0376
職業	-10.0377
修理	-10.0377
楽器	-10.0379
当時	-10.0379
文明	-10.0379
レポート	-10.0388
get	-10.0389
バラ	-10.0394
1000	-10.0405
アス	-10.0405
属	-10.0409
保証	-10.0413
ずに	-10.0421
につながります	-10.0431
の周りの	-10.0435
払	-10.0439
ng	-10.0454
ッカー	-10.0456
tra	-10.0462
念	-10.0463
崩壊	-10.0465
ユーモア	-10.0465
量子力学	-10.0465
Minecraft	-10.0465
python	-10.0465
CPU	-10.0465
チャットボット	-10.0466
知覚	-10.0466
Apple	-10.0467
ort	-10.0467
23	-10.0469
ook	-10.047
一部の人々は	-10.0471
角度	-10.0472
てほしい	-10.0474
速い	-10.0479
するにはどうすればよいですか	-10.048
ant	-10.0494
と見なされる	-10.0498
シャー	-10.0499
ランク	-10.0514
性質	-10.0531
触れ	-10.0535
柔軟	-10.0537
ak	-10.0539
26	-10.054
の影響を受け	-10.0541
ブリ	-10.0544
vo	-10.0548
を教えてもらえます	-10.0549
支	-10.0553
コミット	-10.0555
ふ	-10.0555
穴	-10.0555
オフィス	-10.0555
欲しい	-10.0555
領土	-10.0556
掛け	-10.0557
知らせ	-10.0557
2022	-10.056
生物学的	-10.0565
スレッド	-10.0566
前進	-10.0568
を提案し	-10.057
視覚	-10.0586
をサポートし	-10.0587
誰	-10.059
に移動し	-10.0592
age	-10.0599
ようなものです	-10.0608
自由に	-10.0616
に変換する	-10.0619
▁Re	-10.0634
リラックス	-10.0636
証	-10.0642
ツールを使用して	-10.0645
跡	-10.0646
請	-10.0646
に最適です	-10.0646
プリンター	-10.0646
まったく	-10.0646
GPU	-10.0646
に合わせて	-10.0646
怪我	-10.0646
第二次世界大戦	-10.0646
予防	-10.0646
コショウ	-10.0647
ゾーン	-10.0647
心理的	-10.0647
単なる	-10.0648
://	-10.0649
ki	-10.065
移行	-10.0651
視覚化	-10.0651
柔軟性	-10.0664
プラン	-10.0674
てきた	-10.0684
ために使用できます	-10.0684
性別	-10.0685
隠	-10.0686
に置き	-10.069
ga	-10.0713
間で	-10.0718
になるまで	-10.0721
然	-10.0736
欲	-10.0736
肌	-10.0738
載	-10.0738
ドラゴン	-10.0738
Excel	-10.0738
段落	-10.0738
同僚	-10.0738
両親	-10.0739
歌詞	-10.0739
敬意	-10.074
仲間	-10.074
与	-10.0745
マウス	-10.0747
を考慮して	-10.0747
私は自分の	-10.075
派	-10.0758
技術的な	-10.0767
フロー	-10.077
IS	-10.0775
と呼ばれます	-10.0782
ことを確認します	-10.0782
したこと	-10.0787
を伝える	-10.0788
号	-10.0799
べきです	-10.0801
ノート	-10.0817
以来	-10.0824
具	-10.0826
図	-10.0827
られない	-10.0827
社	-10.0828
初	-10.0829
馬	-10.083
鼻	-10.0831
三角形	-10.0831
投稿	-10.0831
フォーマット	-10.0831
正式な	-10.0831
Docker	-10.0831
硬	-10.0831
架空の	-10.0831
展開	-10.0831
ブランチ	-10.0833
活用	-10.0834
とは異なり	-10.0841
という考え	-10.0844
留	-10.0845
ug	-10.0854
に存在する	-10.0857
を高め	-10.0857
プレイヤーが	-10.0861
で知られ	-10.0862
広い	-10.0862
を評価する	-10.0872
異常	-10.088
末	-10.0884
AC	-10.0885
お互い	-10.0893
の形で	-10.0897
ために使用できる	-10.0904
Wi	-10.0905
準備ができ	-10.0907
地面	-10.0913
を残し	-10.0917
最も有名な	-10.0917
より効率的	-10.0919
一日	-10.0922
などのさまざまな	-10.0923
魂	-10.0924
によれば	-10.0924
を検討する	-10.0924
コンピューターサイエンス	-10.0924
炭水化物	-10.0924
収益	-10.0924
公園	-10.0925
絵画	-10.0925
不平等	-10.093
続けます	-10.0932
あなたはあなたの	-10.0936
重要な役割を果たし	-10.0937
これまで	-10.0946
対応	-10.095
バイオ	-10.0951
トリック	-10.0951
ian	-10.0953
信じ	-10.0961
ティン	-10.0962
与え	-10.0964
読む	-10.0973
クレ	-10.0975
gr	-10.0986
布	-10.0993
透明	-10.0996
アクティブ	-10.0998
を維持するために	-10.1007
議	-10.1014
朝	-10.1015
聖	-10.1016
メーカー	-10.1017
等しい	-10.1018
広範な	-10.1018
票	-10.1018
を調べ	-10.1018
胸	-10.1018
チャンネル	-10.1019
著作権	-10.1019
負荷	-10.1019
万人	-10.1019
どれだけ	-10.1019
聖書	-10.102
飲み物	-10.102
自動車	-10.102
生存	-10.1021
下げ	-10.1026
対応する	-10.1037
ことを示唆しています	-10.1037
様	-10.1049
fi	-10.1053
酸化	-10.1056
ie	-10.1068
杯	-10.107
ニン	-10.1071
合法	-10.1072
pi	-10.1088
楽しんで	-10.109
生物学	-10.1092
ことにしました	-10.1107
精神的	-10.1113
の背後にある	-10.1114
考慮すべき	-10.1114
埋	-10.1114
季節	-10.1114
贈り物	-10.1114
に似た	-10.1114
欺	-10.1114
サイエンスフィクション	-10.1114
デフォルト	-10.1114
Facebook	-10.1114
検査	-10.1114
を使う	-10.1114
逃げ	-10.1114
モー	-10.1115
フィン	-10.1117
いつでも	-10.1117
方法について	-10.1125
を構成する	-10.1125
固定	-10.1126
ドメイン	-10.113
our	-10.1134
を意味する	-10.1153
ダル	-10.1163
チャン	-10.1169
遺伝的	-10.1172
減	-10.1174
多くの人々	-10.1181
Se	-10.1183
▁いいえ	-10.1186
を見つけます	-10.1187
軽	-10.1191
性的	-10.1192
テクスチャ	-10.1203
野	-10.1203
65	-10.1204
クラブ	-10.1206
タブ	-10.1207
牛	-10.1208
省	-10.1208
章	-10.1208
赤ちゃん	-10.1209
エンティティ	-10.121
と仮定し	-10.121
を考えると	-10.121
指導者	-10.121
おもちゃ	-10.121
感染	-10.121
事故	-10.121
なしに	-10.1211
チキン	-10.1214
息子	-10.1214
宗教的	-10.1215
自動学習	-10.1216
カラ	-10.122
軽い	-10.1225
得られ	-10.1229
要する	-10.1234
ものであり	-10.1235
人もいます	-10.1236
ブルー	-10.1239
ment	-10.1245
を変え	-10.1248
身体的	-10.1256
Mac	-10.1258
市場で	-10.126
フル	-10.1261
すことができます	-10.1263
してみてください	-10.1264
との関係	-10.1268
受け	-10.1276
明確に	-10.1281
決め	-10.1283
が存在する	-10.1298
象	-10.1302
行われ	-10.1306
によって特徴付けられ	-10.1307
ピクセル	-10.1307
危機	-10.1307
柔らかい	-10.1307
フォルダー	-10.1307
プラグイン	-10.1307
のはなぜですか	-10.1307
Rust	-10.1307
テンプレート	-10.1308
注ぎ	-10.1308
戻って	-10.1308
相対	-10.1308
遅く	-10.1309
誤った	-10.1311
個人的な好み	-10.1313
印象的な	-10.1314
を作成するための	-10.1316
引用	-10.1317
ユニークで	-10.1321
避け	-10.1324
水素	-10.1325
をインストールし	-10.1325
ことはありません	-10.1326
と話す	-10.1326
正確で	-10.133
の周りに	-10.1331
日目	-10.1335
必要性	-10.1338
関連性	-10.1341
独立した	-10.1349
ジョー	-10.1367
速	-10.1369
lu	-10.137
持ち	-10.1387
予想	-10.14
腸	-10.1404
打	-10.1405
言い換え	-10.1405
窓	-10.1405
党	-10.1405
キッチン	-10.1405
多様な	-10.1405
輪	-10.1405
野生	-10.1408
ブラック	-10.1413
をお勧めしますか	-10.1415
深い学習	-10.1417
ツリー	-10.1427
ソート	-10.1427
王国	-10.1443
いくつかの重要な	-10.1447
ってください	-10.1463
Git	-10.1476
list	-10.1478
好	-10.1479
経	-10.1501
修	-10.1502
捕	-10.1503
創	-10.1503
娘	-10.1504
戸	-10.1504
バルセロナ	-10.1504
JSON	-10.1504
親愛なる	-10.1504
継承	-10.1504
読み取り	-10.1507
を提供できる	-10.1507
検索エンジン	-10.1507
命令	-10.151
ディスク	-10.1511
元気	-10.1514
少年	-10.1517
を調査し	-10.1522
明日	-10.1522
明確で	-10.1524
を避け	-10.1527
を変更し	-10.1534
ハム	-10.1535
必要があり	-10.1553
られている	-10.1558
のに役立ち	-10.1562
を購入し	-10.1562
に入る	-10.1569
られます	-10.1571
与えられた	-10.1574
を作成するために	-10.1576
36	-10.1588
っていました	-10.1592
安	-10.1595
両	-10.1597
提	-10.1597
介	-10.16
福	-10.1603
ure	-10.1604
アジア	-10.1604
に到達し	-10.1604
草	-10.1604
弾	-10.1604
没	-10.1604
認証	-10.1604
コーラス	-10.1606
反復	-10.1606
実行され	-10.1608
やかな	-10.1609
見解	-10.1614
du	-10.1618
を測定する	-10.1619
ジン	-10.1623
に関して	-10.1624
必要はありません	-10.1624
を見つけて	-10.1635
成功した	-10.164
つの異なる	-10.1641
を形成する	-10.1648
についてもっと	-10.1648
ペア	-10.1654
強力で	-10.1656
ことを知っています	-10.1657
パイ	-10.1659
▁1)	-10.1665
データ構造	-10.1667
レベルで	-10.1672
use	-10.1678
に関連しています	-10.1678
を表示する	-10.168
議会	-10.168
を特定する	-10.1683
生成された	-10.1686
あなたは私に	-10.169
あなたの名前	-10.1701
湿	-10.1701
を反映し	-10.1705
余分な	-10.1705
カナダ	-10.1705
滑らか	-10.1705
廃棄物	-10.1705
ポルトガル	-10.1705
Hello	-10.1705
勝利	-10.1706
パリ	-10.1708
気象	-10.1709
を受け取り	-10.1709
またはその他の	-10.1711
セットアップ	-10.1712
よりもはるかに	-10.1713
▁St	-10.1717
学んだ	-10.1718
を定義する	-10.172
食べ	-10.1723
パラ	-10.1725
400	-10.1728
コーン	-10.1733
ネット	-10.1734
笑い	-10.1735
方法があります	-10.1736
赤い	-10.1752
ity	-10.1753
ウル	-10.1757
出す	-10.1759
正常	-10.1762
覚	-10.1769
ワード	-10.1769
段階で	-10.1786
明確	-10.1789
単	-10.1799
束	-10.1803
管	-10.1805
エージェント	-10.1807
項	-10.1807
アパート	-10.1807
装飾	-10.1807
方が良い	-10.1807
憲法	-10.1807
保管	-10.1807
切断	-10.1808
公正	-10.1809
深さ	-10.181
遅れ	-10.1813
を確保する	-10.1814
ビルド	-10.1817
上部	-10.1823
を軽減する	-10.1827
ためのいくつかの	-10.1831
でもあります	-10.1832
さえ	-10.1841
96	-10.1847
簡単	-10.1858
を調整する	-10.1859
が含まれている	-10.1886
英語で	-10.1894
ありますか	-10.1897
を入力し	-10.1902
を知っている	-10.1906
生産性	-10.1906
造	-10.1909
施設	-10.191
インデックス	-10.191
枝	-10.191
署名	-10.191
インフラストラクチャ	-10.191
妻	-10.191
オーストラリア	-10.191
橋	-10.191
を以下に示します	-10.191
友情	-10.191
キリスト教	-10.191
態度	-10.1911
遺産	-10.1911
間隔	-10.1912
キーワード	-10.1912
▁クリア	-10.1912
パーティー	-10.1913
メトリック	-10.1914
若者	-10.1914
運命	-10.1914
脆弱性	-10.1916
立場	-10.1916
チン	-10.1919
を探してください	-10.1919
か月	-10.192
キャンプ	-10.1925
){	-10.1929
指定	-10.1951
85	-10.1951
2000	-10.1962
高レベルの	-10.1966
有効	-10.1979
Go	-10.1981
来る	-10.1985
持って	-10.1986
与えられ	-10.1988
利用可能	-10.1994
が少ない	-10.1997
象徴	-10.2003
に適しています	-10.2005
ビュー	-10.2009
和	-10.201
ていることを確認してください	-10.2011
の点で	-10.2011
ソースコード	-10.2012
三	-10.2013
以外の	-10.2014
https	-10.2014
ブラックホール	-10.2014
どのくらい	-10.2014
柔らかく	-10.2014
洞察	-10.2014
がどのように機能するか	-10.2014
PHP	-10.2015
席	-10.2015
調和	-10.2015
ff	-10.2015
強制	-10.2015
を設定する	-10.2015
整	-10.2016
ティック	-10.2016
ねえ	-10.202
ron	-10.2021
理想的な	-10.2023
観光	-10.2023
ことを学び	-10.2025
を共有する	-10.2027
3,	-10.2028
発音	-10.2036
ことを検討してください	-10.2042
大規模な言語モデル	-10.2061
が表示され	-10.2069
app	-10.2071
私はそれを	-10.2071
鍵	-10.2072
ES	-10.2073
ようとしている	-10.2081
を開き	-10.2088
nder	-10.2096
特別	-10.21
寒	-10.2104
含	-10.2109
をお勧めします	-10.211
痛	-10.2114
行うことができます	-10.2116
規模	-10.2119
千	-10.2119
ウクライナ	-10.2119
麻	-10.2119
固有の	-10.2119
ウィンドウ	-10.212
オーディオ	-10.212
デスクトップ	-10.212
接触	-10.212
たびに	-10.212
フォーラム	-10.212
積極的に	-10.2121
を受け取る	-10.2122
品種	-10.2123
パーソナライズされた	-10.2124
地位	-10.2127
スクリーン	-10.213
地下	-10.2139
を計算します	-10.2139
2020	-10.215
簡単で	-10.2152
所有	-10.2154
にアクセスする	-10.2154
冷たい	-10.2155
生じる	-10.2165
メイ	-10.2174
作成された	-10.2179
ようになります	-10.2195
不正	-10.2195
より速く	-10.2201
ET	-10.2202
心理学	-10.2216
割	-10.2219
計	-10.222
を保証する	-10.2222
ix	-10.2225
寄	-10.2225
クリスマス	-10.2226
ジェームズ	-10.2226
望ましい	-10.2226
共和国	-10.2226
闘争	-10.2226
偉大な	-10.2226
を添えた	-10.2226
対策	-10.2226
未満	-10.2227
を説明できますか	-10.2227
配布	-10.2227
代替品	-10.2227
コメディ	-10.2228
部品	-10.223
つけ	-10.2234
を研究する	-10.2235
垂直	-10.2238
▁Pro	-10.2238
形式で	-10.2238
寒い	-10.2242
レモン	-10.2242
生まれた	-10.2247
探索	-10.2249
発行	-10.2262
起こ	-10.2264
を可能にする	-10.227
95	-10.2278
AB	-10.2279
0,	-10.2287
を取る	-10.2289
にアクセスし	-10.2291
ことを示しています	-10.2301
動的な	-10.2302
特定のニーズ	-10.2309
を確認してください	-10.2316
しているため	-10.2316
ize	-10.2323
きれい	-10.2327
否	-10.2331
照	-10.2332
台	-10.2333
パラドックス	-10.2333
大きさ	-10.2333
一貫した	-10.2333
謎	-10.2333
レッスン	-10.2333
に慣れ	-10.2334
義務	-10.2334
乗算	-10.2334
木材	-10.2334
ニューロンネットワーク	-10.2337
を開く	-10.2338
適合	-10.2338
聞こえ	-10.2338
ライフ	-10.2338
耐性	-10.2338
満たされ	-10.2339
できるだけ	-10.2339
ッツ	-10.2342
ように設計されています	-10.2344
を予測する	-10.2346
レーション	-10.2351
この本は	-10.2352
を紹介します	-10.2353
であるという	-10.2354
カイ	-10.2359
個別	-10.2369
フェル	-10.2378
を持つこと	-10.2384
を正確に	-10.2412
に焦点を当てた	-10.2415
陸	-10.2436
編	-10.2441
蔵	-10.2442
ぼ	-10.2442
ざ	-10.2442
粘	-10.2442
願	-10.2442
清	-10.2442
驚くべき	-10.2442
ネイティブ	-10.2442
民主主義	-10.2442
USB	-10.2442
就	-10.2442
が必要になる場合があります	-10.2442
ナイト	-10.2442
天文学	-10.2443
株式	-10.2443
バックアップ	-10.2444
Openai	-10.2444
保ち	-10.2444
場合によっては	-10.2445
引っ	-10.2445
し続ける	-10.2446
あまりにも	-10.2446
が多い	-10.2447
に戻り	-10.2449
PI	-10.2449
いくつかの一般的な	-10.2449
同期	-10.2453
リサイクル	-10.2454
作物	-10.2455
マスク	-10.246
que	-10.2463
できるため	-10.2463
消費者	-10.2471
グラフィックス	-10.248
ml	-10.2486
グリ	-10.2487
であることを忘れないでください	-10.2497
スキルを向上させ	-10.2504
ru	-10.2508
を探索し	-10.2509
ven	-10.2509
発生し	-10.2509
を見つけること	-10.2512
マージ	-10.2513
キシ	-10.2524
などの要因	-10.2525
300	-10.2527
76	-10.253
単純	-10.2532
ことができるように	-10.2539
番	-10.2548
豊富な	-10.2548
set	-10.255
長期	-10.2551
響	-10.2551
うつ病	-10.2552
航空	-10.2552
焦点	-10.2552
尾	-10.2552
フレンドリー	-10.2552
基盤	-10.2552
緩和	-10.2552
を好む	-10.2552
RAM	-10.2553
38	-10.2554
失われ	-10.2555
たいと思っています	-10.2559
エキサイティングな	-10.256
外側	-10.256
長い間	-10.2563
大人	-10.2573
聞いた	-10.2573
スティック	-10.2576
89	-10.2589
のうち	-10.259
されているため	-10.2598
Ba	-10.26
わずかに	-10.2606
歴史上	-10.2612
現実的な	-10.2612
乗	-10.2614
されている場合	-10.2618
uc	-10.2653
液	-10.2656
職	-10.266
模	-10.2662
刑	-10.2663
と信じています	-10.2663
を投げ	-10.2663
ことを覚えておくことが重要です	-10.2663
を返す	-10.2663
軸	-10.2663
電気自動車	-10.2665
data	-10.2666
プラトン	-10.2666
を達成するために	-10.2669
決	-10.2675
を追加して	-10.2676
あなたの質問	-10.2688
アンド	-10.27
知る	-10.2702
ert	-10.2707
観点から	-10.2709
を見つけました	-10.2715
を取得します	-10.2715
扱い	-10.2718
排除	-10.2726
こんにちは	-10.2744
Le	-10.275
あなたにとって	-10.275
しなければなりません	-10.276
特定	-10.276
への影響	-10.2769
混ぜます	-10.2772
握	-10.2775
いっぱい	-10.2775
ダイヤモンド	-10.2775
肩	-10.2776
もう一度	-10.2776
禁止	-10.2776
リポジトリ	-10.2776
デッキ	-10.2776
ポテト	-10.2776
欲求	-10.2776
間違いなく	-10.2777
光の速度	-10.2777
限られた	-10.2777
勧め	-10.2779
安定した	-10.2786
民間	-10.2787
有効性	-10.2791
を提示します	-10.2792
を決定し	-10.2795
ここにあなたが	-10.28
ピース	-10.2801
透明性	-10.2802
殺人	-10.281
An	-10.2811
長さ	-10.2815
たち	-10.2819
このタイプの	-10.282
訪れる	-10.2842
起こる	-10.2854
情報源	-10.2857
600	-10.2859
を使用しています	-10.2867
AN	-10.2868
ペース	-10.2877
予	-10.2882
ウェブ	-10.2887
糖	-10.2889
条	-10.2889
投資家	-10.2889
にさらされ	-10.2889
湖	-10.2889
ハードドライブ	-10.2889
時計	-10.2891
第三	-10.2891
自然言語処理	-10.2892
どれ	-10.2893
NA	-10.2894
ワット	-10.2899
プレス	-10.2899
指定された	-10.2903
を獲得する	-10.2907
ダンス	-10.2915
述べ	-10.2917
含まれ	-10.2917
を管理する	-10.2922
ワン	-10.2922
29	-10.2932
プレー	-10.2937
ジム	-10.2943
際	-10.2953
を保持し	-10.2956
と見なされます	-10.2958
支持	-10.2962
に焦点を合わせ	-10.2974
がなく	-10.2982
古	-10.2987
銀	-10.3
額	-10.3
摂取	-10.3001
履歴	-10.3002
クレジット	-10.3003
純	-10.3004
頃	-10.3004
氏	-10.3004
幼	-10.3004
エッジ	-10.3004
容易に	-10.3004
利点と短所	-10.3004
半径	-10.3004
を扱う	-10.3004
衛星	-10.3004
を増やし	-10.3004
第二	-10.3006
風味	-10.3011
列車	-10.3012
不可欠な	-10.3014
属性	-10.3024
を入れ	-10.3031
汚れ	-10.3031
周り	-10.3032
を準備し	-10.3032
を加えて	-10.3033
分裂	-10.3043
PS	-10.3045
を得るために	-10.3051
Ho	-10.3056
関与	-10.3062
タグ	-10.3069
を強化する	-10.3077
あなたが私に	-10.3084
ストア	-10.3084
いる間	-10.3089
安定	-10.309
直接的な	-10.3104
ton	-10.3107
ance	-10.3115
癌	-10.312
資本主義	-10.312
ヘルスケア	-10.312
幽霊	-10.312
再生可能エネルギー	-10.312
耐久性	-10.312
裏	-10.312
爪	-10.312
スマート	-10.312
博士	-10.312
臭	-10.312
スイッチ	-10.312
エディター	-10.3121
行く	-10.3121
コミットメント	-10.3121
心臓	-10.3122
短所	-10.3122
予約	-10.3124
ユーザーインターフェイス	-10.3127
を実施し	-10.3127
茶色	-10.3127
わからない	-10.3137
最終的な	-10.3137
私はそれが	-10.314
ボブ	-10.3149
視覚的	-10.3157
面積	-10.3164
この地域	-10.3166
ようとしています	-10.3168
重い	-10.3177
来た	-10.3179
同様に	-10.3185
行った	-10.3192
Me	-10.3193
要	-10.32
ロケット	-10.3211
git	-10.3219
設計された	-10.322
スキャン	-10.3221
と主張しています	-10.3225
字	-10.3226
黄	-10.3228
燃	-10.3231
祝	-10.3238
余	-10.3238
礼	-10.3238
パネル	-10.3238
延	-10.3238
信じられないほど	-10.3238
悲しみ	-10.3238
切り替え	-10.3238
が含まれる場合があります	-10.3238
尺度	-10.3238
賞賛	-10.3238
ビタミン	-10.3238
集団	-10.3238
ミルク	-10.3238
メル	-10.324
を超え	-10.324
親切	-10.3241
欠点	-10.3241
可能性が高い	-10.3241
不確実性	-10.3242
食料	-10.3244
に従い	-10.3249
で作られた	-10.3257
について話す	-10.326
var	-10.3267
を置き	-10.327
起こった	-10.3278
黒い	-10.328
ネス	-10.3295
有名	-10.3313
800	-10.3315
を研究し	-10.3323
キン	-10.3339
シュー	-10.3342
を処理し	-10.3346
簡単です	-10.3348
情	-10.3348
惑	-10.3355
充	-10.3356
神秘的な	-10.3357
課	-10.3357
群	-10.3357
を選ぶ	-10.3357
安定した拡散	-10.3357
ニューヨーク	-10.3357
調節	-10.3359
証明書	-10.3361
に関連して	-10.3361
を確認します	-10.3362
まあ	-10.3363
扱	-10.3369
象徴的な	-10.337
が必要である	-10.3372
を制御し	-10.3372
0.0	-10.3375
革新的な	-10.3377
生じ	-10.3435
した後	-10.3442
てくれてありがとう	-10.3444
固	-10.3447
より複雑な	-10.3451
さまざまな要因	-10.3463
を書きます	-10.3469
商	-10.3475
告	-10.3476
ところ	-10.3477
浸	-10.3477
ゆ	-10.3477
手頃な価格	-10.3477
を過ごし	-10.3477
迷	-10.3478
ロマンチックな	-10.3478
絶えず	-10.3478
html	-10.3478
には次のものがあります	-10.3478
ステートメント	-10.3478
無効	-10.3478
一度に	-10.3478
軍隊	-10.3478
給与	-10.3478
設置	-10.3478
当局	-10.3479
職場	-10.3479
知ってい	-10.3479
この例では	-10.348
反対側	-10.348
もう少し	-10.3483
中世	-10.3483
国内	-10.3484
王星	-10.3485
を組み合わせて	-10.3486
とは何か	-10.3486
を使用してください	-10.3488
有害な	-10.3494
を読んで	-10.3502
行われます	-10.3503
amp	-10.3506
を保護し	-10.3509
定数	-10.3513
隣	-10.3553
書いた	-10.3562
に移動します	-10.3577
を作成するには	-10.3588
んでいます	-10.359
ウォー	-10.3597
処	-10.3597
像	-10.3598
吸	-10.3598
ナビゲート	-10.3599
に満ちた	-10.3599
é	-10.3599
化合物	-10.36
ウェイ	-10.36
と想像してください	-10.36
▁return	-10.36
text	-10.36
180	-10.36
を失う	-10.36
二次	-10.3601
を指す	-10.3602
洗練された	-10.3606
家庭	-10.3606
制度	-10.3606
を集め	-10.3609
発生	-10.3609
作用	-10.3611
を指定し	-10.3614
と考える	-10.3614
遠く	-10.3617
を満たし	-10.3619
に移動する	-10.3621
知的	-10.3622
ビール	-10.3648
があるかもしれません	-10.367
食べる	-10.367
に対応する	-10.3695
を正しく	-10.3697
IN	-10.3711
っていた	-10.3715
のようなもの	-10.3716
武	-10.3721
誇	-10.3722
厳しい	-10.3723
カレンダー	-10.3723
ビットコイン	-10.3723
膜	-10.3723
穀物	-10.3723
皿	-10.3723
をいくつか紹介します	-10.3723
揚げ	-10.3723
警告	-10.3723
選挙	-10.3724
海岸	-10.3724
中程度の	-10.3724
父親	-10.3725
ビーガン	-10.3725
を持っていない	-10.3725
統一	-10.3725
微調整	-10.3726
大陸	-10.3728
を学びます	-10.3729
に近い	-10.3732
調理します	-10.3737
重み	-10.3738
チョ	-10.3741
2018	-10.3744
able	-10.3747
引数	-10.3747
ルーム	-10.3748
で構成される	-10.3749
を提供してください	-10.3759
CD	-10.3768
歩いて	-10.377
の後ろ	-10.3771
を強化し	-10.3777
==	-10.3782
地球上の	-10.3784
したいと思います	-10.379
48	-10.3794
決定的な	-10.3804
を理解すること	-10.3806
を知って	-10.3811
をやめ	-10.3817
fe	-10.382
置き換え	-10.3834
排	-10.3842
同意	-10.3845
エクスペリエンス	-10.3845
価値があります	-10.3846
参	-10.3846
筋	-10.3847
兵	-10.3847
耳	-10.3848
モニター	-10.3848
プロバイダー	-10.3848
わかりました	-10.3848
陰謀	-10.3848
ブレーキ	-10.3848
の一種です	-10.3848
を考慮に入れ	-10.3848
楽しく	-10.3848
支払う	-10.3848
リモート	-10.3848
苦しみ	-10.3848
オブジェクト指向	-10.3848
ロジック	-10.3848
警察	-10.3848
人の担当者の	-10.3848
可能であれば	-10.3849
飛ぶ	-10.3849
地理的	-10.3849
アップロード	-10.3851
パンケーキ	-10.3853
ジョージ	-10.3854
変動	-10.3855
を避けてください	-10.3855
フライト	-10.3871
手動	-10.3872
ランプ	-10.3872
を試して	-10.3877
を超えて	-10.3881
を持っていること	-10.3894
遺伝	-10.3895
サイド	-10.3896
を向上させ	-10.3901
お勧めします	-10.3902
を改善するための	-10.3904
文脈で	-10.3909
ja	-10.3911
を表します	-10.3913
だと思います	-10.3917
----------------	-10.3919
mod	-10.3921
の大部分	-10.3935
起こり	-10.3938
主観的	-10.3954
不明	-10.3963
果	-10.3969
混	-10.3972
夫	-10.3974
論理的	-10.3974
初めて	-10.3974
始まる	-10.3974
双	-10.3974
パウダー	-10.3975
メンタルヘルス	-10.3975
によって異なる場合があります	-10.3975
衛生	-10.3975
スイス	-10.3975
死亡	-10.3976
航空機	-10.3976
笑顔	-10.3976
違いがあります	-10.3976
直面	-10.3977
レイアウト	-10.3977
景色	-10.3978
軽量	-10.3978
するにつれて	-10.3979
パレット	-10.3981
少数	-10.3981
問題を解決し	-10.3981
をもたらす可能性があります	-10.3983
FA	-10.3984
包括的な	-10.3987
いる場合	-10.3987
される可能性があります	-10.3987
``	-10.3988
ミニ	-10.3989
ホール	-10.3989
想像力	-10.3993
実証	-10.3993
を作成する方法	-10.4
視覚的な	-10.4012
フアン	-10.402
たいのですが	-10.4021
ブロ	-10.4038
したい場合は	-10.4049
ことを意味する	-10.405
あなたの人生	-10.4069
っていない	-10.4082
に変換し	-10.4083
ctor	-10.4091
等	-10.4098
均	-10.41
簡	-10.4102
永	-10.4102
嫌	-10.4102
継続的に	-10.4103
アップグレード	-10.4103
良好な	-10.4103
書き込み	-10.4103
銃	-10.4103
鳴	-10.4103
興奮し	-10.4103
ボリューム	-10.4103
踏	-10.4103
ガイダンス	-10.4103
ホイール	-10.4103
script	-10.4103
海洋	-10.4103
ニュートン	-10.4105
と言います	-10.4105
知らない	-10.4105
愛情	-10.4106
薄い	-10.4111
電車	-10.4111
ロシア語	-10.4113
除外	-10.4113
Th	-10.4115
エクス	-10.4116
であった	-10.412
DNA	-10.4122
適用される	-10.4126
カント	-10.413
快適な	-10.4137
マクロ	-10.4139
少	-10.4144
オプションがあります	-10.4148
トピックに関する	-10.4157
世界的な	-10.4161
データ分析	-10.4165
することなく	-10.4173
▁Ro	-10.4176
してほしい	-10.418
we	-10.4182
CT	-10.4192
EU	-10.4193
▁3-	-10.4199
を見ました	-10.4203
66	-10.4206
共感	-10.421
を提供することができます	-10.4212
グローバル	-10.4212
薬物	-10.4212
ものではありません	-10.4222
79	-10.4227
区	-10.4229
昇	-10.423
肥	-10.4231
辺	-10.4232
凍	-10.4232
うれしいです	-10.4232
児	-10.4232
シーズン	-10.4232
に沿って	-10.4232
テンソル	-10.4232
メロディー	-10.4232
具体的に	-10.4232
オリジナル	-10.4232
雇用主	-10.4232
わけではありません	-10.4233
さらなる	-10.4233
一般化	-10.4233
どれくらい	-10.4233
冷蔵庫	-10.4233
滞在	-10.4233
このようにして	-10.4233
退屈	-10.4233
飛び	-10.4233
伝説	-10.4234
遊び	-10.4234
image	-10.4234
ッキング	-10.4239
発表	-10.4243
出現	-10.4243
フィート	-10.425
溶け	-10.4251
拡張機能	-10.4254
タッチ	-10.4254
ベリー	-10.426
に住んでいた	-10.4267
動作する	-10.4273
ハンド	-10.4295
させることができます	-10.4296
を見つけるために	-10.4325
qu	-10.4327
を持つことができます	-10.4339
に相談して	-10.4342
持続可能	-10.4344
let	-10.4346
を試し	-10.4347
古典	-10.4353
年まで	-10.4361
並	-10.4363
維	-10.4363
たとえ	-10.4364
は依然として	-10.4364
アインシュタイン	-10.4364
組み込む	-10.4364
アルバム	-10.4364
何らかの	-10.4364
デザイナー	-10.4364
羊	-10.4364
に触発され	-10.4364
靴	-10.4364
大丈夫	-10.4364
スープ	-10.4364
かかります	-10.4365
ほん	-10.4365
決意	-10.4365
排出	-10.4366
1/4	-10.4366
予定	-10.4367
有機	-10.4368
を備えています	-10.4369
湿度	-10.4369
興味のある	-10.4374
time	-10.4375
ローカル	-10.4376
分配	-10.4376
DE	-10.4385
生きる	-10.4389
財政	-10.4396
最新	-10.44
を探しています	-10.4409
str	-10.4414
を保存する	-10.4422
man	-10.443
わずか	-10.4432
疑	-10.4438
動く	-10.4439
中間	-10.4441
を収集し	-10.4446
裂	-10.4452
IV	-10.4453
ly	-10.4468
重要性	-10.4481
理想	-10.4488
司	-10.4491
one	-10.4491
絶	-10.4495
弦	-10.4497
改革	-10.4497
ギャップ	-10.4497
浮	-10.4497
スピーチ	-10.4497
ワクチン	-10.4497
を防ぎ	-10.4497
バリエーション	-10.4497
可用性	-10.4497
好奇心	-10.4497
どうなりますか	-10.4498
韻	-10.4498
キログラム	-10.4498
セッション	-10.4498
ジュース	-10.4498
慢	-10.4498
出版	-10.4498
居住	-10.4498
教授	-10.4498
損害	-10.4498
欲望	-10.4498
π	-10.4499
駆動	-10.4499
散歩	-10.4499
パイプ	-10.4501
コマンドライン	-10.4506
インポート	-10.4507
km	-10.4508
タスクを実行する	-10.4515
つ以上の	-10.4516
atch	-10.4519
今後	-10.4528
だと思いますか	-10.4531
プロファイル	-10.4534
について教えてください	-10.4539
by	-10.4543
org	-10.4549
さない	-10.4553
を行います	-10.4556
精神的な	-10.4556
疑い	-10.4556
自宅で	-10.4563
に貢献する	-10.4566
Hz	-10.4566
コマンドを使用して	-10.4568
助けを求める	-10.4591
を使用している	-10.4591
に感謝し	-10.4599
を練習し	-10.46
ゴー	-10.4603
を作ります	-10.461
クール	-10.4615
人気があり	-10.4616
もありません	-10.463
飾	-10.4632
Twitter	-10.4632
揺	-10.4632
獣	-10.4632
バイナリ	-10.4632
もしそうなら	-10.4632
解像度	-10.4633
紀元前	-10.4633
騒	-10.4633
泳	-10.4633
級	-10.4633
www	-10.4633
永続的な	-10.4633
トークン	-10.4633
ディスプレイ	-10.4633
沸	-10.4633
華	-10.4633
トポロジ	-10.4633
Ubuntu	-10.4633
@	-10.4633
ターゲットオーディエンス	-10.4633
を解く	-10.4634
誘導	-10.4634
Man	-10.4634
ガイドライン	-10.4636
ピアノ	-10.4637
約束	-10.4638
選手	-10.4639
燃え	-10.4639
何ができますか	-10.4639
最低	-10.464
88	-10.4644
によって引き起こされる	-10.4646
運用	-10.465
人間の脳	-10.4651
短く	-10.4652
に会い	-10.4654
アクティブな	-10.4662
を得ることができます	-10.4663
国際的な	-10.4663
悪化	-10.4666
を設定します	-10.4668
▁1-	-10.4673
を開きます	-10.4676
影響を与える可能性があります	-10.4678
ボート	-10.469
を表現する	-10.4692
ことを確認し	-10.4696
およびその他の	-10.4706
あなたを助け	-10.4713
ける	-10.4729
逃	-10.4731
と述べてい	-10.4736
表示される	-10.4759
応	-10.4763
問	-10.4766
奪	-10.4769
しっかり	-10.4769
ことがよくあります	-10.477
ガールフレンド	-10.477
既知の	-10.477
災害	-10.477
廃	-10.477
ヒュー	-10.477
お手伝い	-10.477
ターミナル	-10.477
安価	-10.477
スペル	-10.477
限界	-10.4771
偏見	-10.4771
json	-10.4775
化学物質	-10.4775
ドラマ	-10.4777
よく使用されます	-10.4778
モーター	-10.4782
2017	-10.4782
種子	-10.4785
フード	-10.4787
Mi	-10.4795
消化	-10.4796
に焦点を当てる	-10.4798
を説明しています	-10.48
便利な	-10.4803
out	-10.4807
を設定し	-10.481
理論的	-10.481
を形成します	-10.4816
それでも	-10.4845
を探求し	-10.4851
コール	-10.4854
ここ	-10.4868
パスタ	-10.4873
があるかどうか	-10.4886
これらの手順	-10.4898
カウント	-10.4899
へ	-10.49
時空	-10.4902
存	-10.4904
難	-10.4905
秘	-10.4907
納	-10.4908
平らな	-10.4908
邪悪な	-10.4908
儀	-10.4908
ホテル	-10.4908
二酸化炭素	-10.4908
堅	-10.4908
を克服する	-10.4908
未知の	-10.4908
ほこり	-10.4909
ポジティブ	-10.4909
優れている	-10.4909
潜在的に	-10.4909
洞	-10.4909
避難	-10.4909
クラシック	-10.4909
極端な	-10.4909
積極的な	-10.4909
イエス	-10.4909
レタス	-10.4909
変わり	-10.4909
生き残る	-10.4909
sudo	-10.4909
▁def	-10.4909
リットル	-10.491
ポータル	-10.491
頭痛	-10.491
電球	-10.4911
読書	-10.4912
ポンド	-10.4913
香り	-10.4914
メーター	-10.4916
伝える	-10.4921
を最適化する	-10.4926
For	-10.4939
2019	-10.4941
名詞	-10.4944
イヤー	-10.4944
を試す	-10.4946
▁このコード	-10.4952
プラス	-10.4966
の下に	-10.4968
助けてくれ	-10.4976
を与えることができます	-10.4977
物体	-10.4977
68	-10.4984
に接続する	-10.4989
通過	-10.4992
から始める	-10.5001
行われる	-10.5006
を利用して	-10.5029
これを行うには	-10.5031
拠	-10.504
否定	-10.5041
義	-10.5043
説	-10.5045
悲	-10.5049
斜	-10.5049
繰り返され	-10.5049
小さい	-10.5049
に基づく	-10.5049
間違っている	-10.5049
しばらく	-10.5049
壮大な	-10.5049
にどのように影響するか	-10.5049
演算子	-10.5049
モデリング	-10.5049
迅速かつ	-10.5049
途中で	-10.505
ためにここにいます	-10.505
巣	-10.505
アボカド	-10.505
クリーニング	-10.505
バックエンド	-10.505
炎症	-10.5051
ハイキング	-10.5051
戦術	-10.5052
身体活動	-10.5053
インタラクティブな	-10.5058
をきれいに	-10.5058
甘い	-10.5062
行き	-10.5067
フェン	-10.5078
パック	-10.5083
作り	-10.5085
もあり	-10.5087
措置を講じる	-10.5096
EC	-10.511
間の距離	-10.5114
サイン	-10.5118
を確立します	-10.5126
ick	-10.5127
ことを目指し	-10.5132
を始める	-10.5143
磁気	-10.5153
著	-10.5176
有害	-10.5176
に集中し	-10.5176
有用	-10.5181
借	-10.5182
幾何学	-10.5192
開口部	-10.5192
何をすべきか	-10.5192
活性化	-10.5192
帽子	-10.5192
組み込み	-10.5192
交差点	-10.5192
は何でしたか	-10.5192
NLP	-10.5192
だろう	-10.5193
をリストし	-10.5193
他に何か	-10.5195
モーティ	-10.5196
に基づいている	-10.5199
に直面する	-10.5209
経済成長	-10.5212
たくない	-10.5218
有効な	-10.5221
ポスト	-10.5227
レッド	-10.5231
つもりです	-10.5239
row	-10.524
への旅行	-10.5244
重要な要素	-10.5248
隠れ	-10.5253
消え	-10.5259
に到着し	-10.5261
いくつ	-10.5295
深	-10.5305
ったとき	-10.5309
豊	-10.5312
遊	-10.5335
荷	-10.5335
鮮	-10.5336
妊	-10.5337
スピード	-10.5337
を確保し	-10.5337
訴	-10.5337
シェー	-10.5337
鏡	-10.5337
トラフィック	-10.5337
プライベート	-10.5337
インテリジェント	-10.5337
殻	-10.5337
フォロー	-10.5337
number	-10.5337
ヨーグルト	-10.5337
妹	-10.5337
▁どういたしまして	-10.5337
ラウンド	-10.5338
やる気	-10.5338
▁###	-10.5338
共同	-10.5339
世界中で	-10.534
文章	-10.534
わけではな	-10.534
ビート	-10.5341
セクター	-10.5342
194	-10.5343
家具	-10.5344
ライオン	-10.5346
死んだ	-10.5346
Ex	-10.5347
ジョーク	-10.5352
を選択してください	-10.5355
主観的な	-10.5361
をカバーする	-10.5362
遠い	-10.5366
良い選択肢	-10.5373
いいえ	-10.5378
に入り	-10.5381
Tr	-10.5383
を測定し	-10.5385
私があなた	-10.5388
に属し	-10.5398
週末	-10.54
少なく	-10.541
を制限する	-10.545
▁Do	-10.545
バグ	-10.5461
屈	-10.5483
エピソード	-10.5484
何世紀にもわたって	-10.5484
史	-10.5484
ココナッツ	-10.5484
ソビエト連邦	-10.5484
暖かい	-10.5484
根本的な	-10.5484
としても知られる	-10.5484
取り組み	-10.5484
イノベーション	-10.5484
糖尿病	-10.5484
覚えておいてください	-10.5484
塩とコショウ	-10.5484
ストリーミング	-10.5484
ポジション	-10.5484
をお楽しみください	-10.5484
プリント	-10.5484
宝物	-10.5485
神経系	-10.5486
装置	-10.5486
お茶	-10.5487
楽しんでください	-10.5487
グラフィックカード	-10.5488
を持っていました	-10.5489
最も重要なことは	-10.5489
内側	-10.5494
政治家	-10.5499
推奨される	-10.5499
エネルギー効率	-10.5504
グローバルな	-10.5508
準備ができています	-10.5511
もはや	-10.5515
を失い	-10.5516
場合でも	-10.5525
が可能になり	-10.5526
***	-10.5528
を形成し	-10.553
影響を与える	-10.5553
を指定する	-10.5556
を維持すること	-10.5566
感情的	-10.5568
現実的	-10.5574
ていませんでした	-10.5593
に取り組んで	-10.5598
VR	-10.5607
世話	-10.5623
裁	-10.5632
境	-10.5632
肺	-10.5633
酒	-10.5633
暑	-10.5633
恐竜	-10.5633
迫	-10.5633
舌	-10.5634
凝	-10.5634
紫	-10.5634
オランダ	-10.5634
Instagram	-10.5634
▁const	-10.5634
少量の	-10.5634
保守	-10.5635
ことを知っていました	-10.5635
動詞	-10.5635
大量	-10.5637
キャッシュ	-10.5639
を止める	-10.564
ペルー	-10.5643
を選択できます	-10.5643
税金	-10.5646
勝つ	-10.5647
国民	-10.5648
料金	-10.565
グリル	-10.5651
時間がかか	-10.5652
隠された	-10.5655
チップ	-10.5656
役立つことを願っています	-10.5658
と見なされています	-10.5658
ように見えます	-10.5658
フォーク	-10.566
それを行う	-10.5661
平面	-10.5662
と主張する	-10.5664
行われた	-10.5664
を実装し	-10.5666
衣服	-10.5672
最適	-10.5696
傾向があります	-10.5698
sum	-10.5699
ジャン	-10.5729
近年	-10.573
^3	-10.5735
例外	-10.5736
を検討してください	-10.5751
フライ	-10.5755
価	-10.5776
を検討し	-10.5779
版	-10.5781
昼	-10.5783
脈	-10.5783
恋	-10.5784
階級	-10.5785
皇	-10.5785
愚	-10.5785
時間が経つにつれて	-10.5785
雑	-10.5785
優先順位	-10.5785
秋	-10.5785
耳を傾け	-10.5785
羽	-10.5785
フレーバー	-10.5785
豚	-10.5785
press	-10.5785
凍結	-10.5786
係数	-10.5786
不動産	-10.5786
いずれに	-10.5786
フライパン	-10.5787
農場	-10.5787
に精通し	-10.5787
ライティング	-10.579
巻き	-10.5792
相手	-10.5792
ようになりました	-10.5793
ゴン	-10.5794
に置き換える	-10.5796
発生する可能性があります	-10.5797
を考慮する必要があります	-10.5797
ポーン	-10.5805
ライブ	-10.5808
▁Pi	-10.5815
られました	-10.5821
に感謝します	-10.5823
を定義し	-10.5836
を完了する	-10.5836
隣人	-10.5843
平均的な	-10.5849
を確認できます	-10.5856
を計画し	-10.5856
を守る	-10.5856
になる可能性がある	-10.5875
楽しむ	-10.5883
入力データ	-10.5889
たい場合	-10.5914
に会う	-10.5931
ソーシャル	-10.5936
測	-10.5936
ホルモン	-10.5938
奴	-10.5938
胃	-10.5939
最も近い	-10.5939
注意を払う	-10.5939
寺	-10.5939
防御	-10.5939
iPhone	-10.5939
登場し	-10.5939
彼自身の	-10.5939
簡素化	-10.5939
▁import	-10.5939
function	-10.5939
ボルト	-10.5939
習得	-10.5939
敏感	-10.594
事件	-10.594
あらゆる種類の	-10.5942
キューブ	-10.5942
戦士	-10.5943
経験豊富な	-10.5944
を最小限に抑える	-10.5945
遅い	-10.5945
ユニ	-10.5946
を開始する前に	-10.5947
オンラインコース	-10.5948
テープ	-10.5949
ポップ	-10.5951
球体	-10.5952
時間とともに	-10.5954
出口	-10.5959
暗く	-10.5961
プール	-10.5966
露出	-10.5967
向き	-10.5967
聞	-10.5978
問題解決	-10.5985
2010	-10.6003
再現	-10.6006
種類	-10.6011
に適応する	-10.6018
他人	-10.6027
を引き	-10.6027
持ち上げ	-10.6035
port	-10.6039
を適用する	-10.6055
ことを示す	-10.6073
関	-10.6074
これを行う	-10.6087
であるかのように	-10.6087
抱	-10.6089
改	-10.6093
嘘	-10.6095
勢	-10.6095
煙	-10.6095
肯定的な	-10.6095
ステータス	-10.6095
城	-10.6095
携	-10.6095
を拡大し	-10.6095
オオカミ	-10.6095
缶	-10.6095
キツネ	-10.6095
ガソリン	-10.6095
リーダーシップ	-10.6095
に挑戦し	-10.6095
ミュージシャン	-10.6095
スナック	-10.6095
エンターテイメント	-10.6095
枚	-10.6095
を最大化する	-10.6095
影響力のある	-10.6095
どうやって	-10.6095
があれば	-10.6095
意志	-10.6095
対称	-10.6095
断片	-10.6096
あなたに役立つことを願っています	-10.6097
変異	-10.6098
表記	-10.6098
誤解	-10.6098
ステーション	-10.6098
コミュニケーションをとる	-10.6099
皮肉	-10.6099
提出	-10.6102
によって開発された	-10.6102
▁そうです	-10.6103
エントリ	-10.6103
以内に	-10.6105
ong	-10.6106
この映画は	-10.6106
ピーター	-10.6107
エネルギー消費	-10.6111
体積	-10.6114
エネルギー源	-10.6122
するのが難しい	-10.6126
影響を受ける	-10.6134
ローブ	-10.6146
以前	-10.6147
マイク	-10.6156
を送信する	-10.6158
ために使用され	-10.618
を練習する	-10.6189
に適応し	-10.6193
教えてくれ	-10.6196
を支援し	-10.6198
を作成できる	-10.6199
と言って	-10.6202
に戻る	-10.6211
簡単な方法	-10.6218
をよりよく	-10.6222
役割を果たし	-10.6232
を適用し	-10.624
印象	-10.6243
を確保するために	-10.6243
習	-10.6248
を手伝っ	-10.625
タバコ	-10.6253
を奨励し	-10.6254
ドワーフ	-10.6254
アレルギー	-10.6254
当事者	-10.6254
爆弾	-10.6254
摂氏	-10.6254
iPad	-10.6254
思いやり	-10.6254
終わる	-10.6254
トレイル	-10.6254
Arduino	-10.6254
クラフト	-10.6254
補償	-10.6254
両側	-10.6256
磁石	-10.6256
原理	-10.6256
焼きます	-10.6256
ハイパー	-10.626
を軽減し	-10.6261
快適さ	-10.6262
レーダー	-10.6266
合理的な	-10.6267
ドラム	-10.6269
あなたが持っている	-10.6272
によって作成された	-10.6273
説明してもらえますか	-10.6277
を可能にします	-10.628
ボディ	-10.6285
に乗って	-10.6286
説明していただけますか	-10.6297
になっている	-10.6305
人もい	-10.6336
をダウンロードし	-10.6342
知りません	-10.6376
met	-10.6378
準	-10.6404
備	-10.6411
のが難しい	-10.6411
粒	-10.6413
についてもっと知りたい	-10.6414
と同じくらい	-10.6415
孫	-10.6415
難しく	-10.6415
暗闇	-10.6415
バックグラウンド	-10.6415
ブリッジ	-10.6415
を通り抜け	-10.6415
ファッション	-10.6415
ミュージック	-10.6415
が向上し	-10.6415
カーネル	-10.6415
愛好家	-10.6415
ベーキング	-10.6415
友人や家族	-10.6415
やり取り	-10.6415
ディープラーニング	-10.6415
world	-10.6415
アセンブリ	-10.6415
RPG	-10.6415
URL	-10.6415
スマートフォン	-10.6415
録音	-10.6416
があった	-10.6417
認定	-10.6417
に合った	-10.6417
パイプライン	-10.6417
王朝	-10.6417
を作り出し	-10.6419
電子機器	-10.642
ハウス	-10.642
気持ち	-10.6421
に影響を与える可能性のある	-10.6421
フランス語	-10.643
ction	-10.6433
怒り	-10.6433
ビザ	-10.6433
ホット	-10.6448
を検出し	-10.6456
を離れ	-10.646
val	-10.6468
変え	-10.6474
run	-10.6477
を提示する	-10.6489
人権	-10.6506
グレー	-10.6506
期間中	-10.654
愛する人	-10.6544
数学者	-10.656
推	-10.6571
老	-10.6574
促	-10.6578
傾	-10.6578
潜	-10.6579
刺	-10.6579
パイロット	-10.6579
了	-10.6579
魔術師	-10.6579
シリンダー	-10.6579
ことがわかります	-10.6579
匹	-10.6579
カスタム	-10.6579
心血管	-10.6579
必要がある場合があります	-10.6579
ほうれん草	-10.6579
トランザクション	-10.6579
観光客	-10.6579
とはどういう意味ですか	-10.6579
フルーツ	-10.6579
宝石	-10.6579
のを手伝ってください	-10.6579
新聞	-10.658
感染症	-10.658
請求	-10.658
グリッド	-10.6581
グリーン	-10.6581
答えはありません	-10.6581
二重	-10.6582
締め	-10.6584
火山	-10.6586
予想される	-10.6588
フラット	-10.6589
0°	-10.659
と同じように	-10.6594
りません	-10.6599
ボードゲーム	-10.6605
素数	-10.6605
歩く	-10.6608
ビング	-10.6608
地形	-10.6608
ゲン	-10.6615
国立	-10.6619
バスク	-10.6627
ていない場合	-10.6628
Col	-10.6628
ケン	-10.6632
レター	-10.6635
助けを求め	-10.6639
に答える	-10.6658
を削減し	-10.6659
▁それで	-10.6667
走り	-10.6675
を受け入れる	-10.6689
せず	-10.669
詞	-10.6701
財政的	-10.6705
に対処し	-10.6708
ランチ	-10.6711
静的	-10.6712
act	-10.6714
奇妙	-10.6725
統	-10.6738
飛	-10.674
隔	-10.6743
到	-10.6744
拾	-10.6746
言えば	-10.6746
裁判所	-10.6746
飽和	-10.6746
絶え間ない	-10.6746
誕生日	-10.6746
と思われる	-10.6746
費やす	-10.6746
論争	-10.6746
中火で	-10.6746
装備	-10.6746
周辺	-10.6747
一種の	-10.6747
因子	-10.6748
を考慮することが重要です	-10.6751
同盟国	-10.6751
メンター	-10.6753
固体	-10.6754
制約	-10.6755
ヨガ	-10.6755
強み	-10.6758
初期化	-10.6761
read	-10.6763
乗り	-10.6774
意味のある	-10.6783
獲得	-10.6786
をチェックし	-10.6793
書いています	-10.6804
政治システム	-10.6815
フィー	-10.682
を削減する	-10.6824
生きている	-10.6852
留め	-10.6888
たいと思っ	-10.6906
長期的に	-10.6909
設	-10.691
排出量	-10.6912
っており	-10.6914
一般相対性理論	-10.6915
迅速な	-10.6915
庫	-10.6915
遅延	-10.6915
浴	-10.6915
チャンピオン	-10.6915
ユダヤ人	-10.6915
晩	-10.6915
アイルランド	-10.6915
考慮事項	-10.6915
テレビ番組	-10.6915
正当化	-10.6915
の仕組み	-10.6915
レンダリング	-10.6915
hello	-10.6915
色合い	-10.6915
遊ぶ	-10.6916
同等	-10.6916
を殺す	-10.6917
SSD	-10.6917
受け取った	-10.6917
首相	-10.6917
シャワー	-10.6918
上司	-10.6919
動機付け	-10.692
金額	-10.6921
ブログ	-10.6921
path	-10.6922
ことに気づきました	-10.6924
ove	-10.6925
に保存され	-10.6928
日本語	-10.6929
を改善するのに役立ちます	-10.6931
によるものです	-10.6932
それらのいくつか	-10.6937
天国	-10.6942
を使い	-10.6943
を送る	-10.6946
を生成できます	-10.6947
ピンク	-10.6953
大量のデータ	-10.6974
ための鍵	-10.6993
次のとおりです	-10.701
を強調する	-10.7022
を修正する	-10.7043
民族	-10.7058
たりすること	-10.7062
甘	-10.7072
質問がある場合は	-10.7077
程	-10.7084
件	-10.7086
誘	-10.7086
四	-10.7087
本質的に	-10.7087
目を覚まし	-10.7087
を取り除き	-10.7088
顕著な	-10.7088
ChatGPT	-10.7088
フォロワー	-10.7088
開催され	-10.7088
潮	-10.7088
コンパイラ	-10.7088
シフト	-10.7088
while	-10.7088
ディストリビューション	-10.7088
パズル	-10.7088
と信じていました	-10.7088
2〜3	-10.7088
を引き受け	-10.7088
を服用	-10.7088
ロイド	-10.7088
天然	-10.7089
演習	-10.7089
独裁	-10.7089
有限	-10.7089
牛肉	-10.709
ステージ	-10.709
せよ	-10.7091
モンスター	-10.7094
回帰	-10.7095
中断	-10.7097
テクスチャー	-10.7101
客観的な	-10.7104
ドローン	-10.7104
キャスト	-10.7109
考えられる	-10.7111
できない場合	-10.7131
ことを知って	-10.7137
を生産する	-10.7145
ベスト	-10.716
誤って	-10.7169
分け	-10.7179
date	-10.7182
の重要な部分	-10.7183
乾燥した	-10.7191
何でも	-10.72
を記述する	-10.7202
電磁	-10.7214
不安定	-10.7224
モノ	-10.7226
add	-10.7226
に連絡する	-10.723
露	-10.7231
クリーン	-10.7247
飲み	-10.7248
水平	-10.7252
脆弱	-10.7252
景	-10.7257
十	-10.726
獲	-10.7262
脅	-10.7263
LLM	-10.7263
カウンター	-10.7263
舞	-10.7263
ダイナミクス	-10.7263
宿泊施設	-10.7263
ズッキーニ	-10.7263
ユースケース	-10.7263
取り組む	-10.7263
についてどう思いますか	-10.7263
ストレッチ	-10.7263
ローマ帝国	-10.7263
スライド	-10.7263
ダイナミック	-10.7263
オムレツ	-10.7263
ナイフ	-10.7263
副作用	-10.7263
直径	-10.7263
勤	-10.7263
旗	-10.7263
リフト	-10.7263
Arch	-10.7263
という用語は	-10.7264
兵士	-10.7264
溶液	-10.7264
を作り出す	-10.7264
string	-10.7266
誰でも	-10.7266
inter	-10.7266
教会	-10.7267
レンタル	-10.7267
専門知識	-10.7272
私たちの生活	-10.7275
2013	-10.7277
連合	-10.728
2016	-10.7284
ことが重要である	-10.729
ルシア	-10.7292
lib	-10.7297
予測不可能	-10.7316
参加者	-10.7317
arch	-10.7318
を構成し	-10.7321
を操作する	-10.7323
のにも役立ち	-10.7328
init	-10.7329
興味を持っている	-10.7337
利用できます	-10.7367
存在しない	-10.737
に関与し	-10.7371
できれば	-10.7407
落ちる	-10.741
駆	-10.7439
技	-10.7441
案	-10.7441
繰り返す	-10.7441
プロモーション	-10.7441
久	-10.7441
干	-10.7441
役割を果たす	-10.7442
ソビエト	-10.7442
プロトタイプ	-10.7442
進捗状況	-10.7442
に投資し	-10.7442
ありがとうございます	-10.7442
カリフォルニア	-10.7442
GUI	-10.7442
マドリード	-10.7442
input	-10.7442
サンドイッチ	-10.7442
MySQL	-10.7442
君	-10.7442
WordPress	-10.7442
true	-10.7442
バジル	-10.7442
姿勢	-10.7442
抑圧	-10.7442
ラジオ	-10.7442
平方根	-10.7443
回避	-10.7443
不快感	-10.7443
輸入	-10.7444
を除いて	-10.7444
非難	-10.7444
両方	-10.7444
コーティング	-10.7445
連絡先	-10.7446
試してみる	-10.7447
灰色	-10.7448
毎月	-10.7454
チケット	-10.7457
心理学者	-10.7458
クローン	-10.7463
歴史を通じて	-10.7473
オープンソースプロジェクト	-10.7476
に依存するため	-10.7485
に適している	-10.7506
発生した	-10.7516
を削除し	-10.7538
++	-10.7556
眠る	-10.7569
に設定され	-10.7574
に対応し	-10.7578
環境への影響	-10.7585
Red	-10.7598
に分割し	-10.7617
献	-10.7622
ミックス	-10.7623
であっても	-10.7623
網	-10.7623
狂	-10.7623
矢印	-10.7623
マイナー	-10.7623
生息地	-10.7623
袋	-10.7623
アレックス	-10.7623
組み立て	-10.7623
抜	-10.7623
多項式	-10.7623
ó	-10.7623
ウィン	-10.7623
時間と労力	-10.7623
面白く	-10.7623
あなたが望む	-10.7623
とも呼ばれる	-10.7623
ナビゲーション	-10.7623
count	-10.7623
フィルタリング	-10.7624
獄	-10.7624
最良の方法は何ですか	-10.7624
に近づき	-10.7624
丘	-10.7624
弁護士	-10.7624
閉鎖	-10.7624
挑戦的な	-10.7624
を救う	-10.7624
階層	-10.7624
昼食	-10.7626
介入	-10.7628
ように設計され	-10.7628
団体	-10.7629
老化	-10.7629
は何でしょうか	-10.763
▁##	-10.7632
を削除する	-10.7645
を見つけてください	-10.7647
見つけた	-10.7648
を上げる	-10.765
ジェリー	-10.7652
ことができませんでした	-10.7688
犯	-10.7716
分間調理し	-10.772
磁場	-10.7725
毎週	-10.7732
に接続し	-10.7739
main	-10.7745
ように設計された	-10.7761
呼び出し	-10.7787
を分析する	-10.7787
あなたは私を	-10.7788
フォン	-10.7798
を認識する	-10.7798
を追跡し	-10.7803
遺	-10.7806
隊	-10.7808
炭	-10.7808
緩	-10.7808
奇	-10.7808
養	-10.7808
劣	-10.7808
熱力学	-10.7808
祭	-10.7809
シンプルさ	-10.7809
コンセンサス	-10.7809
酢	-10.7809
針	-10.7809
カプセル	-10.7809
キャベツ	-10.7809
セグメント	-10.7809
吹	-10.7809
できるだけ早く	-10.7809
還	-10.7809
ロンドン	-10.7809
誇張	-10.7809
策定	-10.781
そのうち	-10.7811
に接続され	-10.7811
済み	-10.7811
ことから始めます	-10.7811
全員	-10.7812
を送信し	-10.782
真空	-10.7822
2014	-10.7827
中国語	-10.783
リラックスした	-10.783
測定値	-10.7833
に与える	-10.7837
を実現する	-10.7841
触	-10.7849
を更新し	-10.785
に向けて	-10.786
訪問者	-10.786
を要求する	-10.7887
が形成され	-10.79
を作って	-10.792
として使用し	-10.7923
聴覚	-10.7941
派生	-10.7956
団	-10.799
終	-10.7993
染	-10.7995
典	-10.7997
を拒否し	-10.7997
友好的	-10.7997
太	-10.7997
フィクション	-10.7997
恐ろしい	-10.7997
唐辛子	-10.7997
í	-10.7997
スケーラビリティ	-10.7997
ソフト	-10.7997
水分補給	-10.7997
悲しい	-10.7997
を克服し	-10.7997
イデオロギー	-10.7997
マウント	-10.7997
ずっと	-10.7997
スケーラブル	-10.7997
ダイエット	-10.7997
相対性理論	-10.7998
が好きなら	-10.7998
5,000	-10.7998
寄付	-10.7998
説得	-10.7998
時速	-10.8
放射線	-10.8001
広げ	-10.8003
ことを意味し	-10.8004
Code	-10.8004
に同意し	-10.8007
ISO	-10.8007
スタック	-10.8009
かどうかを確認する	-10.8009
長距離	-10.8009
ハーブ	-10.8012
と見なすことができます	-10.8014
を減らすのに役立ちます	-10.8016
南アメリカ	-10.8022
を探索する	-10.8031
そうでない	-10.8053
を探求する	-10.8064
を参照する	-10.8074
歩き	-10.8085
を入力する	-10.8099
ことを可能にする	-10.811
に苦労し	-10.8125
が必要な場合	-10.8128
0.1	-10.8138
がかかる	-10.8165
と見なす	-10.8172
始めることができます	-10.8174
IDE	-10.8176
を監視し	-10.8181
最小限に抑え	-10.8182
因	-10.8186
港	-10.8187
岸	-10.8187
妙	-10.8189
唱	-10.8189
昨	-10.8189
滴	-10.8189
アーティファクト	-10.8189
封	-10.8189
一貫して	-10.8189
沈	-10.8189
塔	-10.8189
砕	-10.8189
ネガティブ	-10.819
数十年	-10.819
宇宙飛行士	-10.819
権威	-10.819
コンクリート	-10.819
スタッフ	-10.819
明るく	-10.819
覧	-10.819
樹	-10.819
Unity	-10.819
Amazon	-10.819
ことに留意してください	-10.819
を受賞し	-10.819
アーモンド	-10.819
手順に従ってください	-10.819
アクセシビリティ	-10.819
マイケル	-10.819
トランジスタ	-10.819
ポンプ	-10.819
を傷つけ	-10.819
幻想	-10.819
ソーセージ	-10.819
ハンバーガー	-10.819
仕様	-10.819
ために最善を尽くします	-10.819
0.5	-10.819
豆腐	-10.819
大胆	-10.819
過度に	-10.8191
可視	-10.8192
小規模	-10.8192
鋭い	-10.8193
フラッシュ	-10.8194
地区	-10.8194
平方	-10.8194
近代	-10.8197
使命	-10.8197
中毒	-10.8198
ツアー	-10.8198
であろうと	-10.8199
ジョブ	-10.82
フォント	-10.8201
それ以来	-10.8203
合意	-10.8203
を通過する	-10.8205
天体	-10.8205
人々にとって	-10.8206
▁11.	-10.8208
というフレーズ	-10.8208
を明らかにし	-10.8215
を紹介し	-10.8229
場合にのみ	-10.8237
強調	-10.8247
一人で	-10.8277
書くことができます	-10.8284
を回避する	-10.8284
を思い出させ	-10.8291
データを収集	-10.8332
があることを確認してください	-10.8343
を導き	-10.8354
を採用し	-10.8374
闘	-10.8384
に限定され	-10.8385
ゴブリン	-10.8385
綿	-10.8385
スムーズ	-10.8385
純粋な	-10.8386
ウサギ	-10.8386
ラテン語	-10.8386
かき混ぜます	-10.8386
訳	-10.8386
地平線	-10.8386
と言えます	-10.8386
アルファベット	-10.8386
ステレオタイプ	-10.8386
接着剤	-10.8386
アヒル	-10.8386
オペレーター	-10.8386
悪意のある	-10.8386
民主的な	-10.8386
以降	-10.8386
相関	-10.8386
value	-10.8387
所有権	-10.8387
頂点	-10.8387
まるで	-10.8387
抗議	-10.8387
から離れ	-10.8388
毛皮	-10.8388
ロールプレイ	-10.839
司法	-10.8391
であると主張	-10.8392
アイコン	-10.8392
光合成	-10.8398
ゲート	-10.8398
依存関係	-10.8398
ジャック	-10.8401
小惑星	-10.8401
プッシュ	-10.8406
を押して	-10.8426
例を挙げて	-10.8438
ゲームをプレイし	-10.8445
なくなり	-10.8458
起き	-10.8477
をクリックして	-10.85
ence	-10.8518
を調理する	-10.8519
に関与する	-10.8564
が存在し	-10.8575
香	-10.8578
ほ	-10.8583
虚	-10.8585
績	-10.8585
にわたる	-10.8585
欧州連合	-10.8586
鋼	-10.8586
マイナス	-10.8586
担当者	-10.8586
の助けを借りて	-10.8586
ホワイト	-10.8586
をすばやく	-10.8586
サイコロ	-10.8586
候補者	-10.8586
錆	-10.8586
ヴァン	-10.8586
基礎となる	-10.8586
シェークスピア	-10.8586
振りかけ	-10.8586
▁Studio	-10.8586
は誰でしたか	-10.8586
公共交通機関	-10.8586
お気軽にお問い合わせください	-10.8586
そんなに	-10.8586
次の手順に従う	-10.8586
柔らかくなるまで	-10.8586
頭字語	-10.8586
ユーモラス	-10.8586
関節	-10.8586
はどれくらいですか	-10.8586
前述の	-10.8586
エレガント	-10.8586
フロントエンド	-10.8586
をインポートします	-10.8586
AMD	-10.8587
古代ギリシャ	-10.8587
権限	-10.8588
を聞く	-10.8588
着陸	-10.8588
ピーマン	-10.859
摂取量	-10.859
ラベル付け	-10.8591
出版物	-10.8591
弱点	-10.8592
呼吸器	-10.8592
を設計する	-10.8592
に耐える	-10.8594
を保証し	-10.8594
手術	-10.8595
言いました	-10.8595
を可能にし	-10.8597
地球上で	-10.86
生活の質	-10.861
に置いて	-10.8614
視聴	-10.864
かを判断	-10.8654
基礎	-10.8691
open	-10.8695
new	-10.8702
を刺激する	-10.8709
を消費する	-10.8712
館	-10.8717
を比較し	-10.8743
行政	-10.8759
を解決し	-10.8765
費	-10.8769
茶	-10.8773
べ	-10.8782
株	-10.8788
財	-10.8788
防	-10.8789
察	-10.8789
免疫	-10.8789
亜	-10.8789
眼	-10.879
を尊重し	-10.879
に満ちてい	-10.879
クリエイター	-10.879
両方とも	-10.879
霧	-10.879
歪	-10.879
桁	-10.879
を探ります	-10.879
厳格な	-10.879
使いやすい	-10.879
インセンティブ	-10.879
ベトナム	-10.879
買い物	-10.879
キャンセル	-10.879
サイバーセキュリティ	-10.879
有酸素運動	-10.879
√	-10.879
銅	-10.879
伸ばし	-10.879
と確信しています	-10.879
ことは不可能です	-10.879
教義	-10.8791
高校	-10.8791
電荷	-10.8791
追放	-10.8791
▁この情報が	-10.8792
ことは可能ですか	-10.8792
期限	-10.8792
成熟	-10.8792
クレジットカード	-10.8792
バスケット	-10.8793
花粉	-10.8794
ウォーター	-10.8794
均等に	-10.8794
を表示します	-10.8796
一般的に使用される	-10.8797
を考えてください	-10.8799
学術	-10.8799
を支持する	-10.8805
を詳細に	-10.8832
を追加できます	-10.8847
に集中する	-10.8851
を起こし	-10.8866
を通過し	-10.887
なければなら	-10.8885
話をし	-10.8895
かどうかを確認します	-10.8906
に追加し	-10.8911
に関連している	-10.8922
教えてもらえます	-10.8922
キャッチ	-10.8931
ボタンをクリックし	-10.8945
質問に対する答え	-10.8962
お知らせください	-10.8974
材	-10.8994
致	-10.8994
損	-10.8995
を手伝う	-10.8996
ワールド	-10.8997
を観察し	-10.8997
撮	-10.8997
含有量	-10.8998
ブドウ	-10.8998
恥	-10.8998
アリストテレス	-10.8998
ナトリウム	-10.8998
田	-10.8998
称賛	-10.8998
嵐	-10.8998
ヘッダー	-10.8998
板	-10.8998
HTTP	-10.8998
ロボット工学	-10.8998
変圧器	-10.8998
やりがいのある	-10.8998
を取り除く	-10.8998
窒	-10.8998
Photoshop	-10.8998
均一な	-10.8998
弧	-10.8998
ユーティリティ	-10.8998
大聖堂	-10.8998
泡	-10.8998
あきらめ	-10.8998
お願いします	-10.8998
トレンド	-10.8998
á	-10.8998
ドロップ	-10.8998
ございました	-10.8998
粗	-10.8998
フィットネス	-10.8998
ウィキペディア	-10.8998
ランニング	-10.8998
健	-10.8998
やすくなります	-10.8998
森林	-10.8998
落ち着いて	-10.8998
スイカ	-10.8999
コミック	-10.8999
少女	-10.8999
Data	-10.8999
ことを理解しています	-10.9
ポーランド	-10.9
のを手伝うことができます	-10.9001
確信	-10.9001
量子コンピューティング	-10.9002
正直	-10.9003
私の名前は	-10.9003
を参照してください	-10.9004
機密	-10.9004
西部	-10.9004
広がり	-10.9005
億ドル	-10.9005
注入	-10.9006
App	-10.9006
熱帯	-10.9007
を中心に	-10.9016
ニーズと好み	-10.9017
ことができれば	-10.9024
を保持する	-10.9025
まとめ	-10.9029
政権	-10.903
楽しんでいる	-10.905
を計画する	-10.9092
に分割する	-10.9146
を開け	-10.9148
を認め	-10.9164
過度の	-10.9165
怒	-10.9187
包括的	-10.919
直線	-10.9201
婚	-10.921
蓄	-10.921
委員会	-10.9211
フットボール	-10.9211
賢明な	-10.9211
ハンガリー	-10.9211
黙示録	-10.9211
漁	-10.9211
連れて行き	-10.9211
挽	-10.9211
高性能	-10.9211
滑	-10.9211
障壁	-10.9211
批評家	-10.9211
類似点	-10.9211
ペドロ	-10.9211
鉛筆	-10.9211
炉	-10.9211
シナモン	-10.9211
いただけませんか	-10.9211
超伝導	-10.9211
Node	-10.9211
方法はいくつかあります	-10.9211
event	-10.9211
Power	-10.9211
はいくらですか	-10.9211
ワークショップ	-10.9212
経路	-10.9212
不快	-10.9212
時刻	-10.9212
並列	-10.9213
ショップ	-10.9214
を深め	-10.9214
履歴書	-10.9214
キューバ	-10.9214
Auto	-10.9215
制作	-10.9215
失業	-10.9217
をオフにし	-10.9217
屋外	-10.9217
分散型	-10.9217
量子物理学	-10.9218
left	-10.922
言われ	-10.9221
慎重	-10.924
Game	-10.9242
耐え	-10.9309
を要約し	-10.9311
ニーズを満たす	-10.9318
が生成され	-10.9319
を発見する	-10.9321
を排除する	-10.9336
多様で	-10.9357
衣	-10.9371
をチェックする	-10.9379
微生物	-10.9392
に入った	-10.9397
を組み合わせる	-10.9414
航	-10.9426
京	-10.9428
マッピング	-10.9428
防衛	-10.9428
自家製	-10.9428
子どもたち	-10.9428
何度も	-10.9428
刑務所	-10.9428
正規表現	-10.9428
に違反し	-10.9428
特殊な	-10.9428
ホラー映画	-10.9428
蓋	-10.9428
を妨げる	-10.9428
蜂蜜	-10.9428
放棄	-10.9428
信仰	-10.9428
どうもありがとう	-10.9428
故障	-10.9428
等しく	-10.9428
覚えておく	-10.9428
を築く	-10.9428
スコット	-10.9428
Intel	-10.9428
スケッチ	-10.9428
決定を下し	-10.9428
乗客	-10.9429
台湾	-10.9429
マザーボード	-10.9429
はどれですか	-10.9429
死ぬ	-10.9429
obj	-10.9429
悲劇	-10.9429
バランスの取れた食事	-10.9429
ことを保証します	-10.943
屋根	-10.943
有毒	-10.9431
陽気	-10.9431
負傷	-10.9431
聞いてください	-10.9433
ユーザーエクスペリエンス	-10.9433
ついに	-10.9434
トイレ	-10.9435
node	-10.9436
を必要としない	-10.9463
が必要とする	-10.9467
対照的に	-10.9481
と対話する	-10.9496
耐	-10.953
を刺激し	-10.953
が発生した場合	-10.9532
認	-10.957
短期	-10.9596
客観的	-10.963
為	-10.9647
査	-10.9648
偏	-10.9648
であれば	-10.9649
概	-10.965
塞	-10.965
遠く離れ	-10.965
インテリジェンス	-10.965
ジェスチャー	-10.965
ナポレオン	-10.965
ジオメトリ	-10.965
GitHub	-10.965
ワシントン	-10.965
召	-10.965
トンネル	-10.965
狭	-10.965
抽象的な	-10.965
稲妻	-10.965
時間を過ごす	-10.965
word	-10.965
宮	-10.965
審	-10.965
work	-10.9651
真ん中	-10.9651
牧	-10.9651
虹	-10.9651
見積もり	-10.9651
眠りにつく	-10.9651
緊急事態	-10.9651
デザート	-10.9651
縁	-10.9651
ことに注意する必要があります	-10.9651
チューニング	-10.9651
😊	-10.9651
生態系	-10.9651
5〜10	-10.9651
バニラ	-10.9651
見出し	-10.9651
貼り付け	-10.9651
静かな	-10.9651
出会い	-10.9651
8〜10	-10.9651
を形作る	-10.9651
胡	-10.9651
を完成させ	-10.9651
オーストリア	-10.9651
美しく	-10.9651
を買う	-10.9651
を組み合わせた	-10.9651
ウォーキング	-10.9651
東京	-10.9651
にはいくつの	-10.9652
記念	-10.9653
組成	-10.9653
が大好きです	-10.9654
周期	-10.9654
応用	-10.9655
ベクター	-10.9655
と比較し	-10.9656
仮想マシン	-10.9656
トリガー	-10.9656
ジョンソン	-10.9657
地図	-10.9658
load	-10.9658
を計算できます	-10.9659
と信じている	-10.9661
Star	-10.9671
3.5	-10.9686
を検出する	-10.9688
に興味があります	-10.9698
を検索し	-10.9708
もらえますか	-10.9712
見逃	-10.9712
を完了し	-10.9719
を殺し	-10.9753
よく混ぜ	-10.9754
かけて	-10.9769
史上最高の	-10.9808
不可能である	-10.9831
を排除し	-10.9849
革	-10.9875
写	-10.9876
エントロピー	-10.9877
に起因する	-10.9877
責任を負い	-10.9877
を終わらせ	-10.9877
一時的な	-10.9877
感受性	-10.9877
ことは注目に値します	-10.9878
イラスト	-10.9878
誠実さ	-10.9878
ゾンビ	-10.9878
かどうかを判断する	-10.9878
類似性	-10.9878
枠組み	-10.9878
至	-10.9878
出発点	-10.9878
サードパーティ	-10.9878
レクリエーション	-10.9878
そうすれば	-10.9878
泥	-10.9878
Django	-10.9878
金色になるまで	-10.9878
アスリート	-10.9878
Blender	-10.9878
false	-10.9878
を抽出し	-10.9878
bash	-10.9878
ブロッコリー	-10.9878
データサイエンス	-10.9878
合併症	-10.9878
ネックレス	-10.9878
SSH	-10.9878
SEO	-10.9878
絶滅	-10.9878
チューリングマシン	-10.9878
探査	-10.9879
改良	-10.9879
臓器	-10.9879
際立っ	-10.9879
グルテン	-10.988
にすぎません	-10.988
ことを目的としています	-10.988
競合	-10.988
を紹介する	-10.988
ルイス	-10.988
反省	-10.9882
土星	-10.9883
にアクセスできます	-10.9892
を制限し	-10.9915
豊かで	-10.9916
取られ	-10.9955
認められ	-10.9957
を実施する	-10.9971
自宅	-10.9996
にアクセスできるように	-11.0022
を経験する	-11.0056
を許可し	-11.0065
障害のある人	-11.0084
キュー	-11.0101
輸	-11.0107
述	-11.0108
亡	-11.0109
盲	-11.011
第一次世界大戦	-11.011
考古学	-11.011
を念頭に置いて	-11.011
把	-11.011
ショッピング	-11.011
踊	-11.011
見事な	-11.011
バレンシア	-11.011
ソクラテス	-11.011
まず第一に	-11.011
エクアドル	-11.011
魔法使い	-11.011
使いやすさ	-11.011
アカデミー	-11.011
吐	-11.011
陰	-11.011
不要な	-11.011
襲	-11.011
一生懸命	-11.011
亡くなりました	-11.011
ベストプラクティス	-11.011
リラクゼーション	-11.011
の台頭	-11.011
ペーパー	-11.011
ピラミッド	-11.011
を検討でき	-11.011
ことを恐れないでください	-11.011
フランチャイズ	-11.011
マッシュルーム	-11.011
を読んだり	-11.011
木製の	-11.011
index	-11.011
堅実な	-11.011
によって異なる場合がある	-11.011
を運ぶ	-11.011
コンサート	-11.011
パラダイム	-11.011
オーケストラ	-11.011
Enter	-11.0111
pepper	-11.0111
NFT	-11.0111
免疫系	-11.0111
はたくさんあります	-11.0111
駐車	-11.0111
男の子	-11.0111
技術の進歩	-11.0111
コーヒーメーカー	-11.0114
を置き換える	-11.0114
和音	-11.0115
たくありません	-11.0116
について考える	-11.0117
理解しやすい	-11.0121
に変える	-11.0121
費やし	-11.0127
から保護する	-11.0161
を提示し	-11.0178
呼び出す	-11.0186
を得て	-11.0231
を計算し	-11.0236
以	-11.0313
薄	-11.0332
コンピュータ	-11.0338
同盟	-11.034
臓	-11.0344
閉	-11.0347
警	-11.0348
領	-11.0348
湾	-11.0348
コントローラー	-11.0348
腫	-11.0348
超自然的な	-11.0348
塊	-11.0348
鎖	-11.0348
Covid	-11.0348
入り口	-11.0348
むしろ	-11.0348
キノコ	-11.0348
漢方薬	-11.0348
暴露	-11.0348
に従事し	-11.0348
霊	-11.0348
歓迎	-11.0348
カリキュラム	-11.0348
Kubernetes	-11.0348
競合他社	-11.0348
マニュアル	-11.0348
によって生成される	-11.0348
天然資源	-11.0348
柱	-11.0348
計画を立て	-11.0348
汎用性	-11.0348
アドベンチャー	-11.0348
を担当し	-11.0348
をご覧ください	-11.0348
サークル	-11.0348
NASA	-11.0349
憎しみ	-11.0349
生態学的	-11.0349
急速に	-11.0349
を拡大する	-11.0349
example	-11.0349
result	-11.0349
負担	-11.0349
昔々	-11.0349
瓶	-11.0349
txt	-11.0349
unning	-11.0349
選ばれ	-11.0349
仕上げ	-11.0349
圧倒され	-11.0349
最悪の	-11.035
を作成および	-11.035
グルコース	-11.0351
空港	-11.0352
に含まれる	-11.0352
に住んでいます	-11.0352
を吸収し	-11.036
を採用する	-11.0365
になって	-11.0376
を開始できます	-11.0396
注意を払って	-11.042
乾燥させ	-11.043
に名前を付け	-11.0462
を消費し	-11.0467
をテストする	-11.0508
不可欠	-11.0525
準備をし	-11.0535
を最適化し	-11.0547
によって引き起こされ	-11.0568
執	-11.0574
時間をかけて	-11.0575
洗練	-11.058
暴	-11.0585
称	-11.0591
当社の	-11.0592
イライラ	-11.0592
ぼやけ	-11.0592
ギフト	-11.0592
火災	-11.0592
コントラスト	-11.0592
と仮定すると	-11.0592
説得力のある	-11.0592
敗北	-11.0592
畳み込み	-11.0592
フェスティバル	-11.0592
スペクトル	-11.0592
イスラム教	-11.0592
重大な	-11.0592
微分方程式	-11.0592
System	-11.0592
お元気ですか	-11.0592
フーリエ	-11.0592
ソーラーパネル	-11.0592
浸透	-11.0592
ブエノスアイレス	-11.0592
奉仕	-11.0592
と言われています	-11.0592
腎臓	-11.0593
AGI	-11.0593
観客	-11.0593
GNU	-11.0593
で満たされた	-11.0593
を築き	-11.0593
命題	-11.0594
団結	-11.0594
退職	-11.0594
減算	-11.0594
タブレット	-11.0594
肥料	-11.0595
type	-11.0595
クラッチ	-11.0598
試してみ	-11.06
を破壊する	-11.0601
他に質問がある場合	-11.0602
に言及し	-11.0609
急いで	-11.0638
密接に	-11.066
をテストし	-11.0664
▁---------	-11.0696
に備え	-11.0703
ある種の	-11.0707
を回避し	-11.072
を接続する	-11.0758
に追加され	-11.0762
に分割され	-11.0794
合理的	-11.0822
巻	-11.0831
貸	-11.0842
優位性	-11.0842
北朝鮮	-11.0842
発電所	-11.0842
バリアント	-11.0842
鹿	-11.0842
鎧	-11.0842
ジュリア	-11.0842
因数分解	-11.0842
物議を醸す	-11.0842
を尊重する	-11.0842
挑戦的で	-11.0842
気を散らす	-11.0842
乗組員	-11.0842
電子レンジ	-11.0842
太平洋	-11.0842
の創設者	-11.0842
コンセプト	-11.0842
皆	-11.0842
を演奏する	-11.0842
抑制	-11.0842
すみません	-11.0842
政党	-11.0842
ロバート	-11.0842
,000,000	-11.0842
Reddit	-11.0843
いくら	-11.0843
虚偽	-11.0843
優れています	-11.0843
天候	-11.0843
マイクロコントローラー	-11.0843
テスラ	-11.0843
なくても	-11.0843
国立公園	-11.0843
防止	-11.0843
グラフェン	-11.0844
と見なし	-11.0844
ワールドカップ	-11.0844
TCP	-11.0844
ワークフロー	-11.0844
時間がかかります	-11.0845
推進	-11.0845
演じ	-11.0848
ーニング	-11.0852
どうすればよいですか	-11.0864
eck	-11.0875
押	-11.0876
ていなかった	-11.0909
を観察する	-11.0916
を起動し	-11.0992
を参照し	-11.0996
を支配し	-11.1006
つもり	-11.1015
満たし	-11.1024
軽減	-11.1036
ユニーク	-11.1043
を調査する	-11.1061
刻	-11.1096
却	-11.1097
姿	-11.1098
腐	-11.1098
診	-11.1098
池	-11.1098
副	-11.1098
手がかり	-11.1098
パイナップル	-11.1098
を和らげ	-11.1099
既	-11.1099
アレクサンダー	-11.1099
を反映する	-11.1099
棒	-11.1099
雨が降	-11.1099
を抽出する	-11.1099
満足のいく	-11.1099
お金を稼ぐ	-11.1099
婦	-11.1099
著名な	-11.1099
に特化した	-11.1099
抗生物質	-11.1099
明るさ	-11.1099
長年にわたって	-11.1099
セックス	-11.1099
ボリビア	-11.1099
被	-11.1099
オープニング	-11.1099
疑わしい	-11.1099
駅	-11.1099
落胆	-11.1099
腺	-11.1099
×	-11.1099
ε	-11.1102
競	-11.1359
停	-11.1361
雄	-11.1362
谷	-11.1362
符	-11.1362
餌	-11.1362
麺	-11.1362
済	-11.1628
故	-11.1631
汎	-11.1632
幹	-11.1632
芽	-11.1632
姓	-11.1632
陽	-11.1906
恩	-11.191
尿	-11.191
冠	-11.191
猟	-11.191
雷	-11.191
ü	-11.191
絆	-11.191
麦	-11.191
茎	-11.191
孔	-11.191
棚	-11.191
沢	-11.191
α	-11.1911
黙	-11.2195
授	-11.2195
翌	-11.2195
暦	-11.2195
荒	-11.2195
湯	-11.2196
涼	-11.2196
ョ	-11.2438
題	-11.2487
圏	-11.2489
啓	-11.2489
免	-11.249
ö	-11.249
梱	-11.249
肝	-11.249
始	-11.2672
激	-11.2792
居	-11.2792
弓	-11.2792
鎮	-11.2793
掘	-11.2793
辛	-11.2793
令	-11.3087
仕	-11.3103
抑	-11.3104
忍	-11.3105
灯	-11.3105
鼓	-11.3105
幕	-11.3105
矢	-11.3105
卓	-11.3105
杖	-11.3105
乾	-11.3105
句	-11.3105
飢	-11.3105
丁	-11.3105
→	-11.3105
滝	-11.3106
ô	-11.3106
ι	-11.3107
友	-11.3343
則	-11.3423
階	-11.3426
絡	-11.3427
林	-11.3427
債	-11.3427
捉	-11.3427
仏	-11.3428
猿	-11.3428
煮	-11.3428
旧	-11.3428
紋	-11.3428
墓	-11.3428
快	-11.3756
客	-11.376
蝶	-11.3761
隅	-11.3761
河	-11.3761
喉	-11.3761
悩	-11.3761
冊	-11.3761
鉛	-11.3761
ο	-11.3765
若	-11.4079
頂	-11.4105
透	-11.4105
賛	-11.4106
擦	-11.4106
胎	-11.4106
幻	-11.4106
赦	-11.4106
尽	-11.4106
拘	-11.4106
è	-11.4106
途	-11.446
録	-11.446
訪	-11.4461
将	-11.4462
僚	-11.4462
胞	-11.4462
剃	-11.4462
盤	-11.4462
芸	-11.4463
辱	-11.4463
玉	-11.4463
腰	-11.4463
髄	-11.4463
嘆	-11.4463
伏	-11.4463
僕	-11.4463
汗	-11.4463
策	-11.4827
盟	-11.4833
斑	-11.4833
迎	-11.4833
丈	-11.4833
甲	-11.4833
該	-11.4833
畑	-11.4834
ú	-11.4834
φ	-11.4834
練	-11.5217
滞	-11.5217
淡	-11.5218
剥	-11.5218
預	-11.5218
±	-11.5218
⠀	-11.5219
段	-11.5614
宅	-11.5616
伸	-11.5616
縛	-11.5617
陶	-11.5618
痕	-11.5618
搭	-11.5618
τ	-11.5621
遅	-11.5984
灰	-11.602
軟	-11.6034
吉	-11.6035
彩	-11.6035
糸	-11.6035
壮	-11.6035
涙	-11.6035
σ	-11.6036
恐	-11.6393
候	-11.6466
操	-11.6466
析	-11.6467
ぬ	-11.6467
門	-11.6467
雌	-11.6469
禁	-11.6469
織	-11.6469
宗	-11.6469
砲	-11.6469
旋	-11.6469
惨	-11.6469
冒	-11.6469
顕	-11.647
妖	-11.647
桃	-11.647
宝	-11.6919
志	-11.6923
邸	-11.6923
棄	-11.6924
菜	-11.6924
机	-11.6924
艦	-11.6924
謀	-11.6924
蜂	-11.6924
募	-11.6924
譲	-11.6924
怠	-11.6924
盆	-11.6924
泉	-11.6924
唾	-11.6924
枠	-11.6924
苗	-11.6924
填	-11.6925
採	-11.7397
争	-11.7397
益	-11.7398
索	-11.7399
償	-11.7399
藻	-11.74
堂	-11.74
～	-11.74
浅	-11.74
噂	-11.74
傘	-11.74
θ	-11.7401
竜	-11.7401
μ	-11.7403
仲	-11.789
磁	-11.7893
洋	-11.7898
築	-11.7898
敏	-11.7898
施	-11.7898
摂	-11.7899
松	-11.79
脂	-11.79
紅	-11.79
膝	-11.79
ヶ	-11.79
畳	-11.79
€	-11.79
∫	-11.79
️	-11.79
敷	-11.79
扁	-11.79
態	-11.8415
瘍	-11.8426
販	-11.8426
漂	-11.8427
拭	-11.8427
泊	-11.8427
七	-11.8427
∀	-11.8427
ν	-11.8428
避	-11.8944
患	-11.8973
展	-11.8976
談	-11.8982
逸	-11.8982
架	-11.8982
兆	-11.8982
筒	-11.8982
奥	-11.8982
拳	-11.8982
枕	-11.8982
椎	-11.8982
∈	-11.8982
蚊	-11.8982
ω	-11.8982
枢	-11.8983
歴	-11.9388
担	-11.9569
威	-11.9569
印	-11.957
柔	-11.957
兄	-11.957
履	-11.957
遂	-11.9571
顎	-11.9571
疎	-11.9571
垂	-12.0122
英	-12.017
校	-12.0189
瞬	-12.0191
盛	-12.0195
咳	-12.0195
賄	-12.0195
渦	-12.0195
霜	-12.0195
遣	-12.0195
揃	-12.0195
憂	-12.0195
剛	-12.0196
÷	-12.0196
ρ	-12.0199
爆	-12.0858
御	-12.0861
季	-12.0861
蜜	-12.0861
潤	-12.0862
闇	-12.0862
庁	-12.0862
凸	-12.0862
捜	-12.0862
贅	-12.0862
勃	-12.0862
六	-12.0862
託	-12.0862
廊	-12.0862
懲	-12.0862
峡	-12.0862
–	-12.0862
郭	-12.0862
兼	-12.0862
削	-12.1575
攻	-12.1575
承	-12.1576
宿	-12.1576
券	-12.1576
拍	-12.1576
ñ	-12.1577
喜	-12.2084
効	-12.2341
殿	-12.2346
我	-12.2346
締	-12.3156
鋭	-12.3163
彫	-12.3179
憎	-12.3179
往	-12.3179
•	-12.3828
研	-12.4088
誌	-12.4088
盾	-12.4088
弟	-12.4088
勧	-12.5056
衛	-12.5082
障	-12.5086
紀	-12.5086
徴	-12.5087
懸	-12.5087
汚	-12.5929
肢	-12.6197
危	-12.6198
昔	-12.6199
係	-12.7443
胆	-12.7444
憲	-12.7446
駐	-12.7447
博	-12.7448
歓	-12.7448
批	-12.7449
政	-12.8872
径	-12.8876
焦	-12.8876
敗	-12.8876
崩	-12.8877
腎	-12.8877
ぜ	-13.0524
揚	-13.0543
飽	-13.0544
顧	-13.0544
ぽ	-13.0545
怪	-13.0545
掛	-13.2509
尺	-13.2541
帽	-13.2542
脆	-13.2543
剰	-13.2544
眉	-13.2544
贈	-13.2544
稿	-13.2544
疫	-13.2544
疾	-13.2545
署	-13.5042
睡	-13.5044
険	-13.5044
督	-13.5046
稲	-13.8377
漢	-13.8378
供	-14.3373
構	-14.3375
礎	-14.3377
錬	-14.3377
遷	-14.3377
憩	-14.3378
緻	-15.2943
朴	-15.2944
曇	-15.2945
叢	-15.2946
些	-15.2947
賑	-15.2948
《	-15.2949
隆	-15.295
錐	-15.2951
轄	-15.2952
薦	-15.2953
粧	-15.2954
憧	-15.2955
囚	-15.2956
吊	-15.2957
傍	-15.2958
茂	-15.2959
硝	-15.296
沃	-15.2961
惹	-15.2962
叙	-15.2963
醒	-15.2964
脇	-15.2965
泌	-15.2966
栓	-15.2967
銭	-15.2968
姉	-15.2969
ぴ	-15.297
銘	-15.2971
豪	-15.2972
痢	-15.2973
岐	-15.2974
嗅	-15.2975
呈	-15.2976
痺	-15.2977
渋	-15.2978
媚	-15.2979
厄	-15.298
‐	-15.2981
鬱	-15.2982
洪	-15.2983
枯	-15.2984
彗	-15.2985
馴	-15.2986
逮	-15.2987
肖	-15.2988
灌	-15.2989
漬	-15.299
漑	-15.2991
阻	-15.2992
貪	-15.2993
謙	-15.2994
眺	-15.2995
攪	-15.2996
拌	-15.2997
醤	-15.2998
躍	-15.2999
躊	-15.3
躇	-15.3001
忙	-15.3002
呂	-15.3003
享	-15.3004
羅	-15.3005
紳	-15.3006
澱	-15.3007
慈	-15.3008
宛	-15.3009
韓	-15.301
雅	-15.3011
玄	-15.3012
娯	-15.3013
郷	-15.3014
舎	-15.3015
箇	-15.3016
看	-15.3017
崇	-15.3018
寧	-15.3019
嘔	-15.302
▄	-15.3021
訟	-15.3022
播	-15.3023
亀	-15.3024
⁄	-15.3025
跳	-15.3026
硫	-15.3027
喚	-15.3028
鹸	-15.3029
掲	-15.303
匿	-15.3031
剖	-15.3032
腔	-15.3033
綴	-15.3034
畜	-15.3035
慰	-15.3036
剪	-15.3037
祉	-15.3038
漸	-15.3039
暮	-15.304
脊	-15.3041
籍	-15.3042
撤	-15.3043
詫	-15.3044
搾	-15.3045
巧	-15.3046
拝	-15.3047
郵	-15.3048
遵	-15.3049
舗	-15.305
碑	-15.3051
恒	-15.3052
哺	-15.3053
騎	-15.3054
誓	-15.3055
擬	-15.3056
菓	-15.3057
叔	-15.3058
鋳	-15.3059
嬉	-15.306
曝	-15.3061
貼	-15.3062
衡	-15.3063
臨	-15.3064
磨	-15.3065
妥	-15.3066
濡	-15.3067
傑	-15.3068
▀	-15.3069
耗	-15.307
曖	-15.3071
昧	-15.3072
揮	-15.3073
閲	-15.3074
涯	-15.3075
戒	-15.3076
偵	-15.3077
須	-15.3078
酷	-15.3079
敢	-15.308
珍	-15.3081
楕	-15.3082
賊	-15.3083
噛	-15.3084
濯	-15.3085
椅	-15.3086
渇	-15.3087
悔	-15.3088
届	-15.3089
噴	-15.309
醸	-15.3091
寛	-15.3092
娠	-15.3093
裕	-15.3094
衰	-15.3095
絞	-15.3096
牢	-15.3097
懐	-15.3098
⠛	-15.3099
誉	-15.31
唐	-15.3101
叩	-15.3102
摩	-15.3103
隷	-15.3104
摘	-15.3105
暇	-15.3106
捨	-15.3107
釣	-15.3108
詐	-15.3109
泣	-15.311
窟	-15.3111
捧	-15.3112
控	-15.3113
倣	-15.3114
俳	-15.3115
癒	-15.3116
漠	-15.3117
挨	-15.3118
拶	-15.3119
堆	-15.312
虐	-15.3121
穫	-15.3122
幾	-15.3123
喪	-15.3124
駄	-15.3125
酔	-15.3126
房	-15.3127
委	-15.3128
稼	-15.3129
漏	-15.313
誕	-15.3131
狩	-15.3132
殊	-15.3133
徹	-15.3134
匂	-15.3135
趣	-15.3136
寸	-15.3137
膚	-15.3138
招	-15.3139
祈	-15.314
叫	-15.3141
偶	-15.3142
併	-15.3143
貿	-15.3144
捗	-15.3145
遭	-15.3146
秩	-15.3147
卒	-15.3148
遇	-15.3149
穏	-15.315
頑	-15.3151
晶	-15.3152
賃	-15.3153
濃	-15.3154
欧	-15.3155
昆	-15.3156
即	-15.3157
浄	-15.3158
勾	-15.3159
征	-15.316
井	-15.3161
擁	-15.3162
弁	-15.3163
飯	-15.3164
騰	-15.3165
漫	-15.3166
陥	-15.3167
粋	-15.3168
循	-15.3169
肯	-15.317
ぱ	-15.3171
挿	-15.3172
忠	-15.3173
才	-15.3174
繊	-15.3175
矛	-15.3176
犠	-15.3177
牲	-15.3178
炒	-15.3179
催	-15.318
掃	-15.3181
貯	-15.3182
奮	-15.3183
飼	-15.3184
彙	-15.3185
諸	-15.3186
媒	-15.3187
妨	-15.3188
雰	-15.3189
偉	-15.319
殖	-15.3191
膨	-15.3192
壌	-15.3193
祖	-15.3194
邪	-15.3195
誠	-15.3196
営	-15.3197
渉	-15.3198
疲	-15.3199
恵	-15.32
勇	-15.3201
徐	-15.3202
沿	-15.3203
徒	-15.3204
ゥ	-15.3205
寿	-15.3206
辞	-15.3207
詰	-15.3208
栽	-15.3209
拒	-15.321
需	-15.3211
酵	-15.3212
璧	-15.3213
酬	-15.3214
遍	-15.3215
邦	-15.3216
孤	-15.3217
貧	-15.3218
百	-15.3219
占	-15.322
潔	-15.3221
括	-15.3222
震	-15.3223
巨	-15.3224
輝	-15.3225
培	-15.3226
克	-15.3227
越	-15.3228
呪	-15.3229
冗	-15.323
契	-15.3231
衝	-15.3232
蒸	-15.3233
励	-15.3234
添	-15.3235
瞑	-15.3236
講	-15.3237
衆	-15.3238
奏	-15.3239
唯	-15.324
肪	-15.3241
措	-15.3242
貴	-15.3243
如	-15.3244
希	-15.3245
覆	-15.3246
院	-15.3247
燥	-15.3248
侵	-15.3249
夕	-15.325
唆	-15.3251
軌	-15.3252
勉	-15.3253
午	-15.3254
抵	-15.3255
貨	-15.3256
紛	-15.3257
序	-15.3258
央	-15.3259
驚	-15.326
伴	-15.3261
描	-15.3262
怖	-15.3263
宣	-15.3264
迅	-15.3265
抽	-15.3266
践	-15.3267
暖	-15.3268
努	-15.3269
貫	-15.327
憶	-15.3271
曜	-15.3272
尊	-15.3273
帝	-15.3274
挑	-15.3275
ゃ	-15.3276
齢	-15.3277
普	-15.3278
融	-15.3279
雇	-15.328
振	-15.3281
頻	-15.3282
翻	-15.3283
釈	-15.3284
登	-15.3285
繁	-15.3286
申	-15.3287
徳	-15.3288
謝	-15.3289
緊	-15.329
休	-15.3291
己	-15.3292
栄	-15.3293
慣	-15.3294
訓	-15.3295
替	-15.3296
背	-15.3297
晴	-15.3298
似	-15.3299
距	-15.33
繰	-15.3301
紹	-15.3302
府	-15.3303
討	-15.3304
忘	-15.3305
律	-15.3306
魅	-15.3307
尋	-15.3308
責	-15.3309
援	-15.331
貢	-15.3311
購	-15.3312
監	-15.3313
功	-15.3314
師	-15.3315
壊	-15.3316
待	-15.3317
械	-15.3318
容	-15.3319
奨	-15.332
範	-15.3321
哲	-15.3322
ぞ	-15.3323
労	-15.3324
魔	-15.3325
頼	-15.3326
仮	-15.3327
建	-15.3328
拡	-15.3329
較	-15.333
緒	-15.3331
植	-15.3332
囲	-15.3333
働	-15.3334
込	-15.3335
療	-15.3336
評	-15.3337
況	-15.3338
医	-15.3339
慮	-15.334
宇	-15.3341
交	-15.3342
詳	-15.3343
投	-15.3344
返	-15.3345
温	-15.3346
互	-15.3347
康	-15.3348
専	-15.3349
映	-15.335
域	-15.3351
依	-15.3352
工	-15.3353
資	-15.3354
ょ	-15.3355
呼	-15.3356
換	-15.3357
由	-15.3358
更	-15.3359
標	-15.336
違	-15.3361
究	-15.3362
完	-15.3363
験	-15.3364
づ	-15.3365
達	-15.3366
複	-15.3367
答	-15.3368
識	-15.3369
筆	-15.337
思	-15.337
穀	-15.337
般	-15.3371
続	-15.3372
ァ	-15.3373
考	-15.3374
ォ	-15.3375
慎	-15.3375
災	-15.3375
必	-15.3376
ェ	-15.3377
倫	-15.3377
仰	-15.3377
択	-15.3378
ュ	-15.3378
幽	-15.3378
奉	-15.3378
企	-15.3378
刷	-15.3378
宙	-15.3378
而	-15.3378
鬼	-15.3378
ィ	-15.3379
喫	-15.3379
