<pad>	0
<unk>	0
<s>	0
</s>	0
<USER>	0
<ASSISTANT>	0
<SYSTEM>	0
、	-2.74854
の	-2.95464
。	-3.23452
▁	-3.66459
は	-4.00404
:	-4.05384
を	-4.29517
と	-4.3813
に	-4.5402
が	-4.56826
で	-4.87736
▁User	-5.28936
▁Assistant	-5.29105
?	-5.33981
です	-5.38452
(	-5.58089
)	-5.6331
▁-	-5.64859
し	-5.68754
ます	-5.71877
や	-5.7777
する	-5.84426
か	-5.89359
」	-5.91271
または	-6.03244
から	-6.09194
1	-6.1073
な	-6.18581
2	-6.19506
この	-6.23125
します	-6.24039
「	-6.27028
て	-6.32165
には	-6.34659
ス	-6.35706
・	-6.44553
であり	-6.44825
る	-6.44955
い	-6.47294
.	-6.47438
3	-6.56191
ました	-6.6125
など	-6.62907
ために	-6.62964
があります	-6.63037
これは	-6.6528
された	-6.66574
s	-6.67552
-	-6.68407
!	-6.69002
私は	-6.70243
および	-6.70843
として	-6.72714
ル	-6.72762
その	-6.72863
た	-6.78989
を使用して	-6.79174
つの	-6.79468
などの	-6.79717
あなたの	-6.80207
的な	-6.81214
した	-6.813
く	-6.82132
ト	-6.83895
である	-6.84356
して	-6.87638
a	-6.93606
人	-6.93652
も	-6.93699
多くの	-6.95478
ことができます	-6.96453
より	-6.96888
他の	-6.97889
ク	-6.99007
これらの	-6.9903
▁1.	-6.99848
では	-7.00275
こと	-7.00819
5	-7.00957
ア	-7.01199
方法	-7.01567
C	-7.01723
年	-7.02241
いくつかの	-7.02412
S	-7.03126
ラ	-7.03565
4	-7.03619
もの	-7.05122
ています	-7.0654
さまざまな	-7.07524
それは	-7.07575
/	-7.08778
リ	-7.09588
▁*	-7.09679
できます	-7.09802
y	-7.11268
▁2.	-7.11434
ド	-7.12004
性	-7.12527
によって	-7.13708
▁3.	-7.13974
特定の	-7.14921
彼の	-7.14978
新しい	-7.1511
り	-7.15529
について	-7.15789
すべての	-7.16392
者	-7.16439
時間	-7.17233
日	-7.18399
彼は	-7.18817
マ	-7.19928
できる	-7.19958
D	-7.20827
システム	-7.20838
o	-7.21985
ている	-7.22002
水	-7.23087
ー	-7.23734
▁=	-7.24166
x	-7.25259
問題	-7.2546
力	-7.26055
あなたが	-7.26184
e	-7.26614
され	-7.2687
P	-7.27679
イ	-7.27943
データ	-7.29059
n	-7.29886
ロ	-7.30601
A	-7.30932
数	-7.31175
ゲーム	-7.31647
私の	-7.3222
言語	-7.33147
は何ですか	-7.33644
▁4.	-7.3461
それ	-7.35747
i	-7.35788
_	-7.36964
ン	-7.37713
への	-7.37846
そして	-7.38505
必要があります	-7.38852
u	-7.39044
M	-7.39282
つ	-7.39323
b	-7.39436
機能	-7.39752
t	-7.40084
情報	-7.40467
的	-7.40675
AI	-7.41372
コード	-7.41662
さらに	-7.43087
ため	-7.43097
d	-7.43461
場合	-7.43902
モデル	-7.44101
月	-7.44736
レ	-7.45469
カ	-7.45563
ための	-7.46275
また	-7.46325
]	-7.46698
非常に	-7.47405
フ	-7.47788
体	-7.48158
たとえば	-7.48411
てください	-7.48511
7	-7.491
g	-7.49176
彼らは	-7.50111
r	-7.50289
最も	-7.5057
シ	-7.50788
される	-7.51225
R	-7.51691
のために	-7.5194
国	-7.53069
コ	-7.53417
ナ	-7.53633
プロセス	-7.54023
アプリケーション	-7.54243
関数	-7.54322
p	-7.5468
しています	-7.55103
各	-7.55496
している	-7.55545
er	-7.55829
あなたは	-7.56607
本	-7.56662
6	-7.56811
ム	-7.56921
c	-7.56947
す	-7.57001
▁「	-7.57101
▁5.	-7.5802
ことを	-7.5808
世界	-7.58482
エ	-7.59336
き	-7.59346
タ	-7.6047
しました	-7.60947
されます	-7.61481
しかし	-7.61866
化	-7.62147
B	-7.62219
L	-7.62234
ウ	-7.62394
テキスト	-7.62945
に関する	-7.62972
よりも	-7.63695
ように	-7.63961
8	-7.64353
説明	-7.65405
10	-7.65891
オ	-7.66733
大	-7.68355
9	-7.68836
T	-7.68949
れ	-7.68997
不	-7.69215
O	-7.69276
異なる	-7.69454
でした	-7.69597
重要な	-7.70112
ですか	-7.70367
I	-7.705
F	-7.70781
リー	-7.7083
ミ	-7.70834
チ	-7.70925
後	-7.71453
デ	-7.71605
▁この	-7.71967
ことができる	-7.72182
するために	-7.72547
E	-7.72907
、「	-7.73364
は次のとおりです	-7.73523
ない	-7.73657
グ	-7.73817
バ	-7.74045
という	-7.74216
ブ	-7.74439
がある	-7.74934
ただ	-7.75054
を含む	-7.76001
G	-7.76021
オブジェクト	-7.76182
まで	-7.76345
ニ	-7.77022
め	-7.77102
う	-7.77362
さ	-7.77423
場所	-7.7834
最初の	-7.78583
があり	-7.78655
f	-7.78923
プロジェクト	-7.78939
家	-7.78953
出	-7.79606
使用	-7.79802
ことは	-7.79888
質問	-7.80173
ファイル	-7.80242
光	-7.80378
サ	-7.80871
k	-7.81061
してください	-7.81488
プログラム	-7.8191
理解	-7.821
されている	-7.82542
学習	-7.83144
in	-7.83187
コンピューター	-7.83274
されています	-7.83298
色	-7.83431
スト	-7.84026
行動	-7.84382
したがって	-7.84648
社会	-7.84831
Web	-7.85146
開発	-7.85633
ズ	-7.85754
エネルギー	-7.85905
ら	-7.86386
み	-7.8646
l	-7.86578
約	-7.86636
結果	-7.86892
値	-7.87038
研究	-7.87106
次の	-7.87867
ダ	-7.88743
学	-7.88779
▁私は	-7.88848
画像	-7.88907
お	-7.88925
それを	-7.89099
能力	-7.89305
リスト	-7.89391
することができます	-7.89477
手	-7.90466
ッ	-7.91067
N	-7.91732
たり	-7.91782
re	-7.92101
行	-7.92406
技術	-7.92531
経験	-7.92597
V	-7.92707
に対する	-7.92707
度	-7.93381
構造	-7.93393
例	-7.93507
一	-7.936
関係	-7.93606
ツール	-7.93667
金	-7.93721
ar	-7.93767
発	-7.93968
気	-7.94115
テ	-7.94497
かもしれません	-7.94927
キ	-7.95182
による	-7.95273
った	-7.95702
を提供する	-7.95783
ジ	-7.95788
サービス	-7.95876
X	-7.95876
人の	-7.96473
環境	-7.96638
により	-7.96873
それが	-7.97053
生	-7.97136
人間の	-7.97253
答え	-7.97688
タスク	-7.98225
仕事	-7.98235
目	-7.98251
ディ	-7.98416
v	-7.98426
中	-7.98452
▁**	-7.99066
ており	-7.99307
良い	-7.99345
材料	-7.99494
物	-7.99524
m	-7.99614
を持つ	-7.99621
ット	-7.99701
▁+	-8.00001
"	-8.00171
彼らの	-8.00398
プ	-8.00458
20	-8.00478
場合は	-8.00556
のに役立ちます	-8.00578
トレーニング	-8.00642
前に	-8.00733
前	-8.00784
的に	-8.01026
h	-8.01115
ネ	-8.01146
小さな	-8.01588
を使用する	-8.01606
製品	-8.02061
0	-8.02399
要素	-8.02489
法	-8.03273
al	-8.03462
▁2	-8.03509
これにより	-8.0351
理論	-8.03544
ではありません	-8.03645
私たちの	-8.03929
ガ	-8.03983
イン	-8.04038
別の	-8.04038
メ	-8.04141
大きな	-8.04189
健康	-8.04582
モ	-8.04649
愛	-8.04705
人間	-8.04886
映画	-8.05049
スキル	-8.05171
可能性があります	-8.05362
って	-8.05426
目的	-8.05576
ック	-8.062
意味	-8.06248
に基づいて	-8.06821
グループ	-8.06917
▁"	-8.06949
▁`	-8.07908
心	-8.08096
オプション	-8.0823
する必要があります	-8.08255
管理	-8.08362
何	-8.08423
分	-8.09209
テクノロジー	-8.09794
地	-8.09914
U	-8.10087
一般的な	-8.10502
ま	-8.10577
む	-8.10608
ことです	-8.10929
私が	-8.10989
考え	-8.1111
ソフトウェア	-8.11207
バー	-8.11363
になる	-8.11531
私たちは	-8.11714
高	-8.11937
個人	-8.11974
[	-8.12164
アルゴリズム	-8.12197
ユーザー	-8.1228
▁6.	-8.12299
目標	-8.1268
わ	-8.12706
同じ	-8.13103
le	-8.13398
状態	-8.1423
上	-8.14294
パ	-8.14423
▁もちろん	-8.1444
知識	-8.1449
え	-8.14717
▁C	-8.14734
H	-8.14818
になります	-8.15019
変更	-8.15283
年に	-8.15461
音楽	-8.15578
が必要です	-8.16089
量	-8.16094
セ	-8.16166
Python	-8.16971
,	-8.17188
ではなく	-8.17327
人工知能	-8.17485
ティ	-8.17981
います	-8.18139
用	-8.18203
を作成する	-8.18232
キャラクター	-8.18593
回	-8.18706
▁[	-8.18821
の使用	-8.19149
を提供します	-8.19294
中に	-8.19312
〜	-8.19432
卵	-8.19574
すること	-8.19692
▁こんにちは	-8.19766
人生	-8.19793
▁1	-8.19984
理由	-8.19997
における	-8.19997
動物	-8.20022
z	-8.20082
が含まれます	-8.20212
リソース	-8.20337
ビ	-8.20601
適切な	-8.20603
け	-8.20617
常に	-8.20736
ノ	-8.20754
熱	-8.21111
私	-8.21204
分析	-8.2124
スタイル	-8.21705
ある	-8.21745
ことが重要です	-8.22118
19	-8.2312
計画	-8.23125
▁|	-8.23201
複雑な	-8.23533
にとって	-8.23978
語	-8.24476
間	-8.2456
デバイス	-8.24625
ra	-8.24695
価値	-8.24929
外	-8.24963
自分の	-8.25093
なら	-8.25168
特に	-8.25425
状況	-8.25442
太陽	-8.2551
都市	-8.25521
セット	-8.26062
基本的な	-8.2616
神	-8.26391
を持っている	-8.26458
▁これらの	-8.26496
▁S	-8.26596
のある	-8.26664
あなた	-8.26782
だ	-8.26884
子供	-8.2717
宇宙	-8.2727
すべて	-8.27288
人々	-8.27421
an	-8.27449
ポイント	-8.27783
プログラミング	-8.27819
入	-8.28522
改善	-8.28723
子	-8.28753
合	-8.28996
en	-8.29089
ビデオ	-8.29124
on	-8.29214
したり	-8.29428
ここに	-8.29658
ること	-8.29672
12	-8.29704
されました	-8.29794
;	-8.30158
文化	-8.30447
部分	-8.30551
`	-8.3074
速度	-8.30973
要因	-8.31169
経済	-8.31771
現在の	-8.31921
st	-8.31995
ステップ	-8.3232
を備えた	-8.32324
計算	-8.32506
▁``	-8.32646
コミュニティ	-8.33279
アン	-8.33314
どの	-8.33333
ピ	-8.33402
今日	-8.3351
テスト	-8.33521
を作成します	-8.33624
可能な	-8.3371
地球	-8.34127
ポ	-8.34129
ときに	-8.34211
チーム	-8.34252
'	-8.34285
非	-8.34776
条件	-8.34906
%	-8.35236
を持っています	-8.3533
自然	-8.35574
ハ	-8.35688
いる	-8.35856
どのように	-8.35862
下	-8.35877
一部の	-8.35974
選択	-8.36009
プラットフォーム	-8.36062
形	-8.36111
通常	-8.36171
道	-8.36222
処理	-8.36277
制限	-8.36412
特性	-8.36607
にある	-8.36644
空	-8.36717
いた	-8.36767
ダー	-8.36915
|	-8.37013
コンテンツ	-8.37063
存在	-8.37207
方法で	-8.37271
彼が	-8.374
ロー	-8.37415
30	-8.37637
ホ	-8.3764
を見つける	-8.37716
車	-8.37871
無	-8.37885
に応じて	-8.38051
ター	-8.38052
内	-8.38079
ゴ	-8.38115
米国	-8.38278
サイト	-8.38283
名	-8.38301
入力	-8.38478
感情	-8.38544
決定	-8.38552
他の人	-8.38666
ですが	-8.38772
注意	-8.38798
のための	-8.38911
音	-8.39249
より多くの	-8.39274
ri	-8.39319
方	-8.39354
プログラミング言語	-8.39399
猫	-8.39439
式	-8.39747
アイデア	-8.39797
サポート	-8.39863
ペ	-8.40026
はありません	-8.40076
温度	-8.40127
何か	-8.40146
レベル	-8.40194
ではない	-8.40279
それら	-8.40292
▁A	-8.40429
であること	-8.40493
彼らが	-8.40548
科学	-8.40684
かどうか	-8.40931
ネットワーク	-8.40988
▁•	-8.41218
旅行	-8.41293
のみ	-8.41323
提案	-8.41331
できますか	-8.41536
K	-8.41577
とき	-8.41608
ch	-8.42246
▁3	-8.424
ボ	-8.42508
▁B	-8.4253
ro	-8.42768
成長	-8.42946
概念	-8.43023
マー	-8.43313
ていました	-8.43401
犬	-8.43467
...	-8.43468
or	-8.43789
必要な	-8.4402
生産	-8.44331
戦略	-8.44367
▁7.	-8.446
会社	-8.44644
ことをお勧めします	-8.44822
クラス	-8.45173
オンライン	-8.45198
するための	-8.45276
議論	-8.45454
始め	-8.45535
200	-8.45539
付け	-8.45804
作品	-8.45822
を教えてください	-8.46127
名前	-8.46378
彼女は	-8.46391
手順	-8.46766
生活	-8.47012
惑星	-8.47094
100	-8.47257
の一部	-8.47279
のような	-8.47286
の例	-8.47324
制御	-8.47371
実行	-8.47652
ることができます	-8.47809
つまり	-8.47866
これ	-8.47906
を作成し	-8.48035
定	-8.48044
でしょう	-8.48324
機会	-8.48607
私に	-8.48645
強力な	-8.48789
利点	-8.48985
の場合	-8.49265
ラン	-8.49307
at	-8.49434
パターン	-8.49551
可能性	-8.49622
**	-8.49721
リア	-8.49749
今	-8.498
活動	-8.49819
ファ	-8.5015
長	-8.50387
に依存します	-8.50414
感	-8.50475
海	-8.50496
全体	-8.50501
de	-8.50558
部	-8.50868
低	-8.51082
▁{	-8.51362
現在	-8.51364
教育	-8.51465
認識	-8.51582
ケ	-8.51613
どのような	-8.51699
W	-8.51846
▁そして	-8.51864
定義	-8.51875
通	-8.5195
を提供し	-8.51987
数学	-8.51997
動き	-8.52171
us	-8.52218
はありますか	-8.52276
企業	-8.52436
動	-8.52674
ツ	-8.52913
よく	-8.52934
ール	-8.53011
させる	-8.53053
のリスト	-8.53163
見	-8.53263
提供	-8.53361
は非常に	-8.53499
設計	-8.53642
ません	-8.53672
表現	-8.53732
悪	-8.54007
植物	-8.54212
リング	-8.54252
ず	-8.545
っている	-8.54587
作成	-8.54603
トピック	-8.54925
ことで	-8.55018
価格	-8.55121
なる	-8.55344
変数	-8.55453
星	-8.5578
ソ	-8.55853
自由	-8.5588
社会的	-8.56052
サーバー	-8.56243
器	-8.56668
18	-8.56923
it	-8.56985
el	-8.57057
15	-8.5715
生成	-8.5716
パフォーマンス	-8.57174
のですか	-8.57209
政府	-8.57241
▁```	-8.57279
操作	-8.57376
番目の	-8.57388
j	-8.57414
味	-8.57418
詳細	-8.57622
セキュリティ	-8.57652
戦争	-8.57654
指	-8.57657
運動	-8.57668
影響	-8.57753
地域	-8.57851
ソース	-8.57974
彼女の	-8.58105
家族	-8.58284
要約する	-8.58481
最終的に	-8.5849
友人	-8.58533
デザイン	-8.58688
位置	-8.59319
解	-8.59442
ing	-8.59523
組織	-8.59524
保護	-8.59563
J	-8.59685
どこ	-8.59738
場合があります	-8.59926
リン	-8.60194
ことが	-8.60296
私たちが	-8.60307
文字	-8.6036
単語	-8.60373
ラー	-8.6066
使用する	-8.60762
実	-8.60906
食	-8.60929
主義	-8.61006
▁P	-8.6103
la	-8.61064
分野	-8.61099
させ	-8.61159
線	-8.6118
攻撃	-8.61217
評価	-8.61252
ベ	-8.61431
を通じて	-8.61607
▁はい	-8.61612
たい	-8.61734
ライ	-8.61913
ート	-8.61987
のように	-8.624
文	-8.62455
の問題	-8.62474
にも	-8.62688
に関連する	-8.62826
キー	-8.62833
メッセージ	-8.62939
パー	-8.62943
コマンド	-8.6303
変化	-8.63097
点	-8.63115
についての	-8.63131
であるため	-8.63305
▁4	-8.63321
間の	-8.63349
する方法	-8.63478
正しい	-8.63592
パン	-8.63701
ください	-8.63719
独自の	-8.63812
死	-8.64015
w	-8.64228
詩	-8.64251
th	-8.6426
を学ぶ	-8.64283
立	-8.64399
反応	-8.64474
責任	-8.64692
オープンソース	-8.64714
曲	-8.64796
11	-8.64834
ご	-8.649
一般に	-8.64912
複数の	-8.64913
書	-8.64921
設定	-8.65083
と呼ばれる	-8.65125
アプローチ	-8.65134
を作る	-8.65227
型	-8.65349
▁M	-8.65477
▁#	-8.66181
上の	-8.66336
簡単な	-8.66346
木	-8.66474
マン	-8.66566
先	-8.66695
ページ	-8.66937
最高の	-8.6705
作業	-8.67163
▁しかし	-8.67272
カー	-8.6734
ライブラリ	-8.6738
アクセス	-8.67385
種	-8.67389
サイズ	-8.67478
ング	-8.67501
バージョン	-8.67625
構成	-8.67666
タイプ	-8.67762
源	-8.68073
女性	-8.6811
統合	-8.68295
を書く	-8.68319
可能性のある	-8.68325
内の	-8.68376
面	-8.6863
の中で	-8.68695
その他の	-8.68709
話	-8.68794
中国	-8.68798
▁私の	-8.68822
50	-8.68853
せ	-8.68866
タイ	-8.6896
側面	-8.68993
市場	-8.691
^2	-8.69123
課題	-8.69212
成功	-8.693
インストール	-8.69555
私たち	-8.69595
とは何ですか	-8.69787
質	-8.699
}	-8.69902
反	-8.70116
ol	-8.70202
の両方	-8.7021
可能性がある	-8.70459
進	-8.7048
▁これは	-8.7051
ニーズ	-8.70794
コンポーネント	-8.70845
食事	-8.70857
イベント	-8.7108
アル	-8.71169
ことを意味します	-8.71216
プロ	-8.71229
完全に	-8.71375
空気	-8.71603
方法は	-8.7163
まだ	-8.71733
ん	-8.72009
レン	-8.72128
エラー	-8.7232
を理解する	-8.72437
効果	-8.72585
のいくつか	-8.72694
ic	-8.72899
▁L	-8.72916
細胞	-8.72982
年の	-8.73185
ルール	-8.73241
これには	-8.73265
個人的な	-8.73411
塩	-8.73463
言葉	-8.7391
コン	-8.74087
es	-8.74272
違い	-8.74448
のに役立つ	-8.74498
▁T	-8.74516
ビジネス	-8.74676
波	-8.74677
接続	-8.74698
困難	-8.74713
言	-8.74746
こともできます	-8.74885
自己	-8.74918
構築	-8.74922
着	-8.74925
ドル	-8.74958
代わりに	-8.75166
を使用します	-8.75239
コスト	-8.75295
州	-8.75412
障害	-8.75424
の名前	-8.75431
人が	-8.75543
安全	-8.75568
示	-8.75587
物語	-8.75599
フィ	-8.75737
っています	-8.75992
is	-8.76047
分野で	-8.76049
歴史	-8.76095
意識	-8.7615
テーブル	-8.76401
ますか	-8.76684
の数	-8.76737
一般的に	-8.7678
そう	-8.76863
戦	-8.77218
ば	-8.77362
治療	-8.77485
リスク	-8.77638
et	-8.77643
▁D	-8.77651
証拠	-8.77902
インターネット	-8.77902
最初に	-8.77942
as	-8.78001
ザ	-8.78046
un	-8.78081
品質	-8.78162
と一緒に	-8.7833
スクリプト	-8.78409
政治的	-8.78614
▁G	-8.78755
準備	-8.78866
の作成	-8.79216
調整	-8.7934
すると	-8.79343
的で	-8.79393
▁x	-8.79402
ギ	-8.79406
素晴らしい	-8.79428
に従って	-8.795
時	-8.79543
それらを	-8.79625
ドイツ	-8.79685
▁}	-8.79693
なります	-8.79716
を受け	-8.79759
原因	-8.79941
se	-8.80183
=	-8.80237
写真	-8.80459
▁あなたの	-8.80713
ことにより	-8.80849
練習	-8.80893
ヒ	-8.80977
▁0	-8.80987
全	-8.8102
▁c	-8.81179
次に	-8.81197
連	-8.81206
コミュニケーション	-8.8123
多	-8.8149
時代	-8.81508
進化	-8.81814
出力	-8.81914
料理	-8.82032
サン	-8.82052
いて	-8.82078
大学	-8.82125
簡単に	-8.82416
人気のある	-8.82523
カル	-8.82582
人は	-8.82607
平均	-8.82703
小	-8.82777
を見る	-8.82789
優れた	-8.82822
ち	-8.8283
Y	-8.83079
最大	-8.83103
開発者	-8.83114
領域	-8.8319
を見	-8.8321
プレイ	-8.83274
学生	-8.83297
会話	-8.83483
原則	-8.83611
その後	-8.83644
正確な	-8.83678
世紀	-8.83879
芸術	-8.8388
解決	-8.83937
一緒に	-8.83963
再	-8.8399
更新	-8.84105
ことができ	-8.84141
あなたに	-8.84144
▁あなたは	-8.84214
流	-8.84236
になり	-8.84238
アシスタント	-8.84407
好み	-8.84429
▁あなたが	-8.8456
追加	-8.84564
▁それは	-8.84579
層	-8.84685
それぞれ	-8.8473
ニー	-8.84905
応答	-8.84956
スペース	-8.84997
を生成する	-8.85348
調査	-8.85488
レシピ	-8.85499
近	-8.85708
数字	-8.85794
現実	-8.85869
スペイン	-8.85955
脳	-8.86007
の間に	-8.86011
特徴	-8.86044
シリーズ	-8.86044
電気	-8.86067
助け	-8.86413
すぐに	-8.86633
は通常	-8.86653
世界の	-8.86663
▁8.	-8.86675
物質	-8.86687
主要な	-8.86869
んだ	-8.8696
そのような	-8.87054
からの	-8.87145
に対して	-8.87146
中の	-8.87358
第	-8.87413
頭	-8.87417
オープンアシスタント	-8.8743
導	-8.87439
だけ	-8.87457
ブル	-8.875
白	-8.87546
ほとんどの	-8.87549
ライン	-8.8759
なぜ	-8.87608
▁F	-8.87614
夜	-8.877
作	-8.87823
予測	-8.87864
命	-8.87916
を説明する	-8.87967
一連の	-8.87981
でも	-8.88023
できない	-8.88062
フランス	-8.88231
利益	-8.88257
後に	-8.88269
経済的	-8.88615
シー	-8.8862
かつ	-8.88629
▁'	-8.88764
Linux	-8.88776
歌	-8.88816
睡眠	-8.88818
JavaScript	-8.88819
したい	-8.89113
増加	-8.89252
カード	-8.8929
発見	-8.89396
人々が	-8.89456
メモリ	-8.89546
び	-8.8956
ことはできません	-8.89653
繰り返し	-8.89666
することは	-8.89666
野菜	-8.89666
16	-8.8987
000	-8.90011
ゲ	-8.90154
山	-8.90221
座	-8.90235
()	-8.90303
たら	-8.90642
の開発	-8.90745
潜在的な	-8.90806
言語モデル	-8.90843
ce	-8.90891
によると	-8.90905
翻訳	-8.91094
法律	-8.91095
格	-8.91143
主に	-8.91157
国の	-8.91181
カップ	-8.91437
効率	-8.91525
ヴ	-8.91672
機械学習	-8.917
足	-8.9191
ジェ	-8.91923
方程式	-8.91961
レー	-8.91993
ことに	-8.92035
スター	-8.92185
もっと	-8.9243
少し	-8.92506
人々の	-8.92594
するか	-8.92726
実装	-8.92793
肉	-8.928
コーヒー	-8.92832
がどのように	-8.92903
ッド	-8.92914
げ	-8.92947
持	-8.93011
サー	-8.93016
実際の	-8.93061
火	-8.93097
am	-8.9311
万	-8.93112
きます	-8.93143
必要がある	-8.93147
彼ら	-8.93148
大規模な	-8.93292
te	-8.93329
これが	-8.93414
重力	-8.93488
の間の	-8.93493
科学的	-8.93538
を理解し	-8.93583
緑	-8.93719
販売	-8.93719
興味深い	-8.93727
(1	-8.93834
オン	-8.93881
リンク	-8.94037
ブロック	-8.94042
ヤ	-8.94224
風	-8.94289
表面	-8.94308
ソリューション	-8.9431
デジタル	-8.94311
▁5	-8.94404
測定	-8.94429
とその	-8.9451
産	-8.94558
解釈	-8.94608
なり	-8.94621
場	-8.94669
王	-8.94772
専門家	-8.94905
顧客	-8.94906
ストーリー	-8.94907
分類	-8.94933
毎日	-8.95236
とても	-8.95255
+	-8.95298
フェ	-8.95327
もあります	-8.95351
os	-8.95539
ma	-8.95541
sh	-8.95721
パス	-8.95801
率	-8.95801
▁これらは	-8.95832
ユニークな	-8.95832
▁\	-8.95854
用語	-8.95864
のない	-8.95873
ガス	-8.95925
おそらく	-8.96109
敵	-8.9611
タンパク質	-8.9611
ッチ	-8.96116
主	-8.9613
ニア	-8.96257
高度な	-8.96413
追加の	-8.96447
開	-8.96621
セル	-8.96679
なければなりません	-8.96681
レイ	-8.96704
北	-8.96717
ップ	-8.96771
):	-8.96794
物理学	-8.97011
パッケージ	-8.97023
電子	-8.9703
の量	-8.97046
キャ	-8.97061
、19	-8.97111
危険	-8.97149
lo	-8.97274
相互作用	-8.97328
彼女	-8.97403
データの	-8.97452
本当に	-8.97513
um	-8.97631
を通して	-8.97638
高い	-8.9777
25	-8.97782
害	-8.97931
石	-8.97936
もう	-8.97955
タイプの	-8.97964
ることができる	-8.97981
理	-8.98137
);	-8.98142
調理	-8.98166
を実行する	-8.98167
自分自身	-8.9817
ります	-8.98347
哲学	-8.98403
何を	-8.98467
食品	-8.98572
適用	-8.98948
になる可能性があります	-8.98982
必要に応じて	-8.99224
それらは	-8.9923
されており	-8.99337
長い	-8.99403
加	-8.99407
を示す	-8.99426
食べ物	-8.99512
を使って	-8.99584
di	-8.99603
ことができますか	-8.99643
尋ね	-8.99731
Q	-8.99784
最後に	-8.99803
を書いてください	-8.99816
会	-8.99901
お金	-8.99916
ヘ	-8.99992
データを	-9.00029
知	-9.00084
しますか	-9.00263
事	-9.00297
口	-9.003
トン	-9.00345
重	-9.00398
実験	-9.00439
するには	-9.0051
がない	-9.00761
データベース	-9.00904
ないように	-9.01033
する必要がある	-9.01035
分間	-9.01041
に最適な	-9.01064
を選択する	-9.01089
意見	-9.01089
距離	-9.01219
そ	-9.01284
れた	-9.01335
を維持し	-9.01452
アクション	-9.0171
一方	-9.01815
ot	-9.01835
をより	-9.01912
検索	-9.01944
要件	-9.01966
オペレーティングシステム	-9.0203
日に	-9.02035
ウェブサイト	-9.02037
▁b	-9.02037
形式	-9.02055
すでに	-9.02122
可能	-9.02276
il	-9.02588
を取り	-9.02635
深い	-9.02663
原子	-9.02685
こ	-9.02777
主な	-9.02822
エル	-9.0285
ニューラルネットワーク	-9.02999
色の	-9.03041
つは	-9.03065
貢献	-9.03194
業	-9.03274
所	-9.03296
ファン	-9.03411
を維持する	-9.03504
られた	-9.03534
粒子	-9.03654
購入	-9.03689
をどのように	-9.0387
空間	-9.03914
エンジン	-9.03968
Z	-9.03976
トマト	-9.03984
共有	-9.04075
ナー	-9.04323
れば	-9.04377
化学	-9.04377
配	-9.04541
ほど	-9.04566
ッシュ	-9.0462
美しい	-9.04633
ストレス	-9.04667
エン	-9.04731
を行う	-9.04908
除	-9.04922
変	-9.04935
修正	-9.05054
なかった	-9.05255
動作	-9.05258
にもかかわらず	-9.05293
回答	-9.05294
#	-9.05323
アプリ	-9.05336
id	-9.05571
残	-9.05599
ボール	-9.05725
しない	-9.05767
関連	-9.05864
真	-9.05914
▁/	-9.05939
日本	-9.05939
完全な	-9.05959
▁N	-9.06015
私はあなたが	-9.06053
赤	-9.06139
引	-9.0617
料	-9.06197
それらの	-9.06254
文化的	-9.06269
必要	-9.06315
移動	-9.06403
ここでは	-9.06518
花	-9.0662
使用されます	-9.06723
ほとんど	-9.06806
にはどうすればよいですか	-9.06889
ドキュメント	-9.06966
少なくとも	-9.06966
おり	-9.07184
の結果	-9.07228
極	-9.07297
権利	-9.07309
ここで	-9.07321
オー	-9.07324
より良い	-9.07455
ヒント	-9.07458
情報を	-9.07822
機	-9.07892
補	-9.07982
アドバイス	-9.07983
冒険	-9.07983
過	-9.08028
直接	-9.08076
ロン	-9.081
最後の	-9.08325
▁なぜ	-9.08403
っ	-9.08575
収	-9.0863
ロシア	-9.08856
を減らす	-9.08976
Google	-9.0901
規制	-9.09013
数値	-9.09027
ロボット	-9.09038
しており	-9.0909
人口	-9.09116
電	-9.09234
伝	-9.09254
側	-9.09279
論	-9.09296
he	-9.09314
ダン	-9.09329
40	-9.09462
ことを願っています	-9.0954
男性	-9.09827
API	-9.09839
最も重要な	-9.09943
テーマ	-9.10048
発展	-9.10051
未来	-9.10053
コー	-9.10096
ていない	-9.10104
強い	-9.10221
運	-9.10302
部屋	-9.10405
」、「	-9.1052
元	-9.10536
ベースの	-9.10579
置	-9.10639
to	-9.10643
▁Python	-9.10657
ed	-9.10812
地球の	-9.10831
んで	-9.10832
期間	-9.10879
しないでください	-9.10925
ないでください	-9.10941
方向	-9.1101
14	-9.1105
60	-9.11069
フレーズ	-9.11098
深く	-9.11127
われ	-9.1113
特別な	-9.11165
を与え	-9.11165
で最も	-9.1125
自	-9.11286
英語	-9.1131
適応	-9.11386
幅広い	-9.11451
類	-9.11487
使	-9.1159
は何	-9.11888
列	-9.12101
声	-9.12127
訓練	-9.12157
チーズ	-9.12157
and	-9.12162
薬	-9.12209
変換	-9.12306
可能性があり	-9.12329
バイ	-9.12433
よう	-9.12584
近く	-9.12656
を決定する	-9.12689
▁V	-9.12695
ろ	-9.12709
ソン	-9.12767
int	-9.12802
▁a	-9.12835
ss	-9.1287
かもしれない	-9.1287
ベース	-9.12873
筋肉	-9.12875
コンテキスト	-9.12942
重要です	-9.12958
の存在	-9.12977
me	-9.13109
指示	-9.13256
多く	-9.13337
を取得する	-9.13479
最大の	-9.13518
の歴史	-9.13575
短い	-9.1366
いました	-9.13676
最適化	-9.13778
を持って	-9.13853
意	-9.13854
からです	-9.13902
大きく	-9.13946
しばしば	-9.13948
統計	-9.13949
マル	-9.14085
市民	-9.14317
正	-9.14395
減少	-9.14439
やその他の	-9.14442
大気	-9.14465
戦い	-9.14486
両方の	-9.14556
ていた	-9.14569
達成	-9.1457
実践	-9.14676
同時に	-9.14791
ベル	-9.14823
コース	-9.14929
ブラ	-9.15028
魚	-9.15041
強く	-9.15117
男	-9.15274
々	-9.15308
血	-9.15403
来	-9.15584
画	-9.15746
鍋	-9.15774
を促進する	-9.15912
切り	-9.16033
島	-9.16144
Windows	-9.16144
Java	-9.16144
信念	-9.16146
システムの	-9.16185
十分な	-9.16345
になりました	-9.16355
人類	-9.16423
用の	-9.16433
歳	-9.16436
*	-9.16494
ループ	-9.16497
あなたを助ける	-9.165
を介して	-9.16517
パラメーター	-9.16522
視点	-9.16529
li	-9.16584
分布	-9.16606
17	-9.1662
協力	-9.16652
ルー	-9.1666
アップ	-9.16708
の種類	-9.16733
ましょう	-9.16768
を与える	-9.16789
効果的な	-9.16829
人々は	-9.16833
医療	-9.16872
The	-9.16976
適切に	-9.17016
生物	-9.17022
ur	-9.17122
ad	-9.17142
^	-9.17148
べき	-9.17226
油	-9.17259
だけでなく	-9.17264
青	-9.17479
ものです	-9.17528
定期的に	-9.17633
ta	-9.17637
ジョン	-9.17649
▁9.	-9.17651
量子	-9.17713
トリ	-9.17756
支配	-9.17774
80	-9.18206
良	-9.18231
建設	-9.18386
が含まれています	-9.1845
データセット	-9.18593
送信	-9.18614
を使用し	-9.18643
を構築する	-9.18682
拡張	-9.18704
感覚	-9.18744
バッテリー	-9.18765
モン	-9.18855
取り	-9.19118
核	-9.19145
進歩	-9.19153
比較	-9.19206
を改善する	-9.19369
興味	-9.19466
することが重要です	-9.19484
において	-9.19522
学校	-9.19529
参照	-9.1957
▁10	-9.19577
されていない	-9.19585
利用可能な	-9.19756
魔法の	-9.19778
を選択します	-9.19881
新	-9.19894
レス	-9.19908
検証	-9.19915
支援	-9.19915
以前の	-9.20143
編集	-9.20298
真実	-9.20316
形成	-9.20481
方法です	-9.20511
ut	-9.20586
個々の	-9.20681
を提供できます	-9.20777
生地	-9.20785
ビデオゲーム	-9.20789
重要	-9.20885
アメリカ	-9.20973
集中	-9.20989
向け	-9.21058
現象	-9.21071
関連する	-9.21091
につながる可能性があります	-9.21091
同	-9.21267
独	-9.21436
標準	-9.21456
読み	-9.21488
以上	-9.21682
シャ	-9.21722
演	-9.21836
予算	-9.2185
過去	-9.21855
画面	-9.21867
を知る	-9.21912
半	-9.21942
数学的	-9.22002
監視	-9.22017
素	-9.22081
消費	-9.22091
▁K	-9.22113
能	-9.22154
▁f	-9.22155
顔	-9.22233
競争	-9.2224
合計	-9.2225
える	-9.22309
ことを忘れないでください	-9.22442
印刷	-9.22634
プロンプト	-9.22635
に加えて	-9.22635
と比較して	-9.22645
を指します	-9.22717
▁さらに	-9.22748
られ	-9.2293
年間	-9.2299
批判	-9.23029
どんな	-9.2303
革命	-9.23032
あたり	-9.23055
ザー	-9.2312
ユーザーが	-9.23255
可能性があるため	-9.2329
バランス	-9.23425
プレーヤー	-9.23426
を使用できます	-9.23567
▁E	-9.23617
独立	-9.23732
信	-9.23758
仮想	-9.23816
中央	-9.23825
配置	-9.23839
ul	-9.24114
病気	-9.24258
倫理的	-9.24281
の主な	-9.24313
最	-9.24426
マーク	-9.24472
いつ	-9.24472
最新の	-9.2452
市	-9.24599
代	-9.24607
彼	-9.24607
あらゆる	-9.24619
喜び	-9.24626
HTML	-9.24627
大統領	-9.24628
保存	-9.24707
▁>	-9.24732
まれ	-9.24816
▁++	-9.24838
if	-9.24918
試	-9.24978
骨	-9.25029
質量	-9.25079
▁確かに	-9.2508
でき	-9.25096
科学者	-9.25215
を使用すると	-9.25287
表示	-9.25356
機械	-9.25394
ながら	-9.25493
中心	-9.25509
要約	-9.25675
夢	-9.25814
優	-9.25826
小説	-9.25846
痛み	-9.25855
電話	-9.25871
▁//	-9.25963
ジャ	-9.25988
バル	-9.25997
成	-9.26009
できるように	-9.2603
事実	-9.26061
南	-9.26195
を引き起こす	-9.26215
同様の	-9.26248
テクニック	-9.26249
がいくつかあります	-9.2625
ロード	-9.26264
自動化	-9.26357
セン	-9.26404
るために	-9.26462
する可能性があります	-9.26467
選択肢	-9.26559
タン	-9.26615
言及	-9.26663
年代	-9.2675
私を	-9.26755
することを	-9.26817
どう	-9.26822
が必要	-9.26876
時に	-9.26927
政治	-9.26936
端	-9.27071
ユニット	-9.27079
分離	-9.271
見え	-9.27192
宗教	-9.27466
抵抗	-9.27483
タイム	-9.27576
あなたを	-9.27661
親	-9.27871
メートル	-9.27897
撃	-9.27898
ことに注意することが重要です	-9.27899
で知られています	-9.27952
ピン	-9.28073
の概念	-9.28096
学ぶ	-9.28158
を発見し	-9.28166
失	-9.28186
ワ	-9.28247
2)	-9.28266
鉄	-9.28315
左	-9.28316
の影響	-9.28327
める	-9.28341
古い	-9.2837
ne	-9.285
▁H	-9.28528
ヨーロッパ	-9.28528
病	-9.28697
税	-9.28698
ケーキ	-9.28715
機関	-9.28736
地元の	-9.28763
を計算する	-9.28794
でしょうか	-9.28915
ルート	-9.28959
▁AI	-9.29053
サイ	-9.29111
を説明してください	-9.29132
YouTube	-9.29155
)=	-9.29182
70	-9.29185
コードを	-9.29218
創造	-9.29261
ter	-9.29444
ガー	-9.29496
ことに注意してください	-9.29575
を必要とする	-9.29576
確率	-9.29585
を作成できます	-9.29633
将来	-9.29659
ゲームの	-9.29749
サブ	-9.29849
記憶	-9.29998
鳥	-9.29998
紛争	-9.29999
公式	-9.30021
使用できる	-9.30248
確認	-9.30287
を改善し	-9.30321
2.	-9.30376
維持	-9.30387
混合物	-9.30444
:**	-9.30511
ために使用されます	-9.30519
▁19	-9.30659
視	-9.3069
:「	-9.30747
文法	-9.30761
信号	-9.30994
を得る	-9.31138
観察	-9.31168
身	-9.31211
にあります	-9.31228
これらは	-9.31256
最良の	-9.31269
母	-9.31274
始まり	-9.31281
13	-9.31331
内部	-9.31333
ca	-9.31512
以下	-9.31618
洗	-9.31709
生き	-9.31711
政策	-9.31712
フィールド	-9.31713
公開	-9.31724
1,	-9.31785
開始	-9.31848
アー	-9.3187
がある場合	-9.31896
の重要性	-9.31901
オープン	-9.32007
ポート	-9.32132
メディア	-9.32134
無料	-9.32141
街	-9.32145
マシン	-9.32194
モデルは	-9.32208
まず	-9.32209
の研究	-9.32326
高速	-9.3233
黒	-9.32426
離	-9.32428
じ	-9.32493
com	-9.32516
に直面し	-9.32519
有	-9.3258
上で	-9.32637
私はあなたに	-9.32746
ct	-9.32798
冷	-9.32854
機器	-9.32877
人気	-9.32957
基準	-9.33017
ーション	-9.33233
プラ	-9.33314
ir	-9.33324
将来の	-9.3337
結	-9.33408
記	-9.33426
平和	-9.33456
最近	-9.33471
を求め	-9.33513
付き	-9.33518
と考えられています	-9.33531
ブランド	-9.33607
1.	-9.33643
レベルの	-9.33715
するのに役立ちます	-9.33829
▁R	-9.33888
ない場合	-9.33894
プライバシー	-9.33897
フレームワーク	-9.339
表	-9.33999
切	-9.34007
pa	-9.34058
を使用すること	-9.34119
ことを確認する	-9.3418
リズム	-9.34307
co	-9.3432
対	-9.34328
逆	-9.34339
有名な	-9.34445
を持ち	-9.34588
することで	-9.34613
全体として	-9.3462
を追加する	-9.34629
化された	-9.34657
広	-9.34669
急	-9.347
散	-9.34745
スポーツ	-9.34783
タイトル	-9.34796
たとき	-9.34939
グラ	-9.35097
公	-9.35169
位	-9.35185
詳細な	-9.35197
不安	-9.35229
右	-9.35229
勉強	-9.3523
かなり	-9.35233
使用できます	-9.35247
若い	-9.35249
飲	-9.35257
自分	-9.35262
参加	-9.35317
ハイ	-9.3535
▁ただ	-9.35473
に基づいています	-9.35476
ゼ	-9.35525
がより	-9.35604
ぶ	-9.35634
根	-9.35671
携帯電話	-9.35678
特	-9.35808
多くの場合	-9.35841
億	-9.36112
首	-9.36122
記録	-9.36129
産業	-9.36143
回復	-9.36148
複雑さ	-9.36161
フォーム	-9.36173
ex	-9.36185
ドア	-9.36238
em	-9.36522
建物	-9.36581
メカニズム	-9.36582
ことなく	-9.36591
液体	-9.36602
密	-9.36629
通常の	-9.36647
▁m	-9.36665
ション	-9.36758
低い	-9.36805
ませんでした	-9.36898
do	-9.3698
調	-9.37
OS	-9.37057
なければならない	-9.37068
明確な	-9.37127
ような	-9.37153
を感じ	-9.37172
手法	-9.37177
ている場合	-9.37234
流れ	-9.37322
当	-9.37419
なしで	-9.37494
果物	-9.37507
これら	-9.37515
を開発し	-9.37565
▁g	-9.37586
するように	-9.37685
ために使用される	-9.37742
ード	-9.37749
対話	-9.37756
収集	-9.37916
美	-9.37949
懸念	-9.37951
砂糖	-9.37953
手紙	-9.37987
外部	-9.38013
高さ	-9.38085
vi	-9.38103
24	-9.38122
質問を	-9.38161
の組み合わせ	-9.38169
国家	-9.38213
を向上させる	-9.3864
紹介	-9.38695
ために必要な	-9.38803
紙	-9.38838
に従う	-9.38855
剤	-9.38874
ベクトル	-9.38874
気候	-9.38874
▁W	-9.38963
▁10.	-9.39124
PC	-9.39135
通信	-9.39212
がありますか	-9.39239
利	-9.39276
壁	-9.3934
店	-9.3934
を開発する	-9.39347
ジャンル	-9.39377
スペイン語	-9.39385
低下	-9.39397
元の	-9.39503
ロック	-9.39583
発生する	-9.39609
トーン	-9.39626
リック	-9.39697
を選択し	-9.3973
検	-9.39756
皮	-9.39785
そこで	-9.39807
まま	-9.39821
内で	-9.39947
{	-9.39957
することです	-9.40205
輸送	-9.40277
労働者	-9.40277
メンバー	-9.403
単純な	-9.40362
▁6	-9.40397
の欠如	-9.40439
と思います	-9.40477
がある場合は	-9.40551
直	-9.40693
ありません	-9.40698
転	-9.40704
スク	-9.40729
規	-9.40736
供給	-9.40747
幸福	-9.40751
im	-9.40874
モード	-9.40884
スペインの	-9.40905
私はあなたの	-9.40939
世界で	-9.41045
なく	-9.41057
接	-9.41074
ビー	-9.41138
比	-9.41223
概要	-9.41223
室	-9.41224
業界	-9.41228
コピー	-9.41256
許可	-9.41279
できるようにする	-9.414
残り	-9.41615
ね	-9.41669
破壊	-9.41679
カメラ	-9.41699
楽しい	-9.41699
単一の	-9.41699
財産	-9.41699
広告	-9.41701
関心	-9.41706
レビュー	-9.41724
ファイルを	-9.4176
90	-9.41791
▁_	-9.41794
言う	-9.41849
アイ	-9.41893
はどのように	-9.41914
に参加し	-9.41955
女	-9.4207
プレイヤー	-9.42091
ジャー	-9.42121
東	-9.42174
ジャガイモ	-9.42176
モジュール	-9.42177
期待	-9.42177
に基づいた	-9.42177
推奨事項	-9.42177
Android	-9.42177
していない	-9.42216
ゼロ	-9.42339
ていません	-9.42353
バス	-9.4241
何が	-9.42431
種類の	-9.42455
については	-9.42492
意図	-9.42537
難しい	-9.42575
明らか	-9.42593
旅	-9.42622
服	-9.42654
番号	-9.42659
それとも	-9.42668
Co	-9.42686
に影響を与える	-9.42718
ho	-9.42735
段階	-9.42777
宇宙の	-9.42833
をもたらす	-9.42848
▁I	-9.42896
あります	-9.43201
食物	-9.43217
om	-9.43271
互いに	-9.43279
リス	-9.43451
止	-9.436
望	-9.43625
解決策	-9.4363
推定	-9.43638
配列	-9.43643
検出	-9.43957
積	-9.43963
>	-9.43987
品	-9.4401
周	-9.44026
想像	-9.44044
虫	-9.44113
スケジュール	-9.44114
鶏肉	-9.4412
500	-9.44137
発明	-9.44145
キャリア	-9.44145
時点で	-9.4418
日付	-9.44182
メイン	-9.44191
エリア	-9.44242
上げ	-9.44285
広く	-9.44292
効率的	-9.4448
悪い	-9.44492
伝統	-9.44497
国際	-9.44513
効果的に	-9.44552
ーター	-9.4456
のアイデア	-9.44563
脂肪	-9.44604
&	-9.44604
症状	-9.4461
上昇	-9.44614
ニュース	-9.44706
に関する情報	-9.44807
op	-9.44982
健康的な	-9.45054
船	-9.45095
雨	-9.45096
緊張	-9.45097
構文	-9.45098
がありますが	-9.45174
教	-9.45186
ているため	-9.45308
彼女が	-9.45371
-1	-9.45376
通り	-9.4538
観	-9.4552
彼に	-9.45549
役	-9.45589
底	-9.45591
をもたらし	-9.45592
疾患	-9.45592
を次に示します	-9.45592
停止	-9.45592
を引き起こし	-9.45593
2023	-9.45593
費用	-9.45603
▁一方	-9.45608
より大きな	-9.45632
体重	-9.4568
暗い	-9.45692
の変化	-9.45797
ent	-9.45957
ましたか	-9.46003
トラ	-9.46034
始めました	-9.46067
プログラマー	-9.46089
友達	-9.46089
背景	-9.46089
手段	-9.46093
土地	-9.46108
外観	-9.46115
を見つけ	-9.46138
以上の	-9.4625
のリスク	-9.46272
精神	-9.46399
最も一般的な	-9.46436
Open	-9.46585
コントロール	-9.46588
意思決定	-9.46589
シーケンス	-9.4659
損傷	-9.46591
法則	-9.46594
幸せ	-9.46602
と感じ	-9.46689
シーン	-9.4675
はまだ	-9.46809
▁私が	-9.46912
探	-9.4694
の間で	-9.46972
理論は	-9.4706
恐怖	-9.47088
兆候	-9.47091
センター	-9.4712
ステ	-9.47293
することもできます	-9.47332
の可能性	-9.47356
ate	-9.47361
グラフィック	-9.47408
すぎ	-9.47538
」(	-9.47547
症	-9.47581
小麦粉	-9.47596
てみてください	-9.47686
問題を解決する	-9.47701
ようです	-9.47828
の増加	-9.47836
の違い	-9.47939
得	-9.47973
リクエスト	-9.48104
犯罪	-9.48106
的および	-9.48107
ごとに	-9.48135
がありました	-9.48164
正しく	-9.4821
log	-9.48239
することはできません	-9.48267
ージ	-9.48282
いくつか	-9.4829
スタン	-9.48376
法的	-9.48388
角	-9.48579
円	-9.48611
軌道	-9.48613
メソッド	-9.48614
に行く	-9.48616
利用	-9.48617
---	-9.48791
に関しては	-9.49031
た場合	-9.49052
教え	-9.49065
期	-9.49079
あまり	-9.49113
瞑想	-9.49127
レストラン	-9.49128
▁n	-9.49136
歴史的	-9.49165
彼を	-9.49172
を教え	-9.49546
つです	-9.49557
分割	-9.4958
この場合	-9.4964
アイテム	-9.49642
▁また	-9.49646
注文	-9.49655
最小	-9.49662
ine	-9.4977
mp	-9.49978
差	-9.5013
傷	-9.50153
渡	-9.50161
アーキテクチャ	-9.50161
高品質の	-9.50164
加熱	-9.50207
自分自身を	-9.50302
ub	-9.50364
であると	-9.50405
を高める	-9.50429
傾向	-9.5046
を実行し	-9.50462
順	-9.50644
ギリシャ	-9.50679
森	-9.50681
アクティビティ	-9.50682
例えば	-9.50682
ブラウザ	-9.50683
アニメーション	-9.50687
記事	-9.50697
回転	-9.50712
強	-9.50859
トー	-9.50935
組み合わせ	-9.50937
放出	-9.51079
言った	-9.51083
フィードバック	-9.51205
リリース	-9.51206
ランド	-9.51225
ピザ	-9.51257
人に	-9.51257
グラム	-9.51276
の高い	-9.51287
最も人気のある	-9.51291
教えてください	-9.51322
デン	-9.51383
pe	-9.51412
の物語	-9.51455
以下は	-9.51467
ライト	-9.51472
識別	-9.5156
に到達する	-9.5173
$	-9.518
基本	-9.51829
現	-9.51837
ack	-9.5189
好きな	-9.51894
ユーザーの	-9.5199
フォー	-9.52112
集	-9.52169
クリック	-9.52217
アナ	-9.52245
ランダム	-9.5226
マルチ	-9.52328
できません	-9.52344
ワーク	-9.52352
伝統的な	-9.52381
尋ねる	-9.52393
の観点から	-9.52559
ニック	-9.52569
ia	-9.52612
ion	-9.52689
テン	-9.527
効果的	-9.52741
インターフェイス	-9.52764
監督	-9.52792
うまく	-9.52793
割り当て	-9.52793
コンパイル	-9.52794
タスクを	-9.52824
不可欠です	-9.52895
分子	-9.52901
ありがとう	-9.53057
本当	-9.53064
を防ぐ	-9.53144
保険	-9.53326
メキシコ	-9.53327
出来事	-9.53327
財務	-9.53329
程度	-9.53332
反対	-9.53335
する前に	-9.53346
ミー	-9.5345
ケット	-9.53488
In	-9.53562
安全な	-9.53589
よ	-9.53615
見られ	-9.53661
使用されている	-9.53687
リンゴ	-9.537
受	-9.53769
圧	-9.53772
に対処する	-9.53793
io	-9.53817
を書き	-9.53838
軍	-9.5385
粉	-9.53854
安全性	-9.53855
従来の	-9.53864
新鮮な	-9.53866
ボウル	-9.53876
金属	-9.53886
ビーチ	-9.53917
た後	-9.5392
で構成されています	-9.5393
かった	-9.53999
会社の	-9.54115
対応する	-9.54152
判断	-9.54235
可能です	-9.54333
川	-9.54402
のパフォーマンス	-9.54582
訪問	-9.54871
ガイド	-9.54935
岩	-9.54948
定期的な	-9.5495
文字列	-9.54978
フラ	-9.55031
歳の	-9.55064
ワイン	-9.551
ことができました	-9.5516
信頼	-9.55205
?」	-9.55278
スタ	-9.55291
で使用される	-9.55355
民	-9.55366
感情的な	-9.5538
アート	-9.55391
初期	-9.5545
機能します	-9.55468
かについて	-9.55481
ていること	-9.55484
テレビ	-9.55495
00	-9.55495
タマネギ	-9.55496
ウイルス	-9.55496
支払い	-9.55496
ハードウェア	-9.55497
気候変動	-9.55499
燃料	-9.55501
name	-9.55509
現代の	-9.55527
ab	-9.55539
加速	-9.55548
再び	-9.55611
次のように	-9.55655
シン	-9.55717
場所に	-9.55848
週	-9.559
それぞれの	-9.55955
推奨	-9.55991
を再	-9.56003
都	-9.56036
道徳的	-9.56043
終了	-9.56045
建築	-9.56046
しません	-9.56073
を示し	-9.56141
ペット	-9.56151
要求	-9.56369
セクション	-9.56599
取引	-9.56608
精度	-9.56626
付	-9.56735
バター	-9.56738
シング	-9.56778
話す	-9.56806
De	-9.56884
白い	-9.56889
書き	-9.56945
ハン	-9.57139
製	-9.5714
レイヤー	-9.57144
代替	-9.57145
イギリス	-9.57153
脚	-9.57153
ディレクトリ	-9.57154
酸	-9.57476
°	-9.57669
負	-9.57702
たくさん	-9.57711
イタリア	-9.57712
秒	-9.57713
▁of	-9.57724
q	-9.57763
メール	-9.57792
ノード	-9.57825
学び	-9.57825
明	-9.57918
チャ	-9.57945
クス	-9.57971
の基本	-9.58045
ハー	-9.58123
トロ	-9.58237
は約	-9.58244
を減らし	-9.58273
宣言	-9.58274
どうすれば	-9.58274
サンプル	-9.58286
暴力	-9.58289
チャット	-9.58302
なぜなら	-9.58334
py	-9.58436
と同じ	-9.58511
メン	-9.58522
に使用される	-9.58626
できること	-9.58696
栄養	-9.58828
チェス	-9.58839
アルゼンチン	-9.58839
分散	-9.58858
の専門家	-9.58861
を強調し	-9.58888
使用され	-9.5892
ver	-9.5892
につながる	-9.58956
▁J	-9.58972
が高く	-9.59019
である場合	-9.59079
てきました	-9.5913
使用されています	-9.59287
あ	-9.59293
ow	-9.59329
ユ	-9.59365
▁これが	-9.59392
銀行	-9.59425
英国	-9.59427
を使用した	-9.59479
no	-9.5952
感じる	-9.59534
異	-9.59543
る可能性があります	-9.59551
他に	-9.59599
速く	-9.5961
いつも	-9.59612
ll	-9.59631
私はあなた	-9.59725
複雑	-9.59803
ぎ	-9.59877
知られている	-9.59927
ーン	-9.59956
チェーン	-9.59965
のいずれか	-9.59977
スーパー	-9.59977
形態	-9.59985
神経	-9.59987
に入れ	-9.60056
すべき	-9.60168
ve	-9.60216
のを助ける	-9.60347
楽	-9.60502
ヨ	-9.6052
息	-9.60528
ボード	-9.60547
チョコレート	-9.60551
包	-9.60552
唯一の	-9.60553
圧縮	-9.60559
システムは	-9.60588
ell	-9.60598
古典的な	-9.60602
ティング	-9.6062
性格	-9.60715
感じ	-9.60741
ry	-9.60761
ダウンロード	-9.60842
結論	-9.60884
**:	-9.60894
取	-9.61016
▁p	-9.61042
▁O	-9.61051
弱	-9.61114
汚染	-9.6113
カスタマイズ	-9.61131
モバイル	-9.61131
ヒーロー	-9.61131
シンプルな	-9.61131
クライアント	-9.61131
共通	-9.61144
メント	-9.61182
神話	-9.61197
を加え	-9.61225
依存	-9.61361
カン	-9.61376
ノー	-9.61577
困難な	-9.6159
IP	-9.61639
主張	-9.61646
敬	-9.61702
失敗	-9.61711
わかりません	-9.61712
ai	-9.61743
著者	-9.61743
生き物	-9.61758
続ける	-9.61782
押し	-9.61807
ボタン	-9.61892
信頼できる	-9.61893
限り	-9.61956
ip	-9.6197
した場合	-9.62134
GB	-9.62178
に影響を与え	-9.62202
▁$	-9.62222
士	-9.62277
農業	-9.62304
取得	-9.62327
グラフ	-9.62373
確	-9.62396
申し訳ありませんが	-9.62417
▁Ma	-9.62449
番目	-9.62482
させます	-9.6253
hi	-9.62575
ショー	-9.62676
を表す	-9.62744
を特定し	-9.62787
生まれ	-9.62822
コア	-9.62866
呼吸	-9.62866
アウト	-9.62882
暗号化	-9.62885
瞬間	-9.62888
運転	-9.62899
水を	-9.62902
分解	-9.62972
落ち	-9.63009
誰か	-9.63379
証明	-9.63382
▁次の	-9.63463
文学	-9.63463
住宅	-9.63476
初心者	-9.63476
髪	-9.63477
ユーロ	-9.63478
ようとする	-9.63478
アルコール	-9.63484
知られています	-9.63543
のに十分な	-9.63574
の感覚	-9.63638
ベン	-9.63648
魅力的な	-9.63666
my	-9.63681
ac	-9.6372
ガン	-9.6379
どちら	-9.63975
刺激	-9.64037
区別	-9.64073
ight	-9.64073
次元	-9.64115
たいです	-9.64136
オイル	-9.64139
住民	-9.64185
心配	-9.6419
なっています	-9.6428
da	-9.64315
提供する	-9.6433
受け入れ	-9.64422
性と	-9.64423
治	-9.64465
向	-9.64466
リオ	-9.645
に必要な	-9.64541
葉	-9.64654
抗	-9.64667
降	-9.64668
アーティスト	-9.64672
忍耐	-9.64672
従業員	-9.64673
形状	-9.64692
哲学的	-9.64825
バン	-9.64896
長く	-9.65014
使用される	-9.65025
ッグ	-9.65026
ID	-9.65041
プル	-9.65076
ke	-9.65114
やすい	-9.65226
相互	-9.65271
ケース	-9.65273
GPT	-9.65273
登録	-9.65273
推測	-9.65275
の終わり	-9.65285
up	-9.65294
Ch	-9.65335
が含まれ	-9.65366
▁最後に	-9.65397
を保護する	-9.65423
タル	-9.65429
みます	-9.65499
専門	-9.65697
を示します	-9.65722
ない場合は	-9.65819
コンピューティング	-9.65869
毛	-9.65871
フィルター	-9.65881
ことに留意することが重要です	-9.65882
起源	-9.65894
強化	-9.65909
強度	-9.65922
する能力	-9.66084
ローマ	-9.66145
るため	-9.66178
することにより	-9.66201
ラス	-9.66263
レット	-9.66303
はるかに	-9.66352
断	-9.6643
脱	-9.66488
既存の	-9.6649
上記の	-9.66494
軍事	-9.66502
無限	-9.66505
道路	-9.66507
チェック	-9.66511
しか	-9.66512
電流	-9.66515
権	-9.66581
時間と	-9.6666
ge	-9.66675
アルゴリズムは	-9.66729
つながり	-9.6674
を促進し	-9.67016
劇	-9.67099
サウンド	-9.67102
主題	-9.67103
互換性	-9.67103
Microsoft	-9.67103
寝	-9.67104
希望	-9.67104
閉じ	-9.67105
電子メール	-9.67118
圧力	-9.67182
るように	-9.67194
すべてが	-9.67237
眠	-9.67247
気分	-9.67274
45	-9.67305
を認識し	-9.67371
mm	-9.6743
を提供しています	-9.67522
▁ありがとう	-9.67604
IT	-9.67664
追	-9.67694
求	-9.67697
務	-9.67714
ターゲット	-9.67719
おいしい	-9.67721
見る	-9.67739
js	-9.67791
nd	-9.67799
ci	-9.67933
年から	-9.67984
に依存し	-9.67993
知性	-9.68001
na	-9.68264
始めます	-9.68294
帰	-9.68313
聴	-9.68329
整数	-9.68335
脅威	-9.6834
決定を下す	-9.68341
継	-9.68341
ことは困難です	-9.68381
深刻な	-9.68385
不足	-9.68439
スパイ	-9.6844
や他の	-9.68615
ファー	-9.68674
たいと思います	-9.68733
飛行	-9.68753
そのため	-9.68782
次	-9.68883
確立	-9.68885
を開始する	-9.68902
復	-9.68922
99	-9.68932
豆	-9.68965
▁Linux	-9.69063
哲学者	-9.69123
ることができますか	-9.69317
を獲得し	-9.69338
線形	-9.69382
学的	-9.69537
▁8	-9.6954
落	-9.6958
教師	-9.69595
官	-9.69595
単に	-9.69605
酸素	-9.69606
キーボード	-9.69615
混乱	-9.69616
太陽系	-9.69618
クリーム	-9.69624
生命	-9.69638
を引き起こす可能性があります	-9.69645
権力	-9.69667
実際に	-9.69691
を与えます	-9.69743
▁結論	-9.69879
自動	-9.70018
sk	-9.70112
さて	-9.70197
習慣	-9.70227
ビジョン	-9.70274
るまで	-9.70282
重量	-9.70285
ことを確認してください	-9.70285
ないため	-9.70375
誰が	-9.70421
バンド	-9.70506
完了	-9.70542
を簡単に	-9.7062
説明してください	-9.70628
のサイズ	-9.70646
チャー	-9.70677
人にとって	-9.70684
クラ	-9.70808
設立	-9.70857
縮	-9.70858
オレンジ	-9.70865
早	-9.70865
オリーブオイル	-9.70865
収入	-9.70913
決して	-9.70915
進行	-9.70963
ことができない	-9.71032
現代	-9.71066
ことを学ぶ	-9.71068
ようとし	-9.71083
らず	-9.71092
全体的な	-9.71234
魅力的	-9.713
笑	-9.71324
ことがあります	-9.71331
であるか	-9.71401
歩	-9.7148
が必要な場合は	-9.71505
破	-9.71505
を生み出す	-9.71506
チュートリアル	-9.71506
ルーチン	-9.71513
を探し	-9.71521
車両	-9.71521
面白い	-9.71525
世界中の	-9.71644
信頼性	-9.71648
るべき	-9.71689
際に	-9.71724
メモ	-9.7182
という事実	-9.71834
適	-9.71868
選択した	-9.71892
ーク	-9.71904
以下の	-9.7198
▁7	-9.71996
Mo	-9.71998
倫理	-9.72059
少ない	-9.7208
幸	-9.7213
終わり	-9.7214
明るい	-9.72151
満足	-9.72162
戻	-9.72182
の違いは何ですか	-9.72249
という言葉	-9.72267
の下で	-9.7235
走	-9.7235
ワー	-9.72375
の性質	-9.72404
きました	-9.72412
を見て	-9.72435
役立つ	-9.72439
思い出	-9.72453
64	-9.72482
トル	-9.72545
メタ	-9.72566
AT	-9.72722
ジー	-9.72753
影	-9.72795
キロメートル	-9.728
<	-9.72801
ソーシャルメディア	-9.72803
ジャンプ	-9.72814
ためです	-9.7282
言語モデルとして	-9.72852
アメリカの	-9.72874
に焦点を当てています	-9.72882
一般的	-9.72883
されていません	-9.72965
マスター	-9.72969
れる	-9.7301
2,	-9.7309
を避ける	-9.73107
を生成します	-9.73125
音声	-9.73335
ポリ	-9.73352
ボー	-9.73387
移	-9.73398
在	-9.73442
砂	-9.7345
報酬	-9.73453
プロセッサ	-9.73454
牛乳	-9.73458
パワー	-9.73484
AP	-9.73503
密度	-9.73505
比較的	-9.73557
好き	-9.73713
を避けるために	-9.73776
ヨーロッパの	-9.73777
状況で	-9.73784
ズム	-9.73841
を確立し	-9.7391
父	-9.74104
マトリックス	-9.74111
カテゴリ	-9.74112
ChatGpt	-9.74112
具体的な	-9.74112
損失	-9.74115
突然	-9.74115
パスワード	-9.74121
を含める	-9.74212
クロ	-9.74296
を完全に	-9.7433
の長さ	-9.74443
誰もが	-9.74608
制	-9.74662
を含め	-9.74676
放	-9.747
プレイヤーは	-9.74717
乳	-9.74769
富	-9.74772
執筆	-9.74773
カロリー	-9.74775
メニュー	-9.748
ポー	-9.74853
があるため	-9.74906
ハリー	-9.74956
を追加します	-9.75073
を制御する	-9.75078
アラ	-9.7522
十分に	-9.75267
慎重に	-9.75328
革新	-9.75333
最初	-9.75333
細	-9.75435
美しさ	-9.75438
貴重な	-9.7544
スライス	-9.75442
秘密	-9.75445
という名前の	-9.75452
ベッド	-9.75483
定理	-9.75486
コメント	-9.75503
によって異なります	-9.75509
トレーニングデータ	-9.75519
スキルと	-9.75533
現れ	-9.75548
微	-9.75556
学者	-9.75604
曲線	-9.75796
を開始し	-9.75818
危険な	-9.75832
に焦点を当て	-9.75965
の役割	-9.76002
あり	-9.76082
だった	-9.76082
超	-9.7611
ライセンス	-9.76111
総	-9.76112
アドレス	-9.76112
自転車	-9.76113
サラダ	-9.76113
正義	-9.76116
CSS	-9.76116
としても	-9.76141
成分	-9.76186
電力	-9.7625
せずに	-9.76333
の基礎	-9.76425
を共有し	-9.76519
だけで	-9.76553
mi	-9.76587
ers	-9.7661
二	-9.76755
帯	-9.7676
ったり	-9.76773
幅	-9.76782
マーケティング	-9.76788
エクササイズ	-9.76788
合成	-9.76788
銀河	-9.76789
永遠	-9.7679
対立	-9.76816
はずです	-9.76841
んでいる	-9.76913
消	-9.76961
あなたがあなたの	-9.76962
ないこと	-9.76977
ST	-9.77045
たい場合は	-9.77087
系	-9.77414
状	-9.77433
倒	-9.77462
博物館	-9.77467
正方形	-9.77468
結婚	-9.77468
アフリカ	-9.77469
部門	-9.77471
られています	-9.77493
探求	-9.77518
を達成する	-9.77579
作られ	-9.7765
すぎる	-9.77654
ation	-9.77748
と同様に	-9.77773
個の	-9.77871
ist	-9.77885
ue	-9.77886
球	-9.78055
を分析し	-9.78057
ことも	-9.78084
西	-9.78131
退	-9.78146
時間の経過とともに	-9.78151
豊かな	-9.78152
ファンタジー	-9.78153
プロトコル	-9.78153
カス	-9.78195
35	-9.78334
mo	-9.78436
杯の	-9.78453
インド	-9.78528
天	-9.78624
話し	-9.78639
")	-9.78674
の上に	-9.78696
他の多くの	-9.78707
積分	-9.78733
メンテナンス	-9.78841
継続的な	-9.78843
マネージャー	-9.78843
順序	-9.78843
冷却	-9.78845
公共	-9.7885
整理	-9.78851
ソーシャルネットワーク	-9.78853
節約	-9.78879
立ち	-9.7889
黄色	-9.78901
Sh	-9.78942
を構築し	-9.78994
喜んで	-9.79074
を支援する	-9.79083
効率的な	-9.79114
-3	-9.79356
助	-9.79438
ボン	-9.79442
を変更する	-9.79459
実行できる	-9.79474
ni	-9.79503
任	-9.79535
ホーム	-9.79536
爆発	-9.79537
スケール	-9.79537
プロパティ	-9.79537
苦	-9.79537
盗	-9.79538
情熱	-9.79553
するのに役立つ	-9.79592
マイル	-9.796
事前に	-9.79647
ブー	-9.79647
している場合	-9.7969
声明	-9.79719
することが	-9.79729
ang	-9.79757
飛行機	-9.7979
カット	-9.79886
人間が	-9.79943
英語の	-9.79948
チリ	-9.79967
を学び	-9.80059
正確に	-9.80103
知っている	-9.80178
何も	-9.80222
ダウン	-9.80227
導入	-9.80229
片	-9.80229
主人公	-9.80236
を生み出し	-9.80237
█	-9.80241
絶対	-9.80241
らない	-9.80243
バイアス	-9.80243
に適した	-9.80247
受信	-9.8025
文書	-9.80292
次のような	-9.80308
を明確に	-9.80404
bo	-9.80542
に大きな影響を与え	-9.80592
古代の	-9.80669
欠	-9.80679
それらが	-9.80747
平	-9.80809
精	-9.8087
を確立する	-9.80889
やすく	-9.80908
につながり	-9.80924
▁print	-9.80934
クラウド	-9.80939
にわたって	-9.8094
プラスチック	-9.8094
カタロニア	-9.8094
床	-9.80941
日常生活	-9.80941
商品	-9.80946
あなた自身	-9.80964
ヘッド	-9.80969
削減	-9.80974
実用的な	-9.80987
連絡	-9.8104
専門的な	-9.81069
シート	-9.81075
ように見える	-9.81166
守	-9.81202
削除	-9.81213
言語で	-9.81354
ということです	-9.81397
について話し	-9.81431
米	-9.81501
だけです	-9.81536
wa	-9.81574
科	-9.81597
混合	-9.81629
コロンビア	-9.8165
ストレージ	-9.8165
歯	-9.8165
LED	-9.81651
照明	-9.81654
することをお勧めします	-9.81677
pl	-9.8173
有用な	-9.8175
認知	-9.81816
技術的	-9.81863
を確認する	-9.81872
誰かが	-9.81918
を探している	-9.8194
することができる	-9.81952
con	-9.81989
伝え	-9.82097
ard	-9.82196
勝	-9.82294
節	-9.82314
平等	-9.82321
オーブン	-9.82364
プレゼンテーション	-9.82365
ボックス	-9.82366
AR	-9.82407
自動的に	-9.82423
一定	-9.82455
役割	-9.82487
pt	-9.82655
もちろん	-9.82673
ロール	-9.82692
などの他の	-9.82726
ティー	-9.82764
ミン	-9.82834
送	-9.82847
end	-9.82931
持っている	-9.82959
溶	-9.8296
コレクション	-9.83084
再生	-9.83092
遺伝子	-9.83098
プリ	-9.8313
所有者	-9.83135
無料の	-9.83141
に行き	-9.8319
これを	-9.83207
を準備する	-9.83261
である可能性があります	-9.83274
に依存する	-9.83306
をよりよく理解	-9.83321
移動する	-9.83324
まり	-9.83339
を楽しむ	-9.83343
を決定します	-9.83383
いません	-9.83443
世	-9.83453
するまで	-9.83599
クリ	-9.83616
がありません	-9.83616
を説明し	-9.83631
機能する	-9.83704
に貢献し	-9.83731
徐々に	-9.83806
需要	-9.83807
雪	-9.8381
視聴者	-9.83836
file	-9.83837
結合	-9.8385
-4	-9.83864
ha	-9.83973
見つける	-9.83994
会議	-9.84003
記述	-9.84037
実際	-9.84079
起	-9.8415
を示しています	-9.84176
身体	-9.84275
地域で	-9.84284
ていますか	-9.84332
安定性	-9.84353
を訪れ	-9.84355
を取得し	-9.84393
質問に答える	-9.84455
限	-9.84482
につれて	-9.84511
になった	-9.84515
フレーム	-9.84529
小さく	-9.84537
ブラジル	-9.84539
診断	-9.84541
報告	-9.84542
武器	-9.84548
長期的な	-9.8461
be	-9.84674
アリ	-9.84746
いくつかの例	-9.84769
をサポートする	-9.8478
オンラインで	-9.84817
したら	-9.8486
覚え	-9.84876
えます	-9.84925
を意味します	-9.84934
自分で	-9.85059
半分	-9.85098
サイクル	-9.85189
ft	-9.85203
育	-9.85264
売	-9.85272
倍	-9.85272
大さじ	-9.85275
インフレ	-9.85275
戦闘	-9.85279
自信	-9.85294
ive	-9.85323
ギター	-9.85339
奇妙な	-9.85363
実行される	-9.85377
と考えられ	-9.85525
for	-9.8561
ダイ	-9.8561
all	-9.85671
そこに	-9.85736
Fi	-9.85744
を確認し	-9.85989
ニューロン	-9.86001
判	-9.86007
SQL	-9.86016
代表	-9.86031
回路	-9.86041
否定的な	-9.86072
を満たす	-9.86206
へのアクセス	-9.86219
を解決する	-9.86282
適切	-9.86307
このような	-9.86393
実施	-9.86423
女の子	-9.86691
注	-9.86699
▁次に	-9.86706
採用	-9.86748
従	-9.86753
ゾ	-9.86755
環	-9.86756
シナリオ	-9.86759
大きい	-9.8676
アイデンティティ	-9.8676
塗	-9.86761
一貫性	-9.86761
ひ	-9.86761
用途	-9.86767
患者	-9.86768
世代	-9.8677
差別	-9.86805
オーバー	-9.86828
▁the	-9.86886
ワイ	-9.86933
を作り	-9.86978
も重要です	-9.87008
行う	-9.87034
いますか	-9.87061
高価	-9.87121
があること	-9.87166
を食べ	-9.87185
にどのように	-9.87213
をインストールする	-9.8733
相	-9.87454
報	-9.87507
仮説	-9.87512
シンボル	-9.87512
インスタンス	-9.87512
チャネル	-9.87513
ヌ	-9.87513
小さじ	-9.87513
2021	-9.87515
疑問	-9.87515
ああ	-9.87523
それほど	-9.87657
カバー	-9.87721
est	-9.87912
らせ	-9.87928
暗	-9.88004
最終	-9.88128
を助ける	-9.88174
マックス	-9.88205
想	-9.88247
イメージ	-9.88264
過剰	-9.8827
知られ	-9.88275
ピー	-9.88282
朝食	-9.88285
は誰ですか	-9.88296
を助け	-9.88386
ゴール	-9.88427
の一人	-9.88501
研究者	-9.8855
環境で	-9.8855
日間	-9.88633
創造性	-9.88641
ソー	-9.88747
世界で最も	-9.88848
を調整し	-9.88883
ぐ	-9.88918
その結果	-9.88927
に直接	-9.88946
張	-9.89016
興	-9.89016
給	-9.89028
突	-9.89029
村	-9.8903
に関係なく	-9.89033
シェル	-9.89033
を増やす	-9.89033
炭素	-9.89038
ブロックチェーン	-9.89049
自体	-9.89091
以前に	-9.89094
たいですか	-9.89104
に相談する	-9.89268
役立ちます	-9.89393
ML	-9.89489
書く	-9.89491
スコア	-9.89512
快適	-9.89555
__	-9.89559
22	-9.89625
を求める	-9.89667
短	-9.89715
実現	-9.89723
去	-9.89777
自身	-9.89785
及	-9.89786
土壌	-9.89802
横	-9.89802
エッセイ	-9.89802
規則	-9.89804
の向上	-9.89805
と考えています	-9.89819
動機	-9.89825
センサー	-9.89828
トップ	-9.89837
ナッツ	-9.89882
キング	-9.89924
を経験し	-9.89964
週間	-9.89996
創造的な	-9.90006
しようとする	-9.90058
実行できます	-9.90116
art	-9.90352
を書いて	-9.90411
庭	-9.90536
ep	-9.90545
腐敗	-9.90576
インスピレーション	-9.90577
丸	-9.90578
周波数	-9.90578
玉ねぎ	-9.90578
を見つけることができます	-9.90579
単位	-9.90585
はしばしば	-9.90585
解放	-9.906
はどうですか	-9.90617
tor	-9.9063
物事	-9.90658
族	-9.90669
プロット	-9.9069
最適な	-9.90704
することができ	-9.90707
ていただけますか	-9.90854
保持	-9.90857
青い	-9.90898
を私に	-9.90957
いい	-9.90981
たりする	-9.91038
遠	-9.9109
代数	-9.91103
物理的	-9.91152
活	-9.91221
なければ	-9.91293
毒	-9.91316
エンジニア	-9.91338
員	-9.91343
多様性	-9.91359
箱	-9.91359
コンソール	-9.91359
迅速に	-9.91359
冗談	-9.91359
罰	-9.91359
に向かって	-9.91359
推論	-9.91362
献身	-9.91363
刻んだ	-9.91364
商業	-9.91365
ようとします	-9.91367
栄養素	-9.91373
時期	-9.91382
していること	-9.91382
ボトル	-9.91385
ドライブ	-9.91401
間違い	-9.91435
ど	-9.91441
大量の	-9.91493
静	-9.91514
できるようにします	-9.9153
人種	-9.91588
を表し	-9.9161
質問に答え	-9.91703
を読む	-9.91732
混ぜ	-9.91809
挙	-9.91823
たこと	-9.91884
路	-9.9209
ti	-9.92097
を必要とし	-9.92105
論理	-9.92141
易	-9.92146
アニメ	-9.92146
ゆっくりと	-9.92146
腕	-9.92146
ニンニク	-9.92147
コンテナ	-9.92148
を持っていません	-9.92159
サッカー	-9.92182
ホスト	-9.92328
動的	-9.92349
するとき	-9.92429
最高	-9.92436
エンド	-9.92533
高く	-9.92558
II	-9.92584
フリー	-9.92677
可能な限り	-9.92693
Re	-9.92716
異なります	-9.92763
満	-9.92826
▁km	-9.92905
可	-9.92916
算	-9.92925
cm	-9.92925
熟	-9.9293
を伴う	-9.92938
冬	-9.92939
腹	-9.92939
成果	-9.9294
兄弟	-9.9294
翼	-9.9294
ニンジン	-9.92942
製造	-9.92944
クエリ	-9.92944
転送	-9.92949
エンジニアリング	-9.9296
読者	-9.93017
go	-9.93056
自然な	-9.93064
戦う	-9.93075
物理的な	-9.93147
より高い	-9.93294
つであり	-9.93331
読	-9.93365
到着	-9.93365
を加えます	-9.93395
ていて	-9.9341
ンド	-9.93418
ウム	-9.93459
実際には	-9.93537
理解し	-9.93602
を提供すること	-9.93624
吸収	-9.93703
略	-9.93725
護	-9.93736
滅	-9.93737
続けています	-9.93738
典型的な	-9.9374
ドライバー	-9.9374
レート	-9.9374
ラテンアメリカ	-9.9374
インタビュー	-9.93741
燃焼	-9.93744
シンプルで	-9.93751
レンズ	-9.9387
レース	-9.93921
ショ	-9.93933
すべての人	-9.93981
実行する	-9.94093
CO	-9.94106
起動	-9.94127
Pl	-9.94177
と呼ばれ	-9.94203
ラップ	-9.94338
スキー	-9.94393
を変える	-9.94434
土	-9.94496
装	-9.94509
放射	-9.94533
乱	-9.94543
雰囲気	-9.94545
撮影	-9.94548
境界	-9.94549
割合	-9.94564
天気	-9.94588
アカウント	-9.946
とともに	-9.94613
保つ	-9.94623
Pa	-9.94646
32	-9.94651
を食べる	-9.94694
殺	-9.94755
リーダー	-9.94767
が低い	-9.94791
を処理する	-9.94805
インチ	-9.9485
と見なされ	-9.94863
ようにしてください	-9.9504
住んで	-9.95114
十分	-9.95157
る必要があります	-9.95216
\	-9.95238
28	-9.95312
賞	-9.95358
休憩	-9.95359
として知られる	-9.95359
ミッション	-9.9536
巨大な	-9.9536
長所と短所	-9.9536
パートナー	-9.9536
夏	-9.9536
住	-9.9536
多数の	-9.95371
ポリシー	-9.95375
母親	-9.95377
電圧	-9.95378
React	-9.95383
追跡	-9.95389
電源	-9.95401
が必要な	-9.95408
IA	-9.95413
ャ	-9.95434
作家	-9.9548
持続可能な	-9.95485
をとる	-9.95499
ことができません	-9.95534
がいます	-9.95574
べきですか	-9.95574
が好きです	-9.95611
を購入する	-9.95621
を達成し	-9.95665
を作成すること	-9.95666
1/2	-9.95686
オフ	-9.95865
クロス	-9.95956
に役立つ	-9.95995
で構成され	-9.96073
確かに	-9.96091
ビン	-9.96091
していた	-9.96103
許	-9.96173
を実装する	-9.96174
トルティーヤ	-9.96179
喫煙	-9.96179
ノイズ	-9.96181
血液	-9.96185
充電	-9.96187
除去	-9.96191
反射	-9.96193
ベイ	-9.9622
per	-9.96286
提示	-9.96289
方向に	-9.96292
ナル	-9.96357
のに役立つことを願っています	-9.96398
個	-9.96455
を防ぐために	-9.9646
していますか	-9.96482
を評価し	-9.96497
強さ	-9.96516
ある日	-9.9656
ユーザーに	-9.96691
ことを保証する	-9.96706
-19	-9.96736
術	-9.96911
安全で	-9.96934
協	-9.96935
ターン	-9.96946
基	-9.96947
原	-9.96964
増	-9.96967
雲	-9.97005
のほんの一部です	-9.97006
エイリアン	-9.97006
変化する	-9.97011
細菌	-9.97011
公平	-9.97015
を引き付け	-9.97017
ガラス	-9.97051
が高い	-9.97097
をかけ	-9.97133
ミング	-9.97221
しましょう	-9.97268
arr	-9.97279
彼らに	-9.9731
古代	-9.97322
ill	-9.97385
でさえ	-9.97464
正確	-9.97472
しなければならない	-9.97474
乾燥	-9.97479
別	-9.97489
リップ	-9.97494
日光	-9.97673
相談	-9.97687
tion	-9.97714
複雑で	-9.97734
を考慮する	-9.97749
選	-9.97769
ジョ	-9.97812
キャプチャ	-9.97837
氷	-9.97837
楽しみ	-9.97839
トランス	-9.9784
蓄積	-9.97841
素材	-9.97844
ショット	-9.97875
はありませんが	-9.97888
それ自体	-9.97909
ラム	-9.97944
po	-9.97948
住んでいる	-9.98152
を改善するために	-9.98228
カラー	-9.98237
ペン	-9.9833
から始めて	-9.98335
ニュー	-9.98448
知っていますか	-9.98455
てもらえますか	-9.98507
ウス	-9.98533
を行い	-9.98562
書かれ	-9.98566
デル	-9.986
鶏	-9.98666
救	-9.98676
大幅に	-9.98679
ライフスタイル	-9.98701
発生します	-9.98755
共	-9.98773
恐れ	-9.98821
りました	-9.98831
マップ	-9.98887
目的地	-9.98891
ローン	-9.98912
97	-9.9896
ya	-9.98989
文脈	-9.99139
受け入れられ	-9.99203
sc	-9.99214
を実行します	-9.99262
ケア	-9.99297
人物	-9.99393
と言う	-9.99402
広く使用され	-9.99417
未	-9.99511
偽	-9.99523
罪	-9.99524
賢	-9.99525
剣	-9.99525
共産主義	-9.99527
必ずしも	-9.99527
カフェイン	-9.99528
厚	-9.99528
バナナ	-9.99528
町	-9.99529
対象	-9.99535
時々	-9.99561
トラック	-9.99583
ボット	-9.99617
に参加する	-9.99618
どちらも	-9.99666
エア	-9.9968
ツールです	-9.99712
毎	-9.9973
入手	-9.99731
を探す	-9.99803
さまざまな種類の	-9.99832
を信じ	-9.99857
を考慮し	-9.99887
Al	-9.99888
イル	-9.99916
誤	-9.99922
kg	-9.9993
av	-9.99958
を保存	-10.0001
マイクロ	-10.0005
歴史的な	-10.0012
を超える	-10.0013
便利	-10.0018
を説明します	-10.0025
保	-10.0025
パル	-10.0029
ケーブル	-10.0038
鉱	-10.0038
コラボレーション	-10.0038
リアルタイム	-10.0038
折	-10.0038
ほぼ	-10.0038
子供たち	-10.004
論文	-10.0043
火星	-10.0044
を追加し	-10.0048
見つか	-10.0049
書かれた	-10.005
ock	-10.0065
訓練された	-10.0069
を定義します	-10.0073
組	-10.0075
いくつかのヒント	-10.0085
多くの要因	-10.0088
目標を達成する	-10.0099
の選択は	-10.01
自然言語	-10.0104
にあり	-10.0107
屋	-10.0119
界	-10.0122
農	-10.0122
焼	-10.0123
望んでい	-10.0123
困	-10.0124
と思う	-10.0124
キャンペーン	-10.0124
シミュレーション	-10.0124
スピーカー	-10.0124
お気に入りの	-10.0124
任意の	-10.0124
ポッター	-10.0124
コーディング	-10.0125
行為	-10.0126
を生成し	-10.0127
Ma	-10.0134
プレート	-10.0135
試み	-10.0136
75	-10.0137
をください	-10.0142
していません	-10.0149
誰も	-10.0155
厳	-10.0167
クター	-10.0167
他	-10.017
と思いますか	-10.0175
ロス	-10.0176
られる	-10.0182
を作成して	-10.0183
シア	-10.0184
それから	-10.0187
ビル	-10.0189
促進	-10.0192
res	-10.0206
に影響を与える可能性があります	-10.0207
ってください	-10.021
便	-10.021
菌	-10.0211
のおかげで	-10.0211
量子力学	-10.0211
がたくさんあります	-10.0211
矛盾	-10.0211
ラップトップ	-10.0212
を手に入れ	-10.0212
どれほど	-10.0212
ことが含まれます	-10.0214
ピア	-10.0216
速い	-10.0226
置く	-10.0238
聞いて	-10.0239
バック	-10.0241
対処	-10.0241
ラベル	-10.0243
ヘル	-10.0245
RE	-10.0249
▁for	-10.0252
人々に	-10.0253
には多くの	-10.0272
ass	-10.0285
wi	-10.0285
グル	-10.0288
局	-10.0298
園	-10.0298
炎	-10.0298
善	-10.0299
エジプト	-10.0299
前向きな	-10.0299
激しい	-10.0299
承認	-10.0299
暗号通貨	-10.0299
春	-10.0299
残念ながら	-10.0299
風景	-10.03
人生の意味	-10.0301
通知	-10.0305
利用できる	-10.0309
が何であるか	-10.031
ディング	-10.0311
に役立ちます	-10.0315
ビット	-10.032
でなければなりません	-10.0324
影響を与え	-10.0325
誰	-10.0325
27	-10.0329
に興味がある	-10.0339
ようなものです	-10.0355
外国	-10.0357
協力して	-10.0362
取る	-10.0371
ort	-10.0381
射	-10.0385
見た	-10.0386
絵	-10.0386
買	-10.0387
西洋	-10.0387
植民地	-10.0387
World	-10.0388
有益	-10.0388
職業	-10.0388
修理	-10.0389
文明	-10.039
当時	-10.039
楽器	-10.039
レポート	-10.0399
get	-10.04
ずに	-10.0405
バラ	-10.0405
アス	-10.0416
保証	-10.0418
1000	-10.0419
属	-10.0421
てほしい	-10.0425
いています	-10.0434
につながります	-10.0442
の周りの	-10.0444
払	-10.0448
ッカー	-10.0467
tra	-10.0476
Minecraft	-10.0477
CPU	-10.0477
python	-10.0477
ユーモア	-10.0477
崩壊	-10.0477
チャットボット	-10.0478
Apple	-10.0478
知覚	-10.0478
ook	-10.0482
ak	-10.0482
一部の人々は	-10.0483
角度	-10.0483
するにはどうすればよいですか	-10.049
ant	-10.0506
シャー	-10.051
ランク	-10.0525
速	-10.0531
していました	-10.0543
触れ	-10.0548
柔軟	-10.0549
ブリ	-10.055
ng	-10.0553
の影響を受け	-10.0556
を教えてもらえます	-10.056
性質	-10.0563
支	-10.0564
コミット	-10.0566
ふ	-10.0567
穴	-10.0567
欲しい	-10.0567
オフィス	-10.0567
領土	-10.0567
掛け	-10.0568
知らせ	-10.0568
26	-10.0569
2022	-10.0572
を提案し	-10.0574
生物学的	-10.0576
スレッド	-10.0578
前進	-10.058
をサポートし	-10.0594
視覚	-10.0602
に移動し	-10.0604
age	-10.0607
てきた	-10.0607
vo	-10.0623
自由に	-10.0629
に変換する	-10.0633
リラックス	-10.0647
▁Re	-10.0647
証	-10.0654
一日	-10.0655
跡	-10.0657
請	-10.0657
に最適です	-10.0657
ツールを使用して	-10.0657
コショウ	-10.0658
に合わせて	-10.0658
怪我	-10.0658
プリンター	-10.0658
まったく	-10.0658
第二次世界大戦	-10.0658
予防	-10.0658
GPU	-10.0658
ゾーン	-10.0659
心理的	-10.0659
単なる	-10.066
://	-10.0661
視覚化	-10.0663
移行	-10.0663
柔軟性	-10.0676
プラン	-10.0685
ki	-10.0689
性別	-10.0697
隠	-10.07
ために使用できます	-10.0702
に置き	-10.0704
になるまで	-10.0731
間で	-10.0732
然	-10.0747
欲	-10.0748
肌	-10.0749
ドラゴン	-10.0749
載	-10.075
Excel	-10.075
段落	-10.075
同僚	-10.075
歌詞	-10.075
両親	-10.075
敬意	-10.0751
仲間	-10.0752
与	-10.0753
マウス	-10.0758
私は自分の	-10.0762
派	-10.077
技術的な	-10.0779
フロー	-10.0781
IS	-10.0787
と呼ばれます	-10.0793
ことを確認します	-10.0796
を伝える	-10.0797
を考慮して	-10.0803
時間がかか	-10.0803
号	-10.0811
対応	-10.0814
したこと	-10.0827
ノート	-10.0829
られない	-10.0836
以来	-10.0836
具	-10.0838
図	-10.0838
社	-10.084
初	-10.084
馬	-10.0842
鼻	-10.0842
続けます	-10.0842
フォーマット	-10.0842
硬	-10.0842
三角形	-10.0842
正式な	-10.0842
投稿	-10.0842
架空の	-10.0842
Docker	-10.0842
展開	-10.0842
ブランチ	-10.0845
活用	-10.0846
とは異なり	-10.0855
という考え	-10.0856
留	-10.0864
ug	-10.0867
で知られ	-10.0872
プレイヤーが	-10.0873
広い	-10.0874
に存在する	-10.088
を高め	-10.0883
を評価する	-10.0884
異常	-10.0891
末	-10.0896
AC	-10.0898
の形で	-10.0899
減	-10.0901
お互い	-10.0909
ian	-10.091
準備ができ	-10.0919
Wi	-10.0921
ために使用できる	-10.0921
gr	-10.0923
地面	-10.0925
含	-10.0925
与え	-10.0926
を残し	-10.0929
最も有名な	-10.0929
などのさまざまな	-10.0934
魂	-10.0935
を検討する	-10.0935
コンピューターサイエンス	-10.0936
炭水化物	-10.0936
収益	-10.0936
によれば	-10.0936
公園	-10.0936
絵画	-10.0937
不平等	-10.0941
あなたはあなたの	-10.0946
重要な役割を果たし	-10.0948
これまで	-10.0957
より効率的	-10.0958
バイオ	-10.0962
トリック	-10.0962
ティン	-10.0973
信じ	-10.0975
ga	-10.0979
読む	-10.0988
クレ	-10.0992
Mac	-10.1
布	-10.1005
透明	-10.1008
アクティブ	-10.1009
を維持するために	-10.1018
議	-10.1026
朝	-10.1027
聖	-10.1028
メーカー	-10.1029
を調べ	-10.103
等しい	-10.103
胸	-10.103
票	-10.103
チャンネル	-10.103
広範な	-10.103
著作権	-10.103
負荷	-10.103
どれだけ	-10.1031
飲み物	-10.1032
聖書	-10.1032
自動車	-10.1032
生存	-10.1032
万人	-10.1035
下げ	-10.1038
水素	-10.1047
ことを示唆しています	-10.1048
酸化	-10.1068
fi	-10.1078
杯	-10.1084
ニン	-10.1086
合法	-10.1086
ie	-10.1095
楽しんで	-10.1101
と見なされる	-10.1107
生物学	-10.1109
pi	-10.1116
ことにしました	-10.1119
精神的	-10.1123
埋	-10.1125
欺	-10.1125
季節	-10.1125
考慮すべき	-10.1125
サイエンスフィクション	-10.1125
の背後にある	-10.1125
Facebook	-10.1125
に似た	-10.1125
デフォルト	-10.1125
贈り物	-10.1125
検査	-10.1125
を使う	-10.1126
逃げ	-10.1126
フィン	-10.1128
いつでも	-10.1129
固定	-10.1138
方法について	-10.1138
を構成する	-10.1139
ドメイン	-10.1141
を意味する	-10.1142
our	-10.1164
ダル	-10.1172
カラ	-10.1178
チャン	-10.118
遺伝的	-10.1184
モー	-10.1184
性的	-10.1189
多くの人々	-10.119
▁いいえ	-10.1198
を見つけます	-10.1199
Se	-10.1199
65	-10.1201
軽	-10.1203
テクスチャ	-10.1214
野	-10.1215
牛	-10.1219
省	-10.122
章	-10.122
を考えると	-10.1221
おもちゃ	-10.1221
と仮定し	-10.1221
エンティティ	-10.1221
赤ちゃん	-10.1221
指導者	-10.1221
感染	-10.1221
事故	-10.1222
クラブ	-10.1223
なしに	-10.1223
チキン	-10.1225
宗教的	-10.1225
息子	-10.1226
自動学習	-10.1227
タブ	-10.1232
っていた	-10.1232
軽い	-10.1237
ものであり	-10.1238
要する	-10.1245
人もいます	-10.1248
得られ	-10.1249
ブルー	-10.125
を変え	-10.1253
ment	-10.126
フル	-10.1265
身体的	-10.1266
市場で	-10.1272
との関係	-10.128
決め	-10.1286
明確に	-10.1287
受け	-10.129
をインストールし	-10.1296
が存在する	-10.1309
象	-10.1313
ユニークで	-10.1317
ピクセル	-10.1318
危機	-10.1318
のはなぜですか	-10.1318
プラグイン	-10.1318
柔らかい	-10.1318
フォルダー	-10.1319
Rust	-10.1319
によって特徴付けられ	-10.1319
行われ	-10.1319
テンプレート	-10.1319
注ぎ	-10.1319
相対	-10.132
遅く	-10.1321
誤った	-10.1322
個人的な好み	-10.1324
印象的な	-10.1325
を作成するための	-10.1326
引用	-10.1329
避け	-10.1333
戻って	-10.1334
正確で	-10.1337
の周りに	-10.1343
と話す	-10.1345
日目	-10.1345
独立した	-10.1346
必要性	-10.1349
知りたい	-10.135
関連性	-10.1352
lu	-10.1372
ジョー	-10.1379
っていました	-10.1379
してみてください	-10.1388
持ち	-10.14
予想	-10.1411
党	-10.1416
打	-10.1416
多様な	-10.1416
輪	-10.1416
言い換え	-10.1416
キッチン	-10.1416
窓	-10.1416
腸	-10.1417
野生	-10.142
ブラック	-10.1425
をお勧めしますか	-10.1428
深い学習	-10.1429
学んだ	-10.143
ことはありません	-10.1439
ソート	-10.1439
ツリー	-10.1439
出す	-10.1452
王国	-10.1455
いくつかの重要な	-10.1459
Git	-10.1488
好	-10.149
を避け	-10.1503
list	-10.1506
経	-10.1512
修	-10.1513
捕	-10.1514
創	-10.1515
ぼ	-10.1515
バルセロナ	-10.1515
JSON	-10.1515
戸	-10.1515
親愛なる	-10.1516
継承	-10.1516
娘	-10.1516
を提供できる	-10.1517
読み取り	-10.1518
検索エンジン	-10.1519
命令	-10.1521
明確で	-10.1522
ディスク	-10.1523
元気	-10.1525
少年	-10.1528
明日	-10.1531
を調査し	-10.1533
でもあります	-10.1535
実行され	-10.1537
を変更し	-10.1541
ハム	-10.1547
食べ	-10.1551
を購入し	-10.157
られます	-10.1571
必要があり	-10.1572
られている	-10.1572
のに役立ち	-10.1573
成功した	-10.1577
を作成するために	-10.1586
に入る	-10.1587
与えられた	-10.1589
36	-10.16
安	-10.1607
両	-10.1609
提	-10.1609
介	-10.1612
福	-10.1615
認証	-10.1615
草	-10.1615
弾	-10.1615
アジア	-10.1616
没	-10.1616
に到達し	-10.1616
コーラス	-10.1617
反復	-10.1618
ure	-10.162
やかな	-10.162
見解	-10.1625
du	-10.1628
を測定する	-10.1631
に関して	-10.1634
ジン	-10.1635
必要はありません	-10.1636
つの異なる	-10.1652
を見つけて	-10.1653
を形成する	-10.1659
についてもっと	-10.1659
強力で	-10.1663
ペア	-10.1665
ことを知っています	-10.1667
パイ	-10.1669
▁1)	-10.1674
データ構造	-10.1679
レベルで	-10.168
に関連しています	-10.1689
を表示する	-10.1692
議会	-10.1692
を特定する	-10.1694
use	-10.1695
生成された	-10.1698
あなたは私に	-10.1701
あなたの名前	-10.1713
湿	-10.1713
整	-10.1716
余分な	-10.1716
パリ	-10.1716
を反映し	-10.1716
廃棄物	-10.1716
ポルトガル	-10.1716
滑らか	-10.1716
カナダ	-10.1716
Hello	-10.1717
勝利	-10.1718
気象	-10.172
を受け取り	-10.172
またはその他の	-10.1723
セットアップ	-10.1724
よりもはるかに	-10.1725
▁St	-10.1728
を定義する	-10.1733
パラ	-10.1736
400	-10.1739
笑い	-10.1744
コーン	-10.1744
ネット	-10.1745
方法があります	-10.1752
赤い	-10.1763
ウル	-10.1765
ity	-10.1765
正常	-10.1773
覚	-10.1777
ワード	-10.1782
段階で	-10.1793
単	-10.181
束	-10.1814
管	-10.1817
項	-10.1818
アパート	-10.1819
エージェント	-10.1819
憲法	-10.1819
方が良い	-10.1819
装飾	-10.1819
保管	-10.1819
切断	-10.182
明確	-10.1821
公正	-10.1821
深さ	-10.1822
遅れ	-10.1824
を確保する	-10.1825
ビルド	-10.1828
ためのいくつかの	-10.1829
上部	-10.1834
を軽減する	-10.1839
さえ	-10.1848
96	-10.1858
簡単	-10.1869
を調整する	-10.1872
英語で	-10.1902
を知っている	-10.1904
が含まれている	-10.1904
を入力し	-10.1909
生産性	-10.1918
造	-10.192
オーストラリア	-10.1921
枝	-10.1922
を以下に示します	-10.1922
施設	-10.1922
インデックス	-10.1922
妻	-10.1922
インフラストラクチャ	-10.1922
署名	-10.1922
ありますか	-10.1922
橋	-10.1922
友情	-10.1922
キリスト教	-10.1922
態度	-10.1922
遺産	-10.1922
間隔	-10.1923
▁クリア	-10.1923
キーワード	-10.1923
若者	-10.1924
パーティー	-10.1924
メトリック	-10.1925
運命	-10.1926
立場	-10.1928
脆弱性	-10.1928
チン	-10.1931
を探してください	-10.1931
与えられ	-10.1932
か月	-10.1934
キャンプ	-10.1937
ていることを確認してください	-10.1938
){	-10.1943
指定	-10.1961
85	-10.1963
2000	-10.1977
高レベルの	-10.1978
有効	-10.1991
Go	-10.1998
が少ない	-10.2008
利用可能	-10.2012
3,	-10.2014
象徴	-10.2015
の点で	-10.2016
に適しています	-10.202
ビュー	-10.202
和	-10.2022
ソースコード	-10.2023
三	-10.2024
以外の	-10.2025
席	-10.2026
https	-10.2026
ブラックホール	-10.2026
洞察	-10.2026
がどのように機能するか	-10.2026
柔らかく	-10.2026
どのくらい	-10.2026
PHP	-10.2026
ティック	-10.2027
調和	-10.2027
強制	-10.2027
を設定する	-10.2028
ねえ	-10.2032
ff	-10.2033
観光	-10.2034
理想的な	-10.2034
ron	-10.2036
を予測する	-10.2037
を共有する	-10.2037
ことを学び	-10.2041
発音	-10.2048
ことを検討してください	-10.2057
常	-10.2071
大規模な言語モデル	-10.2073
app	-10.208
ES	-10.2083
べきです	-10.2084
鍵	-10.2087
ようとしている	-10.2093
私はそれを	-10.2098
を開き	-10.21
が表示され	-10.21
nder	-10.2111
特別	-10.2111
寒	-10.2116
をお勧めします	-10.2116
痛	-10.2126
来る	-10.2129
規模	-10.213
ru	-10.213
ウクライナ	-10.2131
千	-10.2131
麻	-10.2131
固有の	-10.2131
デスクトップ	-10.2131
オーディオ	-10.2131
ウィンドウ	-10.2131
たびに	-10.2131
接触	-10.2132
フォーラム	-10.2132
積極的に	-10.2133
を受け取る	-10.2133
品種	-10.2134
パーソナライズされた	-10.2135
地位	-10.2138
スクリーン	-10.2142
地下	-10.2151
を計算します	-10.2151
簡単で	-10.216
2020	-10.2162
起こ	-10.2164
にアクセスする	-10.2166
冷たい	-10.2166
所有	-10.2171
行うことができます	-10.2177
生じる	-10.2178
メイ	-10.2186
作成された	-10.219
不正	-10.2195
より速く	-10.2212
ようになります	-10.2213
ET	-10.2214
を可能にする	-10.2217
を保証する	-10.2227
心理学	-10.2229
割	-10.2231
計	-10.2231
寄	-10.2237
ジェームズ	-10.2237
偉大な	-10.2237
闘争	-10.2237
を添えた	-10.2237
対策	-10.2237
望ましい	-10.2237
共和国	-10.2238
クリスマス	-10.2238
未満	-10.2238
ix	-10.2238
を説明できますか	-10.2238
配布	-10.2239
代替品	-10.2239
コメディ	-10.224
部品	-10.2242
形式で	-10.2244
を研究する	-10.2246
垂直	-10.2249
▁Pro	-10.225
寒い	-10.2253
レモン	-10.2254
生まれた	-10.2258
探索	-10.2261
つけ	-10.2273
発行	-10.2273
を取る	-10.2274
AB	-10.229
95	-10.2291
にアクセスし	-10.2301
0,	-10.2307
動的な	-10.2313
ことを示しています	-10.2314
特定のニーズ	-10.232
的であり	-10.2322
を確認してください	-10.2324
ize	-10.2334
きれい	-10.2339
否	-10.2343
照	-10.2344
台	-10.2345
レッスン	-10.2345
大きさ	-10.2345
パラドックス	-10.2345
に慣れ	-10.2345
謎	-10.2345
一貫した	-10.2345
義務	-10.2345
乗算	-10.2345
木材	-10.2346
ニューロンネットワーク	-10.2348
を開く	-10.2349
適合	-10.2349
を持つこと	-10.235
聞こえ	-10.235
耐性	-10.235
満たされ	-10.235
できるだけ	-10.2351
ライフ	-10.2353
ッツ	-10.2354
ように設計されています	-10.2356
レーション	-10.2362
この本は	-10.2364
を紹介します	-10.2364
カイ	-10.2375
であるという	-10.2378
個別	-10.2381
フェル	-10.2388
こんにちは	-10.2415
を正確に	-10.2424
に焦点を当てた	-10.2428
し続ける	-10.244
38	-10.2442
陸	-10.2447
編	-10.2453
ざ	-10.2453
民主主義	-10.2454
驚くべき	-10.2454
粘	-10.2454
清	-10.2454
願	-10.2454
蔵	-10.2454
ネイティブ	-10.2454
ナイト	-10.2454
就	-10.2454
USB	-10.2454
が必要になる場合があります	-10.2454
天文学	-10.2455
株式	-10.2455
Openai	-10.2455
バックアップ	-10.2455
保ち	-10.2456
場合によっては	-10.2457
引っ	-10.2457
あまりにも	-10.2458
が多い	-10.2458
に戻り	-10.2461
PI	-10.2461
いくつかの一般的な	-10.2463
同期	-10.2464
リサイクル	-10.2466
作物	-10.2467
できるため	-10.2472
マスク	-10.2472
que	-10.2472
消費者	-10.2475
グラフィックス	-10.2492
グリ	-10.2495
ml	-10.2501
を見つけること	-10.2502
であることを忘れないでください	-10.2507
発生し	-10.2507
を探索し	-10.252
マージ	-10.2524
キシ	-10.2535
などの要因	-10.2537
76	-10.2541
300	-10.2543
単純	-10.2543
しているため	-10.255
スキルを向上させ	-10.2556
豊富な	-10.256
番	-10.256
ウェブ	-10.2561
長期	-10.2562
set	-10.2563
響	-10.2563
尾	-10.2563
航空	-10.2563
焦点	-10.2563
うつ病	-10.2564
緩和	-10.2564
基盤	-10.2564
フレンドリー	-10.2564
を好む	-10.2564
RAM	-10.2564
自然言語処理	-10.2567
失われ	-10.2567
たいと思っています	-10.2571
エキサイティングな	-10.2571
外側	-10.2572
長い間	-10.2574
聞いた	-10.2584
スティック	-10.2588
ことができるように	-10.2589
大人	-10.2589
Ba	-10.2597
89	-10.2599
のうち	-10.2601
されているため	-10.2608
わずかに	-10.2618
乗	-10.2621
現実的な	-10.2624
歴史上	-10.2624
されている場合	-10.2631
ert	-10.2653
液	-10.2667
uc	-10.2669
職	-10.2672
模	-10.2674
軸	-10.2674
ことを覚えておくことが重要です	-10.2675
を返す	-10.2675
を投げ	-10.2675
と信じています	-10.2675
刑	-10.2675
電気自動車	-10.2676
data	-10.2677
プラトン	-10.2678
を達成するために	-10.2679
決	-10.2697
を追加して	-10.2699
あなたの質問	-10.2701
アンド	-10.2713
観点から	-10.2724
を見つけました	-10.2726
を取得します	-10.2727
扱い	-10.2727
排除	-10.2737
を決定し	-10.2747
あなたにとって	-10.2761
Le	-10.2764
しなければなりません	-10.2772
特定	-10.2775
への影響	-10.278
ven	-10.2781
混ぜます	-10.2782
禁止	-10.2787
握	-10.2787
ポテト	-10.2787
もう一度	-10.2787
肩	-10.2787
リポジトリ	-10.2787
いっぱい	-10.2787
デッキ	-10.2787
ダイヤモンド	-10.2787
欲求	-10.2788
間違いなく	-10.2788
光の速度	-10.2789
限られた	-10.2789
勧め	-10.2791
安定した	-10.2798
民間	-10.2799
有効性	-10.2803
を提示します	-10.2804
ここにあなたが	-10.2811
ピース	-10.2813
透明性	-10.2814
An	-10.2819
殺人	-10.2822
一致	-10.2828
たち	-10.283
長さ	-10.283
このタイプの	-10.2832
を使用しています	-10.2864
情報源	-10.2868
600	-10.2871
AN	-10.288
ペース	-10.2888
予	-10.2893
糖	-10.29
条	-10.29
投資家	-10.29
にさらされ	-10.2901
ハードドライブ	-10.2901
湖	-10.2901
第三	-10.2902
時計	-10.2902
どれ	-10.2904
NA	-10.2905
ワット	-10.291
プレス	-10.2911
起こる	-10.2914
指定された	-10.2915
知る	-10.2916
を獲得する	-10.2919
述べ	-10.2926
ダンス	-10.2927
含まれ	-10.2928
訪れる	-10.293
ワン	-10.2934
を管理する	-10.2937
プレー	-10.2947
29	-10.2951
ジム	-10.2953
を保持し	-10.2965
際	-10.2965
と見なされます	-10.2972
支持	-10.2977
を知り	-10.2987
がなく	-10.2994
古	-10.2999
銀	-10.3012
額	-10.3012
摂取	-10.3013
履歴	-10.3014
クレジット	-10.3014
純	-10.3015
頃	-10.3015
幼	-10.3015
衛星	-10.3015
半径	-10.3016
エッジ	-10.3016
を扱う	-10.3016
氏	-10.3016
利点と短所	-10.3016
容易に	-10.3016
を増やし	-10.3016
第二	-10.3018
風味	-10.3023
列車	-10.3023
不可欠な	-10.3025
属性	-10.3036
を入れ	-10.3039
汚れ	-10.3041
を準備し	-10.3041
周り	-10.3047
を加えて	-10.3052
分裂	-10.3055
PS	-10.3057
を得るために	-10.3062
を強化する	-10.3064
関与	-10.3075
タグ	-10.308
Ho	-10.3084
に焦点を合わせ	-10.3091
あなたが私に	-10.3093
ストア	-10.3096
安定	-10.3101
直接的な	-10.3115
ton	-10.3121
ance	-10.3127
癌	-10.3132
ゆ	-10.3132
幽霊	-10.3132
臭	-10.3132
スマート	-10.3132
博士	-10.3132
エディター	-10.3132
再生可能エネルギー	-10.3132
耐久性	-10.3132
資本主義	-10.3132
スイッチ	-10.3132
爪	-10.3132
ヘルスケア	-10.3132
裏	-10.3132
コミットメント	-10.3133
心臓	-10.3133
行く	-10.3134
短所	-10.3134
予約	-10.3135
を実施し	-10.3137
ユーザーインターフェイス	-10.3138
茶色	-10.3139
わからない	-10.3148
最終的な	-10.3149
私はそれが	-10.3153
ボブ	-10.316
視覚的	-10.3164
面積	-10.317
この地域	-10.3177
ようとしています	-10.3178
重い	-10.3189
来た	-10.3192
いる間	-10.3192
同様に	-10.3197
行った	-10.3203
要	-10.3212
っていない	-10.3217
ロケット	-10.3222
燃	-10.3223
と主張しています	-10.3231
git	-10.3231
スキャン	-10.3232
設計された	-10.3233
を超え	-10.3234
字	-10.3238
黄	-10.3239
メル	-10.3248
祝	-10.3249
悲しみ	-10.3249
延	-10.3249
切り替え	-10.3249
が含まれる場合があります	-10.3249
礼	-10.325
ビタミン	-10.325
余	-10.325
賞賛	-10.325
信じられないほど	-10.325
パネル	-10.325
ミルク	-10.325
尺度	-10.325
集団	-10.325
親切	-10.3252
欠点	-10.3252
可能性が高い	-10.3253
不確実性	-10.3253
食料	-10.3256
に従い	-10.326
で作られた	-10.3268
について話す	-10.3272
を置き	-10.3281
起こった	-10.329
黒い	-10.3292
を処理し	-10.3294
様	-10.3302
ネス	-10.3307
有名	-10.3325
800	-10.3327
を研究し	-10.3328
キン	-10.335
扱	-10.3353
シュー	-10.3354
情	-10.336
簡単です	-10.336
惑	-10.3367
充	-10.3367
課	-10.3368
神秘的な	-10.3368
群	-10.3368
を選ぶ	-10.3369
安定した拡散	-10.3369
ニューヨーク	-10.3369
調節	-10.337
を確認します	-10.337
証明書	-10.3372
に関連して	-10.3373
まあ	-10.3375
象徴的な	-10.3381
を制御し	-10.3383
が必要である	-10.3383
Me	-10.3386
0.0	-10.3386
革新的な	-10.3389
生じ	-10.3445
療法	-10.3448
てくれてありがとう	-10.3452
固	-10.3458
より複雑な	-10.3462
さまざまな要因	-10.3474
を書きます	-10.3479
商	-10.3487
参	-10.3487
告	-10.3488
絶えず	-10.3489
手頃な価格	-10.3489
浸	-10.3489
を過ごし	-10.3489
ところ	-10.3489
ロマンチックな	-10.3489
迷	-10.3489
には次のものがあります	-10.3489
html	-10.3489
ステートメント	-10.3489
無効	-10.3489
軍隊	-10.3489
一度に	-10.349
給与	-10.349
設置	-10.349
当局	-10.349
職場	-10.3491
この例では	-10.3491
反対側	-10.3492
もう少し	-10.3494
中世	-10.3495
国内	-10.3495
王星	-10.3497
を使用してください	-10.3498
とは何か	-10.3498
を組み合わせて	-10.3502
有害な	-10.3506
行われます	-10.3513
を読んで	-10.3514
amp	-10.3516
を保護し	-10.3521
定数	-10.3524
念	-10.3562
隣	-10.3565
書いた	-10.3573
知ってい	-10.3584
んでいます	-10.3586
に移動します	-10.3589
を作成するには	-10.3599
ウォー	-10.3608
処	-10.3609
像	-10.3609
吸	-10.361
180	-10.361
化合物	-10.3611
ウェイ	-10.3611
に満ちた	-10.3611
ナビゲート	-10.3611
é	-10.3611
▁return	-10.3611
偶	-10.3611
text	-10.3611
と想像してください	-10.3611
を失う	-10.3612
を指す	-10.3612
二次	-10.3612
洗練された	-10.3617
家庭	-10.3618
制度	-10.3618
を集め	-10.3619
作用	-10.3623
を指定し	-10.3623
と考える	-10.3626
遠く	-10.3628
に移動する	-10.3628
を満たし	-10.3629
発生	-10.3642
ビール	-10.3659
知的	-10.3668
があるかもしれません	-10.3683
を正しく	-10.3709
のようなもの	-10.3715
IN	-10.3722
武	-10.3733
誇	-10.3734
カレンダー	-10.3734
穀物	-10.3734
皿	-10.3734
をいくつか紹介します	-10.3735
厳しい	-10.3735
ビットコイン	-10.3735
警告	-10.3735
揚げ	-10.3735
膜	-10.3735
選挙	-10.3735
海岸	-10.3736
中程度の	-10.3736
ビーガン	-10.3736
父親	-10.3736
を持っていない	-10.3736
統一	-10.3737
微調整	-10.3737
を学びます	-10.374
大陸	-10.374
調理します	-10.3748
に近い	-10.3749
重み	-10.3749
チョ	-10.3752
2018	-10.3755
able	-10.3758
引数	-10.3759
ルーム	-10.3759
で構成される	-10.3772
を提供してください	-10.3772
歩いて	-10.378
の後ろ	-10.3785
を強化し	-10.3789
データ分析	-10.3794
==	-10.3794
CD	-10.3795
地球上の	-10.3796
48	-10.3803
を理解すること	-10.3806
したいと思います	-10.3806
決定的な	-10.3816
を知って	-10.3825
をやめ	-10.3835
あなたを助け	-10.3837
fe	-10.3842
置き換え	-10.3843
排	-10.3854
価値があります	-10.3856
エクスペリエンス	-10.3856
筋	-10.3858
兵	-10.3859
を考慮に入れ	-10.3859
オブジェクト指向	-10.3859
モニター	-10.3859
具体的に	-10.3859
の一種です	-10.3859
プロバイダー	-10.3859
支払う	-10.3859
ロジック	-10.3859
ブレーキ	-10.3859
楽しく	-10.3859
耳	-10.386
リモート	-10.386
わかりました	-10.386
苦しみ	-10.386
陰謀	-10.386
警察	-10.386
人の担当者の	-10.386
飛ぶ	-10.386
可能であれば	-10.386
地理的	-10.386
同意	-10.3862
アップロード	-10.3863
var	-10.3864
パンケーキ	-10.3865
ジョージ	-10.3865
変動	-10.3866
を避けてください	-10.3867
フライト	-10.3882
手動	-10.3883
ランプ	-10.3884
を持っていること	-10.3898
遺伝	-10.3907
サイド	-10.3908
を超えて	-10.3912
お勧めします	-10.3917
文脈で	-10.3918
を試して	-10.3924
を表します	-10.3924
だと思います	-10.3927
----------------	-10.393
を向上させ	-10.3932
mod	-10.3935
の大部分	-10.3947
主観的	-10.3965
食べる	-10.3968
不明	-10.3972
起こり	-10.3973
果	-10.3981
混	-10.3983
双	-10.3986
初めて	-10.3986
メンタルヘルス	-10.3986
によって異なる場合があります	-10.3986
お手伝い	-10.3986
パウダー	-10.3986
始まる	-10.3986
夫	-10.3986
衛生	-10.3986
違いがあります	-10.3986
スイス	-10.3987
死亡	-10.3987
航空機	-10.3987
笑顔	-10.3988
レイアウト	-10.3989
景色	-10.399
直面	-10.399
軽量	-10.399
するにつれて	-10.3991
論理的	-10.3991
パレット	-10.3992
少数	-10.3993
問題を解決し	-10.3993
をもたらす可能性があります	-10.3995
興味のある	-10.3995
FA	-10.3996
包括的な	-10.3998
される可能性があります	-10.3998
``	-10.3999
ミニ	-10.4
ホール	-10.4001
想像力	-10.4004
実証	-10.4004
を作成する方法	-10.4007
を保存する	-10.4008
いる場合	-10.4013
視覚的な	-10.4024
フアン	-10.4032
たいのですが	-10.4033
ブロ	-10.4045
したい場合は	-10.4058
から始める	-10.4079
あなたの人生	-10.4079
ことを意味する	-10.4081
深	-10.4082
に変換し	-10.4095
ctor	-10.4107
等	-10.411
均	-10.4111
簡	-10.4113
永	-10.4114
鳴	-10.4114
踏	-10.4114
興奮し	-10.4114
書き込み	-10.4114
ホイール	-10.4114
呼び出し	-10.4114
アップグレード	-10.4114
良好な	-10.4114
ガイダンス	-10.4114
継続的に	-10.4114
script	-10.4114
ボリューム	-10.4114
銃	-10.4114
嫌	-10.4114
海洋	-10.4115
と言います	-10.4116
散歩	-10.4116
ニュートン	-10.4116
知らない	-10.4117
愛情	-10.4118
薄い	-10.4123
電車	-10.4123
ロシア語	-10.4124
除外	-10.4125
エクス	-10.4128
Th	-10.413
であった	-10.4132
DNA	-10.4134
適用される	-10.4137
カント	-10.4141
快適な	-10.4149
マクロ	-10.4151
かかります	-10.4155
少	-10.4156
オプションがあります	-10.4159
トピックに関する	-10.4169
世界的な	-10.4172
を改善するための	-10.4174
▁Ro	-10.4181
することなく	-10.4182
してほしい	-10.4192
we	-10.4193
66	-10.4205
EU	-10.4205
CT	-10.4209
▁3-	-10.4211
を見ました	-10.4214
共感	-10.4222
グローバル	-10.4223
薬物	-10.4225
を提供することができます	-10.4228
ものではありません	-10.4233
79	-10.4237
区	-10.424
昇	-10.4241
肥	-10.4243
辺	-10.4243
凍	-10.4243
うれしいです	-10.4243
児	-10.4244
シーズン	-10.4244
一般化	-10.4244
テンソル	-10.4244
メロディー	-10.4244
に沿って	-10.4244
冷蔵庫	-10.4244
滞在	-10.4244
どれくらい	-10.4244
さらなる	-10.4244
オリジナル	-10.4244
わけではありません	-10.4244
雇用主	-10.4244
退屈	-10.4245
このようにして	-10.4245
伝説	-10.4245
遊び	-10.4245
飛び	-10.4245
image	-10.4245
ッキング	-10.425
何ができますか	-10.4251
出現	-10.4254
発表	-10.4254
に住んでいた	-10.4259
フィート	-10.4262
人間の脳	-10.4262
拡張機能	-10.4265
溶け	-10.4266
タッチ	-10.4266
動作する	-10.4267
一致する	-10.4268
ベリー	-10.4272
させることができます	-10.4311
ハンド	-10.4315
を試し	-10.4319
を見つけるために	-10.4335
テル	-10.4336
qu	-10.4342
持続可能	-10.4355
を持つことができます	-10.4356
let	-10.4356
に相談して	-10.4359
古典	-10.4365
年まで	-10.4374
維	-10.4374
並	-10.4375
羊	-10.4375
アルバム	-10.4376
何らかの	-10.4376
は依然として	-10.4376
に触発され	-10.4376
アインシュタイン	-10.4376
たとえ	-10.4376
デザイナー	-10.4376
靴	-10.4376
組み込む	-10.4376
大丈夫	-10.4376
スープ	-10.4376
ほん	-10.4377
決意	-10.4377
排出	-10.4377
1/4	-10.4378
予定	-10.4378
有機	-10.4379
湿度	-10.438
を備えています	-10.438
time	-10.4387
ローカル	-10.4387
分配	-10.4388
DE	-10.4396
生きる	-10.4404
財政	-10.4411
最新	-10.4414
を探しています	-10.442
を収集し	-10.4423
わずか	-10.4443
man	-10.4446
動く	-10.445
str	-10.445
疑	-10.4451
中間	-10.4453
裂	-10.4464
IV	-10.4464
重要性	-10.4495
理想	-10.45
ly	-10.45
司	-10.4502
絶	-10.4507
スピーチ	-10.4509
ワクチン	-10.4509
改革	-10.4509
を防ぎ	-10.4509
バリエーション	-10.4509
ギャップ	-10.4509
セッション	-10.4509
弦	-10.4509
可用性	-10.4509
どうなりますか	-10.4509
慢	-10.4509
好奇心	-10.4509
韻	-10.4509
ジュース	-10.4509
浮	-10.4509
キログラム	-10.4509
居住	-10.4509
出版	-10.4509
教授	-10.4509
損害	-10.451
欲望	-10.451
駆動	-10.451
π	-10.4511
パイプ	-10.4512
医療専門家	-10.4514
コマンドライン	-10.4518
インポート	-10.4519
km	-10.4519
one	-10.4525
タスクを実行する	-10.4526
つ以上の	-10.4527
atch	-10.453
今後	-10.4541
だと思いますか	-10.4542
プロファイル	-10.4546
について教えてください	-10.4551
by	-10.4556
org	-10.4557
を行います	-10.4567
疑い	-10.4567
精神的な	-10.4568
さない	-10.4573
自宅で	-10.4575
に貢献する	-10.4577
Hz	-10.4577
コマンドを使用して	-10.4579
もありません	-10.4602
を使用している	-10.4605
を練習し	-10.4608
に感謝し	-10.4611
助けを求める	-10.4615
ゴー	-10.4615
を作ります	-10.462
クール	-10.4624
人気があり	-10.4637
Man	-10.464
飾	-10.4644
ターゲットオーディエンス	-10.4644
Twitter	-10.4644
トークン	-10.4644
沸	-10.4644
華	-10.4644
騒	-10.4644
永続的な	-10.4644
バイナリ	-10.4644
ディスプレイ	-10.4644
www	-10.4644
級	-10.4644
もしそうなら	-10.4644
トポロジ	-10.4644
解像度	-10.4644
揺	-10.4644
@	-10.4644
Ubuntu	-10.4644
獣	-10.4644
紀元前	-10.4644
泳	-10.4644
誘導	-10.4645
を解く	-10.4645
ガイドライン	-10.4648
ピアノ	-10.4648
約束	-10.465
選手	-10.465
88	-10.4651
最低	-10.4651
によって引き起こされる	-10.4659
に会い	-10.4661
運用	-10.4662
短く	-10.4663
燃え	-10.4672
アクティブな	-10.4674
国際的な	-10.4675
を得ることができます	-10.4676
悪化	-10.4678
を設定します	-10.468
▁1-	-10.4682
作り	-10.4682
を開きます	-10.4687
影響を与える可能性があります	-10.4689
ボート	-10.4702
を表現する	-10.4703
ことを確認し	-10.4708
およびその他の	-10.4718
逃	-10.4742
表示される	-10.4744
と述べてい	-10.475
応	-10.4775
問	-10.4778
ヒュー	-10.4781
奪	-10.4781
既知の	-10.4781
しっかり	-10.4781
ガールフレンド	-10.4781
廃	-10.4781
ことがよくあります	-10.4781
ターミナル	-10.4781
災害	-10.4781
安価	-10.4781
スペル	-10.4781
偏見	-10.4782
限界	-10.4782
json	-10.4787
化学物質	-10.4787
ドラマ	-10.4789
よく使用されます	-10.4789
モーター	-10.4794
2017	-10.4794
種子	-10.4796
フード	-10.4799
消化	-10.4808
を説明しています	-10.4812
を設定し	-10.4814
便利な	-10.4814
Mi	-10.4824
を形成します	-10.4828
out	-10.483
それでも	-10.4856
を探求し	-10.4863
コール	-10.4865
理論的	-10.4868
パスタ	-10.4885
ここ	-10.4886
があるかどうか	-10.4898
これらの手順	-10.4908
カウント	-10.4911
時空	-10.4913
へ	-10.4914
存	-10.4915
難	-10.4917
秘	-10.4919
平らな	-10.492
堅	-10.492
優れている	-10.492
未知の	-10.492
二酸化炭素	-10.492
避難	-10.492
ポジティブ	-10.492
納	-10.492
ほこり	-10.492
を克服する	-10.492
クラシック	-10.492
潜在的に	-10.492
極端な	-10.492
邪悪な	-10.492
積極的な	-10.492
変わり	-10.492
レタス	-10.492
イエス	-10.492
儀	-10.492
洞	-10.492
sudo	-10.492
生き残る	-10.492
▁def	-10.4921
リットル	-10.4921
ポータル	-10.4921
頭痛	-10.4922
を試す	-10.4922
ホテル	-10.4922
電球	-10.4923
読書	-10.4923
ポンド	-10.4924
香り	-10.4926
メーター	-10.4928
を最適化する	-10.4938
For	-10.495
2019	-10.4953
名詞	-10.4955
イヤー	-10.4955
▁このコード	-10.4963
に焦点を当てる	-10.4966
の下に	-10.4977
プラス	-10.4978
物体	-10.4989
68	-10.4992
を与えることができます	-10.5001
に接続する	-10.5002
通過	-10.5004
行われる	-10.5016
これを行うには	-10.5042
を利用して	-10.5044
拠	-10.5051
否定	-10.5053
義	-10.5055
説	-10.5057
悲	-10.506
巣	-10.506
しばらく	-10.5061
にどのように影響するか	-10.5061
に基づく	-10.5061
迅速かつ	-10.5061
モデリング	-10.5061
斜	-10.5061
繰り返され	-10.5061
間違っている	-10.5061
演算子	-10.5061
壮大な	-10.5061
アボカド	-10.5061
小さい	-10.5061
途中で	-10.5061
ためにここにいます	-10.5061
クリーニング	-10.5061
バックエンド	-10.5062
炎症	-10.5062
ハイキング	-10.5063
戦術	-10.5064
身体活動	-10.5065
インタラクティブな	-10.5069
をきれいに	-10.507
甘い	-10.5073
行き	-10.5087
フェン	-10.5089
パック	-10.5094
もあり	-10.5097
EC	-10.5121
間の距離	-10.5127
措置を講じる	-10.5129
サイン	-10.5129
を確立します	-10.5137
ick	-10.5138
ことを目指し	-10.5152
を始める	-10.5161
磁気	-10.5171
Tr	-10.518
有害	-10.5187
有用	-10.5192
に集中し	-10.5193
借	-10.5194
著	-10.5196
組み込み	-10.5204
何をすべきか	-10.5204
開口部	-10.5204
交差点	-10.5204
帽子	-10.5204
は何でしたか	-10.5204
NLP	-10.5204
だろう	-10.5204
活性化	-10.5204
をリストし	-10.5205
他に何か	-10.5206
モーティ	-10.5208
に基づいている	-10.5215
に直面する	-10.5221
伝える	-10.5223
たくない	-10.5224
経済成長	-10.5224
有効な	-10.5232
ける	-10.5234
ポスト	-10.5239
レッド	-10.5242
つもりです	-10.525
row	-10.525
への旅行	-10.5256
重要な要素	-10.526
隠れ	-10.5261
に到着し	-10.5272
消え	-10.5283
いくつ	-10.5306
ったとき	-10.5319
豊	-10.5324
習	-10.5343
遊	-10.5347
荷	-10.5347
鮮	-10.5348
スピード	-10.5349
トラフィック	-10.5349
訴	-10.5349
インテリジェント	-10.5349
鏡	-10.5349
を確保し	-10.5349
number	-10.5349
ヨーグルト	-10.5349
妹	-10.5349
シェー	-10.5349
▁どういたしまして	-10.5349
フォロー	-10.5349
妊	-10.5349
殻	-10.5349
プライベート	-10.5349
やる気	-10.5349
ラウンド	-10.5349
▁###	-10.535
共同	-10.535
世界中で	-10.5351
文章	-10.5351
194	-10.5352
セクター	-10.5354
わけではな	-10.5355
家具	-10.5355
ライオン	-10.5358
死んだ	-10.5358
Ex	-10.536
ビート	-10.5362
ジョーク	-10.5363
を選択してください	-10.5367
主観的な	-10.5372
をカバーする	-10.5374
遠い	-10.5377
良い選択肢	-10.5385
いいえ	-10.539
に入り	-10.5396
を測定し	-10.5397
に属し	-10.5408
週末	-10.5411
少なく	-10.5421
ていませんでした	-10.545
を制限する	-10.546
バグ	-10.5473
▁Do	-10.5481
屈	-10.5495
根本的な	-10.5496
史	-10.5496
ココナッツ	-10.5496
糖尿病	-10.5496
暖かい	-10.5496
覚えておいてください	-10.5496
エピソード	-10.5496
としても知られる	-10.5496
イノベーション	-10.5496
取り組み	-10.5496
塩とコショウ	-10.5496
何世紀にもわたって	-10.5496
をお楽しみください	-10.5496
ストリーミング	-10.5496
プリント	-10.5496
ポジション	-10.5496
ソビエト連邦	-10.5496
宝物	-10.5497
があった	-10.5497
神経系	-10.5497
装置	-10.5497
お茶	-10.5498
楽しんでください	-10.5499
最も重要なことは	-10.5499
グラフィックカード	-10.55
を持っていました	-10.5501
気持ち	-10.5501
内側	-10.5505
推奨される	-10.5511
政治家	-10.5511
エネルギー効率	-10.5516
グローバルな	-10.5519
準備ができています	-10.5523
を失い	-10.5527
もはや	-10.5527
場合でも	-10.5533
私があなた	-10.5534
***	-10.5537
が可能になり	-10.5538
を形成し	-10.5541
影響を与える	-10.5558
感情的	-10.5563
を維持すること	-10.5567
を指定する	-10.557
VR	-10.5619
に取り組んで	-10.5626
世話	-10.5635
それを行う	-10.5639
裁	-10.5644
境	-10.5644
恐竜	-10.5644
紫	-10.5645
迫	-10.5645
肺	-10.5645
オランダ	-10.5645
Instagram	-10.5645
凝	-10.5645
少量の	-10.5645
暑	-10.5645
酒	-10.5645
舌	-10.5645
に挑戦し	-10.5645
▁const	-10.5645
保守	-10.5646
ことを知っていました	-10.5646
動詞	-10.5647
キャッシュ	-10.5651
を止める	-10.5652
大量	-10.5652
ペルー	-10.5654
を選択できます	-10.5655
税金	-10.5658
勝つ	-10.5658
国民	-10.566
料金	-10.5661
グリル	-10.5662
ように見えます	-10.5664
現実的	-10.5665
隠された	-10.5666
チップ	-10.5667
役立つことを願っています	-10.5669
と主張する	-10.567
と見なされています	-10.5671
フォーク	-10.5671
を実装し	-10.5671
平面	-10.5674
行われた	-10.5678
最適	-10.5708
傾向があります	-10.5709
せず	-10.571
sum	-10.5723
ジャン	-10.5739
近年	-10.5742
例外	-10.5748
^3	-10.5749
を検討してください	-10.5757
フライ	-10.5767
価	-10.5788
を検討し	-10.5791
版	-10.5792
脈	-10.5795
昼	-10.5795
恋	-10.5796
フレーバー	-10.5796
時間が経つにつれて	-10.5796
秋	-10.5796
階級	-10.5796
優先順位	-10.5796
耳を傾け	-10.5796
皇	-10.5796
雑	-10.5796
羽	-10.5797
愚	-10.5797
豚	-10.5797
press	-10.5797
係数	-10.5797
凍結	-10.5798
不動産	-10.5798
いずれに	-10.5798
フライパン	-10.5798
に精通し	-10.5798
農場	-10.5799
ライティング	-10.5801
巻き	-10.5803
衣服	-10.5803
相手	-10.5804
ようになりました	-10.5804
ゴン	-10.5806
を考慮する必要があります	-10.5808
発生する可能性があります	-10.5808
に置き換える	-10.581
ポーン	-10.5817
ライブ	-10.5819
られました	-10.5828
▁Pi	-10.583
に感謝します	-10.5834
になる可能性がある	-10.584
を定義し	-10.5845
を完了する	-10.5848
隣人	-10.5854
を計画し	-10.586
平均的な	-10.586
を確認できます	-10.5868
を守る	-10.587
楽しむ	-10.5895
入力データ	-10.5903
たい場合	-10.5938
に会う	-10.5943
ソーシャル	-10.5947
測	-10.5948
吐	-10.595
胃	-10.595
寺	-10.595
iPhone	-10.595
最も近い	-10.595
▁import	-10.595
function	-10.595
注意を払う	-10.595
ホルモン	-10.595
簡素化	-10.595
防御	-10.595
登場し	-10.5951
奴	-10.5951
ボルト	-10.5951
彼自身の	-10.5951
敏感	-10.5951
習得	-10.5951
事件	-10.5951
あらゆる種類の	-10.5953
キューブ	-10.5953
戦士	-10.5955
経験豊富な	-10.5956
遅い	-10.5956
を最小限に抑える	-10.5957
ユニ	-10.5958
を開始する前に	-10.5959
オンラインコース	-10.596
テープ	-10.596
ポップ	-10.5963
球体	-10.5963
時間とともに	-10.5965
出口	-10.5971
暗く	-10.5973
プール	-10.5977
露出	-10.5978
向き	-10.5979
聞	-10.5996
問題解決	-10.5997
2010	-10.6014
再現	-10.6018
種類	-10.6028
に適応する	-10.603
他人	-10.6039
を引き	-10.6039
持ち上げ	-10.6046
port	-10.6055
を適用する	-10.6061
関	-10.6086
これを行う	-10.6095
であるかのように	-10.6099
抱	-10.61
改	-10.6105
勢	-10.6106
肯定的な	-10.6106
ミュージシャン	-10.6106
ステータス	-10.6106
影響力のある	-10.6106
煙	-10.6107
嘘	-10.6107
城	-10.6107
キツネ	-10.6107
携	-10.6107
どうやって	-10.6107
エンターテイメント	-10.6107
を拡大し	-10.6107
があれば	-10.6107
スナック	-10.6107
を最大化する	-10.6107
オオカミ	-10.6107
リーダーシップ	-10.6107
缶	-10.6107
枚	-10.6107
ガソリン	-10.6107
意志	-10.6107
対称	-10.6107
断片	-10.6108
あなたに役立つことを願っています	-10.6108
ステーション	-10.6109
変異	-10.6109
表記	-10.611
誤解	-10.611
コミュニケーションをとる	-10.611
皮肉	-10.6111
ong	-10.6113
によって開発された	-10.6113
提出	-10.6113
▁そうです	-10.6114
エントリ	-10.6115
以内に	-10.6117
この映画は	-10.6118
ピーター	-10.6119
エネルギー消費	-10.6122
体積	-10.6125
エネルギー源	-10.6133
するのが難しい	-10.6135
影響を受ける	-10.6138
ことを示す	-10.6146
ローブ	-10.6158
以前	-10.6161
マイク	-10.6167
を送信する	-10.6171
を練習する	-10.6199
を支援し	-10.6208
を作成できる	-10.6209
ために使用され	-10.6212
に適応し	-10.6213
に戻る	-10.6221
簡単な方法	-10.623
と言って	-10.6232
をよりよく	-10.6233
役割を果たし	-10.6244
を手伝っ	-10.6249
を適用し	-10.625
印象	-10.6254
を確保するために	-10.6255
タバコ	-10.6265
爆弾	-10.6265
クラフト	-10.6265
を奨励し	-10.6265
当事者	-10.6265
思いやり	-10.6265
iPad	-10.6265
アレルギー	-10.6265
ドワーフ	-10.6265
終わる	-10.6265
Arduino	-10.6265
摂氏	-10.6265
トレイル	-10.6266
補償	-10.6266
両側	-10.6267
磁石	-10.6267
原理	-10.6268
焼きます	-10.6268
ハイパー	-10.6271
を軽減し	-10.6273
快適さ	-10.6274
レーダー	-10.6278
合理的な	-10.6278
ドラム	-10.628
あなたが持っている	-10.6283
によって作成された	-10.6284
説明してもらえますか	-10.6289
を可能にします	-10.6292
ボディ	-10.6296
に乗って	-10.6302
説明していただけますか	-10.6309
助けてくれ	-10.6312
になっている	-10.6316
知りません	-10.6321
人もい	-10.6347
をダウンロードし	-10.6348
met	-10.6397
になること	-10.6411
準	-10.6415
備	-10.6422
粒	-10.6424
のが難しい	-10.6425
についてもっと知りたい	-10.6426
ベーキング	-10.6426
ディープラーニング	-10.6426
ファッション	-10.6427
暗闇	-10.6427
ミュージック	-10.6427
URL	-10.6427
カーネル	-10.6427
孫	-10.6427
難しく	-10.6427
world	-10.6427
ブリッジ	-10.6427
と同じくらい	-10.6427
やり取り	-10.6427
バックグラウンド	-10.6427
の仕組み	-10.6427
hello	-10.6427
が向上し	-10.6427
愛好家	-10.6427
友人や家族	-10.6427
RPG	-10.6427
を通り抜け	-10.6427
アセンブリ	-10.6427
スマートフォン	-10.6427
録音	-10.6428
認定	-10.6428
に合った	-10.6428
パイプライン	-10.6428
王朝	-10.6429
を作り出し	-10.643
電子機器	-10.6431
ハウス	-10.6432
に影響を与える可能性のある	-10.6432
フランス語	-10.6442
ビザ	-10.6444
ction	-10.6445
怒り	-10.6445
ホット	-10.6459
を検出し	-10.6466
を離れ	-10.647
変え	-10.6493
run	-10.6497
を提示する	-10.6502
グレー	-10.6516
人権	-10.6517
val	-10.6537
期間中	-10.655
愛する人	-10.656
推	-10.6583
老	-10.6586
っており	-10.6589
促	-10.6589
傾	-10.659
潜	-10.659
刺	-10.659
了	-10.659
ことがわかります	-10.659
カスタム	-10.659
匹	-10.659
パイロット	-10.6591
シリンダー	-10.6591
心血管	-10.6591
ほうれん草	-10.6591
とはどういう意味ですか	-10.6591
トランザクション	-10.6591
観光客	-10.6591
魔術師	-10.6591
フルーツ	-10.6591
のを手伝ってください	-10.6591
宝石	-10.6591
新聞	-10.6592
感染症	-10.6592
請求	-10.6592
グリーン	-10.6592
答えはありません	-10.6593
グリッド	-10.6593
二重	-10.6594
必要がある場合があります	-10.6594
締め	-10.6595
火山	-10.6598
予想される	-10.66
フラット	-10.66
ていない場合	-10.66
0°	-10.6603
と同じように	-10.6606
を上げる	-10.6612
りません	-10.6615
ボードゲーム	-10.6616
素数	-10.6617
歩く	-10.6619
地形	-10.6619
ビング	-10.662
ゲン	-10.6627
国立	-10.6631
助けを求め	-10.6635
バスク	-10.6638
ケン	-10.6643
レター	-10.6647
を削減し	-10.6671
▁それで	-10.6678
に答える	-10.6701
走り	-10.6705
詞	-10.6712
財政的	-10.6713
ランチ	-10.6722
を受け入れる	-10.6723
静的	-10.6724
act	-10.6725
奇妙	-10.6737
統	-10.675
飛	-10.6751
隔	-10.6754
到	-10.6755
費やす	-10.6757
と思われる	-10.6757
絶え間ない	-10.6757
拾	-10.6757
ストレッチ	-10.6757
言えば	-10.6757
誕生日	-10.6757
裁判所	-10.6757
飽和	-10.6757
装備	-10.6757
中火で	-10.6757
論争	-10.6757
周辺	-10.6758
一種の	-10.6759
因子	-10.6759
を考慮することが重要です	-10.6763
同盟国	-10.6763
メンター	-10.6764
固体	-10.6765
ヨガ	-10.6767
制約	-10.6767
強み	-10.677
初期化	-10.6772
read	-10.6774
乗り	-10.6787
意味のある	-10.6795
をチェックし	-10.6795
獲得	-10.68
書いています	-10.6809
政治システム	-10.6826
を削減する	-10.6836
フィー	-10.6844
ove	-10.6858
生きている	-10.6864
留め	-10.6886
に対処し	-10.6891
たいと思っ	-10.6917
長期的に	-10.6919
設	-10.6921
排出量	-10.6924
色合い	-10.6926
迅速な	-10.6927
一般相対性理論	-10.6927
浴	-10.6927
テレビ番組	-10.6927
アイルランド	-10.6927
チャンピオン	-10.6927
晩	-10.6927
考慮事項	-10.6927
正当化	-10.6927
庫	-10.6927
ユダヤ人	-10.6927
レンダリング	-10.6927
遅延	-10.6927
を殺す	-10.6927
遊ぶ	-10.6928
SSD	-10.6928
同等	-10.6928
受け取った	-10.6928
首相	-10.6929
シャワー	-10.6929
上司	-10.693
動機付け	-10.6931
金額	-10.6932
ブログ	-10.6933
path	-10.6933
ことに気づきました	-10.6936
に保存され	-10.6938
日本語	-10.694
を改善するのに役立ちます	-10.6942
によるものです	-10.6944
それらのいくつか	-10.6949
を使い	-10.6955
天国	-10.6955
を生成できます	-10.6958
を送る	-10.6964
ピンク	-10.6964
大量のデータ	-10.6985
ための鍵	-10.6998
次のとおりです	-10.7024
を強調する	-10.7035
を修正する	-10.7053
民族	-10.707
たりすること	-10.7079
甘	-10.7084
質問がある場合は	-10.7088
程	-10.7096
件	-10.7097
誘	-10.7098
本質的に	-10.7099
ChatGPT	-10.7099
四	-10.7099
目を覚まし	-10.7099
コンパイラ	-10.7099
フォロワー	-10.7099
シフト	-10.7099
while	-10.7099
ディストリビューション	-10.7099
潮	-10.7099
開催され	-10.7099
顕著な	-10.7099
を取り除き	-10.7099
パズル	-10.7099
と信じていました	-10.7099
を引き受け	-10.71
2〜3	-10.71
を服用	-10.71
ロイド	-10.71
天然	-10.71
演習	-10.71
独裁	-10.71
有限	-10.7101
牛肉	-10.7102
ステージ	-10.7102
せよ	-10.7103
モンスター	-10.7105
回帰	-10.7107
中断	-10.7109
テクスチャー	-10.7112
客観的な	-10.7115
ドローン	-10.7116
キャスト	-10.7121
できない場合	-10.7127
を生産する	-10.7157
ベスト	-10.7171
誤って	-10.7182
ことを知って	-10.7183
不安定	-10.7184
の重要な部分	-10.7195
date	-10.7196
乾燥した	-10.7203
分け	-10.7211
何でも	-10.7212
を知りたいです	-10.7217
電磁	-10.7218
を記述する	-10.722
add	-10.7237
モノ	-10.7239
考えられる	-10.7241
露	-10.7243
に連絡する	-10.7246
クリーン	-10.7259
飲み	-10.726
水平	-10.7264
脆弱	-10.7264
コンピュータ	-10.7264
景	-10.7268
十	-10.7271
獲	-10.7274
舞	-10.7274
旗	-10.7274
カウンター	-10.7274
勤	-10.7274
ダイナミクス	-10.7274
宿泊施設	-10.7275
オムレツ	-10.7275
ナイフ	-10.7275
取り組む	-10.7275
直径	-10.7275
副作用	-10.7275
ズッキーニ	-10.7275
ユースケース	-10.7275
ダイナミック	-10.7275
についてどう思いますか	-10.7275
脅	-10.7275
ローマ帝国	-10.7275
スライド	-10.7275
Arch	-10.7275
LLM	-10.7275
リフト	-10.7275
という用語は	-10.7275
を作り出す	-10.7275
溶液	-10.7276
兵士	-10.7276
string	-10.7277
誰でも	-10.7278
教会	-10.7278
inter	-10.7279
レンタル	-10.7279
専門知識	-10.7283
私たちの生活	-10.7286
真空	-10.7287
2013	-10.7289
連合	-10.7292
2016	-10.7296
を実現する	-10.7299
ことが重要である	-10.7302
ルシア	-10.7302
参加者	-10.7305
lib	-10.7308
予測不可能	-10.7327
を構成し	-10.7329
を操作する	-10.7337
のにも役立ち	-10.734
init	-10.7341
興味を持っている	-10.7349
arch	-10.7354
利用できます	-10.738
に関与し	-10.7381
存在しない	-10.7382
できれば	-10.7417
落ちる	-10.7419
駆	-10.7451
案	-10.7453
技	-10.7453
繰り返す	-10.7453
カリフォルニア	-10.7453
久	-10.7453
に投資し	-10.7453
プロモーション	-10.7453
役割を果たす	-10.7453
干	-10.7453
MySQL	-10.7453
WordPress	-10.7453
君	-10.7453
ありがとうございます	-10.7453
サンドイッチ	-10.7453
進捗状況	-10.7453
input	-10.7453
ラジオ	-10.7453
プロトタイプ	-10.7453
GUI	-10.7453
マドリード	-10.7453
悲しい	-10.7453
姿勢	-10.7453
true	-10.7453
バジル	-10.7453
ソビエト	-10.7453
抑圧	-10.7454
平方根	-10.7454
回避	-10.7454
不快感	-10.7455
輸入	-10.7455
を除いて	-10.7456
非難	-10.7456
コーティング	-10.7457
連絡先	-10.7458
ための最良の方法	-10.7459
灰色	-10.7459
両方	-10.7462
毎月	-10.7466
心理学者	-10.7466
チケット	-10.7468
クローン	-10.7475
歴史を通じて	-10.7485
オープンソースプロジェクト	-10.7487
に依存するため	-10.7496
に適している	-10.7517
発生した	-10.7518
試してみる	-10.754
を削除し	-10.7544
++	-10.7568
に設定され	-10.7584
に対応し	-10.7594
環境への影響	-10.7596
Red	-10.7608
に分割し	-10.7631
献	-10.7634
ミックス	-10.7634
マイナー	-10.7635
ウィン	-10.7635
とも呼ばれる	-10.7635
に近づき	-10.7635
生息地	-10.7635
網	-10.7635
であっても	-10.7635
面白く	-10.7635
狂	-10.7635
アレックス	-10.7635
丘	-10.7635
弁護士	-10.7635
挑戦的な	-10.7635
ó	-10.7635
多項式	-10.7635
組み立て	-10.7635
ナビゲーション	-10.7635
矢印	-10.7635
あなたが望む	-10.7635
時間と労力	-10.7635
袋	-10.7635
抜	-10.7635
count	-10.7635
獄	-10.7635
閉鎖	-10.7635
フィルタリング	-10.7635
を救う	-10.7635
階層	-10.7636
ように設計され	-10.7636
昼食	-10.7637
介入	-10.764
老化	-10.764
団体	-10.764
は何でしょうか	-10.7641
▁##	-10.7644
を削除する	-10.7656
を見つけてください	-10.7659
ジェリー	-10.7664
見つけた	-10.7664
あなたは私を	-10.7691
ことができませんでした	-10.77
犯	-10.7731
分間調理し	-10.7732
磁場	-10.7737
毎週	-10.7744
に接続し	-10.775
ように設計された	-10.777
眠る	-10.7777
main	-10.7787
を分析する	-10.7806
フォン	-10.7809
を認識する	-10.7811
を追跡し	-10.7814
遺	-10.7817
隊	-10.7819
炭	-10.7819
奇	-10.782
緩	-10.782
カプセル	-10.782
セグメント	-10.782
養	-10.782
劣	-10.782
キャベツ	-10.782
コンセンサス	-10.782
ロンドン	-10.782
酢	-10.782
針	-10.782
シンプルさ	-10.782
できるだけ早く	-10.782
吹	-10.782
祭	-10.782
還	-10.782
熱力学	-10.7821
誇張	-10.7821
策定	-10.7821
を送信し	-10.7822
そのうち	-10.7822
済み	-10.7823
ことから始めます	-10.7823
全員	-10.7824
に接続され	-10.7826
2014	-10.7838
中国語	-10.7842
リラックスした	-10.7843
教えてくれ	-10.7844
測定値	-10.7844
訪問者	-10.7847
を更新し	-10.785
触	-10.7858
に向けて	-10.7873
を要求する	-10.7899
が形成され	-10.7913
として使用し	-10.7934
を作って	-10.7953
聴覚	-10.7953
派生	-10.7967
に与える	-10.7972
団	-10.8001
終	-10.8005
染	-10.8007
典	-10.8008
スケーラブル	-10.8009
恐ろしい	-10.8009
フィクション	-10.8009
水分補給	-10.8009
マウント	-10.8009
太	-10.8009
唐辛子	-10.8009
í	-10.8009
相対性理論	-10.8009
イデオロギー	-10.8009
スケーラビリティ	-10.8009
ダイエット	-10.8009
を拒否し	-10.8009
を克服し	-10.8009
ソフト	-10.8009
ずっと	-10.8009
友好的	-10.8009
が好きなら	-10.8009
5,000	-10.8009
に同意し	-10.801
説得	-10.801
寄付	-10.801
時速	-10.8012
放射線	-10.8013
広げ	-10.8015
ことを意味し	-10.8016
Code	-10.8017
ISO	-10.8019
スタック	-10.802
かどうかを確認する	-10.802
長距離	-10.8021
ハーブ	-10.8023
と見なすことができます	-10.8027
を減らすのに役立ちます	-10.8028
南アメリカ	-10.8034
を探索する	-10.8043
そうでない	-10.8063
を探求する	-10.8076
を参照する	-10.8086
歩き	-10.8098
を入力する	-10.8105
に苦労し	-10.8132
が必要な場合	-10.8138
0.1	-10.8149
と見なす	-10.8183
IDE	-10.8188
を監視し	-10.8192
最小限に抑え	-10.8193
べ	-10.8194
因	-10.8197
港	-10.8199
岸	-10.8199
察	-10.82
アーティファクト	-10.8201
昨	-10.8201
沈	-10.8201
スタッフ	-10.8201
宇宙飛行士	-10.8201
封	-10.8201
妙	-10.8201
樹	-10.8201
ネガティブ	-10.8201
一貫して	-10.8201
滴	-10.8201
数十年	-10.8201
覧	-10.8201
明るく	-10.8201
砕	-10.8201
ポンプ	-10.8201
アーモンド	-10.8201
Amazon	-10.8201
Unity	-10.8201
ハンバーガー	-10.8201
ことに留意してください	-10.8201
マイケル	-10.8201
手順に従ってください	-10.8201
唱	-10.8201
を受賞し	-10.8201
アクセシビリティ	-10.8201
権威	-10.8201
ソーセージ	-10.8201
トランジスタ	-10.8201
を傷つけ	-10.8201
コンクリート	-10.8201
塔	-10.8201
ために最善を尽くします	-10.8201
仕様	-10.8201
0.5	-10.8201
幻想	-10.8201
豆腐	-10.8202
大胆	-10.8202
過度に	-10.8203
可視	-10.8203
小規模	-10.8204
鋭い	-10.8204
フラッシュ	-10.8205
地区	-10.8206
平方	-10.8206
近代	-10.8208
使命	-10.8209
中毒	-10.821
ツアー	-10.821
であろうと	-10.8211
ジョブ	-10.8211
フォント	-10.8212
合意	-10.8215
それ以来	-10.8215
を通過する	-10.8217
天体	-10.8217
人々にとって	-10.8218
▁11.	-10.822
を明らかにし	-10.8226
を紹介し	-10.8237
ことを可能にする	-10.8239
場合にのみ	-10.8248
強調	-10.8258
一人で	-10.8285
を回避する	-10.8296
を思い出させ	-10.8306
データを収集	-10.8345
書くことができます	-10.8354
があることを確認してください	-10.8354
を導き	-10.8365
始めることができます	-10.8371
を採用し	-10.8387
闘	-10.8395
悪意のある	-10.8397
ステレオタイプ	-10.8397
ラテン語	-10.8397
ウサギ	-10.8397
純粋な	-10.8397
接着剤	-10.8397
綿	-10.8397
スムーズ	-10.8397
地平線	-10.8397
訳	-10.8397
に限定され	-10.8397
民主的な	-10.8397
アヒル	-10.8397
と言えます	-10.8397
アルファベット	-10.8397
オペレーター	-10.8397
ゴブリン	-10.8397
かき混ぜます	-10.8397
以降	-10.8398
相関	-10.8398
value	-10.8398
頂点	-10.8398
所有権	-10.8398
抗議	-10.8399
から離れ	-10.8399
まるで	-10.8399
毛皮	-10.84
ロールプレイ	-10.8401
司法	-10.8402
アイコン	-10.8404
光合成	-10.8409
依存関係	-10.8409
ゲート	-10.841
ジャック	-10.8412
小惑星	-10.8413
プッシュ	-10.8417
であると主張	-10.842
まとめ	-10.8426
を押して	-10.8441
ゲームをプレイし	-10.8455
なくなり	-10.8472
例を挙げて	-10.8477
起き	-10.8489
をクリックして	-10.8513
を調理する	-10.853
ence	-10.8531
不十分	-10.856
に関与する	-10.8575
が存在し	-10.8583
香	-10.8589
ほ	-10.8594
虚	-10.8597
担当者	-10.8597
をすばやく	-10.8597
ホワイト	-10.8597
にわたる	-10.8597
候補者	-10.8597
績	-10.8597
頭字語	-10.8597
の助けを借りて	-10.8597
欧州連合	-10.8597
マイナス	-10.8597
公共交通機関	-10.8597
振りかけ	-10.8597
柔らかくなるまで	-10.8597
▁Studio	-10.8597
シェークスピア	-10.8597
そんなに	-10.8597
サイコロ	-10.8597
お気軽にお問い合わせください	-10.8597
は誰でしたか	-10.8597
基礎となる	-10.8597
次の手順に従う	-10.8597
鋼	-10.8597
ユーモラス	-10.8597
ヴァン	-10.8597
はどれくらいですか	-10.8597
エレガント	-10.8597
錆	-10.8597
フロントエンド	-10.8597
関節	-10.8598
前述の	-10.8598
をインポートします	-10.8598
AMD	-10.8598
古代ギリシャ	-10.8599
権限	-10.8599
を聞く	-10.8599
着陸	-10.86
ピーマン	-10.8602
出版物	-10.8602
ラベル付け	-10.8602
摂取量	-10.8602
弱点	-10.8604
呼吸器	-10.8604
に耐える	-10.8605
手術	-10.8606
言いました	-10.8607
を設計する	-10.8607
を可能にし	-10.8609
地球上で	-10.8612
を保証し	-10.8619
生活の質	-10.8621
に置いて	-10.8627
視聴	-10.8653
かを判断	-10.8663
基礎	-10.8705
open	-10.8708
new	-10.8713
を刺激する	-10.8719
を消費する	-10.8726
館	-10.8728
を比較し	-10.8752
行政	-10.877
を解決し	-10.8776
費	-10.8781
茶	-10.8785
株	-10.8799
財	-10.8799
防	-10.88
免疫	-10.8801
眼	-10.8801
亜	-10.8801
霧	-10.8801
インセンティブ	-10.8801
クリエイター	-10.8801
桁	-10.8801
サイバーセキュリティ	-10.8801
厳格な	-10.8801
買い物	-10.8801
歪	-10.8801
キャンセル	-10.8801
使いやすい	-10.8801
銅	-10.8801
両方とも	-10.8801
√	-10.8801
を尊重し	-10.8801
有酸素運動	-10.8801
に満ちてい	-10.8801
ことは不可能です	-10.8801
と確信しています	-10.8801
を探ります	-10.8801
ベトナム	-10.8801
伸ばし	-10.8802
高校	-10.8802
教義	-10.8803
ことは可能ですか	-10.8803
▁この情報が	-10.8803
電荷	-10.8803
追放	-10.8803
期限	-10.8803
クレジットカード	-10.8804
成熟	-10.8804
バスケット	-10.8804
ウォーター	-10.8805
均等に	-10.8805
花粉	-10.8806
を表示します	-10.8807
一般的に使用される	-10.8809
学術	-10.881
を考えてください	-10.8811
を支持する	-10.8817
がかかる	-10.8824
を詳細に	-10.8843
を追加できます	-10.8858
に集中する	-10.8874
を起こし	-10.8879
を通過し	-10.8879
なければなら	-10.8899
話をし	-10.8915
かどうかを確認します	-10.8918
に追加し	-10.8921
に関連している	-10.8934
キャッチ	-10.8942
ボタンをクリックし	-10.8956
を計画する	-10.8969
教えてもらえます	-10.8969
質問に対する答え	-10.8974
お知らせください	-10.8985
を観察し	-10.9005
材	-10.9006
致	-10.9006
損	-10.9007
を手伝う	-10.9007
ワールド	-10.9008
撮	-10.9009
窒	-10.9009
ナトリウム	-10.9009
恥	-10.901
ブドウ	-10.901
ヘッダー	-10.901
板	-10.901
ロボット工学	-10.901
変圧器	-10.901
大聖堂	-10.901
フィットネス	-10.901
ユーティリティ	-10.901
やりがいのある	-10.901
健	-10.901
均一な	-10.901
嵐	-10.901
HTTP	-10.901
ドロップ	-10.901
弧	-10.901
泡	-10.901
ございました	-10.901
トレンド	-10.901
田	-10.901
Photoshop	-10.901
ウィキペディア	-10.901
お願いします	-10.901
を取り除く	-10.901
ランニング	-10.901
á	-10.901
アリストテレス	-10.901
称賛	-10.901
あきらめ	-10.901
粗	-10.901
含有量	-10.901
やすくなります	-10.901
森林	-10.901
落ち着いて	-10.901
スイカ	-10.9011
コミック	-10.9011
Data	-10.9011
少女	-10.9011
ポーランド	-10.9012
のを手伝うことができます	-10.9012
ことを理解しています	-10.9012
確信	-10.9013
量子コンピューティング	-10.9013
正直	-10.9014
私の名前は	-10.9015
機密	-10.9015
を参照してください	-10.9015
西部	-10.9016
注入	-10.9016
広がり	-10.9016
億ドル	-10.9017
App	-10.9017
熱帯	-10.9018
を中心に	-10.9028
ニーズと好み	-10.9029
を保持する	-10.903
政権	-10.9042
ことができれば	-10.9042
楽しんでいる	-10.9061
を開け	-10.9155
過度の	-10.9177
を認め	-10.9177
怒	-10.9197
包括的	-10.9202
衣	-10.9212
直線	-10.9213
婚	-10.9221
蓄	-10.9222
委員会	-10.9222
賢明な	-10.9222
フットボール	-10.9222
障壁	-10.9222
シナモン	-10.9222
滑	-10.9222
鉛筆	-10.9222
類似点	-10.9222
いただけませんか	-10.9222
連れて行き	-10.9222
ペドロ	-10.9222
炉	-10.9222
ハンガリー	-10.9222
Power	-10.9222
event	-10.9222
方法はいくつかあります	-10.9223
Node	-10.9223
高性能	-10.9223
黙示録	-10.9223
批評家	-10.9223
超伝導	-10.9223
はいくらですか	-10.9223
漁	-10.9223
ワークショップ	-10.9223
不快	-10.9223
経路	-10.9223
時刻	-10.9224
並列	-10.9224
ショップ	-10.9225
を深め	-10.9225
履歴書	-10.9225
Auto	-10.9226
キューバ	-10.9226
制作	-10.9227
失業	-10.9228
をオフにし	-10.9229
屋外	-10.9229
分散型	-10.9229
量子物理学	-10.923
left	-10.9231
言われ	-10.9232
Game	-10.9254
慎重	-10.9259
に分割する	-10.9289
を要約し	-10.9317
耐え	-10.9324
を発見する	-10.9328
ニーズを満たす	-10.9329
が生成され	-10.9333
多様で	-10.9343
を排除する	-10.9347
をチェックする	-10.9383
微生物	-10.9397
に入った	-10.9409
を組み合わせる	-10.9425
航	-10.9437
京	-10.9439
子どもたち	-10.9439
等しく	-10.9439
を妨げる	-10.944
マザーボード	-10.944
故障	-10.944
防衛	-10.944
自家製	-10.944
正規表現	-10.944
特殊な	-10.944
信仰	-10.944
何度も	-10.944
蓋	-10.944
どうもありがとう	-10.944
刑務所	-10.944
覚えておく	-10.944
を築く	-10.944
スケッチ	-10.944
呼び出す	-10.944
Intel	-10.944
ホラー映画	-10.944
決定を下し	-10.944
マッピング	-10.944
に違反し	-10.944
蜂蜜	-10.944
乗客	-10.944
スコット	-10.944
放棄	-10.944
はどれですか	-10.944
死ぬ	-10.944
台湾	-10.944
悲劇	-10.944
obj	-10.9441
バランスの取れた食事	-10.9441
ことを保証します	-10.9442
屋根	-10.9442
有毒	-10.9442
陽気	-10.9443
負傷	-10.9443
聞いてください	-10.9444
ユーザーエクスペリエンス	-10.9445
ついに	-10.9445
トイレ	-10.9447
node	-10.9448
を必要としない	-10.9475
が必要とする	-10.948
対照的に	-10.9493
と対話する	-10.9507
耐	-10.9538
を刺激し	-10.9541
が発生した場合	-10.9543
ていなかった	-10.9552
認	-10.9577
短期	-10.9608
と比較し	-10.9637
客観的	-10.9641
為	-10.9658
査	-10.9659
偏	-10.966
であれば	-10.9661
概	-10.9662
ジェスチャー	-10.9662
塞	-10.9662
8〜10	-10.9662
GitHub	-10.9662
貼り付け	-10.9662
縁	-10.9662
チューニング	-10.9662
トンネル	-10.9662
緊急事態	-10.9662
見積もり	-10.9662
バニラ	-10.9662
眠りにつく	-10.9662
ナポレオン	-10.9662
抽象的な	-10.9662
稲妻	-10.9662
を形作る	-10.9662
召	-10.9662
生態系	-10.9662
work	-10.9662
ジオメトリ	-10.9662
宮	-10.9662
デザート	-10.9662
を完成させ	-10.9662
ことに注意する必要があります	-10.9662
真ん中	-10.9662
😊	-10.9662
word	-10.9662
審	-10.9662
狭	-10.9662
胡	-10.9662
時間を過ごす	-10.9662
静かな	-10.9662
インテリジェンス	-10.9662
5〜10	-10.9662
ワシントン	-10.9662
牧	-10.9662
見出し	-10.9662
虹	-10.9662
美しく	-10.9662
遠く離れ	-10.9662
オーストリア	-10.9662
出会い	-10.9662
を買う	-10.9663
を組み合わせた	-10.9663
東京	-10.9663
ウォーキング	-10.9663
記念	-10.9664
にはいくつの	-10.9664
組成	-10.9665
周期	-10.9666
が大好きです	-10.9666
ベクター	-10.9666
応用	-10.9666
仮想マシン	-10.9667
トリガー	-10.9667
ジョンソン	-10.9668
地図	-10.9669
load	-10.967
を計算できます	-10.967
と信じている	-10.9673
Star	-10.9684
3.5	-10.9696
を検出する	-10.97
を完了し	-10.9701
に興味があります	-10.971
を検索し	-10.9714
見逃	-10.9724
もらえますか	-10.9737
を殺し	-10.9759
よく混ぜ	-10.9768
史上最高の	-10.982
不可能である	-10.9842
を排除し	-10.986
革	-10.9887
写	-10.9888
枠組み	-10.9889
イラスト	-10.9889
感受性	-10.9889
に起因する	-10.9889
エントロピー	-10.9889
責任を負い	-10.9889
データサイエンス	-10.9889
かどうかを判断する	-10.9889
サードパーティ	-10.9889
合併症	-10.9889
泥	-10.9889
誠実さ	-10.9889
ブロッコリー	-10.9889
ことは注目に値します	-10.9889
レクリエーション	-10.9889
類似性	-10.9889
を終わらせ	-10.9889
アスリート	-10.9889
出発点	-10.9889
を抽出し	-10.9889
至	-10.9889
金色になるまで	-10.9889
ゾンビ	-10.9889
Blender	-10.9889
Django	-10.9889
bash	-10.9889
false	-10.9889
そうすれば	-10.9889
一時的な	-10.9889
ネックレス	-10.9889
SEO	-10.9889
SSH	-10.989
チューリングマシン	-10.989
絶滅	-10.989
探査	-10.989
際立っ	-10.9891
改良	-10.9891
臓器	-10.9891
グルテン	-10.9891
ことを目的としています	-10.9891
にすぎません	-10.9891
競合	-10.9892
ルイス	-10.9892
反省	-10.9893
を紹介する	-10.9894
土星	-10.9895
にアクセスできます	-10.9903
を制限し	-10.992
豊かで	-10.9927
認められ	-10.9968
を実施する	-10.9984
自宅	-11.0008
取られ	-11.001
にアクセスできるように	-11.0034
かけて	-11.0049
を経験する	-11.0067
日常の	-11.0084
を許可し	-11.0095
障害のある人	-11.011
キュー	-11.0113
輸	-11.0118
述	-11.012
亡	-11.012
NFT	-11.0121
考古学	-11.0122
魔法使い	-11.0122
ピラミッド	-11.0122
まず第一に	-11.0122
の台頭	-11.0122
盲	-11.0122
陰	-11.0122
不要な	-11.0122
ショッピング	-11.0122
を読んだり	-11.0122
ソクラテス	-11.0122
バレンシア	-11.0122
によって異なる場合がある	-11.0122
ベストプラクティス	-11.0122
亡くなりました	-11.0122
把	-11.0122
アカデミー	-11.0122
一生懸命	-11.0122
マッシュルーム	-11.0122
ことを恐れないでください	-11.0122
コンサート	-11.0122
ペーパー	-11.0122
堅実な	-11.0122
第一次世界大戦	-11.0122
襲	-11.0122
パラダイム	-11.0122
フランチャイズ	-11.0122
リラクゼーション	-11.0122
index	-11.0122
を念頭に置いて	-11.0122
Enter	-11.0122
オーケストラ	-11.0122
pepper	-11.0122
を検討でき	-11.0122
見事な	-11.0122
踊	-11.0122
使いやすさ	-11.0122
エクアドル	-11.0122
はたくさんあります	-11.0122
を運ぶ	-11.0122
木製の	-11.0122
駐車	-11.0122
免疫系	-11.0122
男の子	-11.0123
技術の進歩	-11.0123
コーヒーメーカー	-11.0125
を置き換える	-11.0126
和音	-11.0127
たくありません	-11.0128
理解しやすい	-11.0133
に変える	-11.0133
費やし	-11.0138
について考える	-11.0143
から保護する	-11.0173
を提示し	-11.0184
を計算し	-11.0226
を得て	-11.0255
を指し	-11.0258
乾燥させ	-11.0321
以	-11.0325
薄	-11.0344
同盟	-11.0352
臓	-11.0355
閉	-11.0359
却	-11.0359
領	-11.0359
超自然的な	-11.0359
コントローラー	-11.0359
瓶	-11.0359
湾	-11.0359
警	-11.0359
塊	-11.036
アドベンチャー	-11.036
Covid	-11.036
むしろ	-11.036
腫	-11.036
天然資源	-11.036
汎用性	-11.036
選ばれ	-11.036
霊	-11.036
によって生成される	-11.036
を拡大する	-11.036
柱	-11.036
生態学的	-11.036
を担当し	-11.036
example	-11.036
result	-11.036
NASA	-11.036
キノコ	-11.036
に従事し	-11.036
競合他社	-11.036
をご覧ください	-11.036
歓迎	-11.036
急速に	-11.036
マニュアル	-11.036
負担	-11.036
カリキュラム	-11.036
unning	-11.036
サークル	-11.036
入り口	-11.036
憎しみ	-11.036
Kubernetes	-11.036
鎖	-11.036
計画を立て	-11.036
漢方薬	-11.036
txt	-11.036
仕上げ	-11.036
暴露	-11.036
昔々	-11.0361
圧倒され	-11.0361
最悪の	-11.0361
を作成および	-11.0362
空港	-11.0363
グルコース	-11.0363
に含まれる	-11.0363
に住んでいます	-11.0364
を吸収し	-11.0373
を採用する	-11.0377
を開始できます	-11.0402
注意を払って	-11.0437
試してみ	-11.0462
を消費し	-11.0468
に名前を付け	-11.0473
をテストする	-11.0523
不可欠	-11.0536
準備をし	-11.0538
になって	-11.0541
を最適化し	-11.0558
によって引き起こされ	-11.0578
執	-11.0584
時間をかけて	-11.0589
洗練	-11.0592
暴	-11.0597
称	-11.0603
奉仕	-11.0603
説得力のある	-11.0604
当社の	-11.0604
ぼやけ	-11.0604
イライラ	-11.0604
と仮定すると	-11.0604
腎臓	-11.0604
イスラム教	-11.0604
重大な	-11.0604
お元気ですか	-11.0604
コントラスト	-11.0604
GNU	-11.0604
System	-11.0604
ブエノスアイレス	-11.0604
ソーラーパネル	-11.0604
畳み込み	-11.0604
火災	-11.0604
ギフト	-11.0604
フーリエ	-11.0604
微分方程式	-11.0604
と言われています	-11.0604
浸透	-11.0604
スペクトル	-11.0604
フェスティバル	-11.0604
観客	-11.0605
AGI	-11.0605
団結	-11.0605
に言及し	-11.0605
を築き	-11.0605
減算	-11.0605
命題	-11.0605
退職	-11.0605
で満たされた	-11.0605
タブレット	-11.0605
肥料	-11.0606
type	-11.0606
クラッチ	-11.061
他に質問がある場合	-11.0613
を破壊する	-11.0613
急いで	-11.065
をテストし	-11.0668
密接に	-11.0671
▁---------	-11.0707
に備え	-11.0715
ある種の	-11.0718
を回避し	-11.0731
くれませんか	-11.0732
を接続する	-11.0772
に追加され	-11.0777
に分割され	-11.0819
合理的	-11.0833
てくれます	-11.0834
巻	-11.0843
ジュリア	-11.0854
貸	-11.0854
北朝鮮	-11.0854
電子レンジ	-11.0854
鹿	-11.0854
バリアント	-11.0854
発電所	-11.0854
鎧	-11.0854
物議を醸す	-11.0854
気を散らす	-11.0854
優れています	-11.0854
因数分解	-11.0854
乗組員	-11.0854
コンセプト	-11.0854
挑戦的で	-11.0854
政党	-11.0854
を演奏する	-11.0854
優位性	-11.0854
の創設者	-11.0854
Reddit	-11.0854
を尊重する	-11.0854
ロバート	-11.0854
すみません	-11.0854
太平洋	-11.0854
天候	-11.0854
皆	-11.0854
いくら	-11.0854
,000,000	-11.0854
マイクロコントローラー	-11.0854
国立公園	-11.0854
抑制	-11.0854
なくても	-11.0854
テスラ	-11.0855
虚偽	-11.0855
防止	-11.0855
と見なし	-11.0856
グラフェン	-11.0856
ワールドカップ	-11.0856
TCP	-11.0856
ワークフロー	-11.0856
推進	-11.0856
演じ	-11.086
ーニング	-11.0863
どうすればよいですか	-11.0876
eck	-11.0886
を観察する	-11.0927
を参照し	-11.097
を起動し	-11.0993
押	-11.1011
を支配し	-11.1018
つもり	-11.1027
満たし	-11.1036
軽減	-11.1048
を調査する	-11.1076
ユニーク	-11.1094
刻	-11.1107
腐	-11.111
診	-11.111
腺	-11.111
を反映する	-11.111
副	-11.111
手がかり	-11.111
を和らげ	-11.111
オープニング	-11.111
既	-11.111
魅惑的な	-11.111
に特化した	-11.111
被	-11.111
疑わしい	-11.111
雨が降	-11.111
抗生物質	-11.111
哺乳類	-11.111
ペッパー	-11.111
棒	-11.111
著名な	-11.111
を抽出する	-11.111
満足のいく	-11.111
×	-11.111
キノア	-11.111
▁console	-11.111
のが最善です	-11.111
パイナップル	-11.111
姿	-11.111
池	-11.111
駅	-11.111
婦	-11.111
ε	-11.1116
競	-11.1371
停	-11.1373
餌	-11.1373
雄	-11.1373
谷	-11.1373
符	-11.1373
麺	-11.1374
済	-11.164
故	-11.1642
芽	-11.1643
汎	-11.1644
幹	-11.1644
姓	-11.1644
陽	-11.1918
絆	-11.1921
雷	-11.1921
尿	-11.1921
猟	-11.1921
ü	-11.1921
恩	-11.1921
棚	-11.1921
孔	-11.1921
麦	-11.1921
茎	-11.1922
沢	-11.1922
冠	-11.1922
α	-11.1925
授	-11.2206
黙	-11.2206
暦	-11.2207
荒	-11.2207
湯	-11.2207
翌	-11.2207
涼	-11.2207
ョ	-11.245
題	-11.2498
免	-11.2501
梱	-11.2501
ö	-11.2501
肝	-11.2501
圏	-11.2501
啓	-11.2501
始	-11.2686
居	-11.2804
弓	-11.2804
掘	-11.2804
激	-11.2804
辛	-11.2804
鎮	-11.2804
令	-11.3099
仕	-11.3114
抑	-11.3115
卓	-11.3116
忍	-11.3117
乾	-11.3117
杖	-11.3117
灯	-11.3117
→	-11.3117
鼓	-11.3117
ô	-11.3117
句	-11.3117
幕	-11.3117
矢	-11.3117
丁	-11.3117
飢	-11.3117
滝	-11.3117
ι	-11.3122
友	-11.3355
則	-11.3435
階	-11.3437
絡	-11.3438
債	-11.3439
林	-11.3439
捉	-11.3439
煮	-11.3439
猿	-11.344
仏	-11.344
旧	-11.344
紋	-11.344
墓	-11.344
快	-11.3767
客	-11.3771
隅	-11.3772
鉛	-11.3773
河	-11.3773
蝶	-11.3773
冊	-11.3773
喉	-11.3773
悩	-11.3773
ο	-11.3781
若	-11.4094
頂	-11.4115
透	-11.4117
幻	-11.4117
賛	-11.4117
擦	-11.4117
胎	-11.4117
尽	-11.4117
è	-11.4117
赦	-11.4118
拘	-11.4118
途	-11.4471
録	-11.4472
訪	-11.4472
僚	-11.4473
将	-11.4474
盤	-11.4474
辱	-11.4474
芸	-11.4474
胞	-11.4474
嘆	-11.4474
玉	-11.4475
剃	-11.4475
汗	-11.4475
腰	-11.4475
髄	-11.4475
僕	-11.4475
伏	-11.4475
策	-11.4839
盟	-11.4844
斑	-11.4845
甲	-11.4845
該	-11.4845
丈	-11.4845
ú	-11.4845
迎	-11.4845
畑	-11.4846
φ	-11.4846
練	-11.5228
滞	-11.5229
⠀	-11.523
剥	-11.523
淡	-11.523
±	-11.523
預	-11.523
段	-11.5625
伸	-11.5627
宅	-11.5628
縛	-11.5629
陶	-11.5629
痕	-11.563
搭	-11.563
τ	-11.5635
遅	-11.5996
灰	-11.6032
吉	-11.6046
軟	-11.6046
涙	-11.6046
壮	-11.6046
糸	-11.6046
彩	-11.6046
σ	-11.6049
恐	-11.6406
候	-11.6477
操	-11.6478
析	-11.6478
門	-11.6479
ぬ	-11.6479
旋	-11.6479
宗	-11.648
砲	-11.6481
禁	-11.6481
顕	-11.6481
織	-11.6481
冒	-11.6481
桃	-11.6481
雌	-11.6481
妖	-11.6481
惨	-11.6481
宝	-11.693
志	-11.6935
棄	-11.6935
謀	-11.6935
菜	-11.6935
募	-11.6935
譲	-11.6935
艦	-11.6936
填	-11.6936
蜂	-11.6936
机	-11.6936
枠	-11.6936
怠	-11.6936
盆	-11.6936
苗	-11.6936
唾	-11.6936
泉	-11.6936
邸	-11.6936
採	-11.7409
争	-11.7409
益	-11.7409
索	-11.741
償	-11.7411
竜	-11.7411
噂	-11.7411
堂	-11.7412
浅	-11.7412
藻	-11.7412
傘	-11.7412
～	-11.7412
θ	-11.7412
μ	-11.7416
仲	-11.7901
磁	-11.7905
洋	-11.7909
築	-11.7909
敏	-11.791
施	-11.791
摂	-11.7911
脂	-11.7912
膝	-11.7912
畳	-11.7912
ヶ	-11.7912
敷	-11.7912
€	-11.7912
∫	-11.7912
扁	-11.7912
紅	-11.7912
️	-11.7912
松	-11.7912
態	-11.8427
販	-11.8438
漂	-11.8438
∀	-11.8438
瘍	-11.8438
七	-11.8438
泊	-11.8438
拭	-11.8438
ν	-11.8442
避	-11.8966
患	-11.8986
展	-11.8988
談	-11.8993
逸	-11.8993
椎	-11.8993
筒	-11.8993
架	-11.8994
蚊	-11.8994
拳	-11.8994
兆	-11.8994
枢	-11.8994
奥	-11.8994
∈	-11.8994
枕	-11.8994
ω	-11.8995
歴	-11.9399
印	-11.9581
威	-11.9581
担	-11.9581
兄	-11.9582
疎	-11.9582
顎	-11.9582
遂	-11.9582
柔	-11.9582
履	-11.9582
垂	-12.0134
英	-12.0181
校	-12.02
瞬	-12.0203
渦	-12.0207
遣	-12.0207
剛	-12.0207
霜	-12.0207
咳	-12.0207
憂	-12.0207
÷	-12.0207
揃	-12.0207
賄	-12.0207
盛	-12.0207
ρ	-12.0214
爆	-12.087
御	-12.0872
季	-12.0873
闇	-12.0873
庁	-12.0873
兼	-12.0873
潤	-12.0873
凸	-12.0874
託	-12.0874
六	-12.0874
捜	-12.0874
峡	-12.0874
贅	-12.0874
–	-12.0874
廊	-12.0874
郭	-12.0874
懲	-12.0874
蜜	-12.0874
勃	-12.0874
宿	-12.1586
削	-12.1586
攻	-12.1587
承	-12.1587
拍	-12.1588
券	-12.1588
喜	-12.2091
効	-12.2352
殿	-12.2357
我	-12.2357
締	-12.3166
鋭	-12.3176
彫	-12.3191
往	-12.3191
憎	-12.3191
•	-12.3839
研	-12.4099
誌	-12.4099
盾	-12.41
弟	-12.41
勧	-12.5067
衛	-12.5094
障	-12.5097
紀	-12.5099
懸	-12.5099
徴	-12.5099
汚	-12.5956
肢	-12.6208
昔	-12.6209
危	-12.621
係	-12.7454
胆	-12.7456
療	-12.7457
憲	-12.7458
挽	-12.7458
駐	-12.7458
博	-12.746
歓	-12.7461
批	-12.7461
政	-12.8884
径	-12.8887
焦	-12.8888
腎	-12.8889
崩	-12.8889
ぜ	-13.0535
揚	-13.0553
怪	-13.0556
飽	-13.0556
ぽ	-13.0556
顧	-13.0556
掛	-13.2527
尺	-13.2552
帽	-13.2553
脆	-13.2555
疫	-13.2555
眉	-13.2556
疾	-13.2556
剰	-13.2556
稿	-13.2556
贈	-13.2556
督	-13.5053
署	-13.5054
睡	-13.5055
険	-13.5055
稲	-13.8387
漢	-13.8389
供	-14.3386
構	-14.3386
礎	-14.3389
遷	-14.3389
憩	-14.3389
錬	-14.3389
緻	-15.2955
朴	-15.2956
曇	-15.2957
叢	-15.2958
些	-15.2959
賑	-15.296
《	-15.2961
隆	-15.2962
錐	-15.2963
轄	-15.2964
薦	-15.2965
粧	-15.2966
憧	-15.2967
囚	-15.2968
吊	-15.2969
傍	-15.297
茂	-15.2971
硝	-15.2972
沃	-15.2973
惹	-15.2974
叙	-15.2975
醒	-15.2976
脇	-15.2977
泌	-15.2978
栓	-15.2979
銭	-15.298
姉	-15.2981
ぴ	-15.2982
銘	-15.2983
豪	-15.2984
痢	-15.2985
岐	-15.2986
嗅	-15.2987
呈	-15.2988
痺	-15.2989
渋	-15.299
媚	-15.2991
厄	-15.2992
‐	-15.2993
鬱	-15.2994
洪	-15.2995
枯	-15.2996
彗	-15.2997
馴	-15.2998
逮	-15.2999
肖	-15.3
灌	-15.3001
漬	-15.3002
漑	-15.3003
阻	-15.3004
貪	-15.3005
謙	-15.3006
眺	-15.3007
攪	-15.3008
拌	-15.3009
醤	-15.301
躍	-15.3011
躊	-15.3012
躇	-15.3013
忙	-15.3014
呂	-15.3015
享	-15.3016
羅	-15.3017
紳	-15.3018
澱	-15.3019
慈	-15.302
宛	-15.3021
韓	-15.3022
雅	-15.3023
玄	-15.3024
娯	-15.3025
郷	-15.3026
舎	-15.3027
箇	-15.3028
看	-15.3029
崇	-15.303
寧	-15.3031
嘔	-15.3032
▄	-15.3033
訟	-15.3034
播	-15.3035
亀	-15.3036
⁄	-15.3037
跳	-15.3038
硫	-15.3039
喚	-15.304
鹸	-15.3041
掲	-15.3042
匿	-15.3043
剖	-15.3044
腔	-15.3045
綴	-15.3046
畜	-15.3047
慰	-15.3048
剪	-15.3049
祉	-15.305
漸	-15.3051
暮	-15.3052
脊	-15.3053
籍	-15.3054
撤	-15.3055
詫	-15.3056
搾	-15.3057
巧	-15.3058
拝	-15.3059
郵	-15.306
遵	-15.3061
舗	-15.3062
碑	-15.3063
恒	-15.3064
哺	-15.3065
騎	-15.3066
誓	-15.3067
擬	-15.3068
菓	-15.3069
叔	-15.307
鋳	-15.3071
曝	-15.3072
貼	-15.3073
衡	-15.3074
臨	-15.3075
磨	-15.3076
妥	-15.3077
濡	-15.3078
嬉	-15.3079
傑	-15.308
▀	-15.3081
耗	-15.3082
曖	-15.3083
昧	-15.3084
閲	-15.3085
涯	-15.3086
戒	-15.3087
偵	-15.3088
須	-15.3089
酷	-15.309
敢	-15.3091
珍	-15.3092
楕	-15.3093
揮	-15.3094
賊	-15.3095
噛	-15.3096
濯	-15.3097
椅	-15.3098
渇	-15.3099
悔	-15.31
届	-15.3101
噴	-15.3102
醸	-15.3103
寛	-15.3104
娠	-15.3105
裕	-15.3106
衰	-15.3107
絞	-15.3108
牢	-15.3109
懐	-15.311
⠛	-15.3111
誉	-15.3112
唐	-15.3113
叩	-15.3114
摩	-15.3115
隷	-15.3116
摘	-15.3117
暇	-15.3118
捨	-15.3119
釣	-15.312
詐	-15.3121
泣	-15.3122
窟	-15.3123
捧	-15.3124
控	-15.3125
倣	-15.3126
俳	-15.3127
癒	-15.3128
漠	-15.3129
挨	-15.313
拶	-15.3131
堆	-15.3132
虐	-15.3133
穫	-15.3134
幾	-15.3135
喪	-15.3136
駄	-15.3137
酔	-15.3138
房	-15.3139
委	-15.314
稼	-15.3141
漏	-15.3142
誕	-15.3143
狩	-15.3144
殊	-15.3145
徹	-15.3146
匂	-15.3147
趣	-15.3148
寸	-15.3149
膚	-15.315
招	-15.3151
祈	-15.3152
叫	-15.3153
併	-15.3154
貿	-15.3155
捗	-15.3156
遭	-15.3157
秩	-15.3158
卒	-15.3159
遇	-15.316
穏	-15.3161
頑	-15.3162
晶	-15.3163
賃	-15.3164
濃	-15.3165
欧	-15.3166
昆	-15.3167
即	-15.3168
浄	-15.3169
勾	-15.317
征	-15.3171
井	-15.3172
擁	-15.3173
弁	-15.3174
飯	-15.3175
騰	-15.3176
漫	-15.3177
陥	-15.3178
粋	-15.3179
循	-15.318
肯	-15.3181
ぱ	-15.3182
挿	-15.3183
忠	-15.3184
才	-15.3185
繊	-15.3186
矛	-15.3187
犠	-15.3188
牲	-15.3189
炒	-15.319
催	-15.3191
掃	-15.3192
貯	-15.3193
奮	-15.3194
飼	-15.3195
彙	-15.3196
諸	-15.3197
媒	-15.3198
妨	-15.3199
雰	-15.32
偉	-15.3201
殖	-15.3202
膨	-15.3203
壌	-15.3204
祖	-15.3205
邪	-15.3206
誠	-15.3207
営	-15.3208
渉	-15.3209
恵	-15.321
勇	-15.3211
徐	-15.3212
沿	-15.3213
徒	-15.3214
ゥ	-15.3215
寿	-15.3216
辞	-15.3217
詰	-15.3218
疲	-15.3219
栽	-15.322
拒	-15.3221
需	-15.3222
酵	-15.3223
璧	-15.3224
酬	-15.3225
遍	-15.3226
邦	-15.3227
孤	-15.3228
貧	-15.3229
百	-15.323
占	-15.3231
潔	-15.3232
括	-15.3233
震	-15.3234
巨	-15.3235
輝	-15.3236
培	-15.3237
克	-15.3238
越	-15.3239
呪	-15.324
冗	-15.3241
契	-15.3242
衝	-15.3243
蒸	-15.3244
励	-15.3245
添	-15.3246
瞑	-15.3247
講	-15.3248
衆	-15.3249
奏	-15.325
唯	-15.3251
肪	-15.3252
措	-15.3253
貴	-15.3254
如	-15.3255
希	-15.3256
覆	-15.3257
院	-15.3258
燥	-15.3259
侵	-15.326
夕	-15.3261
唆	-15.3262
軌	-15.3263
午	-15.3264
抵	-15.3265
勉	-15.3266
貨	-15.3267
紛	-15.3268
序	-15.3269
央	-15.327
驚	-15.3271
伴	-15.3272
描	-15.3273
怖	-15.3274
宣	-15.3275
迅	-15.3276
抽	-15.3277
践	-15.3278
暖	-15.3279
努	-15.328
貫	-15.3281
憶	-15.3282
曜	-15.3283
尊	-15.3284
帝	-15.3285
挑	-15.3286
ゃ	-15.3287
齢	-15.3288
普	-15.3289
融	-15.329
雇	-15.3291
振	-15.3292
頻	-15.3293
翻	-15.3294
敗	-15.3295
釈	-15.3296
登	-15.3297
繁	-15.3298
申	-15.3299
徳	-15.33
謝	-15.3301
緊	-15.3302
休	-15.3303
己	-15.3304
栄	-15.3305
慣	-15.3306
訓	-15.3307
替	-15.3308
背	-15.3309
似	-15.331
晴	-15.3311
紹	-15.3312
距	-15.3313
繰	-15.3314
府	-15.3315
討	-15.3316
忘	-15.3317
律	-15.3318
魅	-15.3319
尋	-15.332
責	-15.3321
援	-15.3322
貢	-15.3323
購	-15.3324
監	-15.3325
功	-15.3326
師	-15.3327
壊	-15.3328
待	-15.3329
械	-15.333
容	-15.3331
奨	-15.3332
範	-15.3333
哲	-15.3334
ぞ	-15.3335
労	-15.3336
魔	-15.3337
頼	-15.3338
仮	-15.3339
建	-15.334
拡	-15.3341
較	-15.3342
緒	-15.3343
植	-15.3344
囲	-15.3345
働	-15.3346
込	-15.3347
評	-15.3348
況	-15.3349
医	-15.335
慮	-15.3351
宇	-15.3352
交	-15.3353
詳	-15.3354
投	-15.3355
返	-15.3356
温	-15.3357
互	-15.3358
康	-15.3359
専	-15.336
映	-15.3361
域	-15.3362
依	-15.3363
工	-15.3364
資	-15.3365
ょ	-15.3366
呼	-15.3367
換	-15.3368
由	-15.3369
更	-15.337
標	-15.3371
違	-15.3372
究	-15.3373
完	-15.3374
験	-15.3375
づ	-15.3376
達	-15.3377
複	-15.3378
答	-15.3379
識	-15.338
思	-15.3381
般	-15.3382
続	-15.3383
ァ	-15.3384
考	-15.3385
ォ	-15.3386
穀	-15.3386
企	-15.3386
必	-15.3387
災	-15.3387
慎	-15.3388
ェ	-15.3388
倫	-15.3388
仰	-15.3388
ュ	-15.3389
択	-15.3389
筆	-15.3389
刷	-15.3389
而	-15.3389
鬼	-15.3389
幽	-15.3389
宙	-15.3389
喫	-15.339
ィ	-15.339
奉	-15.339
