<pad>	0
<unk>	0
<s>	0
</s>	0
<USER>	0
<ASSISTANT>	0
<SYSTEM>	0
ます	-0
する	-1
こと	-2
して	-3
です	-4
あり	-5
した	-6
でき	-7
され	-8
てい	-9
します	-10
er	-11
an	-12
ため	-13
st	-14
▁A	-15
ss	-16
ist	-17
▁U	-18
ser	-19
ant	-20
ssist	-21
ssistant	-22
▁User	-23
▁Assistant	-24
ある	-25
あります	-26
ことが	-27
なた	-28
あなた	-29
的な	-30
使用	-31
できます	-32
これ	-33
があります	-34
よう	-35
それ	-36
▁-	-37
ました	-38
スト	-39
してい	-40
イン	-41
さい	-42
ために	-43
より	-44
ない	-45
くだ	-46
ください	-47
って	-48
ことを	-49
ット	-50
また	-51
ています	-52
には	-53
ませ	-54
ター	-55
から	-56
可能	-57
ません	-58
この	-59
必要	-60
ック	-61
プロ	-62
場合	-63
ョン	-64
どの	-65
ング	-66
ール	-67
または	-68
ティ	-69
ション	-70
では	-71
ように	-72
ている	-73
を使用	-74
いて	-75
ート	-76
ード	-77
できる	-78
ですか	-79
その	-80
私は	-81
しい	-82
ーム	-83
ことができます	-84
である	-85
ント	-86
可能性	-87
▁1	-88
ース	-89
された	-90
につ	-91
らの	-92
方法	-93
すること	-94
重要	-95
であり	-96
によ	-97
他の	-98
つか	-99
くの	-100
られ	-101
いく	-102
あなたの	-103
コン	-104
として	-105
ステ	-106
ュー	-107
in	-108
するために	-109
しています	-110
作成	-111
なり	-112
なる	-113
ータ	-114
いくつか	-115
ける	-116
がある	-117
多くの	-118
これは	-119
▁2	-120
グラ	-121
リー	-122
提供	-123
について	-124
ンス	-125
およ	-126
的に	-127
データ	-128
してください	-129
および	-130
イル	-131
00	-132
on	-133
などの	-134
レー	-135
ライ	-136
を持	-137
すべ	-138
ップ	-139
ーク	-140
える	-141
される	-142
つの	-143
もの	-144
クト	-145
言語	-146
など	-147
ンド	-148
った	-149
ための	-150
している	-151
ジェ	-152
これらの	-153
▁*	-154
を使用して	-155
に関	-156
おり	-157
は何	-158
を提供	-159
あなたが	-160
▁3	-161
すべて	-162
スク	-163
によって	-164
を作成	-165
ーション	-166
いくつかの	-167
のに	-168
たち	-169
次の	-170
最も	-171
ファ	-172
サイ	-173
常に	-174
役立	-175
間の	-176
ステム	-177
システム	-178
フォ	-179
スタ	-180
ありません	-181
しました	-182
ディ	-183
ープ	-184
問題	-185
必要があります	-186
ージ	-187
それは	-188
説明	-189
可能性があります	-190
私たち	-191
さま	-192
れば	-193
を見	-194
ざま	-195
さまざま	-196
デル	-197
特定	-198
さまざまな	-199
プログラ	-200
世界	-201
います	-202
えて	-203
なく	-204
彼ら	-205
アル	-206
一般	-207
モデル	-208
▁1.	-209
ゲーム	-210
により	-211
っています	-212
ジェクト	-213
--	-214
セス	-215
時間	-216
情報	-217
▁4	-218
フィ	-219
は何ですか	-220
開発	-221
私の	-222
影響	-223
どう	-224
ーの	-225
理解	-226
されます	-227
まれ	-228
のある	-229
or	-230
することが	-231
すると	-232
すべての	-233
そして	-234
en	-235
プリ	-236
特定の	-237
選択	-238
ような	-239
▁2.	-240
っている	-241
いう	-242
機能	-243
人々	-244
場合は	-245
彼の	-246
▁3.	-247
かを	-248
キャ	-249
新しい	-250
ar	-251
さら	-252
サー	-253
th	-254
重要です	-255
しか	-256
への	-257
ンの	-258
コード	-259
非常に	-260
▁`	-261
彼は	-262
タイ	-263
のに役立	-264
あなたは	-265
チャ	-266
▁=	-267
実行	-268
バー	-269
ユー	-270
することを	-271
le	-272
させ	-273
たと	-274
重要な	-275
なります	-276
まで	-277
リア	-278
質問	-279
意味	-280
に対	-281
どのように	-282
ケーション	-283
ルの	-284
を与	-285
人の	-286
バイ	-287
ソース	-288
という	-289
アク	-290
大き	-291
▁5	-292
スの	-293
されています	-294
ウェ	-295
、「	-296
ネル	-297
えば	-298
プレ	-299
ただ	-300
する必要があります	-301
さらに	-302
リスト	-303
しかし	-304
でした	-305
at	-306
ーマ	-307
されている	-308
ことは	-309
があり	-310
することができます	-311
アプリ	-312
▁4.	-313
自分	-314
ちます	-315
それを	-316
ラン	-317
するための	-318
20	-319
ネット	-320
ワーク	-321
決定	-322
んで	-323
最初	-324
▁この	-325
含まれ	-326
確認	-327
学習	-328
める	-329
に関する	-330
じて	-331
れる	-332
ことに	-333
ズム	-334
彼女	-335
社会	-336
テキ	-337
ザー	-338
が必要	-339
re	-340
テキスト	-341
ことができる	-342
研究	-343
ニング	-344
AI	-345
ここ	-346
スペ	-347
19	-348
を見つ	-349
前に	-350
のために	-351
ーン	-352
になる	-353
追加	-354
アイ	-355
ブラ	-356
基づ	-357
コンピ	-358
▁「	-359
たとえば	-360
改善	-361
を含	-362
ミング	-363
テク	-364
もし	-365
に基づ	-366
彼らは	-367
al	-368
ミュ	-369
結果	-370
なら	-371
コンピュー	-372
10	-373
一部	-374
ーズ	-375
プラ	-376
異なる	-377
it	-378
えます	-379
生成	-380
での	-381
プロセス	-382
アプリケーション	-383
することは	-384
良い	-385
関数	-386
よりも	-387
ファイル	-388
れた	-389
ポート	-390
するには	-391
それら	-392
簡単	-393
なが	-394
ーを	-395
▁5.	-396
による	-397
いた	-398
複雑	-399
ょう	-400
起こ	-401
オブ	-402
エネル	-403
エネルギ	-404
スキ	-405
ンプ	-406
ッド	-407
ライン	-408
しょう	-409
もしれ	-410
が含まれ	-411
▁P	-412
ンジ	-413
注意	-414
▁私は	-415
かに	-416
を書	-417
場所	-418
引き	-419
eb	-420
名前	-421
考え	-422
は次の	-423
プログラミング	-424
ただし	-425
▁C	-426
取り	-427
かもしれ	-428
したり	-429
するのに役立	-430
シャ	-431
まり	-432
技術	-433
理論	-434
とおり	-435
オン	-436
ユーザー	-437
ro	-438
ーは	-439
大きな	-440
ルを	-441
する方法	-442
存在	-443
とおりです	-444
通常	-445
リズム	-446
el	-447
オブジェクト	-448
歴史	-449
テン	-450
フェ	-451
ければ	-452
効果	-453
経験	-454
科学	-455
ックス	-456
..	-457
性を	-458
ツール	-459
可能な	-460
受け	-461
現在	-462
yth	-463
タスク	-464
オープ	-465
ac	-466
依存	-467
小さ	-468
クラ	-469
▁S	-470
ティング	-471
ython	-472
コンピューター	-473
能力	-474
ので	-475
▁+	-476
プロジェクト	-477
ジャ	-478
ネットワーク	-479
にお	-480
なければ	-481
関係	-482
教えて	-483
▁``	-484
だけ	-485
えた	-486
環境	-487
と思	-488
リン	-489
ラク	-490
は次のとおりです	-491
適切	-492
解決	-493
てください	-494
フト	-495
個人	-496
数の	-497
オープン	-498
トレー	-499
にも	-500
ーチ	-501
経済	-502
ループ	-503
することが重要です	-504
とき	-505
ロー	-506
ないで	-507
最初の	-508
健康	-509
人間の	-510
を含む	-511
勧め	-512
組み	-513
を通	-514
一般的な	-515
コミュ	-516
コミュニ	-517
にと	-518
とも	-519
地球	-520
▁6	-521
同じ	-522
トレーニング	-523
たい	-524
それが	-525
ではありません	-526
私が	-527
者の	-528
違い	-529
計算	-530
がって	-531
ウェア	-532
プレイ	-533
ですが	-534
したい	-535
お勧め	-536
行動	-537
するの	-538
ri	-539
プログラム	-540
基本	-541
維持	-542
セット	-543
レベ	-544
ってい	-545
メント	-546
合わ	-547
構造	-548
**	-549
を持つ	-550
国の	-551
Web	-552
知られ	-553
影響を与	-554
に対する	-555
am	-556
最適	-557
したがって	-558
完全	-559
キュ	-560
スを	-561
にとって	-562
ないでください	-563
ります	-564
もち	-565
▁M	-566
ロジ	-567
構成	-568
変更	-569
、1	-570
専門	-571
自然	-572
分析	-573
後に	-574
サービ	-575
合わせ	-576
ランス	-577
しく	-578
----	-579
文化	-580
お勧めします	-581
かもしれません	-582
画像	-583
目的	-584
でも	-585
ダー	-586
デオ	-587
リング	-588
に応	-589
させる	-590
タイプ	-591
lo	-592
私たちの	-593
ており	-594
いる	-595
始め	-596
宇宙	-597
ラー	-598
点を	-599
物の	-600
プション	-601
なぜ	-602
安全	-603
との	-604
映画	-605
アルゴ	-606
アルゴリズム	-607
シュ	-608
できますか	-609
チェ	-610
別の	-611
要因	-612
、2	-613
できません	-614
アイデ	-615
を探	-616
要素	-617
人生	-618
彼らの	-619
人気	-620
アクセス	-621
に従	-622
興味	-623
上の	-624
全体	-625
ic	-626
ブル	-627
サイト	-628
処理	-629
コー	-630
ビデオ	-631
高い	-632
必要な	-633
ンを	-634
を見つける	-635
▁**	-636
人工	-637
性の	-638
人間	-639
を助	-640
ろん	-641
その他の	-642
もちろん	-643
きます	-644
しば	-645
管理	-646
アの	-647
ベース	-648
仕事	-649
ッチ	-650
状況	-651
目標	-652
考慮	-653
太陽	-654
に応じて	-655
et	-656
分野	-657
設計	-658
オプション	-659
クリ	-660
効率	-661
材料	-662
ニュー	-663
を引き	-664
pt	-665
やす	-666
av	-667
答え	-668
自身	-669
ou	-670
学ぶ	-671
付け	-672
小さな	-673
インター	-674
製品	-675
年に	-676
れて	-677
自動	-678
計画	-679
かどう	-680
に依存	-681
を実行	-682
場合があります	-683
感情	-684
リティ	-685
を説明	-686
正確	-687
de	-688
準備	-689
これにより	-690
▁"	-691
リカ	-692
に関連	-693
を選択	-694
よく	-695
教えてください	-696
パー	-697
サポート	-698
かか	-699
はい	-700
ソフト	-701
フォーム	-702
にち	-703
を作	-704
政治	-705
の中	-706
フォーマ	-707
フレ	-708
構築	-709
こん	-710
oo	-711
エネルギー	-712
ンは	-713
ショ	-714
呼ば	-715
トリ	-716
わり	-717
両方	-718
を開	-719
as	-720
ユニ	-721
入力	-722
とは	-723
知識	-724
学の	-725
私に	-726
グループ	-727
概念	-728
ようと	-729
こんにち	-730
を持っている	-731
こんにちは	-732
ここに	-733
スタイル	-734
であることを	-735
使用される	-736
詳細	-737
定義	-738
利用	-739
スペイン	-740
生活	-741
テクノ	-742
ch	-743
自分の	-744
になります	-745
アシ	-746
音楽	-747
変化	-748
最大	-749
保護	-750
テクノロジ	-751
ことです	-752
オー	-753
主義	-754
▁7	-755
ーキ	-756
子供	-757
要約	-758
部分	-759
的で	-760
一緒	-761
制御	-762
りの	-763
▁これらの	-764
ソフトウェア	-765
ポー	-766
に基づいて	-767
感じ	-768
可能性がある	-769
できるように	-770
に入	-771
複雑な	-772
▁6.	-773
オンライン	-774
比較	-775
十分	-776
実際	-777
はありません	-778
べき	-779
らす	-780
私たちは	-781
これら	-782
一緒に	-783
ではなく	-784
食べ	-785
スタント	-786
されました	-787
▁[	-788
価値	-789
知能	-790
▁もちろん	-791
深い	-792
達成	-793
状態	-794
設定	-795
スケ	-796
サイズ	-797
困難	-798
あなたに	-799
物を	-800
ラクター	-801
ジュ	-802
会社	-803
を維持	-804
一部の	-805
do	-806
を受け	-807
を改善	-808
000	-809
するのに役立ちます	-810
行う	-811
速度	-812
認識	-813
につなが	-814
アシスタント	-815
▁G	-816
▁L	-817
的および	-818
ーター	-819
必要がある	-820
理由	-821
人工知能	-822
種類	-823
地域	-824
すれば	-825
イント	-826
インスト	-827
ra	-828
▁c	-829
楽し	-830
次に	-831
▁D	-832
ッセ	-833
キャラクター	-834
シー	-835
手順	-836
アイデア	-837
られた	-838
レス	-839
制限	-840
移動	-841
▁こんにちは	-842
を表	-843
当て	-844
でしょう	-845
Python	-846
を提供します	-847
生産	-848
における	-849
提案	-850
しない	-851
リソース	-852
ロック	-853
んだ	-854
適切な	-855
▁|	-856
調整	-857
を理解	-858
最終	-859
明確	-860
ることができます	-861
評価	-862
)、	-863
メン	-864
テスト	-865
とん	-866
中に	-867
ub	-868
ほとん	-869
についての	-870
者は	-871
と呼ば	-872
からの	-873
と思います	-874
そう	-875
されてい	-876
パフォーマ	-877
ありますか	-878
特に	-879
を生成	-880
ルト	-881
目の	-882
取得	-883
物理	-884
で最も	-885
デバイ	-886
以下	-887
発生	-888
レン	-889
を助ける	-890
ステップ	-891
都市	-892
un	-893
学的	-894
ion	-895
が含まれます	-896
インストール	-897
パフォーマンス	-898
基本的な	-899
マイ	-900
エンジ	-901
現在の	-902
文字	-903
れます	-904
人が	-905
▁T	-906
ポイント	-907
ニア	-908
マー	-909
ava	-910
強力	-911
性と	-912
問題を	-913
データを	-914
▁R	-915
になり	-916
今日	-917
のように	-918
id	-919
▁B	-920
旅行	-921
サービス	-922
発見	-923
ではない	-924
示します	-925
アド	-926
ティブ	-927
コマ	-928
にある	-929
けます	-930
の使用	-931
om	-932
セン	-933
成長	-934
を備	-935
um	-936
接続	-937
)。	-938
向上	-939
に適	-940
アメ	-941
ピック	-942
どうすれば	-943
であると	-944
まだ	-945
カー	-946
es	-947
Java	-948
のための	-949
を作成します	-950
コミュニティ	-951
▁#	-952
プラット	-953
最高	-954
リスク	-955
がと	-956
っと	-957
物語	-958
関連	-959
いですか	-960
ニーズ	-961
タル	-962
を追加	-963
生き	-964
キー	-965
条件	-966
焦点を	-967
アメリカ	-968
コマンド	-969
することも	-970
影響を与える	-971
▁8	-972
参加	-973
使用されます	-974
を持っています	-975
のは	-976
が必要です	-977
言語モデル	-978
自由	-979
12	-980
デザ	-981
できない	-982
プラットフォーム	-983
タン	-984
活動	-985
ing	-986
▁/	-987
彼が	-988
チーム	-989
is	-990
を引き起こ	-991
ux	-992
クロ	-993
テンツ	-994
コンテンツ	-995
好き	-996
情報を	-997
機械	-998
電子	-999
ことを確認	-1000
レイ	-1001
年の	-1002
アップ	-1003
スキル	-1004
惑星	-1005
ぞれ	-1006
エン	-1007
品質	-1008
それぞれ	-1009
クション	-1010
願っています	-1011
ガイ	-1012
専門家	-1013
プト	-1014
方法で	-1015
プログラミング言語	-1016
規模	-1017
組み合わせ	-1018
価格	-1019
0.	-1020
彼らが	-1021
温度	-1022
なりません	-1023
量の	-1024
見な	-1025
議論	-1026
しますか	-1027
しようと	-1028
のような	-1029
トピック	-1030
▁•	-1031
ほど	-1032
ビジ	-1033
代の	-1034
がとう	-1035
ありがとう	-1036
人気のある	-1037
これらは	-1038
▁f	-1039
ボット	-1040
らか	-1041
パイ	-1042
言葉	-1043
の例	-1044
スター	-1045
り返	-1046
主な	-1047
ヤー	-1048
測定	-1049
より多くの	-1050
パラ	-1051
▁そして	-1052
を確	-1053
アン	-1054
ソー	-1055
ッシュ	-1056
戦略	-1057
▁m	-1058
▁7.	-1059
することです	-1060
il	-1061
形成	-1062
増加	-1063
成功	-1064
...	-1065
の一部	-1066
ことに注意	-1067
促進	-1068
共有	-1069
利点	-1070
するように	-1071
なければなりません	-1072
もた	-1073
作品	-1074
inux	-1075
家族	-1076
パン	-1077
力を	-1078
操作	-1079
▁F	-1080
かった	-1081
を知	-1082
物質	-1083
貢献	-1084
セキュ	-1085
ed	-1086
けて	-1087
間に	-1088
を備えた	-1089
市場	-1090
int	-1091
彼女は	-1092
つまり	-1093
運動	-1094
をより	-1095
セキュリティ	-1096
im	-1097
きました	-1098
ウン	-1099
完全に	-1100
意味します	-1101
シン	-1102
中の	-1103
機会	-1104
を実	-1105
スピ	-1106
ダイ	-1107
人は	-1108
特徴	-1109
強力な	-1110
することで	-1111
30	-1112
の数	-1113
たり	-1114
ーロ	-1115
者が	-1116
購入	-1117
パター	-1118
英語	-1119
現実	-1120
▁{	-1121
一方	-1122
好み	-1123
練習	-1124
これが	-1125
):	-1126
▁p	-1127
トル	-1128
レベル	-1129
ことを願っています	-1130
he	-1131
バック	-1132
個人的な	-1133
責任	-1134
教育	-1135
▁これは	-1136
自分自身	-1137
を指	-1138
簡単に	-1139
スは	-1140
役割	-1141
どのような	-1142
本当	-1143
かどうかを	-1144
彼女の	-1145
メモ	-1146
予測	-1147
企業	-1148
に焦点を	-1149
いてください	-1150
信頼	-1151
直接	-1152
の場合	-1153
を通じて	-1154
元の	-1155
表現	-1156
調理	-1157
と見な	-1158
データの	-1159
ol	-1160
簡単な	-1161
するのに	-1162
オープンソース	-1163
尋ね	-1164
調査	-1165
ad	-1166
するか	-1167
us	-1168
どこ	-1169
ラル	-1170
ロン	-1171
保存	-1172
がない	-1173
のですか	-1174
する可能性があります	-1175
▁I	-1176
独自	-1177
それらを	-1178
▁あなたの	-1179
▁ア	-1180
のみ	-1181
動き	-1182
消費	-1183
する必要がある	-1184
もう	-1185
同様	-1186
番目の	-1187
創造	-1188
危険	-1189
学び	-1190
可能性のある	-1191
動物	-1192
られています	-1193
18	-1194
大な	-1195
将来	-1196
満た	-1197
ag	-1198
攻撃	-1199
cri	-1200
相互	-1201
独自の	-1202
▁私の	-1203
時間を	-1204
最高の	-1205
ut	-1206
ビュー	-1207
ft	-1208
距離	-1209
レート	-1210
ロード	-1211
投資	-1212
政府	-1213
エンス	-1214
メディ	-1215
ンプル	-1216
必要と	-1217
▁```	-1218
らず	-1219
バル	-1220
繰り返	-1221
に依存します	-1222
内の	-1223
戦争	-1224
紹介	-1225
ときに	-1226
最後に	-1227
どれ	-1228
メッセ	-1229
レーション	-1230
検討	-1231
デザイン	-1232
▁あなたが	-1233
システムの	-1234
大規模	-1235
私たちが	-1236
cript	-1237
されており	-1238
テクノロジー	-1239
位置	-1240
組織	-1241
量子	-1242
を減	-1243
を示	-1244
少し	-1245
後の	-1246
色の	-1247
▁W	-1248
何か	-1249
信じ	-1250
を達成	-1251
方法は	-1252
▁しかし	-1253
ユニーク	-1254
であるため	-1255
単語	-1256
プライ	-1257
食事	-1258
わりに	-1259
カード	-1260
変換	-1261
ても	-1262
体の	-1263
支援	-1264
電話	-1265
▁はい	-1266
を加	-1267
アプロ	-1268
バージ	-1269
のリスト	-1270
15	-1271
マル	-1272
世紀	-1273
ブロック	-1274
ことが重要です	-1275
シア	-1276
作用	-1277
度の	-1278
スクリ	-1279
それらの	-1280
よいですか	-1281
を使	-1282
定期	-1283
世界の	-1284
を提供する	-1285
ct	-1286
ニック	-1287
メッセージ	-1288
忘れ	-1289
推奨	-1290
をもた	-1291
。」	-1292
に行	-1293
を手	-1294
検索	-1295
ent	-1296
正しい	-1297
しており	-1298
カル	-1299
ボード	-1300
▁N	-1301
哲学	-1302
電気	-1303
要約すると	-1304
潜在	-1305
を教えてください	-1306
いに	-1307
反応	-1308
安定	-1309
有名	-1310
ウィ	-1311
に関連する	-1312
複数の	-1313
いています	-1314
と呼ばれる	-1315
十分な	-1316
タイプの	-1317
アプローチ	-1318
障害	-1319
ゲームの	-1320
前の	-1321
どうすればよいですか	-1322
ニュ	-1323
高度	-1324
を取得	-1325
一般に	-1326
とは何ですか	-1327
コミュニケーション	-1328
ジョ	-1329
ことができ	-1330
人に	-1331
生物	-1332
を行う	-1333
社会的	-1334
るために	-1335
何を	-1336
時に	-1337
かつ	-1338
アー	-1339
イベ	-1340
平均	-1341
メート	-1342
ンチ	-1343
ページ	-1344
最適な	-1345
作業	-1346
ライブラ	-1347
すぐ	-1348
られる	-1349
バージョン	-1350
ッパ	-1351
▁x	-1352
えますか	-1353
デバイス	-1354
ってください	-1355
統合	-1356
ポーネ	-1357
一般的に	-1358
かな	-1359
人々は	-1360
大規模な	-1361
^2	-1362
ot	-1363
事実	-1364
▁あなたは	-1365
を得	-1366
側面	-1367
を考慮	-1368
ライブラリ	-1369
に焦点を当て	-1370
感覚	-1371
晴ら	-1372
課題	-1373
ロール	-1374
んでいる	-1375
os	-1376
11	-1377
助け	-1378
ものです	-1379
イス	-1380
シャル	-1381
につながる	-1382
▁b	-1383
。「	-1384
ールド	-1385
▁それは	-1386
数学	-1387
更新	-1388
()	-1389
▁9	-1390
▁E	-1391
と言	-1392
テー	-1393
を取り	-1394
コンポーネ	-1395
のに役立ちます	-1396
コンポーネント	-1397
さん	-1398
イベント	-1399
ジュール	-1400
保証	-1401
サーバー	-1402
することにより	-1403
空気	-1404
を開始	-1405
、3	-1406
かり	-1407
ギリ	-1408
ましょう	-1409
▁要約すると	-1410
--------	-1411
範囲	-1412
続け	-1413
フランス	-1414
エク	-1415
法の	-1416
細胞	-1417
これには	-1418
ことで	-1419
米国	-1420
ルール	-1421
なければなら	-1422
するのに役立つ	-1423
すことができます	-1424
すべき	-1425
に置	-1426
オペ	-1427
訓練	-1428
pen	-1429
は非常に	-1430
はありますか	-1431
la	-1432
▁s	-1433
を求	-1434
サン	-1435
長い	-1436
ヒント	-1437
いました	-1438
▁n	-1439
バランス	-1440
することもできます	-1441
労働	-1442
ビジネ	-1443
人々の	-1444
知られています	-1445
トラ	-1446
自己	-1447
と考え	-1448
ナー	-1449
コスト	-1450
素晴ら	-1451
なし	-1452
がどのように	-1453
を避	-1454
形式	-1455
要な	-1456
時間の	-1457
しばしば	-1458
ることを	-1459
することをお勧めします	-1460
イツ	-1461
倫理	-1462
を使用する	-1463
▁(	-1464
意識	-1465
領域	-1466
を学ぶ	-1467
を構築	-1468
そこ	-1469
もら	-1470
ウェブ	-1471
参照	-1472
種類の	-1473
▁}	-1474
を促進	-1475
少なく	-1476
グラフィ	-1477
代わりに	-1478
いつ	-1479
治療	-1480
を使用します	-1481
変数	-1482
方向	-1483
気候	-1484
を決定	-1485
と一緒に	-1486
Script	-1487
ハイ	-1488
精神	-1489
em	-1490
たく	-1491
セル	-1492
一の	-1493
証拠	-1494
インターネット	-1495
ig	-1496
に分	-1497
ムの	-1498
魅力	-1499
100	-1500
にアクセス	-1501
に加	-1502
、19	-1503
もっと	-1504
最初に	-1505
ていました	-1506
50	-1507
バッ	-1508
ベル	-1509
伝統	-1510
ヨーロ	-1511
ex	-1512
広い	-1513
を書く	-1514
あなたを	-1515
ヨーロッパ	-1516
▁0	-1517
とその	-1518
の問題	-1519
最適化	-1520
スクリプト	-1521
素晴らしい	-1522
のか	-1523
ドイツ	-1524
すぎ	-1525
原因	-1526
用語	-1527
ほとんどの	-1528
に到	-1529
写真	-1530
力の	-1531
リーズ	-1532
スキルを	-1533
上げ	-1534
方程	-1535
ことも	-1536
カップ	-1537
方程式	-1538
パス	-1539
視覚	-1540
読み	-1541
コーヒ	-1542
最終的に	-1543
んな	-1544
学生	-1545
人々が	-1546
pp	-1547
らく	-1548
送信	-1549
進化	-1550
コース	-1551
役立つ	-1552
ナル	-1553
料理	-1554
植物	-1555
特別	-1556
直面	-1557
を計算	-1558
する前に	-1559
を引き起こす	-1560
動作	-1561
優れた	-1562
始める	-1563
シンプル	-1564
会話	-1565
混合	-1566
適用	-1567
主張	-1568
原則	-1569
だけで	-1570
フレー	-1571
正確な	-1572
PI	-1573
▁g	-1574
芸術	-1575
を開発	-1576
を必要と	-1577
に影響を与える	-1578
で使用	-1579
を見つけ	-1580
▁'	-1581
フラ	-1582
ストー	-1583
ht	-1584
シピ	-1585
らせ	-1586
無料	-1587
集中	-1588
確かに	-1589
ことができますか	-1590
リアル	-1591
ML	-1592
▁a	-1593
レシピ	-1594
オペレー	-1595
を防	-1596
ソリ	-1597
本の	-1598
、20	-1599
,000	-1600
を持ってい	-1601
シェ	-1602
主に	-1603
想像	-1604
連の	-1605
りたい	-1606
レベルの	-1607
▁H	-1608
人生の	-1609
シリーズ	-1610
▁8.	-1611
フレーム	-1612
ソーシャル	-1613
主要な	-1614
ッケ	-1615
に参加	-1616
そのような	-1617
しないでください	-1618
なければならない	-1619
忘れないでください	-1620
いの	-1621
ブリ	-1622
マネ	-1623
修正	-1624
日の	-1625
ダウン	-1626
オープンアシスタント	-1627
ck	-1628
ul	-1629
何が	-1630
表示	-1631
によると	-1632
を強	-1633
で構成	-1634
スペース	-1635
GP	-1636
▁エ	-1637
利益	-1638
くて	-1639
不可	-1640
睡眠	-1641
飛行	-1642
ットの	-1643
ドライ	-1644
に対して	-1645
れています	-1646
がある場合は	-1647
JavaScript	-1648
協力	-1649
ながら	-1650
一連の	-1651
もらえますか	-1652
独立	-1653
のいくつか	-1654
野菜	-1655
間で	-1656
ウォ	-1657
ur	-1658
アニ	-1659
すぐに	-1660
の両方	-1661
するとき	-1662
ラス	-1663
出す	-1664
と比較	-1665
を与える	-1666
用の	-1667
質問に	-1668
いている	-1669
潜在的な	-1670
することはできません	-1671
ゆる	-1672
法律	-1673
翻訳	-1674
してみ	-1675
のない	-1676
ボール	-1677
ワード	-1678
追加の	-1679
れている	-1680
Linux	-1681
お金	-1682
宗教	-1683
家の	-1684
Open	-1685
メーター	-1686
機械学習	-1687
収集	-1688
実装	-1689
監視	-1690
が必要な	-1691
クエ	-1692
ワー	-1693
低い	-1694
出し	-1695
医療	-1696
原子	-1697
(19	-1698
200	-1699
政治的	-1700
モデルの	-1701
スマ	-1702
を下	-1703
友人	-1704
つは	-1705
拡張	-1706
粒子	-1707
わらず	-1708
コント	-1709
メモリ	-1710
メール	-1711
なかった	-1712
異なります	-1713
ューション	-1714
モン	-1715
販売	-1716
ロボット	-1717
興味深い	-1718
16	-1719
その後	-1720
リンク	-1721
しません	-1722
▁これらは	-1723
かかわらず	-1724
ws	-1725
デジ	-1726
混ぜ	-1727
特性	-1728
白い	-1729
話す	-1730
アドバイ	-1731
ソリューション	-1732
リオ	-1733
落ち	-1734
表面	-1735
解釈	-1736
他の人	-1737
▁V	-1738
▁\	-1739
化学	-1740
顧客	-1741
それらは	-1742
役立ちます	-1743
ると	-1744
道徳	-1745
ともに	-1746
ウンド	-1747
本当に	-1748
難しい	-1749
ベースの	-1750
していない	-1751
をと	-1752
パク	-1753
継続	-1754
要件	-1755
進歩	-1756
を確認	-1757
タイム	-1758
有名な	-1759
SS	-1760
々の	-1761
結論	-1762
ファン	-1763
ストーリー	-1764
ユニークな	-1765
おそ	-1766
ドラ	-1767
高く	-1768
の中で	-1769
パク質	-1770
実際の	-1771
タンパク質	-1772
高度な	-1773
おそらく	-1774
多様	-1775
日に	-1776
生み	-1777
たくさん	-1778
とともに	-1779
ine	-1780
パッケ	-1781
デジタル	-1782
パッケージ	-1783
相談	-1784
相互作用	-1785
化された	-1786
ニューラル	-1787
マト	-1788
最新	-1789
いくつかあります	-1790
nd	-1791
であ	-1792
の結果	-1793
オイル	-1794
地球の	-1795
込み	-1796
遺伝	-1797
食品	-1798
インタ	-1799
に従って	-1800
ハード	-1801
事項	-1802
分間	-1803
応答	-1804
所有	-1805
観察	-1806
の作成	-1807
プレー	-1808
考える	-1809
▁d	-1810
▁カ	-1811
わた	-1812
広く	-1813
になる可能性があります	-1814
:「	-1815
se	-1816
テナ	-1817
者に	-1818
▁20	-1819
ケーキ	-1820
23	-1821
if	-1822
支払	-1823
チーズ	-1824
する能力	-1825
するために使用	-1826
ることができる	-1827
テレ	-1828
ドル	-1829
ッション	-1830
あなたを助ける	-1831
オペレーティング	-1832
出力	-1833
不可欠	-1834
的には	-1835
必要に応じて	-1836
ッツ	-1837
の開発	-1838
を確立	-1839
最も重要な	-1840
▁マ	-1841
意見	-1842
らゆる	-1843
を通して	-1844
を書いてください	-1845
ティー	-1846
言語の	-1847
選択肢	-1848
を減らす	-1849
アクション	-1850
ルー	-1851
oog	-1852
大きく	-1853
ウェブサイト	-1854
最小	-1855
キャン	-1856
ドキュ	-1857
暗号	-1858
と同じ	-1859
クラス	-1860
▁v	-1861
あらゆる	-1862
ニューラルネットワーク	-1863
▁t	-1864
私を	-1865
長期	-1866
インターフェ	-1867
でに	-1868
獲得	-1869
発展	-1870
ことを示	-1871
支配	-1872
数字	-1873
段階	-1874
行わ	-1875
を手伝	-1876
栄養	-1877
and	-1878
可能に	-1879
点から	-1880
コードを	-1881
メディア	-1882
▁Python	-1883
単純	-1884
心理	-1885
美しい	-1886
ここでは	-1887
ーラ	-1888
切り	-1889
機関	-1890
▁なぜ	-1891
経済的	-1892
ue	-1893
回答	-1894
果た	-1895
られます	-1896
メカ	-1897
ターの	-1898
からです	-1899
にもかかわらず	-1900
ab	-1901
に移動	-1902
クライ	-1903
メイン	-1904
完全な	-1905
ほとんど	-1906
入れ	-1907
快適	-1908
思い	-1909
oogle	-1910
ことを意味します	-1911
ce	-1912
ずに	-1913
イト	-1914
分類	-1915
実験	-1916
限り	-1917
の影響	-1918
アニメ	-1919
されていない	-1920
);	-1921
14	-1922
いい	-1923
は通常	-1924
エンド	-1925
しますが	-1926
問題を解決	-1927
少なくとも	-1928
17	-1929
▁K	-1930
仮想	-1931
権利	-1932
短所	-1933
▁10	-1934
に到達	-1935
より良い	-1936
ドキュメント	-1937
さと	-1938
中国	-1939
すでに	-1940
▁したがって	-1941
冒険	-1942
を作成する	-1943
▁k	-1944
くら	-1945
めて	-1946
最大の	-1947
▁さらに	-1948
に関して	-1949
メートル	-1950
機器	-1951
するにはどうすればよいですか	-1952
nt	-1953
▁_	-1954
人口	-1955
最良	-1956
規制	-1957
」、「	-1958
以上の	-1959
した場合	-1960
エル	-1961
チョ	-1962
することに	-1963
ir	-1964
時代	-1965
ものを	-1966
フィル	-1967
エラ	-1968
未来	-1969
を作る	-1970
テーマ	-1971
時間が	-1972
indo	-1973
pe	-1974
の形	-1975
スコ	-1976
部屋	-1977
クリック	-1978
しやす	-1979
どち	-1980
チュ	-1981
具体	-1982
性が	-1983
証明	-1984
サイク	-1985
ニズム	-1986
特別な	-1987
フレーズ	-1988
ウル	-1989
上に	-1990
▁19	-1991
に使用	-1992
幅広い	-1993
最後の	-1994
んでいます	-1995
ファイルを	-1996
向上させる	-1997
私はあなたが	-1998
言及	-1999
身体	-2000
ort	-2001
の違い	-2002
られている	-2003
データベース	-2004
可能性があり	-2005
挑戦	-2006
点で	-2007
答える	-2008
につれて	-2009
もあります	-2010
Ch	-2011
ポリ	-2012
小説	-2013
に直面	-2014
を楽し	-2015
を防ぐ	-2016
質問を	-2017
しいです	-2018
するかを	-2019
ましたが	-2020
有効	-2021
検出	-2022
深く	-2023
筋肉	-2024
どんな	-2025
かどうか	-2026
コンテキスト	-2027
キシ	-2028
ヘル	-2029
一貫	-2030
判断	-2031
標準	-2032
▁AI	-2033
の名前	-2034
トマト	-2035
ランダ	-2036
を提供し	-2037
グラフィック	-2038
ずれ	-2039
国際	-2040
短い	-2041
あまり	-2042
テリー	-2043
正しく	-2044
するため	-2045
▁o	-2046
統計	-2047
やその他の	-2048
の下	-2049
マン	-2050
大気	-2051
市民	-2052
を生み	-2053
ザーの	-2054
ジョン	-2055
から始め	-2056
indows	-2057
に住	-2058
いずれ	-2059
役割を	-2060
1.	-2061
ウト	-2062
代替	-2063
ame	-2064
ここで	-2065
するのが	-2066
強い	-2067
神経	-2068
ケット	-2069
最良の	-2070
パターン	-2071
80	-2072
まず	-2073
交換	-2074
大学	-2075
拡大	-2076
を満た	-2077
を作成し	-2078
ビジネス	-2079
信念	-2080
迅速	-2081
科学的	-2082
サイエンス	-2083
人類	-2084
他に	-2085
反対	-2086
感謝	-2087
介して	-2088
を使って	-2089
テーブル	-2090
効果的な	-2091
影響を与え	-2092
データセット	-2093
パラメーター	-2094
キロ	-2095
サブ	-2096
年齢	-2097
めます	-2098
るかに	-2099
に基づいた	-2100
完了	-2101
に対処	-2102
を変更	-2103
定期的に	-2104
観点から	-2105
iv	-2106
指示	-2107
記憶	-2108
誰も	-2109
▁9.	-2110
の歴史	-2111
レット	-2112
同時に	-2113
チャット	-2114
については	-2115
オペレーティングシステム	-2116
に戻	-2117
性質	-2118
に従う	-2119
を定義	-2120
ライト	-2121
チェック	-2122
をもたらす	-2123
建設	-2124
月の	-2125
パート	-2126
ランド	-2127
的です	-2128
続ける	-2129
見える	-2130
が含まれています	-2131
op	-2132
き換	-2133
保持	-2134
留意	-2135
立て	-2136
レクト	-2137
生まれ	-2138
に大きな	-2139
25	-2140
刺激	-2141
変動	-2142
You	-2143
物理学	-2144
において	-2145
りました	-2146
バッテリー	-2147
可能性があるため	-2148
削減	-2149
学校	-2150
期間	-2151
速く	-2152
両方の	-2153
ユーザーが	-2154
検証	-2155
申し	-2156
空の	-2157
いです	-2158
真実	-2159
編集	-2160
なった	-2161
カスタ	-2162
としての	-2163
をインストール	-2164
を受	-2165
を高	-2166
コミ	-2167
ピー	-2168
仮定	-2169
傾向	-2170
持続	-2171
生地	-2172
適切に	-2173
かもしれない	-2174
になりました	-2175
ことを確認してください	-2176
現象	-2177
わかり	-2178
ガイド	-2179
以前の	-2180
個々の	-2181
モデルは	-2182
だけでなく	-2183
を使用すると	-2184
につながる可能性があります	-2185
60	-2186
so	-2187
を超	-2188
対話	-2189
性は	-2190
ジャン	-2191
ンプト	-2192
宇宙の	-2193
柔らか	-2194
利用可能な	-2195
がありますが	-2196
プロジェクトの	-2197
フロ	-2198
予算	-2199
画面	-2200
過去	-2201
コール	-2202
スチャ	-2203
わたって	-2204
決定を下	-2205
ませんでした	-2206
することができ	-2207
ハン	-2208
合計	-2209
競争	-2210
連絡	-2211
とても	-2212
ロシア	-2213
分野で	-2214
プレイヤー	-2215
▁>	-2216
グリ	-2217
ルは	-2218
光の	-2219
印刷	-2220
許可	-2221
エンジン	-2222
プロンプト	-2223
批判	-2224
数値	-2225
重力	-2226
革命	-2227
を避ける	-2228
ソン	-2229
削除	-2230
ube	-2231
チェーン	-2232
22	-2233
さえ	-2234
ガー	-2235
分布	-2236
減少	-2237
破壊	-2238
配置	-2239
少ない	-2240
▁確かに	-2241
させます	-2242
の一	-2243
古典	-2244
大統	-2245
病気	-2246
目に	-2247
目を	-2248
TML	-2249
ang	-2250
▁++	-2251
▁O	-2252
メラ	-2253
喜び	-2254
思考	-2255
に変換	-2256
ウント	-2257
大統領	-2258
QL	-2259
ai	-2260
向け	-2261
基礎	-2262
を持ち	-2263
最新の	-2264
通常の	-2265
ないように	-2266
ph	-2267
平等	-2268
明る	-2269
適応	-2270
シミュ	-2271
ヤーは	-2272
明確に	-2273
エイ	-2274
政策	-2275
痛み	-2276
▁//	-2277
を調整	-2278
チュー	-2279
繰り返し	-2280
をどのように	-2281
多く	-2282
:**	-2283
▁ただし	-2284
はるかに	-2285
りに	-2286
を読	-2287
呼び	-2288
ことを知	-2289
テクニック	-2290
ユーザーの	-2291
オブジェクトの	-2292
、4	-2293
ッジ	-2294
初期	-2295
推定	-2296
▁また	-2297
が発生	-2298
品質の	-2299
魔法の	-2300
ゲームを	-2301
ポジ	-2302
抵抗	-2303
したら	-2304
に貢献	-2305
キング	-2306
同様の	-2307
ギリシャ	-2308
コードの	-2309
を提	-2310
テレビ	-2311
ートの	-2312
付ける	-2313
2.	-2314
age	-2315
を見る	-2316
レスト	-2317
時間と	-2318
理論は	-2319
出します	-2320
方法です	-2321
と比較して	-2322
古い	-2323
新鮮	-2324
を制御	-2325
プロト	-2326
地元の	-2327
ティティ	-2328
ことをお勧めします	-2329
上で	-2330
書か	-2331
訪問	-2332
がより	-2333
レンジ	-2334
YouT	-2335
コーヒー	-2336
がありますか	-2337
を使用できます	-2338
、5	-2339
分離	-2340
見つ	-2341
▁その	-2342
ゲット	-2343
アメリカの	-2344
公式	-2345
確率	-2346
紛争	-2347
関連する	-2348
ダウンロード	-2349
__	-2350
js	-2351
ov	-2352
を行	-2353
ガス	-2354
要求	-2355
が好き	-2356
将来の	-2357
信号	-2358
携帯	-2359
長さ	-2360
革新	-2361
知られる	-2362
をサポート	-2363
しみ	-2364
やり	-2365
財産	-2366
くなる	-2367
トップ	-2368
リアの	-2369
始まり	-2370
エンジニア	-2371
Google	-2372
公開	-2373
内部	-2374
小麦	-2375
形の	-2376
ate	-2377
であるか	-2378
を介して	-2379
トリック	-2380
可能性が	-2381
でしょうか	-2382
フィールド	-2383
頻繁	-2384
ook	-2385
▁私が	-2386
がある場合	-2387
21	-2388
とに	-2389
と感じ	-2390
マーク	-2391
ディング	-2392
##	-2393
od	-2394
基準	-2395
者と	-2396
に加えて	-2397
スペインの	-2398
ことに注意することが重要です	-2399
平和	-2400
最近	-2401
▁re	-2402
を形成	-2403
を設定	-2404
同様に	-2405
ブランド	-2406
にどのように	-2407
説明してください	-2408
ことに注意してください	-2409
li	-2410
まま	-2411
アウト	-2412
スポー	-2413
終わり	-2414
を選択します	-2415
フレームワーク	-2416
してみてください	-2417
サラ	-2418
ニー	-2419
再生	-2420
意図	-2421
種の	-2422
文化的	-2423
覚えて	-2424
アーティ	-2425
プライバ	-2426
全体として	-2427
役割を果た	-2428
)=	-2429
ma	-2430
に近	-2431
割り	-2432
産業	-2433
言う	-2434
開始	-2435
ack	-2436
の間の	-2437
までの	-2438
詳細な	-2439
不安	-2440
勉強	-2441
医師	-2442
書き	-2443
を共有	-2444
ローマ	-2445
問題の	-2446
ていない	-2447
にします	-2448
多くの場合	-2449
コンピューティング	-2450
を試	-2451
反映	-2452
毎日	-2453
スライ	-2454
リース	-2455
スポーツ	-2456
携帯電話	-2457
的であり	-2458
ターゲット	-2459
40	-2460
▁J	-2461
▁ク	-2462
一度	-2463
取る	-2464
回復	-2465
実践	-2466
記録	-2467
通貨	-2468
ケース	-2469
コンパ	-2470
の重要な	-2471
可能です	-2472
ことに留意	-2473
にあります	-2474
システムは	-2475
していますが	-2476
に基づいています	-2477
OS	-2478
を変	-2479
スイ	-2480
スカ	-2481
柔軟	-2482
若い	-2483
ile	-2484
つなが	-2485
を特定	-2486
正確に	-2487
けますか	-2488
すために	-2489
クエスト	-2490
のに役立つ	-2491
を指します	-2492
していました	-2493
乾燥	-2494
呼吸	-2495
採用	-2496
(20	-2497
▁St	-2498
明確な	-2499
としても	-2500
を増	-2501
ッサ	-2502
トレ	-2503
年代	-2504
識別	-2505
高速	-2506
ほしい	-2507
を支援	-2508
効果的に	-2509
メカニズム	-2510
ia	-2511
外部	-2512
懸念	-2513
手紙	-2514
砂糖	-2515
に取り	-2516
自動化	-2517
する場合	-2518
?」	-2519
アス	-2520
日本	-2521
民主	-2522
ber	-2523
を感じ	-2524
自身の	-2525
間違い	-2526
ユニット	-2527
ありませんが	-2528
りと	-2529
ウム	-2530
中で	-2531
雇用	-2532
GPT	-2533
▁次の	-2534
ベクト	-2535
互いに	-2536
▁10.	-2537
フィード	-2538
していますか	-2539
かけ	-2540
シナ	-2541
低下	-2542
相対	-2543
話を	-2544
を保護	-2545
を獲得	-2546
roid	-2547
スペイン語	-2548
ほん	-2549
ダン	-2550
優先	-2551
欠如	-2552
誰か	-2553
act	-2554
と短所	-2555
の研究	-2556
エラー	-2557
クター	-2558
エネルギーを	-2559
で知られています	-2560
io	-2561
フル	-2562
戦い	-2563
輸送	-2564
単純な	-2565
ip	-2566
▁お	-2567
に向	-2568
供給	-2569
幸福	-2570
強く	-2571
水を	-2572
通信	-2573
モード	-2574
困難です	-2575
覚えてお	-2576
YouTube	-2577
を返	-2578
ログ	-2579
曜日	-2580
有用	-2581
業界	-2582
概要	-2583
燃料	-2584
豊富	-2585
マシン	-2586
ラップ	-2587
えてください	-2588
(1	-2589
しさ	-2590
一人	-2591
広告	-2592
手法	-2593
確立	-2594
com	-2595
▁一方	-2596
し始め	-2597
に相談	-2598
を購入	-2599
ックな	-2600
ブラウ	-2601
の子	-2602
ゼロ	-2603
リの	-2604
期待	-2605
高さ	-2606
▁in	-2607
ガイモ	-2608
シング	-2609
シーケ	-2610
会社の	-2611
推奨事項	-2612
ジャガイモ	-2613
モジュール	-2614
ndroid	-2615
ろう	-2616
わけ	-2617
ビー	-2618
番号	-2619
費用	-2620
質量	-2621
酸素	-2622
単一の	-2623
それとも	-2624
られない	-2625
ティブな	-2626
▁第	-2627
うれ	-2628
リラ	-2629
意思	-2630
日常	-2631
来の	-2632
空間	-2633
されて	-2634
バーの	-2635
注意を	-2636
ドライブ	-2637
ランダム	-2638
がいくつかあります	-2639
アプリケーションの	-2640
ID	-2641
イズ	-2642
否定	-2643
論理	-2644
軌道	-2645
配列	-2646
ord	-2647
ライフ	-2648
リーン	-2649
解決策	-2650
えています	-2651
スー	-2652
メソ	-2653
文法	-2654
日付	-2655
発明	-2656
限に	-2657
鶏肉	-2658
ell	-2659
の概念	-2660
ルート	-2661
ニュース	-2662
Windows	-2663
13	-2664
CP	-2665
コレ	-2666
上昇	-2667
措置	-2668
症状	-2669
脂肪	-2670
The	-2671
かなり	-2672
どちら	-2673
のリスク	-2674
健康的な	-2675
ただけますか	-2676
スケジュール	-2677
NA	-2678
に満	-2679
分散	-2680
構文	-2681
炭素	-2682
緊張	-2683
ピング	-2684
ませんか	-2685
という名前	-2686
テーション	-2687
を提供できます	-2688
体重	-2689
停止	-2690
理想	-2691
疾患	-2692
視聴	-2693
アーキ	-2694
する必要	-2695
について話	-2696
▁全体として	-2697
次に示します	-2698
ld	-2699
▁バ	-2700
じる	-2701
初心	-2702
友達	-2703
土地	-2704
外観	-2705
手段	-2706
持ち	-2707
背景	-2708
の存在	-2709
アント	-2710
ことなく	-2711
ことに気	-2712
ことはできません	-2713
ござ	-2714
の量	-2715
りを	-2716
アカ	-2717
一致	-2718
側の	-2719
幸せ	-2720
損傷	-2721
暗い	-2722
法則	-2723
軽減	-2724
彼女が	-2725
シーケンス	-2726
持っている	-2727
自分自身を	-2728
はどのように	-2729
コントロール	-2730
インターフェイス	-2731
ーカ	-2732
中央	-2733
兆候	-2734
合成	-2735
恐怖	-2736
を確保	-2737
ストレ	-2738
地域の	-2739
レビュー	-2740
意思決定	-2741
っていました	-2742
彼を	-2743
文脈	-2744
方が	-2745
ナッツ	-2746
小麦粉	-2747
申し訳	-2748
アクティ	-2749
に関しては	-2750
70	-2751
まる	-2752
慎重	-2753
指定	-2754
犯罪	-2755
込む	-2756
end	-2757
ができ	-2758
たとき	-2759
に接続	-2760
の重要	-2761
楽しい	-2762
食べ物	-2763
知りたい	-2764
それぞれの	-2765
リクエスト	-2766
Re	-2767
努力	-2768
奇妙	-2769
担当	-2770
深刻	-2771
▁それ	-2772
の世界	-2773
を評価	-2774
カバー	-2775
自動車	-2776
メソッド	-2777
公共	-2778
文学	-2779
法的	-2780
瞑想	-2781
記述	-2782
透明	-2783
API	-2784
ode	-2785
つです	-2786
らかに	-2787
以下は	-2788
HTML	-2789
しているため	-2790
まく	-2791
ビア	-2792
与え	-2793
悪い	-2794
注文	-2795
アイテ	-2796
テクチャ	-2797
なりました	-2798
を次に示します	-2799
▁w	-2800
クレ	-2801
ニク	-2802
金融	-2803
なしで	-2804
を作り	-2805
チャン	-2806
数学的	-2807
をもたら	-2808
アルコール	-2809
を作成できます	-2810
SO	-2811
St	-2812
ウス	-2813
二次	-2814
出来	-2815
回転	-2816
記事	-2817
ビティ	-2818
例えば	-2819
現代の	-2820
オーディ	-2821
ブラック	-2822
紹介します	-2823
こともできます	-2824
アクティビティ	-2825
お気	-2826
ビル	-2827
ピザ	-2828
対応	-2829
確実	-2830
過ご	-2831
スティ	-2832
ラテン	-2833
方法を	-2834
関数は	-2835
▁たとえば	-2836
より大きな	-2837
している場合	-2838
によって異なる	-2839
フィードバック	-2840
便利	-2841
彼に	-2842
心配	-2843
自体	-2844
ごとに	-2845
リーブ	-2846
コミット	-2847
リリース	-2848
ーキング	-2849
高品質の	-2850
私はあなたに	-2851
私はあなたの	-2852
▁オ	-2853
動機	-2854
最善	-2855
混乱	-2856
フォル	-2857
フラン	-2858
マルチ	-2859
伝える	-2860
大量の	-2861
伝統的な	-2862
する方法は	-2863
するために使用されます	-2864
分子	-2865
契約	-2866
監督	-2867
設立	-2868
キシコ	-2869
ストラ	-2870
個人の	-2871
rint	-2872
を求める	-2873
プレート	-2874
割り当て	-2875
コンパイル	-2876
することができる	-2877
上記	-2878
使い	-2879
保険	-2880
国は	-2881
財務	-2882
ock	-2883
の主な	-2884
らない	-2885
パーソ	-2886
プラス	-2887
出来事	-2888
安全な	-2889
関数の	-2890
メキシコ	-2891
不可欠です	-2892
))	-2893
げる	-2894
を再	-2895
アレ	-2896
体験	-2897
演奏	-2898
金属	-2899
の種類	-2900
を実装	-2901
ビーチ	-2902
リンゴ	-2903
新鮮な	-2904
サービスの	-2905
知られている	-2906
アニメーション	-2907
するために使用される	-2908
1/	-2909
イタ	-2910
ニン	-2911
人を	-2912
歳の	-2913
視点	-2914
関心	-2915
ter	-2916
せずに	-2917
カメラ	-2918
ールの	-2919
楽しみ	-2920
複雑さ	-2921
ay	-2922
はず	-2923
ラム	-2924
分割	-2925
に行く	-2926
コピー	-2927
ショウ	-2928
センス	-2929
文字列	-2930
フレンド	-2931
定期的な	-2932
感情的な	-2933
のすべての	-2934
がありました	-2935
アーキテクチャ	-2936
▁i	-2937
内で	-2938
実用	-2939
必ず	-2940
液体	-2941
者を	-2942
ath	-2943
ウイル	-2944
タマネ	-2945
ワイン	-2946
場所に	-2947
知らせ	-2948
ようです	-2949
タマネギ	-2950
メンバー	-2951
受け入れ	-2952
気候変動	-2953
と思いますか	-2954
ハードウェア	-2955
24	-2956
をお	-2957
ドア	-2958
導入	-2959
建築	-2960
発達	-2961
終了	-2962
従来の	-2963
▁これが	-2964
存在する	-2965
わず	-2966
カロ	-2967
付き	-2968
取引	-2969
log	-2970
の変化	-2971
を準備	-2972
太陽の	-2973
Chat	-2974
セクション	-2975
っていますか	-2976
かもしれませんが	-2977
るの	-2978
ガン	-2979
モー	-2980
値を	-2981
排除	-2982
積極	-2983
象徴	-2984
SQL	-2985
あたり	-2986
うまく	-2987
を食べ	-2988
イギリ	-2989
エリア	-2990
ノード	-2991
いますか	-2992
ディレクト	-2993
の後	-2994
克服	-2995
▁of	-2996
アルゼ	-2997
ませんが	-2998
明らかに	-2999
くなります	-3000
アルゼンチ	-3001
プロセスは	-3002
を説明してください	-3003
2)	-3004
中心	-3005
宣言	-3006
に関係	-3007
を示す	-3008
コロン	-3009
リック	-3010
icro	-3011
でしたか	-3012
を持って	-3013
コショウ	-3014
混ぜます	-3015
ation	-3016
である場合	-3017
アドバイス	-3018
テキストの	-3019
カタ	-3020
放射	-3021
追跡	-3022
all	-3023
ストリ	-3024
ビット	-3025
ージャ	-3026
なぜなら	-3027
キャリア	-3028
の組み合わせ	-3029
3.	-3030
▁$	-3031
カリ	-3032
強調	-3033
銀行	-3034
ext	-3035
するのは	-3036
するまで	-3037
ストレス	-3038
で使用される	-3039
最も一般的な	-3040
PC	-3041
以上	-3042
伴う	-3043
向き	-3044
支持	-3045
酸化	-3046
魔法	-3047
ity	-3048
や他の	-3049
インド	-3050
ダンス	-3051
マイズ	-3052
米国の	-3053
orld	-3054
コレート	-3055
タイトル	-3056
タスクを	-3057
キーボード	-3058
含まれます	-3059
目標を達成	-3060
ps	-3061
に似	-3062
オフ	-3063
モバ	-3064
圧縮	-3065
性格	-3066
唯一の	-3067
▁最後に	-3068
古典的な	-3069
ビデオゲーム	-3070
するために必要な	-3071
ud	-3072
の本	-3073
エキ	-3074
トン	-3075
共通	-3076
汚染	-3077
節約	-3078
**:	-3079
▁de	-3080
いいえ	-3081
に満ち	-3082
はより	-3083
を書き	-3084
キュー	-3085
していた	-3086
れました	-3087
ニーズと	-3088
モバイル	-3089
安定した	-3090
シンプルな	-3091
チョコレート	-3092
たくさんあります	-3093
人も	-3094
商品	-3095
失敗	-3096
神話	-3097
ーカー	-3098
困難な	-3099
準備ができ	-3100
クライアント	-3101
ED	-3102
アナ	-3103
住民	-3104
再び	-3105
女性	-3106
農業	-3107
ers	-3108
を研究	-3109
トラン	-3110
レッド	-3111
中国の	-3112
理論の	-3113
ress	-3114
モデルを	-3115
▁ありがとう	-3116
を向上させる	-3117
申し訳ありませんが	-3118
存の	-3119
精度	-3120
線形	-3121
観光	-3122
転車	-3123
グラフ	-3124
リアン	-3125
▁一般に	-3126
の一部です	-3127
カスタマイズ	-3128
したいと思います	-3129
ak	-3130
ジオ	-3131
ヴァ	-3132
水の	-3133
閉じ	-3134
われる	-3135
ユーロ	-3136
世界を	-3137
魅力的な	-3138
▁Linux	-3139
ことがあります	-3140
AM	-3141
ry	-3142
で作	-3143
は約	-3144
を除	-3145
ゼン	-3146
デス	-3147
ドロ	-3148
ハー	-3149
互換	-3150
住宅	-3151
化し	-3152
経過	-3153
はどう	-3154
を入力	-3155
メージ	-3156
ランチ	-3157
を高める	-3158
ジェント	-3159
しましょう	-3160
信頼できる	-3161
アルゴリズムは	-3162
----------------	-3163
90	-3164
を置	-3165
区別	-3166
吸収	-3167
忍耐	-3168
業員	-3169
現代	-3170
緊急	-3171
くれて	-3172
すべてが	-3173
するもの	-3174
よく理解	-3175
Android	-3176
印象	-3177
合理	-3178
工学	-3179
推測	-3180
書く	-3181
登録	-3182
インテ	-3183
技術の	-3184
答えは	-3185
soft	-3186
を含める	-3187
を維持し	-3188
アイテム	-3189
に使用される	-3190
を必要とする	-3191
を失	-3192
古代	-3193
大戦	-3194
感染	-3195
起源	-3196
長所	-3197
に適応	-3198
サラダ	-3199
動物の	-3200
思い出	-3201
ello	-3202
に最適な	-3203
ない場合は	-3204
エネルギーの	-3205
検討してください	-3206
ev	-3207
▁X	-3208
デン	-3209
果物	-3210
満足	-3211
貴重	-3212
起動	-3213
軍事	-3214
道路	-3215
電流	-3216
飲み	-3217
▁彼は	-3218
し続け	-3219
の増加	-3220
シーン	-3221
の可能性	-3222
自然言語	-3223
しましたが	-3224
として使用	-3225
icrosoft	-3226
ッグ	-3227
リエ	-3228
主題	-3229
予想	-3230
希望	-3231
気分	-3232
終わ	-3233
航空	-3234
ust	-3235
▁これ	-3236
▁結論	-3237
の欠如	-3238
をとる	-3239
を経験	-3240
グロー	-3241
ユーモ	-3242
サウンド	-3243
スキルと	-3244
ブラウザ	-3245
世界大戦	-3246
引き起こ	-3247
レストラン	-3248
電子メール	-3249
かどうかを確認	-3250
IT	-3251
In	-3252
冗談	-3253
間違	-3254
した後	-3255
ったり	-3256
で実行	-3257
ッター	-3258
ボウル	-3259
年から	-3260
効率的な	-3261
するという	-3262
テクスチャ	-3263
リラックス	-3264
ディレクトリ	-3265
プライバシー	-3266
についてもっと	-3267
で構成されています	-3268
きれ	-3269
に出	-3270
不足	-3271
外の	-3272
脅威	-3273
述べ	-3274
▁今日	-3275
と主張	-3276
スパイ	-3277
レージ	-3278
深刻な	-3279
社会の	-3280
スマート	-3281
ことにより	-3282
であるという	-3283
アーティスト	-3284
▁y	-3285
さて	-3286
に達	-3287
を解	-3288
力と	-3289
放出	-3290
生命	-3291
連邦	-3292
好きな	-3293
特性を	-3294
的または	-3295
なっています	-3296
64	-3297
ウド	-3298
ボリ	-3299
強化	-3300
教師	-3301
アート	-3302
キャプ	-3303
プロセ	-3304
以下の	-3305
太陽系	-3306
従業員	-3307
既存の	-3308
時間の経過	-3309
に関する情報	-3310
使用されている	-3311
ap	-3312
ドリ	-3313
ミン	-3314
以来	-3315
内に	-3316
習慣	-3317
ram	-3318
▁th	-3319
に対応	-3320
まった	-3321
チック	-3322
パティ	-3323
ベッド	-3324
センター	-3325
ックスは	-3326
ビジョン	-3327
マイクロ	-3328
になるまで	-3329
ニューロン	-3330
作成された	-3331
フィクション	-3332
ヨーロッパの	-3333
と考えられています	-3334
▁申し訳ありませんが	-3335
99	-3336
ラボ	-3337
分の	-3338
収入	-3339
国家	-3340
天気	-3341
年間	-3342
誰が	-3343
進行	-3344
を得る	-3345
ミュー	-3346
何かを	-3347
映画の	-3348
目的と	-3349
全体的な	-3350
するときに	-3351
していません	-3352
リーブオイル	-3353
が必要な場合は	-3354
言語モデルとして	-3355
ow	-3356
コル	-3357
単に	-3358
大さ	-3359
車両	-3360
500	-3361
となる	-3362
に興味	-3363
シップ	-3364
決して	-3365
豊富な	-3366
面白い	-3367
▁Web	-3368
チュート	-3369
リーダー	-3370
世界中の	-3371
設計された	-3372
チュートリアル	-3373
を提供しています	-3374
っく	-3375
ギャ	-3376
ワイ	-3377
普遍	-3378
Gpt	-3379
にいる	-3380
を減ら	-3381
シアの	-3382
シート	-3383
ディー	-3384
モンド	-3385
女性の	-3386
生活の	-3387
ためです	-3388
効率的に	-3389
決定を下す	-3390
プレイヤーは	-3391
教えてもらえますか	-3392
を訪	-3393
グレ	-3394
主観	-3395
施設	-3396
脆弱	-3397
音声	-3398
を分析	-3399
ッセイ	-3400
リーの	-3401
人々に	-3402
画像の	-3403
製品の	-3404
頻繁に	-3405
学びます	-3406
フィルター	-3407
ことに留意することが重要です	-3408
ff	-3409
sh	-3410
テゴ	-3411
ボル	-3412
ロマ	-3413
例を	-3414
働く	-3415
報酬	-3416
夕食	-3417
有害	-3418
牛乳	-3419
を測定	-3420
を発見	-3421
トーン	-3422
ペット	-3423
比較的	-3424
英語の	-3425
を受ける	-3426
という言葉	-3427
人にとって	-3428
-3	-3429
が何	-3430
三角	-3431
分解	-3432
損失	-3433
正方	-3434
突然	-3435
資源	-3436
近く	-3437
いしい	-3438
に分割	-3439
ッカー	-3440
raft	-3441
▁彼らは	-3442
に置き換	-3443
の最初の	-3444
具体的な	-3445
▁私たちは	-3446
を与えます	-3447
パスワード	-3448
他の多くの	-3449
を組み合わせ	-3450
iz	-3451
。2	-3452
」:	-3453
たら	-3454
ジー	-3455
執筆	-3456
完璧	-3457
排出	-3458
杯の	-3459
知の	-3460
重量	-3461
だった	-3462
に向か	-3463
に適用	-3464
を与え	-3465
を探索	-3466
を認識	-3467
バター	-3468
バンド	-3469
人間が	-3470
十分に	-3471
明るい	-3472
誰もが	-3473
メニュー	-3474
しなければならない	-3475
を引き起こす可能性があります	-3476
AT	-3477
IP	-3478
ng	-3479
うち	-3480
ナビ	-3481
交通	-3482
定理	-3483
形態	-3484
探求	-3485
秘密	-3486
est	-3487
one	-3488
▁どう	-3489
を構成	-3490
カテゴ	-3491
主義の	-3492
貴重な	-3493
あなたと	-3494
ることは	-3495
コメント	-3496
ジャンプ	-3497
ファンタ	-3498
であるかを	-3499
知っている	-3500
ことができません	-3501
によって異なります	-3502
up	-3503
クス	-3504
コア	-3505
正義	-3506
運転	-3507
の選択	-3508
の間に	-3509
を見て	-3510
危険な	-3511
自転車	-3512
に必要な	-3513
パターンを	-3514
ライセンス	-3515
アフ	-3516
回避	-3517
大幅	-3518
奨励	-3519
星の	-3520
永遠	-3521
銀河	-3522
類似	-3523
と彼の	-3524
を処理	-3525
アクセ	-3526
エクサ	-3527
マーケ	-3528
ルーチ	-3529
古代の	-3530
目標は	-3531
があるため	-3532
を使用した	-3533
エクササイズ	-3534
タスクを実行	-3535
に立	-3536
公園	-3537
博物	-3538
多い	-3539
活用	-3540
結婚	-3541
ニアの	-3542
ハリー	-3543
博物館	-3544
情報の	-3545
慎重に	-3546
無料の	-3547
コードは	-3548
メンテナ	-3549
できるだけ	-3550
したい場合は	-3551
という名前の	-3552
マーケティング	-3553
AP	-3554
ST	-3555
個の	-3556
対立	-3557
絶え	-3558
部門	-3559
ect	-3560
に追加	-3561
みます	-3562
豊かな	-3563
▁con	-3564
されると	-3565
っていた	-3566
ない場合	-3567
サイクル	-3568
使用する	-3569
選択した	-3570
45	-3571
」(	-3572
スパ	-3573
バス	-3574
バナ	-3575
冷却	-3576
地震	-3577
教え	-3578
整理	-3579
暖か	-3580
本は	-3581
順序	-3582
かかる	-3583
ことの	-3584
上記の	-3585
を可能に	-3586
パーソナ	-3587
継続的な	-3588
ございます	-3589
マネージャ	-3590
メンテナンス	-3591
質問に答える	-3592
時間の経過とともに	-3593
ソーシャルネットワーク	-3594
ww	-3595
主人	-3596
情熱	-3597
正式	-3598
爆発	-3599
首都	-3600
▁Ch	-3601
▁次に	-3602
の感覚	-3603
を強調	-3604
を表示	-3605
ホーム	-3606
ライズ	-3607
事前に	-3608
支払い	-3609
への影響	-3610
ゲームは	-3611
注意を払	-3612
▁人工知能	-3613
プロセスを	-3614
プロパティ	-3615
サル	-3616
ピア	-3617
ピク	-3618
声明	-3619
家に	-3620
指導	-3621
文書	-3622
流れ	-3623
無限	-3624
絶対	-3625
くべき	-3626
マイル	-3627
ースト	-3628
主人公	-3629
仕事を	-3630
実際に	-3631
日本の	-3632
暗号化	-3633
行動を	-3634
飛行機	-3635
インスタ	-3636
グローバル	-3637
プロセッサ	-3638
ことができない	-3639
py	-3640
▁ト	-3641
イド	-3642
ッキ	-3643
ピン	-3644
ボー	-3645
リス	-3646
元気	-3647
とする	-3648
を参照	-3649
ヘッド	-3650
専門的な	-3651
などの他の	-3652
プラスチック	-3653
しなければなりません	-3654
ik	-3655
に触	-3656
タブ	-3657
人と	-3658
照明	-3659
ていた	-3660
オーブ	-3661
ナビゲ	-3662
以下に	-3663
有用な	-3664
この場合	-3665
それらが	-3666
クラウド	-3667
プレゼン	-3668
実用的な	-3669
▁print	-3670
わかりません	-3671
である可能性があります	-3672
1,	-3673
強度	-3674
カフェ	-3675
ルーム	-3676
倫理的	-3677
時点で	-3678
複雑で	-3679
と同様に	-3680
マスター	-3681
自動的に	-3682
見つける	-3683
フランスの	-3684
世界で最も	-3685
をお勧めします	-3686
最も人気のある	-3687
うことができます	-3688
プレゼンテーション	-3689
▁r	-3690
つも	-3691
会議	-3692
抽出	-3693
から来	-3694
を求め	-3695
タイン	-3696
ファイ	-3697
ブラジ	-3698
誰かが	-3699
遺伝子	-3700
ますます	-3701
んでいた	-3702
オレンジ	-3703
ミュージ	-3704
力のある	-3705
を説明する	-3706
ストレージ	-3707
に役立ちます	-3708
コレクション	-3709
あなたがあなたの	-3710
ことを忘れないでください	-3711
ie	-3712
ああ	-3713
ころ	-3714
ボタ	-3715
分裂	-3716
午後	-3717
建物	-3718
徐々	-3719
手の	-3720
結合	-3721
需要	-3722
ゆっく	-3723
前向き	-3724
連れて	-3725
ファイルの	-3726
ものがあります	-3727
ml	-3728
▁e	-3729
▁パ	-3730
のが	-3731
セロ	-3732
ビエ	-3733
周囲	-3734
周波	-3735
呪文	-3736
報告	-3737
摂取	-3738
曲線	-3739
武器	-3740
残念	-3741
積分	-3742
診断	-3743
ard	-3744
ire	-3745
を指定	-3746
グラム	-3747
リット	-3748
程度の	-3749
言った	-3750
はずです	-3751
を使用し	-3752
長期的な	-3753
しましたか	-3754
テキストを	-3755
プレーヤー	-3756
できるようにします	-3757
に焦点を当てています	-3758
▁Q	-3759
▁l	-3760
のお	-3761
を着	-3762
ナミ	-3763
交差	-3764
戦闘	-3765
自信	-3766
財政	-3767
資本	-3768
近い	-3769
大さじ	-3770
奇妙な	-3771
ight	-3772
パーティ	-3773
ビリティ	-3774
へのアクセス	-3775
//	-3776
my	-3777
ちゃ	-3778
アラ	-3779
ベン	-3780
レッ	-3781
代表	-3782
回路	-3783
意の	-3784
認知	-3785
化する	-3786
歴史的	-3787
否定的な	-3788
craft	-3789
をクリック	-3790
ユーザーは	-3791
を追加します	-3792
オンラインで	-3793
Ar	-3794
キン	-3795
グル	-3796
共和	-3797
典型	-3798
履歴	-3799
拡散	-3800
数は	-3801
用途	-3802
言い	-3803
資産	-3804
App	-3805
art	-3806
いつも	-3807
を実施	-3808
を解決	-3809
ジット	-3810
ンドウ	-3811
女の子	-3812
政府の	-3813
しやすい	-3814
アイデン	-3815
インフレ	-3816
ドイツの	-3817
システムが	-3818
していることを	-3819
を避けるために	-3820
キャラクターの	-3821
テクノロジーの	-3822
アイデンティティ	-3823
IA	-3824
me	-3825
、[	-3826
」、	-3827
きた	-3828
ナダ	-3829
バン	-3830
仮説	-3831
力が	-3832
疑問	-3833
違反	-3834
ash	-3835
の高い	-3836
はまだ	-3837
カット	-3838
ヤーの	-3839
小さじ	-3840
そのため	-3841
の専門家	-3842
誰ですか	-3843
けてください	-3844
インスタンス	-3845
インタビュー	-3846
役立つことを願っています	-3847
ob	-3848
に保	-3849
を残	-3850
拒否	-3851
朝食	-3852
著作	-3853
過剰	-3854
高価	-3855
▁彼の	-3856
ックの	-3857
以前に	-3858
自分で	-3859
ウイルス	-3860
ッピング	-3861
を生成します	-3862
唆しています	-3863
II	-3864
に乗	-3865
一定	-3866
成分	-3867
程度	-3868
語の	-3869
食物	-3870
ark	-3871
ver	-3872
▁さて	-3873
と信じ	-3874
アルバ	-3875
ダーの	-3876
テーブ	-3877
人々を	-3878
向けの	-3879
シナリオ	-3880
に関係なく	-3881
ウィンドウ	-3882
であることを確認	-3883
CO	-3884
qu	-3885
かげ	-3886
ケー	-3887
包括	-3888
土壌	-3889
実施	-3890
月に	-3891
規則	-3892
-19	-3893
con	-3894
put	-3895
に近づ	-3896
の要素	-3897
リーは	-3898
初心者	-3899
心理学	-3900
残りの	-3901
アフリカ	-3902
イメージ	-3903
インスピ	-3904
タスクの	-3905
創造的な	-3906
実際には	-3907
ではありませんが	-3908
していただけますか	-3909
のいくつかは次のとおりです	-3910
-4	-3911
3)	-3912
tu	-3913
ねぎ	-3914
を講	-3915
ヴィ	-3916
単位	-3917
卵を	-3918
同意	-3919
対象	-3920
物事	-3921
腐敗	-3922
部の	-3923
際に	-3924
amp	-3925
▁材料	-3926
に直接	-3927
われた	-3928
を提案	-3929
コンソ	-3930
ホール	-3931
数学の	-3932
混合物	-3933
玉ねぎ	-3934
込まれ	-3935
▁the	-3936
に合わせ	-3937
を増やす	-3938
を満たす	-3939
エクスペ	-3940
グラムの	-3941
レーター	-3942
発生する	-3943
者であり	-3944
▁すべての	-3945
システムを	-3946
▁結論として	-3947
んでください	-3948
されていません	-3949
などのさまざまな	-3950
インスピレーション	-3951
であることを忘れないでください	-3952
に変	-3953
を発	-3954
ガル	-3955
商業	-3956
容易	-3957
尊重	-3958
推論	-3959
時期	-3960
次元	-3961
献身	-3962
▁km	-3963
▁他の	-3964
にさら	-3965
スタン	-3966
ニンジ	-3967
プリン	-3968
刻んだ	-3969
方法の	-3970
栄養素	-3971
つであり	-3972
性のある	-3973
られました	-3974
うれしいです	-3975
オリーブオイル	-3976
パーソナライズ	-3977
AR	-3978
IM	-3979
かの	-3980
共産	-3981
密度	-3982
栽培	-3983
色は	-3984
for	-3985
くらい	-3986
バイオ	-3987
ホスト	-3988
ーンの	-3989
自然な	-3990
エッセイ	-3991
ニンニク	-3992
であることが	-3993
る必要があります	-3994
重要な役割を果た	-3995
US	-3996
ib	-3997
lu	-3998
に等	-3999
兄弟	-4000
続く	-4001
製造	-4002
転送	-4003
違法	-4004
LED	-4005
これを	-4006
やすい	-4007
プラグ	-4008
多様な	-4009
教える	-4010
結果を	-4011
詳しく	-4012
▁新しい	-4013
▁最初の	-4014
おいしい	-4015
コンテナ	-4016
ベクトル	-4017
リエンス	-4018
物理的な	-4019
サービスを	-4020
機能します	-4021
覚えておく	-4022
調理します	-4023
が必要になる	-4024
であると考え	-4025
している場合は	-4026
エクスペリエンス	-4027
エンジニアリング	-4028
1)	-4029
に見	-4030
加速	-4031
形状	-4032
成果	-4033
提示	-4034
時の	-4035
燃焼	-4036
ちゃん	-4037
オート	-4038
フライ	-4039
レンズ	-4040
仕事の	-4041
周りの	-4042
徐々に	-4043
機能を	-4044
背後に	-4045
落ち着	-4046
スライス	-4047
ニュート	-4048
典型的な	-4049
られており	-4050
インポート	-4051
サイティング	-4052
使用されています	-4053
テル	-4054
ブレ	-4055
ルク	-4056
割合	-4057
囲気	-4058
境界	-4059
手伝	-4060
撮影	-4061
百万	-4062
ata	-4063
に感謝	-4064
インチ	-4065
ソビエ	-4066
問題は	-4067
子供の	-4068
関係を	-4069
雰囲気	-4070
port	-4071
し続ける	-4072
ソビエト	-4073
これを行う	-4074
してほしい	-4075
ゆっくりと	-4076
をいくつか	-4077
キロメートル	-4078
プログラマー	-4079
ne	-4080
ox	-4081
▁今	-4082
。。	-4083
」。	-4084
に合	-4085
の不	-4086
休憩	-4087
母親	-4088
洗練	-4089
男性	-4090
読む	-4091
電圧	-4092
電源	-4093
青い	-4094
cel	-4095
ive	-4096
そこで	-4097
を軽減	-4098
を送信	-4099
ジャー	-4100
多数の	-4101
巨大な	-4102
情報が	-4103
生き物	-4104
それほど	-4105
のセット	-4106
オーバー	-4107
連れて行	-4108
の基本的な	-4109
ユーザーに	-4110
持続可能な	-4111
長所と短所	-4112
のいくつかの	-4113
として知られる	-4114
ソーシャルメディア	-4115
される可能性があります	-4116
")	-4117
RL	-4118
eg	-4119
にな	-4120
をつ	-4121
ボン	-4122
メタ	-4123
充電	-4124
出版	-4125
反射	-4126
喫煙	-4127
差別	-4128
帝国	-4129
聞こ	-4130
血液	-4131
製の	-4132
調べ	-4133
CSS	-4134
wit	-4135
お金を	-4136
を探求	-4137
コイン	-4138
ノイズ	-4139
ラベル	-4140
名前は	-4141
映画は	-4142
近くの	-4143
だけです	-4144
の特定の	-4145
ティーヤ	-4146
エキサイティング	-4147
公平	-4148
整数	-4149
細菌	-4150
資金	-4151
are	-4152
ost	-4153
ところ	-4154
時代の	-4155
美しさ	-4156
言語で	-4157
開発者	-4158
▁int	-4159
を改善し	-4160
キリスト	-4161
チャネル	-4162
によっては	-4163
ミッション	-4164
質問がある場合は	-4165
ix	-4166
日光	-4167
暴力	-4168
海の	-4169
素材	-4170
蓄積	-4171
車の	-4172
ice	-4173
にする	-4174
を削減	-4175
大きい	-4176
日常生活	-4177
最小限に	-4178
を加えます	-4179
を生み出す	-4180
アカウント	-4181
キャプチャ	-4182
始めました	-4183
次のように	-4184
されているため	-4185
5.	-4186
かで	-4187
しも	-4188
を聞	-4189
ヒー	-4190
寿命	-4191
広範	-4192
長く	-4193
と仮定	-4194
哲学的	-4195
彼らに	-4196
目的地	-4197
に満ちた	-4198
ボックス	-4199
提供する	-4200
次の手順	-4201
▁ステップ	-4202
バランスの	-4203
質問に対する	-4204
ライフスタイル	-4205
を見つけることができます	-4206
og	-4207
▁h	-4208
▁u	-4209
の大	-4210
グロ	-4211
ナの	-4212
客観	-4213
尊敬	-4214
時々	-4215
瞬間	-4216
自宅	-4217
語彙	-4218
通り	-4219
our	-4220
っても	-4221
を適用	-4222
エディ	-4223
コラボ	-4224
惑星の	-4225
お気に入	-4226
どちらも	-4227
に適した	-4228
ボタンを	-4229
必ずしも	-4230
なぜですか	-4231
シンプルで	-4232
デバイスの	-4233
プロセスの	-4234
がありません	-4235
いくつかのヒント	-4236
にはどうすればよいですか	-4237
LL	-4238
▁ス	-4239
があ	-4240
にし	-4241
ほぼ	-4242
ダル	-4243
ムは	-4244
戦う	-4245
興奮	-4246
論文	-4247
ある日	-4248
の中心	-4249
目的は	-4250
▁for	-4251
を変える	-4252
を楽しむ	-4253
カテゴリ	-4254
カロリー	-4255
クリーム	-4256
子供たち	-4257
特徴付け	-4258
を手伝って	-4259
コンソール	-4260
最小限に抑	-4261
訓練された	-4262
コラボレーション	-4263
コンピューターの	-4264
ることができますか	-4265
(2	-4266
。1	-4267
何も	-4268
水分	-4269
永続	-4270
行為	-4271
Git	-4272
ens	-4273
かげで	-4274
が表示	-4275
の改善	-4276
を調査	-4277
フェル	-4278
安全で	-4279
明確で	-4280
でしたが	-4281
のいずれ	-4282
アドレス	-4283
キャンペ	-4284
ショット	-4285
ダイナミ	-4286
モデルが	-4287
かかります	-4288
できますが	-4289
インタラク	-4290
ツールです	-4291
コーディング	-4292
トルティーヤ	-4293
プログラムの	-4294
してもらえますか	-4295
シミュレーション	-4296
設計されています	-4297
影響を与える可能性があります	-4298
2:	-4299
ET	-4300
Ex	-4301
Ph	-4302
SD	-4303
ca	-4304
▁各	-4305
しま	-4306
カラ	-4307
ジア	-4308
慣行	-4309
犠牲	-4310
犬の	-4311
矛盾	-4312
示す	-4313
はどれ	-4314
を反映	-4315
を表す	-4316
を表現	-4317
場合に	-4318
大幅に	-4319
理由は	-4320
知識と	-4321
量子力	-4322
name	-4323
には次の	-4324
に入れる	-4325
を選択し	-4326
レベルを	-4327
ていません	-4328
を見つけて	-4329
クレジット	-4330
可能な限り	-4331
ここにいます	-4332
ラップトップ	-4333
によって引き起こ	-4334
の違いは何ですか	-4335
いで	-4336
ブロ	-4337
メロ	-4338
レオ	-4339
側に	-4340
受信	-4341
承認	-4342
良く	-4343
速い	-4344
風景	-4345
ace	-4346
res	-4347
〜10	-4348
を利用	-4349
ジプト	-4350
ブレー	-4351
相対性	-4352
自然の	-4353
インテリ	-4354
前向きな	-4355
暗号通貨	-4356
が含まれる	-4357
には多くの	-4358
人生の意味	-4359
残念ながら	-4360
説明します	-4361
を防ぐために	-4362
inecraft	-4363
想像してください	-4364
!」	-4365
▁ロ	-4366
がい	-4367
やる	-4368
カン	-4369
ッカ	-4370
ナイ	-4371
修理	-4372
入手	-4373
廃棄	-4374
文明	-4375
有益	-4376
植民	-4377
楽器	-4378
職業	-4379
西洋	-4380
、10	-4381
が高く	-4382
でさえ	-4383
と思う	-4384
クリー	-4385
植民地	-4386
違いは	-4387
ましたか	-4388
ジャンル	-4389
センサー	-4390
メンタル	-4391
協力して	-4392
書かれた	-4393
情報を提供	-4394
開発された	-4395
につながります	-4396
はありませんが	-4397
Microsoft	-4398
することが含まれます	-4399
する必要がありますか	-4400
65	-4401
du	-4402
ge	-4403
の間	-4404
は不	-4405
ノー	-4406
ミニ	-4407
人種	-4408
加熱	-4409
崩壊	-4410
投げ	-4411
が高い	-4412
だから	-4413
の分野	-4414
の物語	-4415
ますか	-4416
スコア	-4417
チャー	-4418
マップ	-4419
人間は	-4420
喜んで	-4421
をカバー	-4422
最適です	-4423
を作成して	-4424
多くの要因	-4425
一部の人々は	-4426
チャットボット	-4427
さまざまな種類の	-4428
Sh	-4429
びに	-4430
トロ	-4431
ネイ	-4432
体は	-4433
前進	-4434
博士	-4435
扱う	-4436
望ま	-4437
猫の	-4438
神の	-4439
領土	-4440
▁-1	-4441
のかを	-4442
の最も	-4443
を読む	-4444
名前を	-4445
責任を	-4446
つながり	-4447
であれば	-4448
より高い	-4449
エラーを	-4450
クラスの	-4451
サイバー	-4452
考えると	-4453
ebook	-4454
32	-4455
ll	-4456
に苦	-4457
を送	-4458
エー	-4459
スと	-4460
デミ	-4461
ビン	-4462
予防	-4463
固有	-4464
孤独	-4465
平ら	-4466
怪我	-4467
押し	-4468
目指	-4469
移行	-4470
第一	-4471
://	-4472
ain	-4473
cal	-4474
ian	-4475
が存在	-4476
に関与	-4477
に集中	-4478
の意味	-4479
を予測	-4480
を最大	-4481
を練習	-4482
キッチ	-4483
ポルト	-4484
世界で	-4485
単なる	-4486
周波数	-4487
家族の	-4488
激しい	-4489
▁###	-4490
▁Pro	-4491
まったく	-4492
を理解し	-4493
技術的な	-4494
物理学の	-4495
起こった	-4496
ction	-4497
べきですか	-4498
二次世界大戦	-4499
ChatGpt	-4500
に影響を与える可能性があります	-4501
1:	-4502
が見	-4503
パル	-4504
マラ	-4505
一時	-4506
両親	-4507
同僚	-4508
歌詞	-4509
段落	-4510
番目	-4511
lay	-4512
、18	-4513
にあり	-4514
の説明	-4515
を意味	-4516
んだり	-4517
毎日の	-4518
生き残	-4519
する機会	-4520
スケール	-4521
ocker	-4522
▁最終的に	-4523
ことを保証	-4524
に向かって	-4525
のアイデア	-4526
と呼ばれます	-4527
シミュレート	-4528
プレイヤーが	-4529
でなければなりません	-4530
:(	-4531
to	-4532
▁Z	-4533
けた	-4534
を添	-4535
コロ	-4536
地面	-4537
展開	-4538
平方	-4539
投稿	-4540
指向	-4541
民間	-4542
資格	-4543
htt	-4544
ith	-4545
の基本	-4546
の範囲	-4547
を検討	-4548
エント	-4549
正式な	-4550
を完全に	-4551
インフラ	-4552
データと	-4553
ブランチ	-4554
プロット	-4555
続けます	-4556
があなたの	-4557
できるため	-4558
カフェイン	-4559
スタイルの	-4560
メートルの	-4561
しないように	-4562
しようとする	-4563
に関連しています	-4564
ツールを使用して	-4565
HP	-4566
くれ	-4567
オリ	-4568
ギー	-4569
マシ	-4570
収益	-4571
地理	-4572
敬意	-4573
水化	-4574
簡潔	-4575
絵画	-4576
連合	-4577
str	-4578
▁どの	-4579
に設定	-4580
の下で	-4581
は彼の	-4582
を管理	-4583
クエリ	-4584
企業の	-4585
周りに	-4586
炭水化	-4587
えている	-4588
によれば	-4589
に取り組	-4590
スケーラ	-4591
スレッド	-4592
ことを意味	-4593
の観点から	-4594
ものであり	-4595
背後にある	-4596
お気に入りの	-4597
でもあります	-4598
マネージャー	-4599
コンピューターサイエンス	-4600
-2	-4601
、6	-4602
うつ	-4603
かき	-4604
かれ	-4605
ホル	-4606
モデ	-4607
ユダ	-4608
体が	-4609
日を	-4610
水素	-4611
聖書	-4612
脳の	-4613
試み	-4614
負荷	-4615
頻度	-4616
out	-4617
▁まず	-4618
▁地球	-4619
ダイヤ	-4620
広範な	-4621
著作権	-4622
詳細に	-4623
▁いいえ	-4624
その結果	-4625
とも呼ば	-4626
どれだけ	-4627
サンプル	-4628
フォルト	-4629
普遍的な	-4630
歴史的な	-4631
このような	-4632
という事実	-4633
に合わせて	-4634
を定義します	-4635
ということです	-4636
オブジェクトを	-4637
を作成するための	-4638
オープンソースの	-4639
ax	-4640
っぱ	-4641
わか	-4642
チン	-4643
例は	-4644
固定	-4645
季節	-4646
悪魔	-4647
検査	-4648
気を	-4649
肯定	-4650
英国	-4651
贈り	-4652
願い	-4653
飲む	-4654
黄色	-4655
ast	-4656
der	-4657
を通過	-4658
オフィ	-4659
ユダヤ	-4660
架空の	-4661
物質の	-4662
的かつ	-4663
お知らせ	-4664
バルセロ	-4665
をください	-4666
ギリシャの	-4667
デフォルト	-4668
フォーマット	-4669
acebook	-4670
が含まれている	-4671
ほんの一部です	-4672
あなたを助けるために	-4673
サイエンスフィクション	-4674
くと	-4675
事故	-4676
値は	-4677
息子	-4678
木材	-4679
続き	-4680
遠く	-4681
SON	-4682
dit	-4683
するに	-4684
それに	-4685
つもり	-4686
で満た	-4687
もちゃ	-4688
を伴う	-4689
を制限	-4690
インデ	-4691
方向に	-4692
用語は	-4693
迅速に	-4694
▁200	-4695
どれほど	-4696
のサイズ	-4697
を超える	-4698
ドメイン	-4699
自動学習	-4700
赤ちゃん	-4701
を生成する	-4702
プロトコル	-4703
することなく	-4704
みてください	-4705
を探している	-4706
エンティティ	-4707
うことができる	-4708
ここにいくつかの	-4709
ブロックチェーン	-4710
4.	-4711
7.	-4712
を選	-4713
到着	-4714
危機	-4715
合法	-4716
循環	-4717
注ぎ	-4718
神秘	-4719
軽い	-4720
ern	-4721
カタロ	-4722
主義は	-4723
人々と	-4724
入れる	-4725
状況で	-4726
種です	-4727
誤った	-4728
道徳的	-4729
▁...	-4730
するなど	-4731
になった	-4732
を簡単に	-4733
印象的な	-4734
要するに	-4735
このように	-4736
私はそれを	-4737
を見つけます	-4738
個人的な好み	-4739
によって特徴付け	-4740
DE	-4741
▁フ	-4742
クの	-4743
借り	-4744
同盟	-4745
好む	-4746
正当	-4747
野生	-4748
おらず	-4749
に保存	-4750
に投資	-4751
の前に	-4752
はどこ	-4753
ろうと	-4754
を克服	-4755
クロス	-4756
パワー	-4757
ルーツ	-4758
共通の	-4759
大学の	-4760
しながら	-4761
しやすく	-4762
たいです	-4763
データが	-4764
措置を講	-4765
柔らかい	-4766
深い学習	-4767
独立した	-4768
つの異なる	-4769
考慮すべき	-4770
はどうですか	-4771
を実行します	-4772
にはいくつかの	-4773
方法は何ですか	-4774
できるようにする	-4775
35	-4776
▁ご	-4777
が得	-4778
ベイ	-4779
モニ	-4780
レタ	-4781
余分	-4782
医学	-4783
半分	-4784
国立	-4785
完成	-4786
容器	-4787
広が	-4788
継承	-4789
親愛	-4790
試験	-4791
電力	-4792
▁im	-4793
▁別の	-4794
の自由	-4795
を行い	-4796
ギター	-4797
ダーは	-4798
レース	-4799
愛する	-4800
生物学	-4801
視覚化	-4802
べきです	-4803
をリスト	-4804
エンター	-4805
ストラク	-4806
親愛なる	-4807
読み取り	-4808
食べ物を	-4809
ことに気づ	-4810
の重要性を	-4811
人もいます	-4812
実行される	-4813
テンプレート	-4814
と考えています	-4815
かし	-4816
ゴン	-4817
ゼル	-4818
ホイ	-4819
代数	-4820
会う	-4821
依然	-4822
反復	-4823
命令	-4824
天然	-4825
引用	-4826
挙げ	-4827
日目	-4828
沸騰	-4829
緑の	-4830
見解	-4831
認証	-4832
ele	-4833
ran	-4834
▁現在	-4835
が最も	-4836
とは何	-4837
に最も	-4838
やかな	-4839
フォン	-4840
ロット	-4841
小さく	-4842
言い換	-4843
っており	-4844
を取り除	-4845
ステート	-4846
チームは	-4847
ディスク	-4848
ロマンチ	-4849
担当者の	-4850
私たちを	-4851
データ構造	-4852
パートナー	-4853
生成された	-4854
またはその他の	-4855
に従ってください	-4856
勝利	-4857
幸運	-4858
手を	-4859
気象	-4860
知る	-4861
立ち	-4862
赤い	-4863
通知	-4864
ert	-4865
low	-4866
▁より	-4867
なしに	-4868
の形で	-4869
ベスト	-4870
余分な	-4871
学んだ	-4872
政府は	-4873
機能の	-4874
結果は	-4875
起こる	-4876
都市の	-4877
、200	-4878
してから	-4879
すべてを	-4880
イタリア	-4881
再生可能	-4882
生物学的	-4883
アクティブ	-4884
トリックス	-4885
プラグイン	-4886
と見なされる	-4887
よりもはるかに	-4888
アルゴリズムの	-4889
を改善するために	-4890
注意してください	-4891
``	-4892
ナは	-4893
公正	-4894
切断	-4895
心の	-4896
欠点	-4897
装飾	-4898
見え	-4899
議会	-4900
金を	-4901
CPU	-4902
を強化	-4903
シェル	-4904
ディス	-4905
ファー	-4906
任意の	-4907
変数の	-4908
市場の	-4909
本当の	-4910
くれます	-4911
それから	-4912
スーパー	-4913
方が良い	-4914
または他の	-4915
オーストラ	-4916
スタイルで	-4917
プリンター	-4918
ベーション	-4919
依然として	-4920
プロセスです	-4921
をよりよく理解	-4922
あなたはあなたの	-4923
がたくさんあります	-4924
することは困難です	-4925
GB	-4926
SA	-4927
われ	-4928
ナリ	-4929
レガ	-4930
友情	-4931
州の	-4932
恐れ	-4933
挿入	-4934
早く	-4935
根本	-4936
立場	-4937
純粋	-4938
署名	-4939
融合	-4940
角度	-4941
連続	-4942
運命	-4943
遺産	-4944
GPU	-4945
ong	-4946
▁1)	-4947
に連絡	-4948
の長さ	-4949
はその	-4950
ものは	-4951
を保存	-4952
を実現	-4953
ゾーン	-4954
ビルド	-4955
モート	-4956
利点を	-4957
異なり	-4958
▁クリア	-4959
を書いて	-4960
キャンプ	-4961
ディープ	-4962
トランス	-4963
レポート	-4964
キリスト教	-4965
メトリック	-4966
最終的には	-4967
次のような	-4968
するにつれて	-4969
アルゼンチン	-4970
ストラクチャ	-4971
するのに十分な	-4972
以下に示します	-4973
プログラミングの	-4974
(3	-4975
██	-4976
ねえ	-4977
スポ	-4978
冷蔵	-4979
差し	-4980
性的	-4981
投票	-4982
洞察	-4983
演算	-4984
発電	-4985
登場	-4986
調和	-4987
金の	-4988
arr	-4989
ore	-4990
ult	-4991
urn	-4992
がなく	-4993
に似た	-4994
やすく	-4995
を学び	-4996
パラド	-4997
不可能	-4998
untu	-4999
ツールと	-5000
ヒーロー	-5001
ロシアの	-5002
場所です	-5003
理想的な	-5004
積極的に	-5005
https	-5006
ことに気付	-5007
それぞれが	-5008
キーワード	-5009
ドライバー	-5010
ユニークで	-5011
思いますか	-5012
使用できます	-5013
と思っています	-5014
ことができました	-5015
にどのように影響	-5016
インフラストラクチャ	-5017
:1	-5018
RE	-5019
SP	-5020
▁ラ	-5021
に属	-5022
を描	-5023
パウ	-5024
地下	-5025
地位	-5026
型の	-5027
性別	-5028
抽象	-5029
接触	-5030
生存	-5031
確信	-5032
順位	-5033
ail	-5034
▁そう	-5035
が増加	-5036
を加え	-5037
を立て	-5038
を計画	-5039
アンド	-5040
サンド	-5041
シック	-5042
ソート	-5043
ッキー	-5044
ローン	-5045
世紀の	-5046
今日の	-5047
冷たい	-5048
材料の	-5049
環境で	-5050
生じる	-5051
精神的	-5052
通常は	-5053
音楽の	-5054
音楽を	-5055
が非常に	-5056
どういう	-5057
ウクライ	-5058
クトップ	-5059
グレード	-5060
コーラス	-5061
バイアス	-5062
フォーラ	-5063
レイヤー	-5064
優先順位	-5065
Hello	-5066
から始める	-5067
を意味します	-5068
を決定します	-5069
デスクトップ	-5070
知られており	-5071
されていました	-5072
ゲームをプレイ	-5073
がどのように機能	-5074
パーソナライズされた	-5075
▁JavaScript	-5076
LP	-5077
TP	-5078
ci	-5079
テイ	-5080
バラ	-5081
対照	-5082
強さ	-5083
心を	-5084
日は	-5085
未満	-5086
申請	-5087
異常	-5088
説得	-5089
部品	-5090
配布	-5091
闘争	-5092
いたり	-5093
が低い	-5094
に影響	-5095
の位置	-5096
の利点	-5097
までに	-5098
ものの	-5099
ガスの	-5100
ームズ	-5101
互換性	-5102
代替品	-5103
例では	-5104
偉大な	-5105
動的な	-5106
帝国の	-5107
▁API	-5108
がいます	-5109
に役立つ	-5110
を最適化	-5111
クリスマ	-5112
ショップ	-5113
シンボル	-5114
トラック	-5115
ニンジン	-5116
成功した	-5117
ジェームズ	-5118
に影響を与え	-5119
を持っていません	-5120
を見つけるために	-5121
するために使用できます	-5122
75	-5123
SC	-5124
ep	-5125
の各	-5126
を待	-5127
アッ	-5128
体を	-5129
作家	-5130
垂直	-5131
外国	-5132
無視	-5133
療法	-5134
知覚	-5135
義務	-5136
追求	-5137
進む	-5138
ime	-5139
let	-5140
たびに	-5141
な価格	-5142
を拡大	-5143
を監視	-5144
カレン	-5145
ノート	-5146
ポータ	-5147
レッス	-5148
健康と	-5149
日から	-5150
との関係	-5151
のですが	-5152
めました	-5153
一貫した	-5154
混合物を	-5155
から始めて	-5156
を受け取り	-5157
デバイスを	-5158
場合がある	-5159
高レベルの	-5160
のさまざまな	-5161
エージェント	-5162
ニューロンネットワーク	-5163
Sp	-5164
▁.	-5165
▁イ	-5166
▁コ	-5167
すり	-5168
で見	-5169
わる	-5170
チリ	-5171
不快	-5172
免疫	-5173
勾配	-5174
同期	-5175
家を	-5176
対処	-5177
対策	-5178
少年	-5179
引っ	-5180
愛の	-5181
態度	-5182
本質	-5183
株式	-5184
火で	-5185
生徒	-5186
生態	-5187
自律	-5188
解放	-5189
量は	-5190
ink	-5191
▁18	-5192
と言う	-5193
に到着	-5194
の他の	-5195
パネル	-5196
完璧な	-5197
環境に	-5198
質問は	-5199
able	-5200
したとき	-5201
わずかに	-5202
見えます	-5203
驚くべき	-5204
React	-5205
などの要因	-5206
ネイティブ	-5207
Openai	-5208
アドバイスを	-5209
を探してください	-5210
が必要になる場合があります	-5211
ey	-5212
▁リ	-5213
かく	-5214
めた	-5215
エア	-5216
伝達	-5217
基盤	-5218
昆虫	-5219
星は	-5220
漫画	-5221
緩和	-5222
get	-5223
udo	-5224
うつ病	-5225
の状態	-5226
を保持	-5227
を助け	-5228
ディア	-5229
ヒュー	-5230
プラン	-5231
ロンの	-5232
技術的	-5233
植物の	-5234
自由に	-5235
▁ここで	-5236
で生まれ	-5237
アパート	-5238
方程式の	-5239
現実的な	-5240
モーション	-5241
使用できる	-5242
フレンドリー	-5243
政治的および	-5244
自然言語処理	-5245
いくつかの要因	-5246
すことができる	-5247
のはなぜですか	-5248
を示しています	-5249
するために使用できる	-5250
あなたを助けることができる	-5251
28	-5252
AC	-5253
▁水	-5254
アリ	-5255
ハム	-5256
ポテ	-5257
ラミ	-5258
世代	-5259
乗算	-5260
作る	-5261
光が	-5262
実現	-5263
家は	-5264
山の	-5265
才能	-5266
望む	-5267
真の	-5268
耐久	-5269
ite	-5270
。19	-5271
すぎる	-5272
でのみ	-5273
にのみ	-5274
の詳細	-5275
わから	-5276
を提示	-5277
カナダ	-5278
ダーを	-5279
ヨーク	-5280
何らか	-5281
彼らを	-5282
正方形	-5283
長い間	-5284
▁---	-5285
うために	-5286
おもちゃ	-5287
しょうか	-5288
対応する	-5289
チャンネル	-5290
電気自動車	-5291
あなたにとって	-5292
場合によっては	-5293
エキサイティングな	-5294
覚えておくことが重要です	-5295
76	-5296
ya	-5297
▁ボ	-5298
ブの	-5299
ペン	-5300
メル	-5301
ヴェ	-5302
内容	-5303
塩と	-5304
欲求	-5305
活気	-5306
発音	-5307
石の	-5308
禁止	-5309
裁判	-5310
ure	-5311
▁Ar	-5312
は常に	-5313
ものに	-5314
やって	-5315
を上げ	-5316
を保証	-5317
を削除	-5318
を私に	-5319
カウン	-5320
デッキ	-5321
ポテト	-5322
ラスト	-5323
不平等	-5324
作品は	-5325
備えた	-5326
友人や	-5327
正確で	-5328
file	-5329
ount	-5330
▁100	-5331
▁ここに	-5332
ポジトリ	-5333
光の速度	-5334
限られた	-5335
Apple	-5336
ことを学ぶ	-5337
アイデアは	-5338
シュタイン	-5339
間違いなく	-5340
▁さまざまな	-5341
セットアップ	-5342
ダイヤモンド	-5343
説明できますか	-5344
大規模な言語モデル	-5345
-1	-5346
▁シ	-5347
▁ホ	-5348
か月	-5349
ビタ	-5350
体に	-5351
手頃	-5352
時計	-5353
正規	-5354
活性	-5355
資料	-5356
間隔	-5357
ont	-5358
。20	-5359
ウッド	-5360
キーを	-5361
ナイト	-5362
フィン	-5363
以外の	-5364
会話を	-5365
何かが	-5366
全体の	-5367
化した	-5368
情報源	-5369
turn	-5370
▁以下は	-5371
が少ない	-5372
に非常に	-5373
コメディ	-5374
ストリー	-5375
フロント	-5376
ワールド	-5377
から始まり	-5378
されません	-5379
はあなたの	-5380
オーディオ	-5381
与えられた	-5382
▁World	-5383
から始めます	-5384
くれませんか	-5385
バックアップ	-5386
信じられない	-5387
されていますが	-5388
に焦点を当てた	-5389
をダウンロード	-5390
テクノロジーは	-5391
ハードドライブ	-5392
を作成するために	-5393
ありがとうございます	-5394
2,	-5395
:[	-5396
UI	-5397
▁<	-5398
フの	-5399
ラは	-5400
世の	-5401
半径	-5402
巻き	-5403
愛は	-5404
探索	-5405
数十	-5406
良好	-5407
費や	-5408
風味	-5409
Mac	-5410
▁In	-5411
させて	-5412
と対話	-5413
の速度	-5414
ピース	-5415
人生を	-5416
個人が	-5417
切り替	-5418
楽しむ	-5419
い合わせ	-5420
そこでは	-5421
▁要するに	-5422
あまりにも	-5423
リポジトリ	-5424
利用できる	-5425
時間を過ご	-5426
を維持するために	-5427
85	-5428
OM	-5429
いを	-5430
キノ	-5431
予約	-5432
出発	-5433
幽霊	-5434
心臓	-5435
掃除	-5436
接着	-5437
競合	-5438
蒸発	-5439
世紀に	-5440
世話を	-5441
形式で	-5442
意識の	-5443
最初は	-5444
くらいの	-5445
されない	-5446
は多くの	-5447
を受けた	-5448
ヘルスケ	-5449
ポッター	-5450
不可欠な	-5451
最終的な	-5452
望ましい	-5453
者として	-5454
なりますか	-5455
コーヒーを	-5456
指定された	-5457
あなたの名前	-5458
と見なされます	-5459
コミットメント	-5460
方法があります	-5461
考えてください	-5462
くことができます	-5463
AN	-5464
FT	-5465
SL	-5466
tr	-5467
▁Y	-5468
▁サ	-5469
、7	-5470
かす	-5471
ご飯	-5472
の上	-5473
をや	-5474
エピ	-5475
デュ	-5476
上が	-5477
亡く	-5478
交渉	-5479
出て	-5480
合い	-5481
国が	-5482
圧倒	-5483
寒い	-5484
水が	-5485
親切	-5486
賞賛	-5487
集団	-5488
食料	-5489
rad	-5490
がまだ	-5491
はいつ	-5492
エッジ	-5493
ゴール	-5494
チキン	-5495
ティア	-5496
固有の	-5497
彼女を	-5498
悲しみ	-5499
文化と	-5500
時間は	-5501
物理的	-5502
遺伝的	-5503
関数が	-5504
きれいに	-5505
それ自体	-5506
他の人と	-5507
的である	-5508
直接的な	-5509
続きます	-5510
責任を負	-5511
umber	-5512
グラウンド	-5513
コロンビア	-5514
問い合わせ	-5515
あなた自身の	-5516
は次のように	-5517
インデックス	-5518
リアルタイム	-5519
可能性が高い	-5520
知っています	-5521
されている場合	-5522
くれてありがとう	-5523
プログラミング言語です	-5524
かせ	-5525
に沿	-5526
まあ	-5527
を歩	-5528
ケル	-5529
ッコ	-5530
マリ	-5531
ラの	-5532
人物	-5533
実な	-5534
想定	-5535
秩序	-5536
精通	-5537
繁栄	-5538
調節	-5539
週間	-5540
除去	-5541
黒い	-5542
▁2)	-5543
▁if	-5544
えれば	-5545
の安全	-5546
の準備	-5547
を探す	-5548
ターミ	-5549
ボトル	-5550
マスク	-5551
不確実	-5552
大きさ	-5553
大好き	-5554
尋ねる	-5555
歴史上	-5556
証明書	-5557
関係の	-5558
イギリス	-5559
オーブン	-5560
神秘的な	-5561
革新的な	-5562
▁私たちの	-5563
かについて	-5564
はしばしば	-5565
を提示します	-5566
ニューヨーク	-5567
安定した拡散	-5568
尋ねることを	-5569
するのではなく	-5570
いくつかの重要な	-5571
を使用してください	-5572
ことを示唆しています	-5573
が含まれる場合があります	-5574
、"	-5575
、8	-5576
に残	-5577
の色	-5578
イエ	-5579
ケア	-5580
タグ	-5581
テス	-5582
メガ	-5583
不正	-5584
及ぼ	-5585
密接	-5586
当局	-5587
普通	-5588
無効	-5589
給与	-5590
職場	-5591
設置	-5592
貿易	-5593
軍隊	-5594
進捗	-5595
遭遇	-5596
関与	-5597
ino	-5598
rom	-5599
▁16	-5600
の原因	-5601
の基礎	-5602
ドルの	-5603
バッグ	-5604
ミルク	-5605
人口の	-5606
地域で	-5607
場所で	-5608
滑らか	-5609
絶えず	-5610
質問や	-5611
食べる	-5612
▁Com	-5613
もう一度	-5614
ローラー	-5615
する場合は	-5616
を実行する	-5617
を返します	-5618
スクリーン	-5619
ストレスを	-5620
元気ですか	-5621
を最小限に抑	-5622
しようとします	-5623
を作成するには	-5624
を見つけました	-5625
ロマンチックな	-5626
のパフォーマンス	-5627
には次のものがあります	-5628
("	-5629
RT	-5630
yn	-5631
に耐	-5632
ほこ	-5633
を傾	-5634
ペア	-5635
ーグ	-5636
会い	-5637
値が	-5638
化合	-5639
均一	-5640
実証	-5641
家庭	-5642
海岸	-5643
火星	-5644
結び	-5645
苦労	-5646
語で	-5647
ass	-5648
ear	-5649
ree	-5650
ype	-5651
くつか	-5652
たりの	-5653
にして	-5654
の構造	-5655
を開き	-5656
ガラス	-5657
ガール	-5658
シャー	-5659
バナナ	-5660
世界に	-5661
価格は	-5662
有害な	-5663
欲しい	-5664
理由で	-5665
目を覚	-5666
答えを	-5667
html	-5668
▁データ	-5669
にもっと	-5670
を減らし	-5671
アップロ	-5672
スキルの	-5673
ブラジル	-5674
ユーモア	-5675
始めます	-5676
性の高い	-5677
象徴的な	-5678
わかります	-5679
グループの	-5680
ナビゲート	-5681
プログラマ	-5682
洗練された	-5683
を計算します	-5684
エネルギー源	-5685
チューリング	-5686
プログラムは	-5687
▁return	-5688
ステートメント	-5689
ことを確認します	-5690
ようにしてください	-5691
するのに役立つことを願っています	-5692
27	-5693
EO	-5694
yp	-5695
▁・	-5696
で覆	-5697
ネス	-5698
丈夫	-5699
勇気	-5700
大陸	-5701
尺度	-5702
尽く	-5703
父親	-5704
生じ	-5705
警告	-5706
選挙	-5707
重み	-5708
面積	-5709
に変更	-5710
を返す	-5711
フロー	-5712
ボタン	-5713
一度に	-5714
微調整	-5715
明らか	-5716
簡単で	-5717
製品を	-5718
避ける	-5719
Twit	-5720
____	-5721
の使用は	-5722
スイッチ	-5723
性があり	-5724
酸化炭素	-5725
で作られた	-5726
テーブルの	-5727
バルセロナ	-5728
パンケーキ	-5729
が必要ですか	-5730
オプションは	-5731
コンテンツを	-5732
ビットコイン	-5733
言い換えれば	-5734
オーディエンス	-5735
Facebook	-5736
えることができます	-5737
アプリケーションを	-5738
RP	-5739
co	-5740
hi	-5741
が来	-5742
なん	-5743
を止	-5744
侵害	-5745
擁護	-5746
極端	-5747
皮膚	-5748
複製	-5749
規範	-5750
警察	-5751
重い	-5752
陰謀	-5753
飛ぶ	-5754
ask	-5755
そうで	-5756
に入れ	-5757
の対象	-5758
の概要	-5759
を増や	-5760
を尽く	-5761
を比較	-5762
を追跡	-5763
カラー	-5764
ストン	-5765
チェス	-5766
ックは	-5767
ハンド	-5768
フリー	-5769
ベート	-5770
マージ	-5771
ラスの	-5772
リート	-5773
助けて	-5774
厳しい	-5775
天文学	-5776
子供が	-5777
感じる	-5778
楽しく	-5779
結果の	-5780
言語は	-5781
JSON	-5782
▁多くの	-5783
」(19	-5784
いつでも	-5785
する際に	-5786
ジョージ	-5787
決定的な	-5788
▁スペイン	-5789
する方法を	-5790
イタリアの	-5791
フォーラム	-5792
意味ですか	-5793
手頃な価格	-5794
私はそれが	-5795
行われます	-5796
に移動します	-5797
人の担当者の	-5798
可能であれば	-5799
お知らせください	-5800
ことはありません	-5801
オブジェクト指向	-5802
アプリケーションで	-5803
行うことができます	-5804
することができました	-5805
84	-5806
da	-5807
を抱	-5808
を言	-5809
オル	-5810
ペル	-5811
低く	-5812
光は	-5813
外交	-5814
死亡	-5815
笑い	-5816
笑顔	-5817
血管	-5818
USB	-5819
lab	-5820
さない	-5821
と一致	-5822
に従事	-5823
の減少	-5824
の生産	-5825
を組み	-5826
サイド	-5827
ソード	-5828
ューム	-5829
初めて	-5830
機能は	-5831
生物の	-5832
経験を	-5833
航空機	-5834
関数を	-5835
Rust	-5836
ment	-5837
いくつの	-5838
もう少し	-5839
ブレーキ	-5840
包括的な	-5841
柔らかく	-5842
視覚的な	-5843
言語です	-5844
という考え	-5845
の一般的な	-5846
めています	-5847
を書きます	-5848
イギリスの	-5849
レイアウト	-5850
何をすべき	-5851
するのを手伝	-5852
だと思います	-5853
ファンタジー	-5854
メンタルヘル	-5855
するのが難しい	-5856
オブジェクトが	-5857
コンピューターに	-5858
するかもしれません	-5859
によって異なる場合があります	-5860
26	-5861
36	-5862
]、	-5863
。(	-5864
が高	-5865
めに	-5866
プル	-5867
井戸	-5868
休息	-5869
地の	-5870
子の	-5871
徹底	-5872
愛情	-5873
散歩	-5874
海洋	-5875
特殊	-5876
薄い	-5877
術師	-5878
衛生	-5879
補完	-5880
誕生	-5881
gin	-5882
ork	-5883
▁GB	-5884
っかり	-5885
を及ぼ	-5886
シーズ	-5887
安全に	-5888
快適な	-5889
時には	-5890
膨大な	-5891
良好な	-5892
ject	-5893
アルファ	-5894
クリエイ	-5895
ショナル	-5896
ソーラー	-5897
ビタミン	-5898
付けます	-5899
労働者の	-5900
向上させ	-5901
炭水化物	-5902
継続的に	-5903
Excel	-5904
エディター	-5905
ガイダンス	-5906
ボリューム	-5907
願いします	-5908
あなたは私に	-5909
このタイプの	-5910
を説明します	-5911
アップロード	-5912
キャンペーン	-5913
マトリックス	-5914
示しています	-5915
に焦点を合わせ	-5916
アップグレード	-5917
ブラックホール	-5918
86	-5919
::	-5920
▁ド	-5921
▁大	-5922
お互	-5923
オカ	-5924
ゾン	-5925
ワク	-5926
伝説	-5927
共感	-5928
午前	-5929
愛と	-5930
憲法	-5931
揚げ	-5932
滞在	-5933
統一	-5934
趣味	-5935
追い	-5936
退屈	-5937
遅く	-5938
遊び	-5939
邪悪	-5940
飛び	-5941
ill	-5942
が向上	-5943
ストア	-5944
テンソ	-5945
トーク	-5946
ネルの	-5947
ヒーロ	-5948
仕事は	-5949
冷蔵庫	-5950
役に立	-5951
情報と	-5952
▁ゲーム	-5953
があると	-5954
コードが	-5955
タリング	-5956
フライト	-5957
他の人の	-5958
開発者は	-5959
▁Java	-5960
したときに	-5961
より複雑な	-5962
エンジンの	-5963
生成される	-5964
を得るために	-5965
を知っている	-5966
助けを求める	-5967
機能しますか	-5968
することを学ぶ	-5969
グラフィックス	-5970
ソフトウェアの	-5971
第二次世界大戦	-5972
につながりました	-5973
を以下に示します	-5974
の	-5975
、	-5976
▁	-5977
す	-5978
を	-5979
に	-5980
ま	-5981
る	-5982
ー	-5983
。	-5984
は	-5985
し	-5986
で	-5987
と	-5988
い	-5989
な	-5990
た	-5991
が	-5992
て	-5993
ン	-5994
s	-5995
れ	-5996
こ	-5997
り	-5998
ス	-5999
あ	-6000
:	-6001
ト	-6002
t	-6003
か	-6004
ル	-6005
さ	-6006
e	-6007
イ	-6008
a	-6009
ら	-6010
き	-6011
く	-6012
ク	-6013
i	-6014
n	-6015
r	-6016
よ	-6017
リ	-6018
ッ	-6019
ラ	-6020
ア	-6021
プ	-6022
的	-6023
タ	-6024
う	-6025
め	-6026
つ	-6027
も	-6028
A	-6029
シ	-6030
テ	-6031
そ	-6032
1	-6033
ロ	-6034
.	-6035
っ	-6036
o	-6037
ド	-6038
要	-6039
人	-6040
-	-6041
用	-6042
フ	-6043
レ	-6044
え	-6045
ど	-6046
2	-6047
U	-6048
コ	-6049
デ	-6050
ジ	-6051
ム	-6052
グ	-6053
0	-6054
ん	-6055
だ	-6056
私	-6057
?	-6058
け	-6059
性	-6060
お	-6061
使	-6062
ィ	-6063
能	-6064
せ	-6065
合	-6066
)	-6067
(	-6068
l	-6069
オ	-6070
彼	-6071
や	-6072
キ	-6073
最	-6074
マ	-6075
学	-6076
バ	-6077
理	-6078
成	-6079
場	-6080
間	-6081
ニ	-6082
定	-6083
ュ	-6084
分	-6085
ブ	-6086
サ	-6087
チ	-6088
生	-6089
ョ	-6090
メ	-6091
ち	-6092
3	-6093
エ	-6094
カ	-6095
u	-6096
一	-6097
可	-6098
作	-6099
パ	-6100
c	-6101
「	-6102
セ	-6103
方	-6104
」	-6105
ェ	-6106
必	-6107
行	-6108
d	-6109
法	-6110
物	-6111
動	-6112
数	-6113
力	-6114
自	-6115
大	-6116
関	-6117
p	-6118
ャ	-6119
ウ	-6120
h	-6121
ば	-6122
語	-6123
化	-6124
m	-6125
実	-6126
5	-6127
ビ	-6128
重	-6129
*	-6130
ネ	-6131
見	-6132
モ	-6133
4	-6134
P	-6135
ズ	-6136
み	-6137
S	-6138
言	-6139
ミ	-6140
持	-6141
発	-6142
何	-6143
ソ	-6144
知	-6145
明	-6146
I	-6147
び	-6148
意	-6149
わ	-6150
べ	-6151
ピ	-6152
C	-6153
g	-6154
多	-6155
者	-6156
立	-6157
ケ	-6158
ナ	-6159
問	-6160
気	-6161
特	-6162
時	-6163
ポ	-6164
b	-6165
じ	-6166
他	-6167
確	-6168
提	-6169
ダ	-6170
解	-6171
y	-6172
ベ	-6173
日	-6174
機	-6175
中	-6176
供	-6177
年	-6178
質	-6179
常	-6180
地	-6181
`	-6182
国	-6183
高	-6184
前	-6185
度	-6186
9	-6187
体	-6188
子	-6189
会	-6190
・	-6191
上	-6192
次	-6193
開	-6194
出	-6195
6	-6196
目	-6197
加	-6198
T	-6199
適	-6200
部	-6201
変	-6202
ボ	-6203
M	-6204
入	-6205
対	-6206
ペ	-6207
ツ	-6208
D	-6209
通	-6210
x	-6211
f	-6212
文	-6213
事	-6214
新	-6215
ワ	-6216
現	-6217
本	-6218
8	-6219
L	-6220
情	-6221
計	-6222
主	-6223
ザ	-6224
役	-6225
味	-6226
手	-6227
世	-6228
画	-6229
/	-6230
題	-6231
ゲ	-6232
果	-6233
7	-6234
説	-6235
含	-6236
!	-6237
全	-6238
存	-6239
基	-6240
決	-6241
感	-6242
ォ	-6243
正	-6244
後	-6245
家	-6246
示	-6247
v	-6248
G	-6249
ガ	-6250
教	-6251
点	-6252
ユ	-6253
構	-6254
k	-6255
界	-6256
在	-6257
考	-6258
ァ	-6259
品	-6260
書	-6261
保	-6262
R	-6263
論	-6264
取	-6265
々	-6266
経	-6267
認	-6268
電	-6269
不	-6270
ざ	-6271
信	-6272
単	-6273
ギ	-6274
代	-6275
有	-6276
続	-6277
報	-6278
強	-6279
連	-6280
同	-6281
む	-6282
話	-6283
非	-6284
=	-6285
利	-6286
応	-6287
形	-6288
調	-6289
量	-6290
名	-6291
与	-6292
食	-6293
ノ	-6294
選	-6295
長	-6296
影	-6297
ず	-6298
小	-6299
所	-6300
社	-6301
B	-6302
素	-6303
E	-6304
戦	-6305
習	-6306
ゴ	-6307
表	-6308
結	-6309
効	-6310
設	-6311
W	-6312
般	-6313
女	-6314
面	-6315
業	-6316
料	-6317
思	-6318
水	-6319
O	-6320
響	-6321
始	-6322
約	-6323
価	-6324
初	-6325
心	-6326
ハ	-6327
制	-6328
下	-6329
F	-6330
識	-6331
_	-6332
値	-6333
異	-6334
期	-6335
向	-6336
状	-6337
N	-6338
択	-6339
ほ	-6340
以	-6341
別	-6342
w	-6343
へ	-6344
進	-6345
速	-6346
当	-6347
良	-6348
楽	-6349
術	-6350
例	-6351
答	-6352
複	-6353
得	-6354
義	-6355
置	-6356
切	-6357
限	-6358
式	-6359
起	-6360
組	-6361
追	-6362
個	-6363
伝	-6364
色	-6365
政	-6366
注	-6367
来	-6368
達	-6369
づ	-6370
金	-6371
引	-6372
付	-6373
"	-6374
活	-6375
験	-6376
+	-6377
安	-6378
産	-6379
備	-6380
空	-6381
回	-6382
少	-6383
指	-6384
H	-6385
受	-6386
造	-6387
音	-6388
類	-6389
市	-6390
検	-6391
ヤ	-6392
証	-6393
善	-6394
ろ	-6395
月	-6396
内	-6397
種	-6398
外	-6399
反	-6400
念	-6401
算	-6402
ヒ	-6403
改	-6404
神	-6405
接	-6406
完	-6407
助	-6408
光	-6409
好	-6410
平	-6411
覚	-6412
究	-6413
違	-6414
細	-6415
身	-6416
因	-6417
研	-6418
ホ	-6419
[	-6420
]	-6421
視	-6422
げ	-6423
,	-6424
簡	-6425
統	-6426
観	-6427
像	-6428
率	-6429
V	-6430
深	-6431
広	-6432
配	-6433
想	-6434
従	-6435
相	-6436
共	-6437
減	-6438
標	-6439
野	-6440
準	-6441
探	-6442
公	-6443
然	-6444
星	-6445
更	-6446
由	-6447
雑	-6448
J	-6449
ぶ	-6450
直	-6451
終	-6452
難	-6453
治	-6454
予	-6455
記	-6456
集	-6457
係	-6458
支	-6459
換	-6460
呼	-6461
科	-6462
各	-6463
球	-6464
処	-6465
ょ	-6466
際	-6467
歴	-6468
測	-6469
原	-6470
過	-6471
求	-6472
資	-6473
境	-6474
車	-6475
規	-6476
工	-6477
#	-6478
史	-6479
|	-6480
技	-6481
今	-6482
割	-6483
ぜ	-6484
無	-6485
近	-6486
依	-6487
環	-6488
製	-6489
両	-6490
運	-6491
器	-6492
域	-6493
字	-6494
愛	-6495
映	-6496
民	-6497
済	-6498
態	-6499
材	-6500
独	-6501
熱	-6502
健	-6503
道	-6504
門	-6505
争	-6506
低	-6507
格	-6508
順	-6509
元	-6510
誰	-6511
管	-6512
張	-6513
害	-6514
離	-6515
命	-6516
興	-6517
練	-6518
ご	-6519
専	-6520
仕	-6521
築	-6522
整	-6523
維	-6524
推	-6525
除	-6526
参	-6527
勧	-6528
収	-6529
読	-6530
康	-6531
満	-6532
件	-6533
位	-6534
概	-6535
真	-6536
議	-6537
互	-6538
優	-6539
側	-6540
再	-6541
肉	-6542
移	-6543
番	-6544
ね	-6545
権	-6546
温	-6547
比	-6548
様	-6549
析	-6550
送	-6551
険	-6552
混	-6553
象	-6554
返	-6555
'	-6556
X	-6557
太	-6558
;	-6559
線	-6560
護	-6561
陽	-6562
ぐ	-6563
投	-6564
詳	-6565
悪	-6566
宙	-6567
交	-6568
宇	-6569
z	-6570
住	-6571
古	-6572
〜	-6573
友	-6574
増	-6575
慮	-6576
源	-6577
装	-6578
費	-6579
K	-6580
介	-6581
ゼ	-6582
j	-6583
医	-6584
十	-6585
ぎ	-6586
ヘ	-6587
失	-6588
況	-6589
御	-6590
評	-6591
断	-6592
残	-6593
困	-6594
療	-6595
短	-6596
積	-6597
都	-6598
旅	-6599
転	-6600
望	-6601
列	-6602
着	-6603
込	-6604
号	-6605
{	-6606
避	-6607
圧	-6608
}	-6609
導	-6610
ヨ	-6611
任	-6612
働	-6613
和	-6614
領	-6615
囲	-6616
消	-6617
植	-6618
精	-6619
欠	-6620
口	-6621
放	-6622
暗	-6623
案	-6624
緒	-6625
歩	-6626
^	-6627
先	-6628
較	-6629
判	-6630
美	-6631
流	-6632
白	-6633
英	-6634
程	-6635
拡	-6636
海	-6637
周	-6638
親	-6639
願	-6640
建	-6641
則	-6642
照	-6643
撃	-6644
葉	-6645
族	-6646
第	-6647
米	-6648
候	-6649
条	-6650
献	-6651
徴	-6652
索	-6653
惑	-6654
天	-6655
卵	-6656
症	-6657
防	-6658
査	-6659
仮	-6660
足	-6661
頼	-6662
焦	-6663
試	-6664
育	-6665
魔	-6666
略	-6667
段	-6668
散	-6669
模	-6670
病	-6671
眠	-6672
労	-6673
落	-6674
密	-6675
死	-6676
頭	-6677
ぞ	-6678
客	-6679
Q	-6680
哲	-6681
創	-6682
曲	-6683
範	-6684
策	-6685
奨	-6686
容	-6687
型	-6688
火	-6689
等	-6690
均	-6691
止	-6692
Y	-6693
障	-6694
促	-6695
危	-6696
土	-6697
幅	-6698
%	-6699
革	-6700
男	-6701
財	-6702
益	-6703
幸	-6704
械	-6705
木	-6706
王	-6707
訳	-6708
聞	-6709
酸	-6710
•	-6711
猫	-6712
風	-6713
冷	-6714
声	-6715
二	-6716
修	-6717
飛	-6718
未	-6719
待	-6720
操	-6721
壊	-6722
師	-6723
赤	-6724
功	-6725
毎	-6726
監	-6727
購	-6728
犬	-6729
軽	-6730
節	-6731
紀	-6732
察	-6733
払	-6734
到	-6735
協	-6736
波	-6737
貢	-6738
援	-6739
告	-6740
極	-6741
系	-6742
責	-6743
半	-6744
削	-6745
ゆ	-6746
将	-6747
録	-6748
務	-6749
売	-6750
石	-6751
尋	-6752
超	-6753
課	-6754
血	-6755
企	-6756
損	-6757
屋	-6758
了	-6759
士	-6760
拠	-6761
去	-6762
攻	-6763
遠	-6764
談	-6765
魅	-6766
吸	-6767
律	-6768
恐	-6769
継	-6770
忘	-6771
織	-6772
抗	-6773
階	-6774
燃	-6775
服	-6776
印	-6777
討	-6778
傷	-6779
府	-6780
訪	-6781
液	-6782
繰	-6783
距	-6784
耐	-6785
柔	-6786
紹	-6787
員	-6788
塩	-6789
復	-6790
潜	-6791
給	-6792
晴	-6793
万	-6794
遺	-6795
路	-6796
展	-6797
布	-6798
似	-6799
及	-6800
排	-6801
歌	-6802
演	-6803
背	-6804
補	-6805
州	-6806
替	-6807
差	-6808
\	-6809
詩	-6810
項	-6811
>	-6812
属	-6813
歳	-6814
快	-6815
景	-6816
訓	-6817
ヴ	-6818
帯	-6819
負	-6820
述	-6821
激	-6822
豊	-6823
刻	-6824
胞	-6825
著	-6826
青	-6827
染	-6828
絶	-6829
戻	-6830
脳	-6831
純	-6832
慣	-6833
q	-6834
栄	-6835
施	-6836
角	-6837
具	-6838
週	-6839
射	-6840
紙	-6841
粉	-6842
軍	-6843
乗	-6844
写	-6845
典	-6846
己	-6847
層	-6848
聴	-6849
固	-6850
山	-6851
粒	-6852
休	-6853
痛	-6854
図	-6855
飲	-6856
銀	-6857
喜	-6858
母	-6859
破	-6860
倫	-6861
筋	-6862
芸	-6863
留	-6864
薬	-6865
糖	-6866
緊	-6867
根	-6868
謝	-6869
編	-6870
傾	-6871
徳	-6872
急	-6873
欲	-6874
商	-6875
苦	-6876
申	-6877
競	-6878
繁	-6879
弱	-6880
許	-6881
菜	-6882
触	-6883
砂	-6884
登	-6885
北	-6886
宗	-6887
炭	-6888
獲	-6889
釈	-6890
敵	-6891
鶏	-6892
$	-6893
夜	-6894
睡	-6895
養	-6896
販	-6897
洗	-6898
患	-6899
端	-6900
農	-6901
否	-6902
座	-6903
福	-6904
若	-6905
敗	-6906
遅	-6907
息	-6908
翻	-6909
黒	-6910
花	-6911
ぼ	-6912
閉	-6913
頻	-6914
乳	-6915
誤	-6916
顧	-6917
ゾ	-6918
富	-6919
朝	-6920
三	-6921
緑	-6922
振	-6923
職	-6924
微	-6925
笑	-6926
顔	-6927
縮	-6928
皮	-6929
鮮	-6930
校	-6931
罪	-6932
奇	-6933
刺	-6934
疑	-6935
肢	-6936
雇	-6937
夢	-6938
冒	-6939
Z	-6940
殺	-6941
牛	-6942
融	-6943
乱	-6944
宅	-6945
輸	-6946
普	-6947
批	-6948
詞	-6949
守	-6950
西	-6951
勝	-6952
秘	-6953
税	-6954
便	-6955
焼	-6956
絡	-6957
包	-6958
永	-6959
南	-6960
区	-6961
博	-6962
齢	-6963
ゃ	-6964
押	-6965
油	-6966
億	-6967
挑	-6968
聖	-6969
首	-6970
帝	-6971
携	-6972
跡	-6973
尊	-6974
犯	-6975
島	-6976
扱	-6977
曜	-6978
突	-6979
賞	-6980
憶	-6981
採	-6982
敬	-6983
昇	-6984
貫	-6985
闘	-6986
努	-6987
鍋	-6988
暖	-6989
降	-6990
既	-6991
践	-6992
厳	-6993
抽	-6994
脈	-6995
魚	-6996
室	-6997
溶	-6998
懸	-6999
迅	-7000
宣	-7001
ひ	-7002
汚	-7003
剤	-7004
怖	-7005
描	-7006
黄	-7007
伴	-7008
磁	-7009
透	-7010
豆	-7011
退	-7012
核	-7013
壁	-7014
園	-7015
暴	-7016
鳥	-7017
挙	-7018
悲	-7019
静	-7020
菌	-7021
館	-7022
承	-7023
刷	-7024
東	-7025
乾	-7026
途	-7027
驚	-7028
央	-7029
杯	-7030
洋	-7031
麦	-7032
帰	-7033
序	-7034
担	-7035
礎	-7036
紛	-7037
致	-7038
妙	-7039
店	-7040
骨	-7041
執	-7042
貨	-7043
隠	-7044
勉	-7045
抑	-7046
軟	-7047
脅	-7048
抵	-7049
雨	-7050
°	-7051
停	-7052
午	-7053
左	-7054
森	-7055
鉄	-7056
易	-7057
団	-7058
父	-7059
街	-7060
威	-7061
余	-7062
軌	-7063
唆	-7064
夕	-7065
毒	-7066
逆	-7067
警	-7068
右	-7069
脂	-7070
荷	-7071
侵	-7072
逃	-7073
陸	-7074
局	-7075
爆	-7076
衛	-7077
摂	-7078
燥	-7079
絵	-7080
腐	-7081
庭	-7082
倒	-7083
武	-7084
兆	-7085
院	-7086
川	-7087
毛	-7088
航	-7089
覆	-7090
希	-7091
走	-7092
如	-7093
裂	-7094
臓	-7095
早	-7096
貴	-7097
劇	-7098
茶	-7099
片	-7100
疾	-7101
買	-7102
充	-7103
台	-7104
熟	-7105
虫	-7106
遊	-7107
&	-7108
措	-7109
肪	-7110
船	-7111
底	-7112
唯	-7113
奏	-7114
衆	-7115
講	-7116
脱	-7117
忍	-7118
筆	-7119
亡	-7120
慎	-7121
円	-7122
延	-7123
瞑	-7124
党	-7125
婚	-7126
添	-7127
渡	-7128
励	-7129
督	-7130
蔵	-7131
版	-7132
蒸	-7133
衝	-7134
寒	-7135
為	-7136
契	-7137
冗	-7138
却	-7139
夫	-7140
故	-7141
煙	-7142
瞬	-7143
司	-7144
炎	-7145
裁	-7146
岩	-7147
呪	-7148
腕	-7149
越	-7150
脚	-7151
克	-7152
秒	-7153
培	-7154
寄	-7155
河	-7156
輝	-7157
並	-7158
末	-7159
診	-7160
隣	-7161
久	-7162
捕	-7163
湿	-7164
妻	-7165
救	-7166
巨	-7167
章	-7168
廃	-7169
撮	-7170
束	-7171
飾	-7172
請	-7173
頃	-7174
滅	-7175
震	-7176
髪	-7177
洞	-7178
括	-7179
棄	-7180
蓄	-7181
潔	-7182
賢	-7183
占	-7184
百	-7185
露	-7186
寝	-7187
弾	-7188
貧	-7189
派	-7190
賛	-7191
孤	-7192
巻	-7193
草	-7194
邦	-7195
借	-7196
官	-7197
脆	-7198
遍	-7199
偽	-7200
玉	-7201
隔	-7202
抱	-7203
<	-7204
塗	-7205
鍵	-7206
ふ	-7207
偏	-7208
称	-7209
酬	-7210
宝	-7211
履	-7212
径	-7213
璧	-7214
酵	-7215
氏	-7216
駆	-7217
総	-7218
需	-7219
省	-7220
祝	-7221
拒	-7222
衣	-7223
滑	-7224
耳	-7225
額	-7226
屈	-7227
緩	-7228
栽	-7229
盗	-7230
胸	-7231
█	-7232
兄	-7233
凍	-7234
疲	-7235
詰	-7236
辞	-7237
寿	-7238
床	-7239
株	-7240
歯	-7241
級	-7242
ゥ	-7243
徒	-7244
沿	-7245
徐	-7246
雪	-7247
僚	-7248
兵	-7249
剰	-7250
勇	-7251
弟	-7252
恵	-7253
辺	-7254
隊	-7255
倍	-7256
刑	-7257
庫	-7258
渉	-7259
伸	-7260
誇	-7261
営	-7262
ヌ	-7263
令	-7264
岸	-7265
誠	-7266
邪	-7267
居	-7268
抜	-7269
架	-7270
祖	-7271
誘	-7272
村	-7273
壌	-7274
横	-7275
膨	-7276
丸	-7277
仲	-7278
甘	-7279
盟	-7280
ぬ	-7281
埋	-7282
箱	-7283
罰	-7284
霊	-7285
殖	-7286
免	-7287
冬	-7288
盾	-7289
翼	-7290
腹	-7291
憩	-7292
偉	-7293
浸	-7294
雰	-7295
喫	-7296
夏	-7297
妨	-7298
媒	-7299
我	-7300
諸	-7301
陰	-7302
鏡	-7303
香	-7304
昼	-7305
雲	-7306
勢	-7307
季	-7308
氷	-7309
薄	-7310
崩	-7311
盤	-7312
剣	-7313
厚	-7314
彙	-7315
町	-7316
肥	-7317
飼	-7318
黙	-7319
奮	-7320
折	-7321
貯	-7322
鉱	-7323
怪	-7324
掃	-7325
掛	-7326
老	-7327
催	-7328
堅	-7329
災	-7330
炒	-7331
牲	-7332
犠	-7333
矛	-7334
春	-7335
打	-7336
稿	-7337
舞	-7338
禁	-7339
繊	-7340
才	-7341
沸	-7342
穴	-7343
垂	-7344
授	-7345
贈	-7346
怒	-7347
肌	-7348
載	-7349
忠	-7350
硬	-7351
馬	-7352
鼻	-7353
魂	-7354
堂	-7355
宿	-7356
憲	-7357
挿	-7358
票	-7359
ぱ	-7360
敏	-7361
欺	-7362
肯	-7363
尿	-7364
丈	-7365
循	-7366
橋	-7367
滞	-7368
粋	-7369
群	-7370
陥	-7371
就	-7372
漫	-7373
窓	-7374
腸	-7375
謀	-7376
輪	-7377
騰	-7378
娘	-7379
戸	-7380
署	-7381
飯	-7382
儀	-7383
弁	-7384
擁	-7385
没	-7386
恋	-7387
胆	-7388
顕	-7389
債	-7390
尽	-7391
枝	-7392
疫	-7393
鎖	-7394
副	-7395
席	-7396
掘	-7397
井	-7398
千	-7399
四	-7400
壮	-7401
姿	-7402
麻	-7403
干	-7404
征	-7405
港	-7406
覧	-7407
謎	-7408
勾	-7409
浄	-7410
清	-7411
粘	-7412
納	-7413
京	-7414
即	-7415
尾	-7416
昆	-7417
欧	-7418
尺	-7419
虚	-7420
軸	-7421
握	-7422
濃	-7423
肩	-7424
踏	-7425
沈	-7426
湖	-7427
湾	-7428
竜	-7429
嘘	-7430
幼	-7431
幽	-7432
揚	-7433
矢	-7434
賃	-7435
志	-7436
晶	-7437
爪	-7438
癌	-7439
臭	-7440
裏	-7441
辛	-7442
頑	-7443
礼	-7444
穏	-7445
遇	-7446
償	-7447
卒	-7448
秩	-7449
遭	-7450
亜	-7451
捗	-7452
貿	-7453
迷	-7454
é	-7455
併	-7456
偶	-7457
叫	-7458
祈	-7459
穀	-7460
幻	-7461
招	-7462
漢	-7463
皿	-7464
膜	-7465
灰	-7466
膚	-7467
頂	-7468
双	-7469
寸	-7470
林	-7471
汎	-7472
泡	-7473
趣	-7474
匂	-7475
嫌	-7476
宮	-7477
徹	-7478
殊	-7479
狩	-7480
誕	-7481
銃	-7482
鳴	-7483
児	-7484
漏	-7485
鉛	-7486
鋼	-7487
闇	-7488
七	-7489
泊	-7490
羊	-7491
靴	-7492
π	-7493
帽	-7494
弦	-7495
慢	-7496
浮	-7497
稼	-7498
被	-7499
韻	-7500
@	-7501
委	-7502
揺	-7503
泳	-7504
獣	-7505
華	-7506
騒	-7507
奪	-7508
締	-7509
房	-7510
酔	-7511
駄	-7512
喪	-7513
巣	-7514
幾	-7515
斜	-7516
穫	-7517
糸	-7518
虐	-7519
雄	-7520
堆	-7521
拶	-7522
挨	-7523
漠	-7524
癒	-7525
袋	-7526
俳	-7527
倣	-7528
妊	-7529
妹	-7530
控	-7531
殻	-7532
訴	-7533
迎	-7534
池	-7535
蜂	-7536
凝	-7537
捧	-7538
暑	-7539
窟	-7540
紫	-7541
肺	-7542
舌	-7543
迫	-7544
酒	-7545
愚	-7546
枠	-7547
泣	-7548
皇	-7549
秋	-7550
羽	-7551
豚	-7552
飽	-7553
吐	-7554
奴	-7555
寺	-7556
胃	-7557
詐	-7558
釣	-7559
城	-7560
恥	-7561
捨	-7562
枚	-7563
缶	-7564
鋭	-7565
暇	-7566
孫	-7567
摘	-7568
銅	-7569
隷	-7570
匹	-7571
摩	-7572
畳	-7573
蜜	-7574
叩	-7575
唐	-7576
拾	-7577
誉	-7578
⠛	-7579
懐	-7580
晩	-7581
浴	-7582
牢	-7583
絞	-7584
衰	-7585
裕	-7586
ヶ	-7587
娠	-7588
寛	-7589
潮	-7590
醸	-7591
勤	-7592
旗	-7593
君	-7594
噴	-7595
届	-7596
灯	-7597
ó	-7598
丘	-7599
悔	-7600
狂	-7601
獄	-7602
網	-7603
劣	-7604
吹	-7605
悩	-7606
憎	-7607
祭	-7608
逸	-7609
還	-7610
酢	-7611
針	-7612
í	-7613
渇	-7614
唱	-7615
塔	-7616
封	-7617
昨	-7618
椅	-7619
樹	-7620
滴	-7621
濯	-7622
砕	-7623
句	-7624
噛	-7625
昔	-7626
綿	-7627
賊	-7628
駐	-7629
拍	-7630
揮	-7631
楕	-7632
歓	-7633
珍	-7634
績	-7635
錆	-7636
預	-7637
√	-7638
彫	-7639
敢	-7640
桁	-7641
歪	-7642
眼	-7643
酷	-7644
霧	-7645
須	-7646
á	-7647
偵	-7648
嵐	-7649
弧	-7650
戒	-7651
板	-7652
涯	-7653
田	-7654
稲	-7655
窒	-7656
粗	-7657
腎	-7658
閲	-7659
仰	-7660
挽	-7661
昧	-7662
曖	-7663
漁	-7664
炉	-7665
耗	-7666
▀	-7667
傑	-7668
嬉	-7669
殿	-7670
濡	-7671
蓋	-7672
誌	-7673
召	-7674
塞	-7675
妥	-7676
審	-7677
暦	-7678
牧	-7679
狭	-7680
磨	-7681
縁	-7682
胡	-7683
臨	-7684
虹	-7685
衡	-7686
貼	-7687
😊	-7688
券	-7689
曝	-7690
泥	-7691
至	-7692
遂	-7693
把	-7694
盲	-7695
襲	-7696
踊	-7697
鋳	-7698
叔	-7699
塊	-7700
奉	-7701
孔	-7702
柱	-7703
瓶	-7704
腫	-7705
伏	-7706
菓	-7707
擬	-7708
皆	-7709
誓	-7710
貸	-7711
鎧	-7712
騎	-7713
鹿	-7714
×	-7715
ε	-7716
哺	-7717
婦	-7718
恒	-7719
棒	-7720
碑	-7721
腺	-7722
駅	-7723
符	-7724
舗	-7725
谷	-7726
遵	-7727
郵	-7728
餌	-7729
鬼	-7730
麺	-7731
姓	-7732
幹	-7733
拝	-7734
芽	-7735
ü	-7736
α	-7737
冠	-7738
巧	-7739
恩	-7740
搾	-7741
棚	-7742
沢	-7743
猟	-7744
絆	-7745
茎	-7746
詫	-7747
遷	-7748
雷	-7749
撤	-7750
涼	-7751
湯	-7752
籍	-7753
翌	-7754
脊	-7755
荒	-7756
ö	-7757
啓	-7758
圏	-7759
暮	-7760
梱	-7761
漸	-7762
祉	-7763
肝	-7764
剪	-7765
弓	-7766
慰	-7767
畜	-7768
綴	-7769
腔	-7770
鎮	-7771
ô	-7772
ι	-7773
→	-7774
丁	-7775
剖	-7776
匿	-7777
卓	-7778
幕	-7779
掲	-7780
杖	-7781
滝	-7782
飢	-7783
鹸	-7784
鼓	-7785
仏	-7786
喚	-7787
墓	-7788
往	-7789
捉	-7790
旧	-7791
煮	-7792
猿	-7793
硫	-7794
紋	-7795
跳	-7796
ο	-7797
⁄	-7798
亀	-7799
冊	-7800
喉	-7801
播	-7802
蝶	-7803
訟	-7804
隅	-7805
è	-7806
▄	-7807
嘔	-7808
寧	-7809
崇	-7810
拘	-7811
擦	-7812
看	-7813
箇	-7814
胎	-7815
舎	-7816
赦	-7817
郷	-7818
ぽ	-7819
僕	-7820
剃	-7821
嘆	-7822
娯	-7823
汗	-7824
玄	-7825
腰	-7826
辱	-7827
錬	-7828
雅	-7829
韓	-7830
髄	-7831
ú	-7832
φ	-7833
宛	-7834
慈	-7835
斑	-7836
澱	-7837
甲	-7838
畑	-7839
紳	-7840
羅	-7841
該	-7842
±	-7843
⠀	-7844
享	-7845
剥	-7846
呂	-7847
忙	-7848
淡	-7849
躇	-7850
躊	-7851
躍	-7852
醤	-7853
τ	-7854
拌	-7855
搭	-7856
攪	-7857
痕	-7858
眺	-7859
縛	-7860
謙	-7861
貪	-7862
阻	-7863
陶	-7864
σ	-7865
吉	-7866
彩	-7867
涙	-7868
漑	-7869
漬	-7870
灌	-7871
盛	-7872
肖	-7873
逮	-7874
馴	-7875
妖	-7876
彗	-7877
惨	-7878
旋	-7879
枯	-7880
桃	-7881
洪	-7882
砲	-7883
雌	-7884
鬱	-7885
‐	-7886
募	-7887
厄	-7888
唾	-7889
填	-7890
媚	-7891
怠	-7892
机	-7893
泉	-7894
渋	-7895
痺	-7896
盆	-7897
艦	-7898
苗	-7899
譲	-7900
邸	-7901
θ	-7902
μ	-7903
傘	-7904
呈	-7905
嗅	-7906
噂	-7907
岐	-7908
浅	-7909
痢	-7910
藻	-7911
豪	-7912
銘	-7913
～	-7914
€	-7915
∫	-7916
ぴ	-7917
姉	-7918
扁	-7919
敷	-7920
松	-7921
眉	-7922
紅	-7923
膝	-7924
銭	-7925
️	-7926
ν	-7927
∀	-7928
拭	-7929
栓	-7930
泌	-7931
漂	-7932
瘍	-7933
而	-7934
脇	-7935
醒	-7936
ω	-7937
∈	-7938
叙	-7939
奥	-7940
惹	-7941
拳	-7942
枕	-7943
枢	-7944
椎	-7945
沃	-7946
硝	-7947
筒	-7948
茂	-7949
蚊	-7950
傍	-7951
吊	-7952
囚	-7953
憧	-7954
疎	-7955
粧	-7956
薦	-7957
轄	-7958
錐	-7959
隆	-7960
顎	-7961
÷	-7962
ρ	-7963
《	-7964
剛	-7965
咳	-7966
憂	-7967
揃	-7968
渦	-7969
賄	-7970
賑	-7971
遣	-7972
霜	-7973
–	-7974
些	-7975
六	-7976
兼	-7977
凸	-7978
勃	-7979
叢	-7980
峡	-7981
庁	-7982
廊	-7983
懲	-7984
捜	-7985
曇	-7986
朴	-7987
潤	-7988
緻	-7989
託	-7990
贅	-7991
郭	-7992
