<pad>	0
<unk>	0
<s>	0
</s>	0
<USER>	0
<ASSISTANT>	0
<SYSTEM>	0
ます	-0
する	-1
こと	-2
して	-3
です	-4
あり	-5
した	-6
でき	-7
され	-8
てい	-9
します	-10
er	-11
an	-12
ため	-13
st	-14
▁A	-15
ss	-16
ist	-17
▁U	-18
ser	-19
ant	-20
ssist	-21
ssistant	-22
▁User	-23
▁Assistant	-24
ある	-25
あります	-26
ことが	-27
なた	-28
あなた	-29
的な	-30
使用	-31
できます	-32
これ	-33
があります	-34
よう	-35
それ	-36
▁-	-37
ました	-38
スト	-39
してい	-40
イン	-41
さい	-42
ために	-43
ない	-44
より	-45
くだ	-46
ください	-47
って	-48
ことを	-49
ット	-50
また	-51
ています	-52
には	-53
ませ	-54
ター	-55
から	-56
可能	-57
ません	-58
この	-59
必要	-60
ック	-61
プロ	-62
場合	-63
ョン	-64
どの	-65
ング	-66
ール	-67
または	-68
ティ	-69
ション	-70
では	-71
ている	-72
ように	-73
を使用	-74
いて	-75
ート	-76
ード	-77
できる	-78
その	-79
ですか	-80
私は	-81
ーム	-82
しい	-83
ことができます	-84
である	-85
ント	-86
可能性	-87
▁1	-88
ース	-89
された	-90
につ	-91
らの	-92
方法	-93
すること	-94
重要	-95
であり	-96
によ	-97
他の	-98
つか	-99
くの	-100
られ	-101
いく	-102
あなたの	-103
コン	-104
として	-105
ステ	-106
ュー	-107
in	-108
するために	-109
しています	-110
作成	-111
なり	-112
なる	-113
ータ	-114
いくつか	-115
ける	-116
がある	-117
多くの	-118
これは	-119
▁2	-120
グラ	-121
リー	-122
提供	-123
について	-124
ンス	-125
およ	-126
的に	-127
データ	-128
および	-129
してください	-130
イル	-131
00	-132
on	-133
などの	-134
レー	-135
ライ	-136
を持	-137
すべ	-138
ップ	-139
える	-140
ーク	-141
される	-142
つの	-143
もの	-144
クト	-145
言語	-146
ンド	-147
など	-148
ための	-149
った	-150
している	-151
ジェ	-152
これらの	-153
▁*	-154
を使用して	-155
に関	-156
おり	-157
は何	-158
を提供	-159
あなたが	-160
▁3	-161
すべて	-162
スク	-163
によって	-164
を作成	-165
ーション	-166
いくつかの	-167
のに	-168
たち	-169
次の	-170
ファ	-171
最も	-172
サイ	-173
常に	-174
役立	-175
間の	-176
ステム	-177
システム	-178
フォ	-179
スタ	-180
ありません	-181
しました	-182
ディ	-183
ープ	-184
問題	-185
必要があります	-186
ージ	-187
それは	-188
説明	-189
可能性があります	-190
私たち	-191
さま	-192
を見	-193
れば	-194
ざま	-195
さまざま	-196
デル	-197
特定	-198
さまざまな	-199
世界	-200
プログラ	-201
います	-202
なく	-203
彼ら	-204
えて	-205
アル	-206
一般	-207
モデル	-208
▁1.	-209
ゲーム	-210
により	-211
っています	-212
ジェクト	-213
--	-214
セス	-215
時間	-216
情報	-217
▁4	-218
フィ	-219
は何ですか	-220
私の	-221
影響	-222
開発	-223
どう	-224
ーの	-225
理解	-226
されます	-227
まれ	-228
のある	-229
or	-230
することが	-231
すると	-232
すべての	-233
en	-234
そして	-235
プリ	-236
特定の	-237
選択	-238
▁2.	-239
っている	-240
ような	-241
いう	-242
機能	-243
人々	-244
場合は	-245
彼の	-246
▁3.	-247
かを	-248
キャ	-249
新しい	-250
ar	-251
さら	-252
サー	-253
重要です	-254
しか	-255
th	-256
への	-257
ンの	-258
コード	-259
非常に	-260
▁`	-261
彼は	-262
のに役立	-263
タイ	-264
あなたは	-265
チャ	-266
▁=	-267
実行	-268
バー	-269
ユー	-270
することを	-271
le	-272
させ	-273
たと	-274
重要な	-275
まで	-276
なります	-277
リア	-278
意味	-279
質問	-280
に対	-281
どのように	-282
ケーション	-283
ルの	-284
を与	-285
人の	-286
バイ	-287
ソース	-288
アク	-289
大き	-290
という	-291
▁5	-292
スの	-293
されています	-294
ウェ	-295
、「	-296
ネル	-297
プレ	-298
ただ	-299
する必要があります	-300
えば	-301
さらに	-302
しかし	-303
でした	-304
リスト	-305
at	-306
ーマ	-307
されている	-308
ことは	-309
があり	-310
することができます	-311
アプリ	-312
▁4.	-313
自分	-314
ちます	-315
それを	-316
ラン	-317
するための	-318
20	-319
決定	-320
ネット	-321
んで	-322
ワーク	-323
最初	-324
▁この	-325
含まれ	-326
確認	-327
に関する	-328
める	-329
じて	-330
れる	-331
ことに	-332
ズム	-333
彼女	-334
社会	-335
テキ	-336
学習	-337
ザー	-338
が必要	-339
re	-340
テキスト	-341
ことができる	-342
研究	-343
ニング	-344
ここ	-345
AI	-346
スペ	-347
19	-348
を見つ	-349
前に	-350
のために	-351
ーン	-352
追加	-353
になる	-354
アイ	-355
ブラ	-356
基づ	-357
▁「	-358
たとえば	-359
改善	-360
コンピ	-361
を含	-362
テク	-363
に基づ	-364
ミング	-365
もし	-366
彼らは	-367
al	-368
ミュ	-369
結果	-370
なら	-371
10	-372
一部	-373
ーズ	-374
プラ	-375
コンピュー	-376
異なる	-377
it	-378
えます	-379
生成	-380
での	-381
プロセス	-382
アプリケーション	-383
することは	-384
良い	-385
よりも	-386
関数	-387
ファイル	-388
れた	-389
ポート	-390
するには	-391
それら	-392
簡単	-393
なが	-394
ーを	-395
▁5.	-396
による	-397
いた	-398
複雑	-399
起こ	-400
オブ	-401
エネル	-402
エネルギ	-403
ょう	-404
スキ	-405
ンプ	-406
ッド	-407
ライン	-408
が含まれ	-409
ンジ	-410
もしれ	-411
注意	-412
しょう	-413
▁P	-414
かに	-415
▁私は	-416
を書	-417
場所	-418
引き	-419
eb	-420
考え	-421
は次の	-422
名前	-423
ただし	-424
▁C	-425
取り	-426
プログラミング	-427
するのに役立	-428
シャ	-429
かもしれ	-430
まり	-431
したり	-432
技術	-433
理論	-434
とおり	-435
オン	-436
ユーザー	-437
ro	-438
ーは	-439
大きな	-440
ルを	-441
存在	-442
する方法	-443
とおりです	-444
通常	-445
リズム	-446
オブジェクト	-447
el	-448
歴史	-449
テン	-450
フェ	-451
経験	-452
効果	-453
ければ	-454
ックス	-455
科学	-456
..	-457
性を	-458
ツール	-459
可能な	-460
受け	-461
現在	-462
タスク	-463
オープ	-464
ac	-465
依存	-466
yth	-467
小さ	-468
クラ	-469
▁S	-470
ティング	-471
コンピューター	-472
能力	-473
ので	-474
▁+	-475
プロジェクト	-476
にお	-477
ジャ	-478
なければ	-479
関係	-480
ython	-481
▁``	-482
だけ	-483
ネットワーク	-484
と思	-485
リン	-486
ラク	-487
は次のとおりです	-488
環境	-489
適切	-490
えた	-491
解決	-492
てください	-493
教えて	-494
フト	-495
個人	-496
オープン	-497
数の	-498
トレー	-499
にも	-500
ーチ	-501
経済	-502
ループ	-503
することが重要です	-504
とき	-505
ロー	-506
ないで	-507
最初の	-508
健康	-509
を含む	-510
人間の	-511
一般的な	-512
組み	-513
を通	-514
コミュ	-515
コミュニ	-516
にと	-517
勧め	-518
とも	-519
▁6	-520
同じ	-521
トレーニング	-522
地球	-523
それが	-524
ではありません	-525
私が	-526
者の	-527
たい	-528
違い	-529
がって	-530
ウェア	-531
プレイ	-532
ですが	-533
計算	-534
したい	-535
行動	-536
するの	-537
ri	-538
プログラム	-539
お勧め	-540
基本	-541
維持	-542
セット	-543
レベ	-544
メント	-545
合わ	-546
ってい	-547
構造	-548
**	-549
を持つ	-550
国の	-551
Web	-552
知られ	-553
影響を与	-554
に対する	-555
am	-556
最適	-557
したがって	-558
完全	-559
キュ	-560
スを	-561
にとって	-562
ないでください	-563
もち	-564
▁M	-565
ロジ	-566
ります	-567
変更	-568
構成	-569
専門	-570
自然	-571
、1	-572
分析	-573
サービ	-574
後に	-575
合わせ	-576
ランス	-577
しく	-578
----	-579
文化	-580
目的	-581
ダー	-582
デオ	-583
かもしれません	-584
画像	-585
リング	-586
でも	-587
に応	-588
お勧めします	-589
させる	-590
タイプ	-591
私たちの	-592
lo	-593
ており	-594
いる	-595
ラー	-596
点を	-597
物の	-598
宇宙	-599
プション	-600
なぜ	-601
始め	-602
安全	-603
との	-604
映画	-605
アルゴ	-606
アルゴリズム	-607
シュ	-608
チェ	-609
別の	-610
できますか	-611
要因	-612
、2	-613
できません	-614
アイデ	-615
を探	-616
要素	-617
人生	-618
彼らの	-619
人気	-620
アクセス	-621
に従	-622
興味	-623
上の	-624
全体	-625
ic	-626
ブル	-627
コー	-628
ビデオ	-629
サイト	-630
処理	-631
必要な	-632
高い	-633
を見つける	-634
▁**	-635
ンを	-636
性の	-637
人間	-638
を助	-639
人工	-640
ろん	-641
その他の	-642
もちろん	-643
しば	-644
きます	-645
アの	-646
ベース	-647
仕事	-648
管理	-649
状況	-650
目標	-651
考慮	-652
に応じて	-653
et	-654
ッチ	-655
設計	-656
オプション	-657
クリ	-658
太陽	-659
材料	-660
を引き	-661
分野	-662
効率	-663
pt	-664
av	-665
答え	-666
ニュー	-667
やす	-668
自身	-669
ou	-670
小さな	-671
インター	-672
学ぶ	-673
付け	-674
製品	-675
年に	-676
れて	-677
計画	-678
かどう	-679
に依存	-680
を実行	-681
自動	-682
場合があります	-683
感情	-684
リティ	-685
を説明	-686
正確	-687
準備	-688
これにより	-689
▁"	-690
リカ	-691
に関連	-692
を選択	-693
よく	-694
de	-695
パー	-696
サポート	-697
かか	-698
はい	-699
ソフト	-700
フォーム	-701
を作	-702
政治	-703
の中	-704
教えてください	-705
フォーマ	-706
フレ	-707
構築	-708
にち	-709
oo	-710
エネルギー	-711
ンは	-712
ショ	-713
呼ば	-714
トリ	-715
わり	-716
両方	-717
を開	-718
as	-719
ユニ	-720
知識	-721
私に	-722
ようと	-723
グループ	-724
入力	-725
概念	-726
を持っている	-727
こん	-728
とは	-729
学の	-730
ここに	-731
スタイル	-732
であることを	-733
使用される	-734
詳細	-735
こんにち	-736
定義	-737
こんにちは	-738
利用	-739
スペイン	-740
生活	-741
テクノ	-742
ch	-743
自分の	-744
音楽	-745
になります	-746
変化	-747
最大	-748
保護	-749
テクノロジ	-750
アシ	-751
ことです	-752
オー	-753
主義	-754
▁7	-755
ーキ	-756
子供	-757
要約	-758
部分	-759
的で	-760
制御	-761
りの	-762
▁これらの	-763
ソフトウェア	-764
ポー	-765
に基づいて	-766
一緒	-767
感じ	-768
可能性がある	-769
できるように	-770
に入	-771
複雑な	-772
▁6.	-773
オンライン	-774
比較	-775
実際	-776
はありません	-777
べき	-778
らす	-779
十分	-780
私たちは	-781
これら	-782
ではなく	-783
食べ	-784
一緒に	-785
されました	-786
価値	-787
スタント	-788
▁[	-789
▁もちろん	-790
深い	-791
達成	-792
状態	-793
知能	-794
設定	-795
スケ	-796
サイズ	-797
困難	-798
あなたに	-799
物を	-800
ラクター	-801
ジュ	-802
会社	-803
を維持	-804
一部の	-805
do	-806
を受け	-807
を改善	-808
するのに役立ちます	-809
行う	-810
000	-811
につなが	-812
▁G	-813
▁L	-814
速度	-815
認識	-816
的および	-817
アシスタント	-818
ーター	-819
必要がある	-820
理由	-821
種類	-822
地域	-823
すれば	-824
イント	-825
人工知能	-826
インスト	-827
ra	-828
▁c	-829
楽し	-830
次に	-831
▁D	-832
ッセ	-833
キャラクター	-834
シー	-835
手順	-836
アイデア	-837
られた	-838
レス	-839
制限	-840
移動	-841
を表	-842
当て	-843
を提供します	-844
生産	-845
でしょう	-846
における	-847
Python	-848
提案	-849
しない	-850
リソース	-851
▁こんにちは	-852
ロック	-853
適切な	-854
▁|	-855
んだ	-856
調整	-857
を理解	-858
最終	-859
明確	-860
ることができます	-861
評価	-862
)、	-863
メン	-864
テスト	-865
とん	-866
中に	-867
ub	-868
ほとん	-869
についての	-870
者は	-871
と呼ば	-872
からの	-873
と思います	-874
そう	-875
されてい	-876
パフォーマ	-877
特に	-878
を生成	-879
ルト	-880
目の	-881
取得	-882
物理	-883
デバイ	-884
以下	-885
発生	-886
ありますか	-887
レン	-888
で最も	-889
を助ける	-890
ステップ	-891
都市	-892
un	-893
学的	-894
ion	-895
が含まれます	-896
インストール	-897
パフォーマンス	-898
基本的な	-899
マイ	-900
エンジ	-901
現在の	-902
文字	-903
れます	-904
人が	-905
▁T	-906
ポイント	-907
ニア	-908
マー	-909
ava	-910
強力	-911
性と	-912
問題を	-913
▁R	-914
になり	-915
id	-916
データを	-917
▁B	-918
旅行	-919
サービス	-920
発見	-921
ではない	-922
示します	-923
アド	-924
今日	-925
ティブ	-926
のように	-927
コマ	-928
にある	-929
けます	-930
の使用	-931
om	-932
セン	-933
成長	-934
を備	-935
um	-936
接続	-937
)。	-938
向上	-939
に適	-940
アメ	-941
どうすれば	-942
ピック	-943
であると	-944
まだ	-945
カー	-946
es	-947
Java	-948
のための	-949
を作成します	-950
コミュニティ	-951
▁#	-952
プラット	-953
最高	-954
リスク	-955
がと	-956
っと	-957
物語	-958
関連	-959
いですか	-960
ニーズ	-961
タル	-962
を追加	-963
生き	-964
キー	-965
条件	-966
焦点を	-967
アメリカ	-968
コマンド	-969
することも	-970
影響を与える	-971
▁8	-972
参加	-973
使用されます	-974
を持っています	-975
のは	-976
が必要です	-977
言語モデル	-978
自由	-979
12	-980
デザ	-981
できない	-982
プラットフォーム	-983
タン	-984
活動	-985
ing	-986
▁/	-987
彼が	-988
チーム	-989
is	-990
を引き起こ	-991
ux	-992
クロ	-993
テンツ	-994
コンテンツ	-995
好き	-996
情報を	-997
電子	-998
ことを確認	-999
レイ	-1000
年の	-1001
アップ	-1002
スキル	-1003
惑星	-1004
ぞれ	-1005
エン	-1006
品質	-1007
それぞれ	-1008
クション	-1009
願っています	-1010
ガイ	-1011
専門家	-1012
プト	-1013
方法で	-1014
規模	-1015
組み合わせ	-1016
価格	-1017
プログラミング言語	-1018
0.	-1019
彼らが	-1020
温度	-1021
機械	-1022
なりません	-1023
量の	-1024
見な	-1025
議論	-1026
しますか	-1027
しようと	-1028
▁•	-1029
ほど	-1030
代の	-1031
がとう	-1032
のような	-1033
ありがとう	-1034
トピック	-1035
人気のある	-1036
これらは	-1037
▁f	-1038
ビジ	-1039
ボット	-1040
らか	-1041
パイ	-1042
言葉	-1043
の例	-1044
スター	-1045
主な	-1046
ヤー	-1047
測定	-1048
より多くの	-1049
り返	-1050
パラ	-1051
▁そして	-1052
を確	-1053
アン	-1054
ソー	-1055
ッシュ	-1056
戦略	-1057
▁m	-1058
▁7.	-1059
il	-1060
形成	-1061
増加	-1062
成功	-1063
...	-1064
の一部	-1065
ことに注意	-1066
することです	-1067
促進	-1068
共有	-1069
利点	-1070
するように	-1071
なければなりません	-1072
もた	-1073
作品	-1074
inux	-1075
家族	-1076
パン	-1077
操作	-1078
▁F	-1079
を知	-1080
かった	-1081
物質	-1082
貢献	-1083
セキュ	-1084
ed	-1085
けて	-1086
間に	-1087
を備えた	-1088
市場	-1089
彼女は	-1090
つまり	-1091
をより	-1092
セキュリティ	-1093
im	-1094
を実	-1095
int	-1096
きました	-1097
ウン	-1098
完全に	-1099
意味します	-1100
シン	-1101
中の	-1102
機会	-1103
運動	-1104
スピ	-1105
ダイ	-1106
人は	-1107
特徴	-1108
強力な	-1109
することで	-1110
の数	-1111
たり	-1112
者が	-1113
ロン	-1114
力を	-1115
購入	-1116
30	-1117
英語	-1118
現実	-1119
パター	-1120
▁{	-1121
一方	-1122
好み	-1123
練習	-1124
これが	-1125
トル	-1126
レベル	-1127
ことを願っています	-1128
he	-1129
バック	-1130
個人的な	-1131
▁p	-1132
責任	-1133
教育	-1134
▁これは	-1135
自分自身	-1136
):	-1137
簡単に	-1138
スは	-1139
役割	-1140
本当	-1141
かどうかを	-1142
を指	-1143
彼女の	-1144
メモ	-1145
企業	-1146
に焦点を	-1147
どのような	-1148
いてください	-1149
信頼	-1150
直接	-1151
の場合	-1152
元の	-1153
表現	-1154
調理	-1155
と見な	-1156
データの	-1157
ol	-1158
予測	-1159
するのに	-1160
オープンソース	-1161
尋ね	-1162
調査	-1163
を通じて	-1164
ad	-1165
するか	-1166
us	-1167
簡単な	-1168
どこ	-1169
がない	-1170
のですか	-1171
する可能性があります	-1172
▁I	-1173
独自	-1174
それらを	-1175
▁あなたの	-1176
▁ア	-1177
のみ	-1178
ーロ	-1179
動き	-1180
消費	-1181
する必要がある	-1182
もう	-1183
保存	-1184
同様	-1185
番目の	-1186
創造	-1187
危険	-1188
学び	-1189
可能性のある	-1190
動物	-1191
られています	-1192
18	-1193
大な	-1194
将来	-1195
満た	-1196
ラル	-1197
ag	-1198
攻撃	-1199
cri	-1200
相互	-1201
独自の	-1202
▁私の	-1203
時間を	-1204
最高の	-1205
ut	-1206
ビュー	-1207
ft	-1208
レート	-1209
ロード	-1210
投資	-1211
政府	-1212
エンス	-1213
メディ	-1214
必要と	-1215
▁```	-1216
らず	-1217
バル	-1218
に依存します	-1219
内の	-1220
戦争	-1221
紹介	-1222
ときに	-1223
ンプル	-1224
繰り返	-1225
距離	-1226
最後に	-1227
どれ	-1228
メッセ	-1229
レーション	-1230
検討	-1231
デザイン	-1232
▁あなたが	-1233
システムの	-1234
大規模	-1235
私たちが	-1236
cript	-1237
されており	-1238
テクノロジー	-1239
位置	-1240
組織	-1241
を減	-1242
を示	-1243
後の	-1244
色の	-1245
▁W	-1246
信じ	-1247
を達成	-1248
方法は	-1249
▁しかし	-1250
ユニーク	-1251
であるため	-1252
単語	-1253
プライ	-1254
食事	-1255
わりに	-1256
カード	-1257
変換	-1258
ても	-1259
体の	-1260
少し	-1261
支援	-1262
電話	-1263
▁はい	-1264
を加	-1265
量子	-1266
アプロ	-1267
バージ	-1268
のリスト	-1269
15	-1270
マル	-1271
世紀	-1272
ブロック	-1273
ことが重要です	-1274
シア	-1275
作用	-1276
度の	-1277
スクリ	-1278
何か	-1279
それらの	-1280
よいですか	-1281
を使	-1282
定期	-1283
世界の	-1284
を提供する	-1285
ct	-1286
メッセージ	-1287
忘れ	-1288
推奨	-1289
をもた	-1290
。」	-1291
を手	-1292
検索	-1293
ent	-1294
ニック	-1295
正しい	-1296
しており	-1297
カル	-1298
ボード	-1299
▁N	-1300
いに	-1301
哲学	-1302
電気	-1303
要約すると	-1304
潜在	-1305
反応	-1306
安定	-1307
有名	-1308
に行	-1309
ウィ	-1310
に関連する	-1311
いています	-1312
と呼ばれる	-1313
を教えてください	-1314
タイプの	-1315
アプローチ	-1316
障害	-1317
ゲームの	-1318
前の	-1319
複数の	-1320
どうすればよいですか	-1321
ニュ	-1322
高度	-1323
を取得	-1324
一般に	-1325
十分な	-1326
とは何ですか	-1327
コミュニケーション	-1328
アー	-1329
ジョ	-1330
ことができ	-1331
生物	-1332
を行う	-1333
社会的	-1334
るために	-1335
何を	-1336
時に	-1337
かつ	-1338
イベ	-1339
人に	-1340
ンチ	-1341
ページ	-1342
最適な	-1343
作業	-1344
平均	-1345
ライブラ	-1346
すぐ	-1347
られる	-1348
バージョン	-1349
ッパ	-1350
▁x	-1351
えますか	-1352
デバイス	-1353
ってください	-1354
統合	-1355
ポーネ	-1356
メート	-1357
一般的に	-1358
かな	-1359
人々は	-1360
大規模な	-1361
^2	-1362
ot	-1363
事実	-1364
を得	-1365
側面	-1366
を考慮	-1367
ライブラリ	-1368
に焦点を当て	-1369
感覚	-1370
課題	-1371
ロール	-1372
んでいる	-1373
os	-1374
▁あなたは	-1375
11	-1376
助け	-1377
イス	-1378
シャル	-1379
につながる	-1380
▁b	-1381
。「	-1382
ールド	-1383
数学	-1384
更新	-1385
ものです	-1386
()	-1387
▁9	-1388
▁E	-1389
と言	-1390
テー	-1391
を取り	-1392
コンポーネ	-1393
のに役立ちます	-1394
コンポーネント	-1395
さん	-1396
▁それは	-1397
イベント	-1398
ジュール	-1399
保証	-1400
晴ら	-1401
サーバー	-1402
することにより	-1403
空気	-1404
を開始	-1405
かり	-1406
ギリ	-1407
▁要約すると	-1408
--------	-1409
範囲	-1410
続け	-1411
、3	-1412
フランス	-1413
エク	-1414
法の	-1415
細胞	-1416
これには	-1417
米国	-1418
ルール	-1419
なければなら	-1420
するのに役立つ	-1421
すことができます	-1422
すべき	-1423
に置	-1424
オペ	-1425
訓練	-1426
pen	-1427
は非常に	-1428
la	-1429
▁s	-1430
を求	-1431
サン	-1432
長い	-1433
ヒント	-1434
いました	-1435
ましょう	-1436
▁n	-1437
バランス	-1438
することもできます	-1439
労働	-1440
ことで	-1441
人々の	-1442
はありますか	-1443
知られています	-1444
トラ	-1445
自己	-1446
と考え	-1447
ナー	-1448
コスト	-1449
なし	-1450
ビジネ	-1451
がどのように	-1452
を避	-1453
形式	-1454
要な	-1455
時間の	-1456
しばしば	-1457
ることを	-1458
することをお勧めします	-1459
イツ	-1460
倫理	-1461
を使用する	-1462
▁(	-1463
領域	-1464
を学ぶ	-1465
を構築	-1466
そこ	-1467
もら	-1468
参照	-1469
種類の	-1470
▁}	-1471
意識	-1472
を促進	-1473
少なく	-1474
グラフィ	-1475
代わりに	-1476
いつ	-1477
治療	-1478
ウェブ	-1479
を使用します	-1480
方向	-1481
気候	-1482
を決定	-1483
素晴ら	-1484
と一緒に	-1485
Script	-1486
ハイ	-1487
精神	-1488
em	-1489
たく	-1490
セル	-1491
一の	-1492
証拠	-1493
インターネット	-1494
ig	-1495
に分	-1496
魅力	-1497
100	-1498
にアクセス	-1499
に加	-1500
、19	-1501
もっと	-1502
最初に	-1503
ていました	-1504
50	-1505
バッ	-1506
ベル	-1507
ムの	-1508
伝統	-1509
変数	-1510
ヨーロ	-1511
ex	-1512
を書く	-1513
あなたを	-1514
ヨーロッパ	-1515
▁0	-1516
とその	-1517
の問題	-1518
最適化	-1519
スクリプト	-1520
のか	-1521
ドイツ	-1522
すぎ	-1523
原因	-1524
広い	-1525
用語	-1526
ほとんどの	-1527
に到	-1528
力の	-1529
リーズ	-1530
スキルを	-1531
方程	-1532
カップ	-1533
方程式	-1534
パス	-1535
視覚	-1536
コーヒ	-1537
最終的に	-1538
んな	-1539
写真	-1540
学生	-1541
人々が	-1542
ことも	-1543
pp	-1544
らく	-1545
読み	-1546
送信	-1547
進化	-1548
コース	-1549
役立つ	-1550
素晴らしい	-1551
ナル	-1552
上げ	-1553
植物	-1554
特別	-1555
直面	-1556
を計算	-1557
する前に	-1558
を引き起こす	-1559
動作	-1560
優れた	-1561
混合	-1562
適用	-1563
主張	-1564
原則	-1565
だけで	-1566
フレー	-1567
正確な	-1568
PI	-1569
▁g	-1570
芸術	-1571
を開発	-1572
を必要と	-1573
シンプル	-1574
に影響を与える	-1575
会話	-1576
で使用	-1577
を見つけ	-1578
フラ	-1579
料理	-1580
ストー	-1581
ht	-1582
始める	-1583
らせ	-1584
無料	-1585
確かに	-1586
ことができますか	-1587
ML	-1588
▁a	-1589
シピ	-1590
オペレー	-1591
を防	-1592
ソリ	-1593
本の	-1594
、20	-1595
,000	-1596
▁'	-1597
シェ	-1598
主に	-1599
想像	-1600
連の	-1601
りたい	-1602
リアル	-1603
レベルの	-1604
▁H	-1605
レシピ	-1606
人生の	-1607
シリーズ	-1608
▁8.	-1609
フレーム	-1610
を持ってい	-1611
ソーシャル	-1612
主要な	-1613
ッケ	-1614
に参加	-1615
そのような	-1616
しないでください	-1617
なければならない	-1618
忘れないでください	-1619
いの	-1620
ブリ	-1621
マネ	-1622
修正	-1623
ダウン	-1624
オープンアシスタント	-1625
ck	-1626
ul	-1627
表示	-1628
によると	-1629
を強	-1630
スペース	-1631
GP	-1632
▁エ	-1633
利益	-1634
日の	-1635
集中	-1636
くて	-1637
協力	-1638
不可	-1639
飛行	-1640
で構成	-1641
ットの	-1642
ドライ	-1643
に対して	-1644
がある場合は	-1645
JavaScript	-1646
ながら	-1647
一連の	-1648
もらえますか	-1649
独立	-1650
のいくつか	-1651
睡眠	-1652
野菜	-1653
間で	-1654
れています	-1655
ウォ	-1656
ur	-1657
アニ	-1658
すぐに	-1659
の両方	-1660
するとき	-1661
ラス	-1662
出す	-1663
と比較	-1664
を与える	-1665
用の	-1666
いている	-1667
潜在的な	-1668
することはできません	-1669
ゆる	-1670
何が	-1671
法律	-1672
翻訳	-1673
のない	-1674
ボール	-1675
ワード	-1676
追加の	-1677
れている	-1678
Linux	-1679
お金	-1680
宗教	-1681
家の	-1682
Open	-1683
メーター	-1684
収集	-1685
実装	-1686
監視	-1687
してみ	-1688
が必要な	-1689
クエ	-1690
ワー	-1691
低い	-1692
出し	-1693
医療	-1694
(19	-1695
200	-1696
政治的	-1697
モデルの	-1698
スマ	-1699
質問に	-1700
を下	-1701
友人	-1702
つは	-1703
子の	-1704
拡張	-1705
わらず	-1706
コント	-1707
メモリ	-1708
メール	-1709
なかった	-1710
異なります	-1711
ューション	-1712
モン	-1713
販売	-1714
ロボット	-1715
興味深い	-1716
16	-1717
その後	-1718
リンク	-1719
しません	-1720
▁これらは	-1721
かかわらず	-1722
ws	-1723
デジ	-1724
混ぜ	-1725
特性	-1726
白い	-1727
アドバイ	-1728
ソリューション	-1729
リオ	-1730
落ち	-1731
表面	-1732
解釈	-1733
他の人	-1734
▁V	-1735
▁\	-1736
顧客	-1737
それらは	-1738
役立ちます	-1739
ると	-1740
道徳	-1741
ともに	-1742
ウンド	-1743
本当に	-1744
ベースの	-1745
していない	-1746
をと	-1747
パク	-1748
要件	-1749
進歩	-1750
を確認	-1751
タイム	-1752
有名な	-1753
SS	-1754
々の	-1755
結論	-1756
ファン	-1757
ストーリー	-1758
ユニークな	-1759
おそ	-1760
ドラ	-1761
話す	-1762
高く	-1763
の中で	-1764
パク質	-1765
実際の	-1766
難しい	-1767
機械学習	-1768
タンパク質	-1769
継続	-1770
高度な	-1771
おそらく	-1772
化学	-1773
多様	-1774
日に	-1775
生み	-1776
たくさん	-1777
とともに	-1778
ine	-1779
パッケ	-1780
デジタル	-1781
パッケージ	-1782
相談	-1783
相互作用	-1784
化された	-1785
マト	-1786
最新	-1787
いくつかあります	-1788
nd	-1789
であ	-1790
の結果	-1791
オイル	-1792
地球の	-1793
込み	-1794
遺伝	-1795
食品	-1796
インタ	-1797
に従って	-1798
ハード	-1799
事項	-1800
分間	-1801
応答	-1802
所有	-1803
観察	-1804
の作成	-1805
プレー	-1806
考える	-1807
▁d	-1808
▁カ	-1809
わた	-1810
広く	-1811
になる可能性があります	-1812
:「	-1813
se	-1814
テナ	-1815
者に	-1816
▁20	-1817
ケーキ	-1818
23	-1819
if	-1820
支払	-1821
チーズ	-1822
する能力	-1823
するために使用	-1824
ることができる	-1825
テレ	-1826
ドル	-1827
ッション	-1828
ニューラル	-1829
あなたを助ける	-1830
オペレーティング	-1831
出力	-1832
不可欠	-1833
的には	-1834
必要に応じて	-1835
ッツ	-1836
の開発	-1837
を確立	-1838
最も重要な	-1839
▁マ	-1840
意見	-1841
らゆる	-1842
を通して	-1843
を書いてください	-1844
ティー	-1845
言語の	-1846
選択肢	-1847
を減らす	-1848
アクション	-1849
ルー	-1850
oog	-1851
大きく	-1852
ウェブサイト	-1853
最小	-1854
キャン	-1855
ドキュ	-1856
暗号	-1857
と同じ	-1858
クラス	-1859
▁v	-1860
あらゆる	-1861
▁t	-1862
私を	-1863
長期	-1864
インターフェ	-1865
でに	-1866
獲得	-1867
発展	-1868
ことを示	-1869
支配	-1870
数字	-1871
段階	-1872
行わ	-1873
を手伝	-1874
栄養	-1875
and	-1876
可能に	-1877
点から	-1878
コードを	-1879
メディア	-1880
単純	-1881
心理	-1882
美しい	-1883
ここでは	-1884
ーラ	-1885
切り	-1886
機関	-1887
▁なぜ	-1888
経済的	-1889
ue	-1890
回答	-1891
果た	-1892
られます	-1893
メカ	-1894
ターの	-1895
からです	-1896
にもかかわらず	-1897
ab	-1898
に移動	-1899
クライ	-1900
メイン	-1901
完全な	-1902
ほとんど	-1903
ニューラルネットワーク	-1904
入れ	-1905
快適	-1906
思い	-1907
oogle	-1908
ことを意味します	-1909
ce	-1910
ずに	-1911
イト	-1912
分類	-1913
実験	-1914
限り	-1915
アニメ	-1916
されていない	-1917
);	-1918
14	-1919
いい	-1920
は通常	-1921
エンド	-1922
しますが	-1923
問題を解決	-1924
少なくとも	-1925
17	-1926
▁K	-1927
仮想	-1928
権利	-1929
短所	-1930
に到達	-1931
より良い	-1932
ドキュメント	-1933
▁Python	-1934
さと	-1935
中国	-1936
すでに	-1937
の影響	-1938
▁したがって	-1939
冒険	-1940
原子	-1941
を作成する	-1942
▁k	-1943
くら	-1944
▁10	-1945
最大の	-1946
▁さらに	-1947
に関して	-1948
機器	-1949
するにはどうすればよいですか	-1950
nt	-1951
▁_	-1952
人口	-1953
最良	-1954
規制	-1955
」、「	-1956
以上の	-1957
した場合	-1958
めて	-1959
エル	-1960
チョ	-1961
することに	-1962
ir	-1963
時代	-1964
ものを	-1965
フィル	-1966
エラ	-1967
未来	-1968
を作る	-1969
テーマ	-1970
時間が	-1971
indo	-1972
pe	-1973
スコ	-1974
部屋	-1975
クリック	-1976
メートル	-1977
の形	-1978
しやす	-1979
どち	-1980
チュ	-1981
性が	-1982
証明	-1983
サイク	-1984
ニズム	-1985
特別な	-1986
フレーズ	-1987
ウル	-1988
上に	-1989
▁19	-1990
に使用	-1991
最後の	-1992
んでいます	-1993
ファイルを	-1994
向上させる	-1995
私はあなたが	-1996
言及	-1997
身体	-1998
ort	-1999
られている	-2000
データベース	-2001
可能性があり	-2002
具体	-2003
点で	-2004
答える	-2005
につれて	-2006
もあります	-2007
Ch	-2008
ポリ	-2009
に直面	-2010
を楽し	-2011
を防ぐ	-2012
幅広い	-2013
質問を	-2014
するかを	-2015
ましたが	-2016
有効	-2017
検出	-2018
深く	-2019
筋肉	-2020
どんな	-2021
かどうか	-2022
コンテキスト	-2023
キシ	-2024
ヘル	-2025
一貫	-2026
判断	-2027
挑戦	-2028
標準	-2029
トマト	-2030
ランダ	-2031
を提供し	-2032
グラフィック	-2033
ずれ	-2034
国際	-2035
小説	-2036
短い	-2037
あまり	-2038
の違い	-2039
テリー	-2040
正しく	-2041
しいです	-2042
するため	-2043
▁o	-2044
統計	-2045
やその他の	-2046
の下	-2047
マン	-2048
大気	-2049
市民	-2050
を生み	-2051
ザーの	-2052
ジョン	-2053
indows	-2054
に住	-2055
いずれ	-2056
役割を	-2057
1.	-2058
ウト	-2059
代替	-2060
ame	-2061
ここで	-2062
するのが	-2063
強い	-2064
神経	-2065
▁AI	-2066
ケット	-2067
最良の	-2068
から始め	-2069
パターン	-2070
80	-2071
交換	-2072
大学	-2073
拡大	-2074
を満た	-2075
を作成し	-2076
信念	-2077
迅速	-2078
科学的	-2079
サイエンス	-2080
人類	-2081
他に	-2082
反対	-2083
感謝	-2084
月の	-2085
介して	-2086
を使って	-2087
テーブル	-2088
効果的な	-2089
影響を与え	-2090
データセット	-2091
パラメーター	-2092
サブ	-2093
年齢	-2094
めます	-2095
るかに	-2096
ビジネス	-2097
に基づいた	-2098
完了	-2099
に対処	-2100
を変更	-2101
定期的に	-2102
観点から	-2103
iv	-2104
指示	-2105
記憶	-2106
誰も	-2107
▁9.	-2108
レット	-2109
ートの	-2110
同時に	-2111
チャット	-2112
については	-2113
オペレーティングシステム	-2114
に戻	-2115
に従う	-2116
ライト	-2117
チェック	-2118
をもたらす	-2119
建設	-2120
ランド	-2121
続ける	-2122
見える	-2123
が含まれています	-2124
op	-2125
き換	-2126
保持	-2127
留意	-2128
空の	-2129
立て	-2130
レクト	-2131
生まれ	-2132
に大きな	-2133
まず	-2134
キロ	-2135
刺激	-2136
変動	-2137
性質	-2138
You	-2139
を定義	-2140
両方の	-2141
物理学	-2142
において	-2143
りました	-2144
バッテリー	-2145
可能性があるため	-2146
削減	-2147
学校	-2148
期間	-2149
速く	-2150
的です	-2151
ユーザーが	-2152
検証	-2153
いです	-2154
25	-2155
真実	-2156
編集	-2157
なった	-2158
カスタ	-2159
としての	-2160
をインストール	-2161
プロジェクトの	-2162
を受	-2163
を高	-2164
コミ	-2165
ピー	-2166
仮定	-2167
傾向	-2168
持続	-2169
生地	-2170
適切に	-2171
かもしれない	-2172
になりました	-2173
ことを確認してください	-2174
現象	-2175
申し	-2176
の歴史	-2177
わかり	-2178
ガイド	-2179
以前の	-2180
個々の	-2181
モデルは	-2182
だけでなく	-2183
を使用すると	-2184
につながる可能性があります	-2185
60	-2186
so	-2187
を超	-2188
対話	-2189
性は	-2190
の名前	-2191
ンプト	-2192
宇宙の	-2193
柔らか	-2194
利用可能な	-2195
がありますが	-2196
フロ	-2197
予算	-2198
画面	-2199
過去	-2200
コール	-2201
スチャ	-2202
わたって	-2203
決定を下	-2204
ませんでした	-2205
することができ	-2206
ハン	-2207
合計	-2208
競争	-2209
連絡	-2210
とても	-2211
ロシア	-2212
プレイヤー	-2213
▁>	-2214
グリ	-2215
ルは	-2216
印刷	-2217
許可	-2218
ジャン	-2219
エンジン	-2220
プロンプト	-2221
批判	-2222
数値	-2223
重力	-2224
革命	-2225
を避ける	-2226
ソン	-2227
削除	-2228
ube	-2229
分野で	-2230
チェーン	-2231
22	-2232
さえ	-2233
ガー	-2234
分布	-2235
減少	-2236
破壊	-2237
配置	-2238
少ない	-2239
▁確かに	-2240
させます	-2241
古典	-2242
大統	-2243
病気	-2244
目に	-2245
目を	-2246
TML	-2247
ang	-2248
▁++	-2249
▁O	-2250
メラ	-2251
思考	-2252
粒子	-2253
に変換	-2254
ウント	-2255
大統領	-2256
QL	-2257
ai	-2258
一人	-2259
光の	-2260
向け	-2261
基礎	-2262
を持ち	-2263
最新の	-2264
通常の	-2265
ないように	-2266
ph	-2267
平等	-2268
明る	-2269
適応	-2270
シミュ	-2271
ヤーは	-2272
明確に	-2273
エイ	-2274
喜び	-2275
政策	-2276
痛み	-2277
▁//	-2278
を調整	-2279
チュー	-2280
をどのように	-2281
多く	-2282
:**	-2283
パート	-2284
▁ただし	-2285
はるかに	-2286
りに	-2287
を読	-2288
ことを知	-2289
ユーザーの	-2290
オブジェクトの	-2291
、4	-2292
ッジ	-2293
初期	-2294
推定	-2295
▁また	-2296
が発生	-2297
品質の	-2298
魔法の	-2299
ゲームを	-2300
繰り返し	-2301
ポジ	-2302
抵抗	-2303
したら	-2304
に貢献	-2305
キング	-2306
同様の	-2307
ギリシャ	-2308
コードの	-2309
を提	-2310
呼び	-2311
テレビ	-2312
付ける	-2313
テクニック	-2314
2.	-2315
age	-2316
を見る	-2317
レスト	-2318
時間と	-2319
理論は	-2320
出します	-2321
方法です	-2322
と比較して	-2323
古い	-2324
新鮮	-2325
を制御	-2326
プロト	-2327
地元の	-2328
ティティ	-2329
上で	-2330
書か	-2331
訪問	-2332
がより	-2333
レンジ	-2334
YouT	-2335
コーヒー	-2336
がありますか	-2337
を使用できます	-2338
分離	-2339
見つ	-2340
▁その	-2341
ゲット	-2342
アメリカの	-2343
公式	-2344
確率	-2345
紛争	-2346
関連する	-2347
ダウンロード	-2348
__	-2349
js	-2350
ov	-2351
を行	-2352
ガス	-2353
要求	-2354
が好き	-2355
将来の	-2356
、5	-2357
信号	-2358
携帯	-2359
長さ	-2360
革新	-2361
知られる	-2362
をサポート	-2363
しみ	-2364
やり	-2365
財産	-2366
くなる	-2367
トップ	-2368
リアの	-2369
始まり	-2370
エンジニア	-2371
Google	-2372
ことをお勧めします	-2373
公開	-2374
内部	-2375
小麦	-2376
形の	-2377
ate	-2378
であるか	-2379
を介して	-2380
トリック	-2381
可能性が	-2382
でしょうか	-2383
フィールド	-2384
頻繁	-2385
ook	-2386
▁私が	-2387
がある場合	-2388
21	-2389
とに	-2390
と感じ	-2391
マーク	-2392
ディング	-2393
##	-2394
od	-2395
基準	-2396
者と	-2397
に加えて	-2398
スペインの	-2399
ことに注意することが重要です	-2400
平和	-2401
最近	-2402
▁re	-2403
を形成	-2404
を設定	-2405
同様に	-2406
ブランド	-2407
にどのように	-2408
説明してください	-2409
ことに注意してください	-2410
li	-2411
まま	-2412
アウト	-2413
スポー	-2414
終わり	-2415
を選択します	-2416
フレームワーク	-2417
してみてください	-2418
サラ	-2419
ニー	-2420
再生	-2421
意図	-2422
種の	-2423
文化的	-2424
覚えて	-2425
アーティ	-2426
プライバ	-2427
全体として	-2428
役割を果た	-2429
)=	-2430
ma	-2431
に近	-2432
割り	-2433
産業	-2434
言う	-2435
開始	-2436
ack	-2437
までの	-2438
詳細な	-2439
医師	-2440
の間の	-2441
を共有	-2442
ローマ	-2443
問題の	-2444
ていない	-2445
にします	-2446
多くの場合	-2447
コンピューティング	-2448
を試	-2449
反映	-2450
毎日	-2451
スライ	-2452
リース	-2453
スポーツ	-2454
携帯電話	-2455
的であり	-2456
ターゲット	-2457
40	-2458
▁J	-2459
▁ク	-2460
一度	-2461
取る	-2462
回復	-2463
記録	-2464
通貨	-2465
ケース	-2466
コンパ	-2467
可能です	-2468
ことに留意	-2469
にあります	-2470
システムは	-2471
していますが	-2472
に基づいています	-2473
OS	-2474
を変	-2475
スイ	-2476
スカ	-2477
書き	-2478
柔軟	-2479
若い	-2480
ile	-2481
つなが	-2482
を特定	-2483
正確に	-2484
けますか	-2485
すために	-2486
の重要な	-2487
クエスト	-2488
のに役立つ	-2489
を指します	-2490
していました	-2491
乾燥	-2492
呼吸	-2493
実践	-2494
採用	-2495
(20	-2496
▁St	-2497
明確な	-2498
としても	-2499
を増	-2500
ッサ	-2501
トレ	-2502
年代	-2503
識別	-2504
ほしい	-2505
を支援	-2506
効果的に	-2507
メカニズム	-2508
ia	-2509
勉強	-2510
外部	-2511
懸念	-2512
手紙	-2513
砂糖	-2514
に取り	-2515
自動化	-2516
する場合	-2517
?」	-2518
アス	-2519
日本	-2520
民主	-2521
ber	-2522
を感じ	-2523
自身の	-2524
間違い	-2525
ユニット	-2526
りと	-2527
ウム	-2528
雇用	-2529
高速	-2530
GPT	-2531
▁次の	-2532
ベクト	-2533
互いに	-2534
▁10.	-2535
フィード	-2536
していますか	-2537
かけ	-2538
シナ	-2539
不安	-2540
低下	-2541
相対	-2542
を保護	-2543
を獲得	-2544
roid	-2545
スペイン語	-2546
で知られています	-2547
ほん	-2548
ダン	-2549
優先	-2550
欠如	-2551
誰か	-2552
act	-2553
と短所	-2554
の研究	-2555
エラー	-2556
クター	-2557
ありませんが	-2558
エネルギーを	-2559
io	-2560
フル	-2561
戦い	-2562
輸送	-2563
単純な	-2564
ip	-2565
に向	-2566
中で	-2567
供給	-2568
幸福	-2569
強く	-2570
水を	-2571
話を	-2572
通信	-2573
モード	-2574
困難です	-2575
覚えてお	-2576
YouTube	-2577
を返	-2578
ログ	-2579
曜日	-2580
有用	-2581
業界	-2582
概要	-2583
燃料	-2584
豊富	-2585
マシン	-2586
ラップ	-2587
えてください	-2588
(1	-2589
しさ	-2590
広告	-2591
確立	-2592
com	-2593
▁一方	-2594
し始め	-2595
に相談	-2596
を購入	-2597
ックな	-2598
ブラウ	-2599
ゼロ	-2600
リの	-2601
期待	-2602
高さ	-2603
▁in	-2604
ガイモ	-2605
シング	-2606
シーケ	-2607
会社の	-2608
推奨事項	-2609
ジャガイモ	-2610
モジュール	-2611
ndroid	-2612
ろう	-2613
わけ	-2614
ビー	-2615
番号	-2616
費用	-2617
質量	-2618
単一の	-2619
それとも	-2620
られない	-2621
ティブな	-2622
▁第	-2623
うれ	-2624
の一	-2625
リラ	-2626
意思	-2627
空間	-2628
されて	-2629
バーの	-2630
注意を	-2631
ドライブ	-2632
ランダム	-2633
がいくつかあります	-2634
アプリケーションの	-2635
ID	-2636
イズ	-2637
否定	-2638
論理	-2639
軌道	-2640
配列	-2641
ord	-2642
ライフ	-2643
リーン	-2644
解決策	-2645
えています	-2646
スー	-2647
メソ	-2648
日付	-2649
発明	-2650
酸素	-2651
限に	-2652
鶏肉	-2653
ell	-2654
の概念	-2655
ルート	-2656
ニュース	-2657
Windows	-2658
13	-2659
CP	-2660
コレ	-2661
上昇	-2662
手法	-2663
措置	-2664
日常	-2665
来の	-2666
症状	-2667
脂肪	-2668
The	-2669
かなり	-2670
どちら	-2671
のリスク	-2672
健康的な	-2673
ただけますか	-2674
スケジュール	-2675
NA	-2676
に満	-2677
分散	-2678
構文	-2679
炭素	-2680
緊張	-2681
ピング	-2682
テーション	-2683
を提供できます	-2684
体重	-2685
停止	-2686
文法	-2687
理想	-2688
疾患	-2689
視聴	-2690
アーキ	-2691
する必要	-2692
について話	-2693
▁全体として	-2694
次に示します	-2695
ld	-2696
▁バ	-2697
じる	-2698
友達	-2699
土地	-2700
外観	-2701
手段	-2702
背景	-2703
アント	-2704
ことなく	-2705
ことに気	-2706
ことはできません	-2707
お気	-2708
りを	-2709
アカ	-2710
一致	-2711
側の	-2712
幸せ	-2713
損傷	-2714
暗い	-2715
法則	-2716
軽減	-2717
彼女が	-2718
ませんか	-2719
シーケンス	-2720
持っている	-2721
自分自身を	-2722
はどのように	-2723
コントロール	-2724
インターフェイス	-2725
ーカ	-2726
中央	-2727
兆候	-2728
合成	-2729
恐怖	-2730
を確保	-2731
地域の	-2732
レビュー	-2733
意思決定	-2734
っていました	-2735
初心	-2736
彼を	-2737
文脈	-2738
方が	-2739
ナッツ	-2740
小麦粉	-2741
アクティ	-2742
それぞれの	-2743
に関しては	-2744
70	-2745
の量	-2746
まる	-2747
慎重	-2748
指定	-2749
犯罪	-2750
込む	-2751
end	-2752
ができ	-2753
たとき	-2754
に接続	-2755
の存在	-2756
の重要	-2757
楽しい	-2758
食べ物	-2759
知りたい	-2760
という名前	-2761
リクエスト	-2762
Re	-2763
努力	-2764
奇妙	-2765
担当	-2766
深刻	-2767
▁それ	-2768
の世界	-2769
を評価	-2770
カバー	-2771
ストレ	-2772
自動車	-2773
メソッド	-2774
公共	-2775
持ち	-2776
文学	-2777
法的	-2778
瞑想	-2779
記述	-2780
透明	-2781
API	-2782
ode	-2783
らかに	-2784
以下は	-2785
申し訳	-2786
HTML	-2787
しているため	-2788
ござ	-2789
まく	-2790
ビア	-2791
与え	-2792
悪い	-2793
注文	-2794
アイテ	-2795
テクチャ	-2796
なりました	-2797
を次に示します	-2798
▁w	-2799
クレ	-2800
ニク	-2801
金融	-2802
なしで	-2803
を作り	-2804
チャン	-2805
数学的	-2806
をもたら	-2807
アルコール	-2808
を作成できます	-2809
SO	-2810
St	-2811
ウス	-2812
二次	-2813
出来	-2814
回転	-2815
記事	-2816
つです	-2817
ビティ	-2818
現代の	-2819
オーディ	-2820
ブラック	-2821
紹介します	-2822
こともできます	-2823
アクティビティ	-2824
ビル	-2825
ピザ	-2826
対応	-2827
確実	-2828
過ご	-2829
スティ	-2830
ラテン	-2831
方法を	-2832
関数は	-2833
▁たとえば	-2834
より大きな	-2835
している場合	-2836
によって異なる	-2837
フィードバック	-2838
便利	-2839
彼に	-2840
心配	-2841
自体	-2842
ごとに	-2843
リーブ	-2844
コミット	-2845
リリース	-2846
ーキング	-2847
高品質の	-2848
私はあなたに	-2849
私はあなたの	-2850
▁オ	-2851
動機	-2852
最善	-2853
混乱	-2854
フォル	-2855
フラン	-2856
マルチ	-2857
伝える	-2858
大量の	-2859
伝統的な	-2860
する方法は	-2861
するために使用されます	-2862
▁お	-2863
契約	-2864
監督	-2865
設立	-2866
キシコ	-2867
ストラ	-2868
個人の	-2869
を求める	-2870
プレート	-2871
割り当て	-2872
コンパイル	-2873
することができる	-2874
上記	-2875
使い	-2876
保険	-2877
国は	-2878
財務	-2879
ock	-2880
の主な	-2881
らない	-2882
パーソ	-2883
プラス	-2884
出来事	-2885
安全な	-2886
メキシコ	-2887
不可欠です	-2888
))	-2889
げる	-2890
を再	-2891
アレ	-2892
体験	-2893
歳の	-2894
演奏	-2895
金属	-2896
の種類	-2897
を実装	-2898
ビーチ	-2899
リンゴ	-2900
新鮮な	-2901
サービスの	-2902
知られている	-2903
アニメーション	-2904
するために使用される	-2905
1/	-2906
イタ	-2907
ニン	-2908
人を	-2909
視点	-2910
関心	-2911
ter	-2912
せずに	-2913
カメラ	-2914
ールの	-2915
楽しみ	-2916
複雑さ	-2917
rint	-2918
のすべての	-2919
ay	-2920
はず	-2921
ラム	-2922
分割	-2923
の変化	-2924
コピー	-2925
ショウ	-2926
センス	-2927
文字列	-2928
フレンド	-2929
定期的な	-2930
感情的な	-2931
がありました	-2932
アーキテクチャ	-2933
▁i	-2934
内で	-2935
実用	-2936
必ず	-2937
液体	-2938
者を	-2939
ath	-2940
に行く	-2941
ウイル	-2942
タマネ	-2943
ワイン	-2944
場所に	-2945
知らせ	-2946
ようです	-2947
タマネギ	-2948
メンバー	-2949
受け入れ	-2950
気候変動	-2951
と思いますか	-2952
ハードウェア	-2953
24	-2954
ドア	-2955
導入	-2956
建築	-2957
発達	-2958
終了	-2959
▁これが	-2960
存在する	-2961
わず	-2962
カロ	-2963
付き	-2964
取引	-2965
log	-2966
を準備	-2967
Chat	-2968
セクション	-2969
っていますか	-2970
かもしれませんが	-2971
るの	-2972
ガン	-2973
モー	-2974
値を	-2975
排除	-2976
積極	-2977
象徴	-2978
SQL	-2979
あたり	-2980
うまく	-2981
を食べ	-2982
イギリ	-2983
エリア	-2984
ノード	-2985
例えば	-2986
いますか	-2987
ディレクト	-2988
の子	-2989
の後	-2990
をお	-2991
克服	-2992
▁of	-2993
アルゼ	-2994
従来の	-2995
関数の	-2996
ませんが	-2997
明らかに	-2998
くなります	-2999
アルゼンチ	-3000
プロセスは	-3001
を説明してください	-3002
2)	-3003
中心	-3004
宣言	-3005
に関係	-3006
を示す	-3007
コロン	-3008
リック	-3009
icro	-3010
でしたか	-3011
を持って	-3012
コショウ	-3013
混ぜます	-3014
ation	-3015
である場合	-3016
アドバイス	-3017
テキストの	-3018
カタ	-3019
放射	-3020
追跡	-3021
all	-3022
ストリ	-3023
ビット	-3024
ージャ	-3025
なぜなら	-3026
キャリア	-3027
3.	-3028
▁$	-3029
カリ	-3030
強調	-3031
銀行	-3032
ext	-3033
するのは	-3034
するまで	-3035
ストレス	-3036
で使用される	-3037
最も一般的な	-3038
PC	-3039
以上	-3040
伴う	-3041
向き	-3042
支持	-3043
酸化	-3044
魔法	-3045
ity	-3046
や他の	-3047
インド	-3048
ダンス	-3049
マイズ	-3050
太陽の	-3051
米国の	-3052
orld	-3053
コレート	-3054
タイトル	-3055
タスクを	-3056
キーボード	-3057
含まれます	-3058
目標を達成	-3059
ps	-3060
に似	-3061
オフ	-3062
モバ	-3063
圧縮	-3064
性格	-3065
唯一の	-3066
▁最後に	-3067
古典的な	-3068
の組み合わせ	-3069
ビデオゲーム	-3070
するために必要な	-3071
ud	-3072
エキ	-3073
トン	-3074
共通	-3075
汚染	-3076
節約	-3077
**:	-3078
▁de	-3079
いいえ	-3080
に満ち	-3081
はより	-3082
を書き	-3083
キュー	-3084
していた	-3085
ニーズと	-3086
モバイル	-3087
安定した	-3088
シンプルな	-3089
チョコレート	-3090
たくさんあります	-3091
人も	-3092
商品	-3093
失敗	-3094
神話	-3095
ーカー	-3096
困難な	-3097
準備ができ	-3098
クライアント	-3099
ED	-3100
アナ	-3101
住民	-3102
再び	-3103
女性	-3104
農業	-3105
ers	-3106
を研究	-3107
トラン	-3108
レッド	-3109
中国の	-3110
理論の	-3111
ress	-3112
モデルを	-3113
▁ありがとう	-3114
を向上させる	-3115
の本	-3116
存の	-3117
精度	-3118
線形	-3119
観光	-3120
転車	-3121
グラフ	-3122
リアン	-3123
▁一般に	-3124
れました	-3125
の一部です	-3126
カスタマイズ	-3127
したいと思います	-3128
ak	-3129
ジオ	-3130
ヴァ	-3131
閉じ	-3132
われる	-3133
ユーロ	-3134
世界を	-3135
魅力的な	-3136
▁Linux	-3137
ことがあります	-3138
AM	-3139
ry	-3140
で作	-3141
を除	-3142
ゼン	-3143
デス	-3144
ドロ	-3145
ハー	-3146
互換	-3147
住宅	-3148
化し	-3149
経過	-3150
はどう	-3151
を入力	-3152
メージ	-3153
ランチ	-3154
を高める	-3155
ジェント	-3156
信頼できる	-3157
アルゴリズムは	-3158
申し訳ありませんが	-3159
----------------	-3160
90	-3161
を置	-3162
吸収	-3163
忍耐	-3164
業員	-3165
現代	-3166
緊急	-3167
くれて	-3168
すべてが	-3169
するもの	-3170
よく理解	-3171
Android	-3172
印象	-3173
合理	-3174
工学	-3175
推測	-3176
登録	-3177
インテ	-3178
技術の	-3179
答えは	-3180
soft	-3181
を含める	-3182
を維持し	-3183
アイテム	-3184
に使用される	-3185
を必要とする	-3186
は約	-3187
を失	-3188
古代	-3189
大戦	-3190
感染	-3191
起源	-3192
長所	-3193
に適応	-3194
サラダ	-3195
動物の	-3196
思い出	-3197
に最適な	-3198
しましょう	-3199
ない場合は	-3200
エネルギーの	-3201
検討してください	-3202
ev	-3203
▁X	-3204
デン	-3205
区別	-3206
果物	-3207
満足	-3208
貴重	-3209
起動	-3210
軍事	-3211
道路	-3212
電流	-3213
飲み	-3214
▁彼は	-3215
し続け	-3216
の増加	-3217
シーン	-3218
の可能性	-3219
しましたが	-3220
として使用	-3221
icrosoft	-3222
ッグ	-3223
リエ	-3224
主題	-3225
予想	-3226
希望	-3227
書く	-3228
気分	-3229
水の	-3230
終わ	-3231
ust	-3232
▁これ	-3233
▁結論	-3234
の欠如	-3235
をとる	-3236
を経験	-3237
グロー	-3238
ユーモ	-3239
サウンド	-3240
スキルと	-3241
ブラウザ	-3242
世界大戦	-3243
引き起こ	-3244
レストラン	-3245
電子メール	-3246
かどうかを確認	-3247
IT	-3248
In	-3249
冗談	-3250
間違	-3251
した後	-3252
ったり	-3253
で実行	-3254
ッター	-3255
ボウル	-3256
年から	-3257
ello	-3258
するという	-3259
テクスチャ	-3260
リラックス	-3261
ディレクトリ	-3262
プライバシー	-3263
についてもっと	-3264
きれ	-3265
に出	-3266
不足	-3267
外の	-3268
脅威	-3269
述べ	-3270
と主張	-3271
スパイ	-3272
レージ	-3273
深刻な	-3274
社会の	-3275
スマート	-3276
自然言語	-3277
ことにより	-3278
であるという	-3279
アーティスト	-3280
▁y	-3281
さて	-3282
に達	-3283
を解	-3284
力と	-3285
放出	-3286
生命	-3287
航空	-3288
連邦	-3289
好きな	-3290
特性を	-3291
的または	-3292
なっています	-3293
64	-3294
ウド	-3295
ボリ	-3296
分子	-3297
強化	-3298
教師	-3299
キャプ	-3300
プロセ	-3301
以下の	-3302
太陽系	-3303
従業員	-3304
既存の	-3305
時間の経過	-3306
に関する情報	-3307
使用されている	-3308
で構成されています	-3309
ap	-3310
ドリ	-3311
ミン	-3312
以来	-3313
内に	-3314
習慣	-3315
ram	-3316
▁th	-3317
▁今日	-3318
に対応	-3319
まった	-3320
アート	-3321
チック	-3322
パティ	-3323
ベッド	-3324
センター	-3325
ックスは	-3326
ビジョン	-3327
マイクロ	-3328
になるまで	-3329
ニューロン	-3330
作成された	-3331
フィクション	-3332
ヨーロッパの	-3333
と考えられています	-3334
99	-3335
ラボ	-3336
分の	-3337
収入	-3338
国家	-3339
年間	-3340
誰が	-3341
進行	-3342
を得る	-3343
ミュー	-3344
何かを	-3345
映画の	-3346
目的と	-3347
全体的な	-3348
するときに	-3349
していません	-3350
リーブオイル	-3351
が必要な場合は	-3352
言語モデルとして	-3353
ow	-3354
コル	-3355
単に	-3356
大さ	-3357
車両	-3358
500	-3359
となる	-3360
に興味	-3361
シップ	-3362
決して	-3363
豊富な	-3364
面白い	-3365
▁Web	-3366
チュート	-3367
リーダー	-3368
世界中の	-3369
効率的な	-3370
設計された	-3371
チュートリアル	-3372
を提供しています	-3373
ギャ	-3374
ワイ	-3375
普遍	-3376
Gpt	-3377
にいる	-3378
を減ら	-3379
シアの	-3380
ディー	-3381
モンド	-3382
女性の	-3383
生活の	-3384
ためです	-3385
効率的に	-3386
決定を下す	-3387
プレイヤーは	-3388
教えてもらえますか	-3389
▁申し訳ありませんが	-3390
を訪	-3391
グレ	-3392
主観	-3393
施設	-3394
脆弱	-3395
音声	-3396
を分析	-3397
ッセイ	-3398
リーの	-3399
人々に	-3400
画像の	-3401
製品の	-3402
頻繁に	-3403
学びます	-3404
フィルター	-3405
ことに留意することが重要です	-3406
ff	-3407
sh	-3408
テゴ	-3409
ボル	-3410
ロマ	-3411
例を	-3412
働く	-3413
報酬	-3414
夕食	-3415
有害	-3416
牛乳	-3417
を測定	-3418
を発見	-3419
トーン	-3420
ペット	-3421
比較的	-3422
英語の	-3423
を受ける	-3424
という言葉	-3425
人にとって	-3426
-3	-3427
が何	-3428
っく	-3429
三角	-3430
分解	-3431
損失	-3432
正方	-3433
突然	-3434
資源	-3435
近く	-3436
いしい	-3437
に分割	-3438
シート	-3439
ッカー	-3440
raft	-3441
▁彼らは	-3442
に置き換	-3443
の最初の	-3444
具体的な	-3445
▁私たちは	-3446
を与えます	-3447
パスワード	-3448
他の多くの	-3449
を組み合わせ	-3450
iz	-3451
。2	-3452
」:	-3453
たら	-3454
ジー	-3455
執筆	-3456
完璧	-3457
排出	-3458
杯の	-3459
知の	-3460
重量	-3461
だった	-3462
に向か	-3463
に適用	-3464
を与え	-3465
を探索	-3466
を認識	-3467
バター	-3468
バンド	-3469
人間が	-3470
十分に	-3471
明るい	-3472
誰もが	-3473
メニュー	-3474
しなければならない	-3475
を引き起こす可能性があります	-3476
AT	-3477
IP	-3478
ng	-3479
うち	-3480
ナビ	-3481
交通	-3482
定理	-3483
形態	-3484
探求	-3485
秘密	-3486
est	-3487
one	-3488
▁どう	-3489
を構成	-3490
カテゴ	-3491
主義の	-3492
貴重な	-3493
あなたと	-3494
ることは	-3495
コメント	-3496
ジャンプ	-3497
ファンタ	-3498
であるかを	-3499
知っている	-3500
ことができません	-3501
によって異なります	-3502
up	-3503
クス	-3504
コア	-3505
正義	-3506
運転	-3507
を見て	-3508
危険な	-3509
自転車	-3510
に必要な	-3511
ライセンス	-3512
アフ	-3513
回避	-3514
大幅	-3515
天気	-3516
奨励	-3517
星の	-3518
永遠	-3519
銀河	-3520
類似	-3521
と彼の	-3522
の選択	-3523
の間に	-3524
を処理	-3525
アクセ	-3526
エクサ	-3527
マーケ	-3528
ルーチ	-3529
古代の	-3530
目標は	-3531
があるため	-3532
を使用した	-3533
エクササイズ	-3534
タスクを実行	-3535
に立	-3536
公園	-3537
博物	-3538
多い	-3539
活用	-3540
結婚	-3541
ニアの	-3542
ハリー	-3543
博物館	-3544
情報の	-3545
慎重に	-3546
無料の	-3547
コードは	-3548
メンテナ	-3549
できるだけ	-3550
したい場合は	-3551
マーケティング	-3552
AP	-3553
ST	-3554
個の	-3555
対立	-3556
絶え	-3557
部門	-3558
ect	-3559
に追加	-3560
みます	-3561
豊かな	-3562
▁con	-3563
されると	-3564
っていた	-3565
ない場合	-3566
サイクル	-3567
使用する	-3568
選択した	-3569
パターンを	-3570
45	-3571
」(	-3572
スパ	-3573
バス	-3574
冷却	-3575
地震	-3576
手の	-3577
教え	-3578
暖か	-3579
本は	-3580
順序	-3581
かかる	-3582
ことの	-3583
上記の	-3584
を可能に	-3585
パーソナ	-3586
継続的な	-3587
マネージャ	-3588
メンテナンス	-3589
質問に答える	-3590
時間の経過とともに	-3591
ソーシャルネットワーク	-3592
ww	-3593
主人	-3594
情熱	-3595
正式	-3596
爆発	-3597
首都	-3598
▁Ch	-3599
▁次に	-3600
の感覚	-3601
を強調	-3602
を表示	-3603
ホーム	-3604
ライズ	-3605
事前に	-3606
支払い	-3607
への影響	-3608
ゲームは	-3609
注意を払	-3610
▁人工知能	-3611
プロセスを	-3612
プロパティ	-3613
サル	-3614
ピア	-3615
ピク	-3616
声明	-3617
家に	-3618
指導	-3619
文書	-3620
流れ	-3621
無限	-3622
絶対	-3623
くべき	-3624
マイル	-3625
ースト	-3626
主人公	-3627
仕事を	-3628
実際に	-3629
日本の	-3630
暗号化	-3631
行動を	-3632
飛行機	-3633
インスタ	-3634
グローバル	-3635
プロセッサ	-3636
ことができない	-3637
py	-3638
▁ト	-3639
イド	-3640
ッキ	-3641
バナ	-3642
ピン	-3643
ボー	-3644
リス	-3645
元気	-3646
整理	-3647
とする	-3648
を参照	-3649
ヘッド	-3650
専門的な	-3651
などの他の	-3652
プラスチック	-3653
しなければなりません	-3654
ik	-3655
に触	-3656
タブ	-3657
照明	-3658
ていた	-3659
オーブ	-3660
ナビゲ	-3661
以下に	-3662
有用な	-3663
この場合	-3664
それらが	-3665
クラウド	-3666
プレゼン	-3667
実用的な	-3668
という名前の	-3669
わかりません	-3670
である可能性があります	-3671
1,	-3672
強度	-3673
カフェ	-3674
ルーム	-3675
倫理的	-3676
時点で	-3677
複雑で	-3678
と同様に	-3679
マスター	-3680
見つける	-3681
フランスの	-3682
世界で最も	-3683
をお勧めします	-3684
最も人気のある	-3685
うことができます	-3686
プレゼンテーション	-3687
▁r	-3688
つも	-3689
人と	-3690
会議	-3691
抽出	-3692
から来	-3693
を求め	-3694
タイン	-3695
ファイ	-3696
ブラジ	-3697
誰かが	-3698
ますます	-3699
んでいた	-3700
オレンジ	-3701
ミュージ	-3702
力のある	-3703
ございます	-3704
を説明する	-3705
ストレージ	-3706
に役立ちます	-3707
コレクション	-3708
あなたがあなたの	-3709
ことを忘れないでください	-3710
ie	-3711
ああ	-3712
ころ	-3713
ボタ	-3714
分裂	-3715
午後	-3716
建物	-3717
徐々	-3718
結合	-3719
需要	-3720
前向き	-3721
連れて	-3722
ファイルの	-3723
▁print	-3724
ものがあります	-3725
ml	-3726
▁e	-3727
▁パ	-3728
のが	-3729
セロ	-3730
ビエ	-3731
周囲	-3732
周波	-3733
呪文	-3734
報告	-3735
摂取	-3736
武器	-3737
残念	-3738
積分	-3739
診断	-3740
ard	-3741
ire	-3742
を指定	-3743
グラム	-3744
リット	-3745
程度の	-3746
言った	-3747
はずです	-3748
を使用し	-3749
自動的に	-3750
長期的な	-3751
しましたか	-3752
テキストを	-3753
プレーヤー	-3754
キャラクターの	-3755
できるようにします	-3756
に焦点を当てています	-3757
▁Q	-3758
▁l	-3759
のお	-3760
を着	-3761
ナミ	-3762
交差	-3763
戦闘	-3764
自信	-3765
財政	-3766
資本	-3767
近い	-3768
大さじ	-3769
奇妙な	-3770
ight	-3771
パーティ	-3772
ビリティ	-3773
へのアクセス	-3774
//	-3775
my	-3776
ちゃ	-3777
アラ	-3778
ベン	-3779
レッ	-3780
代表	-3781
回路	-3782
意の	-3783
認知	-3784
ゆっく	-3785
を実施	-3786
化する	-3787
歴史的	-3788
否定的な	-3789
craft	-3790
をクリック	-3791
ユーザーは	-3792
を追加します	-3793
オンラインで	-3794
Ar	-3795
キン	-3796
グル	-3797
共和	-3798
典型	-3799
履歴	-3800
拡散	-3801
数は	-3802
曲線	-3803
用途	-3804
言い	-3805
資産	-3806
App	-3807
art	-3808
いつも	-3809
を解決	-3810
ジット	-3811
ンドウ	-3812
政府の	-3813
しやすい	-3814
アイデン	-3815
インフレ	-3816
ドイツの	-3817
システムが	-3818
していることを	-3819
を避けるために	-3820
テクノロジーの	-3821
アイデンティティ	-3822
IA	-3823
me	-3824
、[	-3825
」、	-3826
きた	-3827
ナダ	-3828
バン	-3829
仮説	-3830
力が	-3831
疑問	-3832
違反	-3833
ash	-3834
の高い	-3835
はまだ	-3836
カット	-3837
ヤーの	-3838
小さじ	-3839
そのため	-3840
の専門家	-3841
けてください	-3842
インスタンス	-3843
インタビュー	-3844
役立つことを願っています	-3845
ob	-3846
に保	-3847
を残	-3848
拒否	-3849
朝食	-3850
著作	-3851
過剰	-3852
高価	-3853
▁彼の	-3854
ックの	-3855
以前に	-3856
自分で	-3857
ウイルス	-3858
ッピング	-3859
を生成します	-3860
唆しています	-3861
II	-3862
に乗	-3863
一定	-3864
成分	-3865
程度	-3866
語の	-3867
食物	-3868
ark	-3869
ver	-3870
▁さて	-3871
と信じ	-3872
アルバ	-3873
ダーの	-3874
テーブ	-3875
人々を	-3876
向けの	-3877
シナリオ	-3878
に関係なく	-3879
ウィンドウ	-3880
であることを確認	-3881
CO	-3882
qu	-3883
かげ	-3884
ケー	-3885
包括	-3886
土壌	-3887
月に	-3888
規則	-3889
-19	-3890
con	-3891
put	-3892
に近づ	-3893
の要素	-3894
リーは	-3895
心理学	-3896
残りの	-3897
アフリカ	-3898
イメージ	-3899
インスピ	-3900
タスクの	-3901
創造的な	-3902
実際には	-3903
者であり	-3904
誰ですか	-3905
ではありませんが	-3906
していただけますか	-3907
のいくつかは次のとおりです	-3908
-4	-3909
3)	-3910
tu	-3911
ねぎ	-3912
を講	-3913
ヴィ	-3914
卵を	-3915
同意	-3916
実施	-3917
対象	-3918
物事	-3919
腐敗	-3920
部の	-3921
際に	-3922
amp	-3923
▁材料	-3924
に直接	-3925
われた	-3926
を提案	-3927
コンソ	-3928
ホール	-3929
名前は	-3930
数学の	-3931
混合物	-3932
玉ねぎ	-3933
込まれ	-3934
▁the	-3935
に合わせ	-3936
を増やす	-3937
を満たす	-3938
エクスペ	-3939
グラムの	-3940
レーター	-3941
発生する	-3942
▁すべての	-3943
システムを	-3944
▁結論として	-3945
されていません	-3946
などのさまざまな	-3947
インスピレーション	-3948
であることを忘れないでください	-3949
に変	-3950
ガル	-3951
商業	-3952
容易	-3953
尊重	-3954
推論	-3955
時期	-3956
次元	-3957
献身	-3958
▁km	-3959
▁他の	-3960
にさら	-3961
スタン	-3962
ニンジ	-3963
プリン	-3964
刻んだ	-3965
方法の	-3966
栄養素	-3967
つであり	-3968
性のある	-3969
られました	-3970
うれしいです	-3971
オリーブオイル	-3972
パーソナライズ	-3973
AR	-3974
IM	-3975
かの	-3976
共産	-3977
密度	-3978
栽培	-3979
色は	-3980
for	-3981
くらい	-3982
バイオ	-3983
ホスト	-3984
ーンの	-3985
結果を	-3986
自然な	-3987
エッセイ	-3988
ニンニク	-3989
であることが	-3990
る必要があります	-3991
重要な役割を果た	-3992
US	-3993
ib	-3994
lu	-3995
に等	-3996
兄弟	-3997
単位	-3998
形状	-3999
続く	-4000
製造	-4001
転送	-4002
違法	-4003
LED	-4004
プラグ	-4005
初心者	-4006
多様な	-4007
教える	-4008
詳しく	-4009
▁新しい	-4010
▁最初の	-4011
おいしい	-4012
コンテナ	-4013
ベクトル	-4014
リエンス	-4015
物理的な	-4016
サービスを	-4017
機能します	-4018
覚えておく	-4019
調理します	-4020
が必要になる	-4021
であると考え	-4022
んでください	-4023
している場合は	-4024
エクスペリエンス	-4025
エンジニアリング	-4026
1)	-4027
に見	-4028
加速	-4029
成果	-4030
提示	-4031
時の	-4032
燃焼	-4033
ちゃん	-4034
オート	-4035
フライ	-4036
レンズ	-4037
仕事の	-4038
周りの	-4039
徐々に	-4040
機能を	-4041
背後に	-4042
落ち着	-4043
お気に入	-4044
スライス	-4045
ニュート	-4046
典型的な	-4047
られており	-4048
インポート	-4049
サイティング	-4050
使用されています	-4051
を発	-4052
テル	-4053
ブレ	-4054
ルク	-4055
割合	-4056
囲気	-4057
境界	-4058
撮影	-4059
百万	-4060
ata	-4061
に感謝	-4062
インチ	-4063
ソビエ	-4064
問題は	-4065
子供の	-4066
関係を	-4067
雰囲気	-4068
port	-4069
し続ける	-4070
ソビエト	-4071
これを行う	-4072
してほしい	-4073
ゆっくりと	-4074
をいくつか	-4075
プログラマー	-4076
ne	-4077
ox	-4078
▁今	-4079
。。	-4080
」。	-4081
に合	-4082
を聞	-4083
母親	-4084
洗練	-4085
男性	-4086
読む	-4087
電圧	-4088
電源	-4089
青い	-4090
cel	-4091
ive	-4092
そこで	-4093
やすい	-4094
を軽減	-4095
を送信	-4096
ジャー	-4097
多数の	-4098
巨大な	-4099
情報が	-4100
生き物	-4101
それほど	-4102
オーバー	-4103
連れて行	-4104
ユーザーに	-4105
持続可能な	-4106
長所と短所	-4107
のいくつかの	-4108
として知られる	-4109
ソーシャルメディア	-4110
される可能性があります	-4111
")	-4112
RL	-4113
eg	-4114
にな	-4115
の不	-4116
をつ	-4117
ボン	-4118
メタ	-4119
充電	-4120
出版	-4121
反射	-4122
喫煙	-4123
差別	-4124
帝国	-4125
聞こ	-4126
血液	-4127
製の	-4128
調べ	-4129
CSS	-4130
wit	-4131
お金を	-4132
を探求	-4133
コイン	-4134
ノイズ	-4135
ラベル	-4136
映画は	-4137
近くの	-4138
だけです	-4139
ティーヤ	-4140
の基本的な	-4141
エキサイティング	-4142
公平	-4143
整数	-4144
細菌	-4145
資金	-4146
車の	-4147
are	-4148
ost	-4149
ところ	-4150
時代の	-4151
美しさ	-4152
言語で	-4153
開発者	-4154
▁int	-4155
のセット	-4156
を改善し	-4157
キリスト	-4158
チャネル	-4159
によっては	-4160
ミッション	-4161
質問がある場合は	-4162
ix	-4163
日光	-4164
暴力	-4165
海の	-4166
素材	-4167
蓄積	-4168
ice	-4169
にする	-4170
を削減	-4171
大きい	-4172
日常生活	-4173
最小限に	-4174
を加えます	-4175
を生み出す	-4176
アカウント	-4177
キャプチャ	-4178
プロセスの	-4179
始めました	-4180
次のように	-4181
されているため	-4182
5.	-4183
かで	-4184
しも	-4185
ヒー	-4186
寿命	-4187
広範	-4188
長く	-4189
これを	-4190
と仮定	-4191
哲学的	-4192
彼らに	-4193
目的地	-4194
に満ちた	-4195
ボックス	-4196
提供する	-4197
次の手順	-4198
▁ステップ	-4199
バランスの	-4200
質問に対する	-4201
ライフスタイル	-4202
を見つけることができます	-4203
og	-4204
▁u	-4205
の大	-4206
グロ	-4207
ナの	-4208
客観	-4209
尊敬	-4210
手伝	-4211
時々	-4212
瞬間	-4213
自宅	-4214
語彙	-4215
通り	-4216
our	-4217
っても	-4218
を適用	-4219
エディ	-4220
コラボ	-4221
惑星の	-4222
どちらも	-4223
に適した	-4224
ボタンを	-4225
必ずしも	-4226
なぜですか	-4227
デバイスの	-4228
がありません	-4229
キロメートル	-4230
いくつかのヒント	-4231
にはどうすればよいですか	-4232
LL	-4233
▁ス	-4234
があ	-4235
にし	-4236
ほぼ	-4237
ダル	-4238
ムは	-4239
休憩	-4240
戦う	-4241
興奮	-4242
論文	-4243
ある日	-4244
の中心	-4245
目的は	-4246
▁for	-4247
の特定の	-4248
を変える	-4249
を楽しむ	-4250
カテゴリ	-4251
カロリー	-4252
クリーム	-4253
子供たち	-4254
特徴付け	-4255
を手伝って	-4256
コンソール	-4257
最小限に抑	-4258
訓練された	-4259
コラボレーション	-4260
コンピューターの	-4261
ることができますか	-4262
(2	-4263
。1	-4264
何も	-4265
水分	-4266
永続	-4267
行為	-4268
Git	-4269
ens	-4270
かげで	-4271
が表示	-4272
の改善	-4273
を調査	-4274
フェル	-4275
安全で	-4276
明確で	-4277
でしたが	-4278
アドレス	-4279
キャンペ	-4280
ショット	-4281
ダイナミ	-4282
モデルが	-4283
かかります	-4284
できますが	-4285
インタラク	-4286
ツールです	-4287
コーディング	-4288
トルティーヤ	-4289
プログラムの	-4290
してもらえますか	-4291
シミュレーション	-4292
設計されています	-4293
影響を与える可能性があります	-4294
2:	-4295
ET	-4296
Ex	-4297
Ph	-4298
SD	-4299
ca	-4300
▁h	-4301
▁各	-4302
しま	-4303
カラ	-4304
ジア	-4305
慣行	-4306
犠牲	-4307
犬の	-4308
矛盾	-4309
示す	-4310
はどれ	-4311
を反映	-4312
を表す	-4313
を表現	-4314
場合に	-4315
大幅に	-4316
理由は	-4317
知識と	-4318
name	-4319
には次の	-4320
に入れる	-4321
を選択し	-4322
レベルを	-4323
ていません	-4324
を見つけて	-4325
クレジット	-4326
シンプルで	-4327
可能な限り	-4328
ここにいます	-4329
ラップトップ	-4330
によって引き起こ	-4331
いで	-4332
ブロ	-4333
メロ	-4334
レオ	-4335
側に	-4336
受信	-4337
承認	-4338
良く	-4339
風景	-4340
ace	-4341
res	-4342
〜10	-4343
ジプト	-4344
ブレー	-4345
相対性	-4346
自然の	-4347
のいずれ	-4348
インテリ	-4349
前向きな	-4350
暗号通貨	-4351
が含まれる	-4352
には多くの	-4353
人生の意味	-4354
残念ながら	-4355
説明します	-4356
お気に入りの	-4357
を防ぐために	-4358
inecraft	-4359
想像してください	-4360
!」	-4361
▁ロ	-4362
がい	-4363
やる	-4364
カン	-4365
ッカ	-4366
ナイ	-4367
修理	-4368
入手	-4369
廃棄	-4370
文明	-4371
有益	-4372
植民	-4373
楽器	-4374
職業	-4375
西洋	-4376
、10	-4377
が高く	-4378
でさえ	-4379
と思う	-4380
クリー	-4381
女の子	-4382
植民地	-4383
違いは	-4384
ましたか	-4385
ジャンル	-4386
センサー	-4387
メンタル	-4388
協力して	-4389
書かれた	-4390
開発された	-4391
につながります	-4392
はありませんが	-4393
の違いは何ですか	-4394
Microsoft	-4395
することが含まれます	-4396
する必要がありますか	-4397
65	-4398
du	-4399
ge	-4400
は不	-4401
ノー	-4402
ミニ	-4403
人種	-4404
加熱	-4405
崩壊	-4406
投げ	-4407
神の	-4408
が高い	-4409
だから	-4410
の分野	-4411
ますか	-4412
スコア	-4413
チャー	-4414
マップ	-4415
人間は	-4416
名前を	-4417
喜んで	-4418
量子力	-4419
をカバー	-4420
最適です	-4421
を作成して	-4422
多くの要因	-4423
一部の人々は	-4424
チャットボット	-4425
さまざまな種類の	-4426
Sh	-4427
びに	-4428
トロ	-4429
ネイ	-4430
体は	-4431
前進	-4432
博士	-4433
扱う	-4434
望ま	-4435
猫の	-4436
速い	-4437
領土	-4438
▁-1	-4439
のかを	-4440
の最も	-4441
を利用	-4442
を読む	-4443
責任を	-4444
つながり	-4445
であれば	-4446
より高い	-4447
エラーを	-4448
クラスの	-4449
サイバー	-4450
考えると	-4451
ebook	-4452
32	-4453
ll	-4454
に苦	-4455
を送	-4456
エー	-4457
スと	-4458
デミ	-4459
ビン	-4460
予防	-4461
固有	-4462
孤独	-4463
平ら	-4464
怪我	-4465
押し	-4466
目指	-4467
移行	-4468
第一	-4469
://	-4470
ain	-4471
cal	-4472
ian	-4473
が存在	-4474
に関与	-4475
に集中	-4476
の意味	-4477
を予測	-4478
を最大	-4479
を練習	-4480
キッチ	-4481
ポルト	-4482
世界で	-4483
単なる	-4484
周波数	-4485
家族の	-4486
激しい	-4487
▁###	-4488
▁Pro	-4489
まったく	-4490
を理解し	-4491
技術的な	-4492
物理学の	-4493
起こった	-4494
ction	-4495
べきですか	-4496
情報を提供	-4497
二次世界大戦	-4498
ChatGpt	-4499
に影響を与える可能性があります	-4500
1:	-4501
が見	-4502
パル	-4503
マラ	-4504
一時	-4505
両親	-4506
同僚	-4507
歌詞	-4508
段落	-4509
番目	-4510
lay	-4511
、18	-4512
にあり	-4513
の物語	-4514
の説明	-4515
を意味	-4516
んだり	-4517
生き残	-4518
する機会	-4519
スケール	-4520
ocker	-4521
▁最終的に	-4522
ことを保証	-4523
に向かって	-4524
のアイデア	-4525
と呼ばれます	-4526
シミュレート	-4527
プレイヤーが	-4528
でなければなりません	-4529
:(	-4530
to	-4531
▁Z	-4532
けた	-4533
の間	-4534
を添	-4535
コロ	-4536
地面	-4537
展開	-4538
平方	-4539
投稿	-4540
指向	-4541
民間	-4542
資格	-4543
htt	-4544
ith	-4545
を検討	-4546
エント	-4547
正式な	-4548
を完全に	-4549
インフラ	-4550
データと	-4551
ブランチ	-4552
プロット	-4553
続けます	-4554
があなたの	-4555
できるため	-4556
カフェイン	-4557
スタイルの	-4558
メートルの	-4559
しないように	-4560
しようとする	-4561
に関連しています	-4562
ツールを使用して	-4563
HP	-4564
くれ	-4565
オリ	-4566
ギー	-4567
マシ	-4568
収益	-4569
地理	-4570
敬意	-4571
水化	-4572
簡潔	-4573
絵画	-4574
連合	-4575
str	-4576
▁どの	-4577
に設定	-4578
の下で	-4579
の範囲	-4580
は彼の	-4581
を管理	-4582
クエリ	-4583
企業の	-4584
周りに	-4585
炭水化	-4586
遺伝子	-4587
えている	-4588
によれば	-4589
に取り組	-4590
スケーラ	-4591
スレッド	-4592
ことを意味	-4593
の観点から	-4594
ものであり	-4595
背後にある	-4596
マネージャー	-4597
コンピューターサイエンス	-4598
-2	-4599
、6	-4600
うつ	-4601
かき	-4602
かれ	-4603
ホル	-4604
モデ	-4605
ユダ	-4606
体が	-4607
日を	-4608
聖書	-4609
試み	-4610
負荷	-4611
頻度	-4612
out	-4613
▁まず	-4614
ダイヤ	-4615
広範な	-4616
毎日の	-4617
著作権	-4618
詳細に	-4619
▁いいえ	-4620
その結果	-4621
とも呼ば	-4622
どれだけ	-4623
サンプル	-4624
フォルト	-4625
普遍的な	-4626
歴史的な	-4627
このような	-4628
という事実	-4629
に合わせて	-4630
ということです	-4631
オブジェクトを	-4632
を作成するための	-4633
オープンソースの	-4634
ax	-4635
っぱ	-4636
わか	-4637
チン	-4638
例は	-4639
固定	-4640
季節	-4641
悪魔	-4642
検査	-4643
気を	-4644
肯定	-4645
英国	-4646
贈り	-4647
願い	-4648
飲む	-4649
黄色	-4650
ast	-4651
der	-4652
を通過	-4653
オフィ	-4654
ユダヤ	-4655
架空の	-4656
物質の	-4657
的かつ	-4658
お知らせ	-4659
バルセロ	-4660
をください	-4661
ギリシャの	-4662
デフォルト	-4663
フォーマット	-4664
acebook	-4665
が含まれている	-4666
ほんの一部です	-4667
あなたを助けるために	-4668
サイエンスフィクション	-4669
事故	-4670
値は	-4671
木材	-4672
続き	-4673
遠く	-4674
SON	-4675
dit	-4676
するに	-4677
それに	-4678
つもり	-4679
で満た	-4680
もちゃ	-4681
を伴う	-4682
を制限	-4683
インデ	-4684
方向に	-4685
用語は	-4686
迅速に	-4687
▁200	-4688
どれほど	-4689
を超える	-4690
ドメイン	-4691
自動学習	-4692
赤ちゃん	-4693
を生成する	-4694
プロトコル	-4695
することなく	-4696
でもあります	-4697
みてください	-4698
を探している	-4699
エンティティ	-4700
うことができる	-4701
ここにいくつかの	-4702
ブロックチェーン	-4703
プログラミングの	-4704
4.	-4705
7.	-4706
を選	-4707
到着	-4708
危機	-4709
合法	-4710
循環	-4711
水素	-4712
注ぎ	-4713
神秘	-4714
脳の	-4715
軽い	-4716
ern	-4717
カタロ	-4718
主義は	-4719
人々と	-4720
入れる	-4721
共通の	-4722
状況で	-4723
種です	-4724
誤った	-4725
道徳的	-4726
▁...	-4727
するなど	-4728
になった	-4729
を簡単に	-4730
印象的な	-4731
要するに	-4732
このように	-4733
私はそれを	-4734
を定義します	-4735
を見つけます	-4736
個人的な好み	-4737
によって特徴付け	-4738
DE	-4739
▁フ	-4740
くと	-4741
クの	-4742
借り	-4743
同盟	-4744
好む	-4745
正当	-4746
野生	-4747
おらず	-4748
に保存	-4749
に投資	-4750
はどこ	-4751
ろうと	-4752
を克服	-4753
クロス	-4754
パワー	-4755
ルーツ	-4756
大学の	-4757
しながら	-4758
しやすく	-4759
のサイズ	-4760
データが	-4761
措置を講	-4762
柔らかい	-4763
深い学習	-4764
独立した	-4765
つの異なる	-4766
考慮すべき	-4767
はどうですか	-4768
を実行します	-4769
にはいくつかの	-4770
方法は何ですか	-4771
できるようにする	-4772
35	-4773
▁ご	-4774
が得	-4775
ベイ	-4776
モニ	-4777
レタ	-4778
余分	-4779
医学	-4780
半分	-4781
国立	-4782
完成	-4783
容器	-4784
広が	-4785
継承	-4786
親愛	-4787
試験	-4788
電力	-4789
▁im	-4790
▁別の	-4791
の前に	-4792
の自由	-4793
を行い	-4794
ギター	-4795
ダーは	-4796
レース	-4797
愛する	-4798
機能の	-4799
生物学	-4800
視覚化	-4801
べきです	-4802
をリスト	-4803
エンター	-4804
ストラク	-4805
親愛なる	-4806
読み取り	-4807
食べ物を	-4808
ことに気づ	-4809
の重要性を	-4810
人もいます	-4811
実行される	-4812
テンプレート	-4813
と考えています	-4814
かし	-4815
ゴン	-4816
ゼル	-4817
ホイ	-4818
代数	-4819
会う	-4820
依然	-4821
反復	-4822
命令	-4823
天然	-4824
引用	-4825
挙げ	-4826
日目	-4827
沸騰	-4828
緑の	-4829
見解	-4830
認証	-4831
ele	-4832
ran	-4833
▁地球	-4834
▁現在	-4835
が最も	-4836
とは何	-4837
に最も	-4838
やかな	-4839
フォン	-4840
ロット	-4841
小さく	-4842
言い換	-4843
っており	-4844
を取り除	-4845
ステート	-4846
チームは	-4847
ディスク	-4848
ロマンチ	-4849
担当者の	-4850
私たちを	-4851
データ構造	-4852
パートナー	-4853
生成された	-4854
またはその他の	-4855
アルゴリズムの	-4856
に従ってください	-4857
勝利	-4858
幸運	-4859
手を	-4860
気象	-4861
知る	-4862
立ち	-4863
赤い	-4864
通知	-4865
ert	-4866
low	-4867
▁より	-4868
なしに	-4869
の形で	-4870
ベスト	-4871
余分な	-4872
政府は	-4873
結果は	-4874
起こる	-4875
都市の	-4876
、200	-4877
してから	-4878
すべてを	-4879
イタリア	-4880
再生可能	-4881
生物学的	-4882
アクティブ	-4883
トリックス	-4884
プラグイン	-4885
と見なされる	-4886
よりもはるかに	-4887
を改善するために	-4888
注意してください	-4889
``	-4890
ナは	-4891
公正	-4892
切断	-4893
心の	-4894
欠点	-4895
装飾	-4896
見え	-4897
議会	-4898
金を	-4899
CPU	-4900
を強化	-4901
シェル	-4902
ディス	-4903
ファー	-4904
任意の	-4905
変数の	-4906
市場の	-4907
本当の	-4908
くれます	-4909
それから	-4910
スーパー	-4911
方が良い	-4912
または他の	-4913
オーストラ	-4914
スタイルで	-4915
プリンター	-4916
ベーション	-4917
依然として	-4918
プロセスです	-4919
をよりよく理解	-4920
あなたはあなたの	-4921
がたくさんあります	-4922
することは困難です	-4923
GB	-4924
SA	-4925
われ	-4926
ナリ	-4927
レガ	-4928
友情	-4929
州の	-4930
恐れ	-4931
挿入	-4932
早く	-4933
根本	-4934
立場	-4935
純粋	-4936
署名	-4937
融合	-4938
角度	-4939
連続	-4940
運命	-4941
遺産	-4942
GPU	-4943
ong	-4944
▁1)	-4945
に連絡	-4946
の長さ	-4947
ものは	-4948
を保存	-4949
ゾーン	-4950
ビルド	-4951
モート	-4952
利点を	-4953
異なり	-4954
▁クリア	-4955
を書いて	-4956
キャンプ	-4957
ディープ	-4958
トランス	-4959
レポート	-4960
キリスト教	-4961
メトリック	-4962
最終的には	-4963
次のような	-4964
するにつれて	-4965
アルゼンチン	-4966
ストラクチャ	-4967
するのに十分な	-4968
以下に示します	-4969
(3	-4970
██	-4971
ねえ	-4972
スポ	-4973
冷蔵	-4974
差し	-4975
性的	-4976
投票	-4977
洞察	-4978
演算	-4979
発電	-4980
登場	-4981
調和	-4982
金の	-4983
arr	-4984
ore	-4985
ult	-4986
urn	-4987
がなく	-4988
に似た	-4989
を学び	-4990
パラド	-4991
不可能	-4992
学んだ	-4993
untu	-4994
たいです	-4995
ツールと	-4996
ヒーロー	-4997
ロシアの	-4998
場所です	-4999
理想的な	-5000
積極的に	-5001
https	-5002
ことに気付	-5003
それぞれが	-5004
キーワード	-5005
ドライバー	-5006
ユニークで	-5007
思いますか	-5008
使用できます	-5009
と思っています	-5010
ことができました	-5011
にどのように影響	-5012
インフラストラクチャ	-5013
:1	-5014
RE	-5015
SP	-5016
▁ラ	-5017
に属	-5018
を描	-5019
パウ	-5020
地下	-5021
地位	-5022
型の	-5023
性別	-5024
抽象	-5025
接触	-5026
生存	-5027
確信	-5028
順位	-5029
ail	-5030
▁そう	-5031
が増加	-5032
を加え	-5033
を立て	-5034
を計画	-5035
アンド	-5036
サンド	-5037
シック	-5038
ソート	-5039
ッキー	-5040
ローン	-5041
世紀の	-5042
今日の	-5043
冷たい	-5044
材料の	-5045
環境で	-5046
生じる	-5047
精神的	-5048
通常は	-5049
音楽の	-5050
音楽を	-5051
が非常に	-5052
どういう	-5053
ウクライ	-5054
クトップ	-5055
グレード	-5056
コーラス	-5057
バイアス	-5058
フォーラ	-5059
レイヤー	-5060
優先順位	-5061
Hello	-5062
を意味します	-5063
を決定します	-5064
デスクトップ	-5065
知られており	-5066
されていました	-5067
ゲームをプレイ	-5068
がどのように機能	-5069
パーソナライズされた	-5070
▁JavaScript	-5071
LP	-5072
TP	-5073
ci	-5074
テイ	-5075
バラ	-5076
対照	-5077
強さ	-5078
心を	-5079
日は	-5080
未満	-5081
申請	-5082
異常	-5083
説得	-5084
部品	-5085
配布	-5086
闘争	-5087
いたり	-5088
が低い	-5089
に影響	-5090
の利点	-5091
はその	-5092
までに	-5093
ものの	-5094
を実現	-5095
ガスの	-5096
ームズ	-5097
互換性	-5098
代替品	-5099
例では	-5100
偉大な	-5101
動的な	-5102
帝国の	-5103
▁API	-5104
がいます	-5105
に役立つ	-5106
を最適化	-5107
クリスマ	-5108
ショップ	-5109
シンボル	-5110
トラック	-5111
ニンジン	-5112
成功した	-5113
ジェームズ	-5114
に影響を与え	-5115
を見つけるために	-5116
するために使用できます	-5117
75	-5118
SC	-5119
ep	-5120
の各	-5121
を待	-5122
アッ	-5123
体を	-5124
作家	-5125
垂直	-5126
外国	-5127
無視	-5128
療法	-5129
知覚	-5130
義務	-5131
追求	-5132
進む	-5133
ime	-5134
let	-5135
たびに	-5136
な価格	-5137
の基本	-5138
やすく	-5139
を拡大	-5140
を監視	-5141
カレン	-5142
ノート	-5143
ポータ	-5144
レッス	-5145
健康と	-5146
日から	-5147
との関係	-5148
のですが	-5149
めました	-5150
一貫した	-5151
混合物を	-5152
を受け取り	-5153
デバイスを	-5154
場合がある	-5155
高レベルの	-5156
のさまざまな	-5157
エージェント	-5158
ニューロンネットワーク	-5159
Sp	-5160
▁.	-5161
▁イ	-5162
▁コ	-5163
すり	-5164
で見	-5165
わる	-5166
チリ	-5167
不快	-5168
免疫	-5169
勾配	-5170
同期	-5171
家を	-5172
対処	-5173
対策	-5174
少年	-5175
引っ	-5176
愛の	-5177
態度	-5178
本質	-5179
株式	-5180
火で	-5181
生徒	-5182
生態	-5183
自律	-5184
解放	-5185
量は	-5186
ink	-5187
▁18	-5188
と言う	-5189
に到着	-5190
パネル	-5191
完璧な	-5192
環境に	-5193
粒子の	-5194
質問は	-5195
able	-5196
したとき	-5197
わずかに	-5198
見えます	-5199
驚くべき	-5200
React	-5201
などの要因	-5202
ネイティブ	-5203
Openai	-5204
アドバイスを	-5205
を探してください	-5206
が必要になる場合があります	-5207
ey	-5208
▁リ	-5209
かく	-5210
めた	-5211
エア	-5212
伝達	-5213
基盤	-5214
昆虫	-5215
星は	-5216
漫画	-5217
緩和	-5218
get	-5219
udo	-5220
うつ病	-5221
の他の	-5222
の位置	-5223
を保持	-5224
を助け	-5225
ディア	-5226
ヒュー	-5227
プラン	-5228
ロンの	-5229
技術的	-5230
植物の	-5231
自由に	-5232
▁ここで	-5233
で生まれ	-5234
方程式の	-5235
現実的な	-5236
モーション	-5237
使用できる	-5238
フレンドリー	-5239
政治的および	-5240
いくつかの要因	-5241
すことができる	-5242
のはなぜですか	-5243
を示しています	-5244
を持っていません	-5245
するために使用できる	-5246
あなたを助けることができる	-5247
28	-5248
AC	-5249
▁水	-5250
アリ	-5251
ハム	-5252
ポテ	-5253
ラミ	-5254
世代	-5255
乗算	-5256
作る	-5257
光が	-5258
実現	-5259
家は	-5260
山の	-5261
才能	-5262
望む	-5263
真の	-5264
耐久	-5265
ite	-5266
。19	-5267
すぎる	-5268
でのみ	-5269
にのみ	-5270
の詳細	-5271
わから	-5272
を提示	-5273
カナダ	-5274
ダーを	-5275
ヨーク	-5276
何らか	-5277
彼らを	-5278
正方形	-5279
長い間	-5280
▁---	-5281
うために	-5282
おもちゃ	-5283
しょうか	-5284
対応する	-5285
から始めて	-5286
チャンネル	-5287
電気自動車	-5288
あなたにとって	-5289
場合によっては	-5290
エキサイティングな	-5291
覚えておくことが重要です	-5292
76	-5293
ya	-5294
▁ボ	-5295
ブの	-5296
ペン	-5297
メル	-5298
ヴェ	-5299
内容	-5300
塩と	-5301
欲求	-5302
活気	-5303
発音	-5304
石の	-5305
禁止	-5306
裁判	-5307
ure	-5308
▁Ar	-5309
は常に	-5310
ものに	-5311
やって	-5312
を上げ	-5313
を保証	-5314
を削除	-5315
を私に	-5316
カウン	-5317
デッキ	-5318
ポテト	-5319
ラスト	-5320
不平等	-5321
作品は	-5322
備えた	-5323
全体の	-5324
友人や	-5325
正確で	-5326
file	-5327
ount	-5328
▁100	-5329
▁ここに	-5330
ポジトリ	-5331
光の速度	-5332
限られた	-5333
Apple	-5334
から始める	-5335
ことを学ぶ	-5336
アイデアは	-5337
シュタイン	-5338
間違いなく	-5339
▁さまざまな	-5340
セットアップ	-5341
ダイヤモンド	-5342
説明できますか	-5343
大規模な言語モデル	-5344
-1	-5345
▁シ	-5346
▁ホ	-5347
か月	-5348
ビタ	-5349
体に	-5350
手頃	-5351
時計	-5352
正規	-5353
活性	-5354
資料	-5355
間隔	-5356
ont	-5357
。20	-5358
ウッド	-5359
キーを	-5360
ナイト	-5361
フィン	-5362
以外の	-5363
会話を	-5364
何かが	-5365
化した	-5366
情報源	-5367
turn	-5368
▁以下は	-5369
が少ない	-5370
に非常に	-5371
コメディ	-5372
ストリー	-5373
フロント	-5374
ワールド	-5375
から始まり	-5376
されません	-5377
はあなたの	-5378
オーディオ	-5379
与えられた	-5380
▁World	-5381
から始めます	-5382
くれませんか	-5383
バックアップ	-5384
信じられない	-5385
自然言語処理	-5386
されていますが	-5387
に焦点を当てた	-5388
をダウンロード	-5389
テクノロジーは	-5390
ハードドライブ	-5391
を作成するために	-5392
ありがとうございます	-5393
2,	-5394
:[	-5395
UI	-5396
▁<	-5397
フの	-5398
ラは	-5399
世の	-5400
半径	-5401
巻き	-5402
息子	-5403
愛は	-5404
探索	-5405
数十	-5406
良好	-5407
費や	-5408
風味	-5409
Mac	-5410
▁In	-5411
させて	-5412
と対話	-5413
ピース	-5414
人生を	-5415
個人が	-5416
切り替	-5417
意識の	-5418
楽しむ	-5419
い合わせ	-5420
そこでは	-5421
▁要するに	-5422
あまりにも	-5423
リポジトリ	-5424
利用できる	-5425
時間を過ご	-5426
を維持するために	-5427
85	-5428
OM	-5429
キノ	-5430
予約	-5431
出発	-5432
合い	-5433
幽霊	-5434
心臓	-5435
掃除	-5436
接着	-5437
競合	-5438
蒸発	-5439
の速度	-5440
世紀に	-5441
世話を	-5442
形式で	-5443
最初は	-5444
くらいの	-5445
されない	-5446
は多くの	-5447
を受けた	-5448
ヘルスケ	-5449
ポッター	-5450
不可欠な	-5451
最終的な	-5452
望ましい	-5453
者として	-5454
なりますか	-5455
コーヒーを	-5456
指定された	-5457
あなたの名前	-5458
と見なされます	-5459
コミットメント	-5460
方法があります	-5461
考えてください	-5462
くことができます	-5463
AN	-5464
FT	-5465
SL	-5466
tr	-5467
▁Y	-5468
▁サ	-5469
、7	-5470
かす	-5471
ご飯	-5472
の上	-5473
をや	-5474
エピ	-5475
デュ	-5476
上が	-5477
亡く	-5478
交渉	-5479
出て	-5480
国が	-5481
圧倒	-5482
寒い	-5483
水が	-5484
親切	-5485
賞賛	-5486
集団	-5487
食料	-5488
rad	-5489
がまだ	-5490
はいつ	-5491
エッジ	-5492
ゴール	-5493
チキン	-5494
ティア	-5495
不確実	-5496
固有の	-5497
彼女を	-5498
悲しみ	-5499
文化と	-5500
時間は	-5501
物理的	-5502
遺伝的	-5503
関数が	-5504
きれいに	-5505
それ自体	-5506
他の人と	-5507
的である	-5508
直接的な	-5509
続きます	-5510
責任を負	-5511
umber	-5512
グラウンド	-5513
コロンビア	-5514
問い合わせ	-5515
あなた自身の	-5516
は次のように	-5517
を最小限に抑	-5518
インデックス	-5519
リアルタイム	-5520
可能性が高い	-5521
知っています	-5522
されている場合	-5523
くれてありがとう	-5524
かせ	-5525
に沿	-5526
まあ	-5527
を歩	-5528
ケル	-5529
ッコ	-5530
マリ	-5531
ラの	-5532
人物	-5533
会い	-5534
実な	-5535
想定	-5536
秩序	-5537
精通	-5538
繁栄	-5539
調節	-5540
除去	-5541
黒い	-5542
▁2)	-5543
▁if	-5544
えれば	-5545
の安全	-5546
の準備	-5547
を探す	-5548
ターミ	-5549
ボトル	-5550
マスク	-5551
大きさ	-5552
大好き	-5553
尋ねる	-5554
歴史上	-5555
証明書	-5556
関係の	-5557
イギリス	-5558
オーブン	-5559
神秘的な	-5560
革新的な	-5561
▁私たちの	-5562
かについて	-5563
はしばしば	-5564
を提示します	-5565
ニューヨーク	-5566
安定した拡散	-5567
尋ねることを	-5568
するのではなく	-5569
いくつかの重要な	-5570
を使用してください	-5571
ことを示唆しています	-5572
が含まれる場合があります	-5573
、"	-5574
、8	-5575
に残	-5576
イエ	-5577
ケア	-5578
タグ	-5579
テス	-5580
メガ	-5581
不正	-5582
及ぼ	-5583
密接	-5584
当局	-5585
普通	-5586
無効	-5587
笑い	-5588
給与	-5589
職場	-5590
設置	-5591
貿易	-5592
軍隊	-5593
進捗	-5594
遭遇	-5595
関与	-5596
ino	-5597
rom	-5598
▁16	-5599
の原因	-5600
の基礎	-5601
ドルの	-5602
バッグ	-5603
ミルク	-5604
人口の	-5605
地域で	-5606
場所で	-5607
滑らか	-5608
絶えず	-5609
質問や	-5610
食べる	-5611
▁Com	-5612
もう一度	-5613
ローラー	-5614
する場合は	-5615
を実行する	-5616
を返します	-5617
スクリーン	-5618
ストレスを	-5619
元気ですか	-5620
しようとします	-5621
を作成するには	-5622
を見つけました	-5623
ロマンチックな	-5624
のパフォーマンス	-5625
には次のものがあります	-5626
("	-5627
RT	-5628
yn	-5629
に耐	-5630
ほこ	-5631
を傾	-5632
を止	-5633
ペア	-5634
ーグ	-5635
化合	-5636
均一	-5637
家庭	-5638
海岸	-5639
火星	-5640
結び	-5641
苦労	-5642
語で	-5643
ass	-5644
ear	-5645
ree	-5646
ype	-5647
くつか	-5648
たりの	-5649
にして	-5650
を開き	-5651
ガラス	-5652
ガール	-5653
シャー	-5654
世界に	-5655
価格は	-5656
有害な	-5657
欲しい	-5658
理由で	-5659
目を覚	-5660
答えを	-5661
html	-5662
▁データ	-5663
にもっと	-5664
を減らし	-5665
アップロ	-5666
スキルの	-5667
ブラジル	-5668
ユーモア	-5669
始めます	-5670
性の高い	-5671
象徴的な	-5672
わかります	-5673
グループの	-5674
ナビゲート	-5675
プログラマ	-5676
洗練された	-5677
を計算します	-5678
エネルギー源	-5679
チューリング	-5680
プログラムは	-5681
▁return	-5682
ステートメント	-5683
ことを確認します	-5684
ようにしてください	-5685
プログラミング言語です	-5686
するのに役立つことを願っています	-5687
27	-5688
EO	-5689
yp	-5690
▁・	-5691
で覆	-5692
の色	-5693
ネス	-5694
丈夫	-5695
勇気	-5696
大陸	-5697
尺度	-5698
尽く	-5699
父親	-5700
生じ	-5701
警告	-5702
週間	-5703
選挙	-5704
重み	-5705
面積	-5706
に変更	-5707
を返す	-5708
フロー	-5709
ボタン	-5710
一度に	-5711
微調整	-5712
明らか	-5713
簡単で	-5714
製品を	-5715
避ける	-5716
Twit	-5717
____	-5718
の使用は	-5719
スイッチ	-5720
性があり	-5721
酸化炭素	-5722
で作られた	-5723
テーブルの	-5724
バルセロナ	-5725
パンケーキ	-5726
が必要ですか	-5727
オプションは	-5728
コンテンツを	-5729
ビットコイン	-5730
言い換えれば	-5731
オーディエンス	-5732
Facebook	-5733
えることができます	-5734
アプリケーションを	-5735
RP	-5736
co	-5737
hi	-5738
が来	-5739
なん	-5740
侵害	-5741
擁護	-5742
極端	-5743
皮膚	-5744
複製	-5745
規範	-5746
警察	-5747
重い	-5748
陰謀	-5749
飛ぶ	-5750
ask	-5751
そうで	-5752
に入れ	-5753
の対象	-5754
の概要	-5755
を増や	-5756
を尽く	-5757
を比較	-5758
を追跡	-5759
カラー	-5760
ストン	-5761
チェス	-5762
ックは	-5763
ハンド	-5764
フリー	-5765
ベート	-5766
マージ	-5767
ラスの	-5768
リート	-5769
助けて	-5770
厳しい	-5771
天文学	-5772
子供が	-5773
感じる	-5774
楽しく	-5775
結果の	-5776
言語は	-5777
JSON	-5778
▁多くの	-5779
」(19	-5780
いつでも	-5781
する際に	-5782
ジョージ	-5783
決定的な	-5784
▁スペイン	-5785
する方法を	-5786
イタリアの	-5787
フォーラム	-5788
意味ですか	-5789
手頃な価格	-5790
私はそれが	-5791
行われます	-5792
に移動します	-5793
人の担当者の	-5794
可能であれば	-5795
お知らせください	-5796
ことはありません	-5797
オブジェクト指向	-5798
アプリケーションで	-5799
行うことができます	-5800
することができました	-5801
84	-5802
da	-5803
が高	-5804
を抱	-5805
を言	-5806
オル	-5807
ペル	-5808
低く	-5809
光は	-5810
外交	-5811
実証	-5812
死亡	-5813
笑顔	-5814
血管	-5815
USB	-5816
lab	-5817
さない	-5818
と一致	-5819
に従事	-5820
の減少	-5821
の生産	-5822
を組み	-5823
サイド	-5824
ソード	-5825
バナナ	-5826
ューム	-5827
初めて	-5828
機能は	-5829
生物の	-5830
経験を	-5831
航空機	-5832
関数を	-5833
Rust	-5834
ment	-5835
いくつの	-5836
もう少し	-5837
ブレーキ	-5838
包括的な	-5839
柔らかく	-5840
視覚的な	-5841
という考え	-5842
めています	-5843
を書きます	-5844
イギリスの	-5845
レイアウト	-5846
何をすべき	-5847
するのを手伝	-5848
だと思います	-5849
ファンタジー	-5850
メンタルヘル	-5851
するのが難しい	-5852
オブジェクトが	-5853
コンピューターに	-5854
するかもしれません	-5855
によって異なる場合があります	-5856
26	-5857
36	-5858
]、	-5859
。(	-5860
めに	-5861
プル	-5862
井戸	-5863
休息	-5864
値が	-5865
地の	-5866
徹底	-5867
愛情	-5868
海洋	-5869
特殊	-5870
薄い	-5871
術師	-5872
衛生	-5873
補完	-5874
誕生	-5875
gin	-5876
ork	-5877
▁GB	-5878
っかり	-5879
の構造	-5880
を及ぼ	-5881
シーズ	-5882
安全に	-5883
快適な	-5884
時には	-5885
膨大な	-5886
良好な	-5887
ject	-5888
アパート	-5889
アルファ	-5890
クリエイ	-5891
ショナル	-5892
ソーラー	-5893
ビタミン	-5894
付けます	-5895
労働者の	-5896
向上させ	-5897
炭水化物	-5898
継続的に	-5899
Excel	-5900
の一般的な	-5901
エディター	-5902
ガイダンス	-5903
ボリューム	-5904
願いします	-5905
あなたは私に	-5906
このタイプの	-5907
を説明します	-5908
アップロード	-5909
キャンペーン	-5910
マトリックス	-5911
示しています	-5912
に焦点を合わせ	-5913
アップグレード	-5914
ブラックホール	-5915
86	-5916
::	-5917
▁ド	-5918
▁大	-5919
お互	-5920
オカ	-5921
ゾン	-5922
ワク	-5923
伝説	-5924
共感	-5925
午前	-5926
愛と	-5927
憲法	-5928
揚げ	-5929
滞在	-5930
統一	-5931
趣味	-5932
追い	-5933
退屈	-5934
遅く	-5935
遊び	-5936
邪悪	-5937
飛び	-5938
ill	-5939
が向上	-5940
の状態	-5941
ストア	-5942
テンソ	-5943
トーク	-5944
ネルの	-5945
ヒーロ	-5946
仕事は	-5947
冷蔵庫	-5948
役に立	-5949
情報と	-5950
▁ゲーム	-5951
があると	-5952
コードが	-5953
タリング	-5954
フライト	-5955
他の人の	-5956
開発者は	-5957
▁Java	-5958
したときに	-5959
より複雑な	-5960
エンジンの	-5961
生成される	-5962
を得るために	-5963
を知っている	-5964
助けを求める	-5965
機能しますか	-5966
することを学ぶ	-5967
グラフィックス	-5968
ソフトウェアの	-5969
第二次世界大戦	-5970
につながりました	-5971
を以下に示します	-5972
いくつかの一般的な	-5973
の	-5974
、	-5975
▁	-5976
す	-5977
を	-5978
に	-5979
ま	-5980
る	-5981
ー	-5982
。	-5983
は	-5984
し	-5985
で	-5986
と	-5987
い	-5988
な	-5989
た	-5990
が	-5991
て	-5992
ン	-5993
s	-5994
れ	-5995
こ	-5996
り	-5997
ス	-5998
あ	-5999
:	-6000
ト	-6001
か	-6002
t	-6003
ル	-6004
さ	-6005
e	-6006
イ	-6007
a	-6008
ら	-6009
き	-6010
く	-6011
ク	-6012
i	-6013
n	-6014
r	-6015
リ	-6016
よ	-6017
ッ	-6018
ラ	-6019
ア	-6020
プ	-6021
的	-6022
タ	-6023
う	-6024
め	-6025
つ	-6026
も	-6027
A	-6028
シ	-6029
テ	-6030
そ	-6031
1	-6032
ロ	-6033
.	-6034
っ	-6035
o	-6036
ド	-6037
要	-6038
人	-6039
-	-6040
用	-6041
フ	-6042
レ	-6043
え	-6044
ど	-6045
2	-6046
U	-6047
コ	-6048
デ	-6049
ジ	-6050
ム	-6051
グ	-6052
0	-6053
ん	-6054
だ	-6055
私	-6056
?	-6057
け	-6058
性	-6059
お	-6060
使	-6061
ィ	-6062
能	-6063
せ	-6064
合	-6065
)	-6066
(	-6067
l	-6068
オ	-6069
彼	-6070
や	-6071
キ	-6072
最	-6073
マ	-6074
バ	-6075
学	-6076
理	-6077
成	-6078
場	-6079
間	-6080
ニ	-6081
定	-6082
ュ	-6083
ブ	-6084
分	-6085
サ	-6086
チ	-6087
生	-6088
ョ	-6089
メ	-6090
ち	-6091
3	-6092
エ	-6093
カ	-6094
u	-6095
一	-6096
可	-6097
作	-6098
パ	-6099
c	-6100
「	-6101
セ	-6102
方	-6103
」	-6104
ェ	-6105
必	-6106
行	-6107
d	-6108
物	-6109
法	-6110
動	-6111
数	-6112
力	-6113
自	-6114
大	-6115
関	-6116
p	-6117
ャ	-6118
ウ	-6119
h	-6120
ば	-6121
語	-6122
m	-6123
化	-6124
実	-6125
5	-6126
ビ	-6127
重	-6128
*	-6129
見	-6130
ネ	-6131
モ	-6132
4	-6133
P	-6134
ズ	-6135
S	-6136
み	-6137
言	-6138
ミ	-6139
持	-6140
発	-6141
何	-6142
ソ	-6143
知	-6144
明	-6145
I	-6146
び	-6147
意	-6148
わ	-6149
べ	-6150
ピ	-6151
C	-6152
g	-6153
多	-6154
者	-6155
立	-6156
ケ	-6157
ナ	-6158
問	-6159
気	-6160
特	-6161
時	-6162
ポ	-6163
b	-6164
他	-6165
じ	-6166
確	-6167
提	-6168
ダ	-6169
解	-6170
ベ	-6171
y	-6172
日	-6173
機	-6174
中	-6175
供	-6176
年	-6177
質	-6178
常	-6179
地	-6180
`	-6181
国	-6182
高	-6183
前	-6184
度	-6185
9	-6186
体	-6187
子	-6188
会	-6189
・	-6190
上	-6191
次	-6192
開	-6193
出	-6194
6	-6195
目	-6196
加	-6197
T	-6198
適	-6199
部	-6200
変	-6201
ボ	-6202
M	-6203
入	-6204
対	-6205
ペ	-6206
ツ	-6207
D	-6208
通	-6209
x	-6210
f	-6211
事	-6212
文	-6213
新	-6214
現	-6215
ワ	-6216
本	-6217
8	-6218
L	-6219
情	-6220
計	-6221
主	-6222
ザ	-6223
役	-6224
味	-6225
世	-6226
手	-6227
画	-6228
/	-6229
題	-6230
ゲ	-6231
果	-6232
7	-6233
説	-6234
含	-6235
全	-6236
存	-6237
基	-6238
!	-6239
決	-6240
感	-6241
ォ	-6242
正	-6243
後	-6244
家	-6245
示	-6246
v	-6247
G	-6248
ガ	-6249
点	-6250
教	-6251
ユ	-6252
構	-6253
k	-6254
界	-6255
在	-6256
考	-6257
ァ	-6258
品	-6259
保	-6260
書	-6261
R	-6262
論	-6263
取	-6264
々	-6265
経	-6266
認	-6267
電	-6268
不	-6269
ざ	-6270
信	-6271
単	-6272
ギ	-6273
代	-6274
有	-6275
続	-6276
連	-6277
報	-6278
強	-6279
同	-6280
む	-6281
非	-6282
利	-6283
=	-6284
話	-6285
応	-6286
形	-6287
調	-6288
量	-6289
与	-6290
名	-6291
食	-6292
ノ	-6293
選	-6294
長	-6295
影	-6296
所	-6297
小	-6298
ず	-6299
社	-6300
B	-6301
E	-6302
戦	-6303
素	-6304
ゴ	-6305
表	-6306
結	-6307
習	-6308
設	-6309
W	-6310
効	-6311
般	-6312
女	-6313
面	-6314
業	-6315
思	-6316
料	-6317
水	-6318
O	-6319
響	-6320
約	-6321
始	-6322
価	-6323
初	-6324
心	-6325
ハ	-6326
制	-6327
下	-6328
F	-6329
識	-6330
_	-6331
異	-6332
値	-6333
期	-6334
向	-6335
状	-6336
N	-6337
択	-6338
ほ	-6339
以	-6340
別	-6341
w	-6342
へ	-6343
進	-6344
当	-6345
良	-6346
速	-6347
楽	-6348
術	-6349
例	-6350
答	-6351
複	-6352
得	-6353
義	-6354
置	-6355
切	-6356
限	-6357
起	-6358
式	-6359
組	-6360
追	-6361
個	-6362
伝	-6363
色	-6364
政	-6365
注	-6366
来	-6367
達	-6368
づ	-6369
金	-6370
引	-6371
付	-6372
"	-6373
活	-6374
験	-6375
+	-6376
産	-6377
備	-6378
安	-6379
回	-6380
空	-6381
少	-6382
指	-6383
H	-6384
受	-6385
造	-6386
音	-6387
類	-6388
市	-6389
検	-6390
ヤ	-6391
証	-6392
善	-6393
ろ	-6394
月	-6395
内	-6396
種	-6397
外	-6398
反	-6399
念	-6400
ヒ	-6401
算	-6402
改	-6403
神	-6404
接	-6405
完	-6406
助	-6407
光	-6408
好	-6409
覚	-6410
平	-6411
究	-6412
違	-6413
細	-6414
身	-6415
因	-6416
研	-6417
ホ	-6418
[	-6419
視	-6420
]	-6421
げ	-6422
,	-6423
統	-6424
簡	-6425
観	-6426
像	-6427
V	-6428
率	-6429
広	-6430
配	-6431
深	-6432
想	-6433
相	-6434
共	-6435
標	-6436
従	-6437
減	-6438
準	-6439
野	-6440
探	-6441
公	-6442
星	-6443
然	-6444
更	-6445
由	-6446
雑	-6447
J	-6448
ぶ	-6449
直	-6450
終	-6451
治	-6452
難	-6453
予	-6454
記	-6455
係	-6456
支	-6457
集	-6458
換	-6459
呼	-6460
科	-6461
各	-6462
処	-6463
球	-6464
際	-6465
ょ	-6466
歴	-6467
測	-6468
過	-6469
求	-6470
原	-6471
資	-6472
車	-6473
規	-6474
境	-6475
#	-6476
工	-6477
史	-6478
|	-6479
割	-6480
ぜ	-6481
技	-6482
今	-6483
近	-6484
無	-6485
依	-6486
製	-6487
環	-6488
両	-6489
運	-6490
器	-6491
域	-6492
字	-6493
愛	-6494
映	-6495
民	-6496
済	-6497
態	-6498
材	-6499
独	-6500
熱	-6501
健	-6502
道	-6503
門	-6504
争	-6505
低	-6506
格	-6507
順	-6508
元	-6509
管	-6510
張	-6511
誰	-6512
害	-6513
命	-6514
練	-6515
興	-6516
離	-6517
専	-6518
築	-6519
仕	-6520
維	-6521
ご	-6522
整	-6523
推	-6524
除	-6525
参	-6526
収	-6527
勧	-6528
読	-6529
康	-6530
満	-6531
件	-6532
概	-6533
位	-6534
真	-6535
議	-6536
互	-6537
優	-6538
側	-6539
再	-6540
肉	-6541
移	-6542
番	-6543
権	-6544
温	-6545
比	-6546
ね	-6547
様	-6548
析	-6549
送	-6550
険	-6551
混	-6552
象	-6553
返	-6554
X	-6555
;	-6556
太	-6557
護	-6558
線	-6559
ぐ	-6560
陽	-6561
投	-6562
詳	-6563
悪	-6564
'	-6565
交	-6566
宙	-6567
宇	-6568
z	-6569
住	-6570
古	-6571
〜	-6572
友	-6573
増	-6574
慮	-6575
源	-6576
装	-6577
費	-6578
K	-6579
介	-6580
ゼ	-6581
j	-6582
医	-6583
ぎ	-6584
十	-6585
ヘ	-6586
失	-6587
況	-6588
御	-6589
評	-6590
断	-6591
残	-6592
困	-6593
療	-6594
短	-6595
積	-6596
都	-6597
旅	-6598
転	-6599
望	-6600
列	-6601
着	-6602
込	-6603
号	-6604
{	-6605
避	-6606
圧	-6607
}	-6608
導	-6609
ヨ	-6610
任	-6611
働	-6612
和	-6613
領	-6614
囲	-6615
消	-6616
植	-6617
精	-6618
欠	-6619
口	-6620
放	-6621
案	-6622
暗	-6623
緒	-6624
歩	-6625
^	-6626
先	-6627
較	-6628
判	-6629
美	-6630
流	-6631
白	-6632
英	-6633
程	-6634
拡	-6635
海	-6636
周	-6637
親	-6638
願	-6639
建	-6640
則	-6641
照	-6642
撃	-6643
葉	-6644
族	-6645
第	-6646
米	-6647
候	-6648
条	-6649
献	-6650
徴	-6651
索	-6652
惑	-6653
卵	-6654
症	-6655
防	-6656
査	-6657
天	-6658
仮	-6659
足	-6660
頼	-6661
焦	-6662
試	-6663
育	-6664
魔	-6665
略	-6666
段	-6667
模	-6668
病	-6669
散	-6670
労	-6671
眠	-6672
落	-6673
密	-6674
死	-6675
頭	-6676
ぞ	-6677
客	-6678
Q	-6679
哲	-6680
創	-6681
曲	-6682
範	-6683
策	-6684
奨	-6685
容	-6686
型	-6687
等	-6688
火	-6689
均	-6690
止	-6691
Y	-6692
障	-6693
促	-6694
危	-6695
土	-6696
%	-6697
幅	-6698
革	-6699
男	-6700
財	-6701
益	-6702
幸	-6703
木	-6704
王	-6705
訳	-6706
•	-6707
聞	-6708
酸	-6709
猫	-6710
風	-6711
冷	-6712
声	-6713
械	-6714
二	-6715
修	-6716
飛	-6717
未	-6718
待	-6719
操	-6720
壊	-6721
師	-6722
赤	-6723
功	-6724
監	-6725
購	-6726
軽	-6727
毎	-6728
犬	-6729
節	-6730
紀	-6731
払	-6732
察	-6733
到	-6734
協	-6735
波	-6736
貢	-6737
援	-6738
告	-6739
極	-6740
系	-6741
責	-6742
半	-6743
削	-6744
将	-6745
録	-6746
ゆ	-6747
務	-6748
売	-6749
石	-6750
尋	-6751
超	-6752
課	-6753
血	-6754
企	-6755
損	-6756
屋	-6757
了	-6758
士	-6759
拠	-6760
去	-6761
攻	-6762
遠	-6763
談	-6764
魅	-6765
吸	-6766
律	-6767
恐	-6768
継	-6769
織	-6770
抗	-6771
忘	-6772
階	-6773
燃	-6774
服	-6775
印	-6776
討	-6777
傷	-6778
府	-6779
訪	-6780
液	-6781
耐	-6782
柔	-6783
紹	-6784
繰	-6785
員	-6786
塩	-6787
距	-6788
潜	-6789
給	-6790
復	-6791
遺	-6792
路	-6793
展	-6794
布	-6795
似	-6796
晴	-6797
万	-6798
及	-6799
排	-6800
歌	-6801
演	-6802
背	-6803
補	-6804
州	-6805
替	-6806
差	-6807
\	-6808
詩	-6809
項	-6810
>	-6811
属	-6812
歳	-6813
快	-6814
景	-6815
訓	-6816
ヴ	-6817
帯	-6818
負	-6819
述	-6820
激	-6821
豊	-6822
刻	-6823
胞	-6824
著	-6825
青	-6826
染	-6827
絶	-6828
戻	-6829
純	-6830
慣	-6831
脳	-6832
q	-6833
栄	-6834
施	-6835
角	-6836
具	-6837
射	-6838
紙	-6839
粉	-6840
軍	-6841
週	-6842
乗	-6843
典	-6844
写	-6845
己	-6846
聴	-6847
固	-6848
山	-6849
粒	-6850
層	-6851
痛	-6852
図	-6853
飲	-6854
銀	-6855
母	-6856
破	-6857
休	-6858
倫	-6859
喜	-6860
筋	-6861
芸	-6862
留	-6863
薬	-6864
糖	-6865
緊	-6866
根	-6867
謝	-6868
編	-6869
傾	-6870
徳	-6871
急	-6872
欲	-6873
商	-6874
苦	-6875
申	-6876
競	-6877
繁	-6878
弱	-6879
許	-6880
菜	-6881
触	-6882
砂	-6883
登	-6884
北	-6885
宗	-6886
炭	-6887
獲	-6888
釈	-6889
鶏	-6890
$	-6891
夜	-6892
敵	-6893
養	-6894
販	-6895
睡	-6896
洗	-6897
患	-6898
端	-6899
農	-6900
否	-6901
座	-6902
福	-6903
若	-6904
敗	-6905
遅	-6906
息	-6907
翻	-6908
黒	-6909
花	-6910
ぼ	-6911
閉	-6912
頻	-6913
乳	-6914
誤	-6915
顧	-6916
ゾ	-6917
富	-6918
朝	-6919
三	-6920
緑	-6921
振	-6922
職	-6923
微	-6924
笑	-6925
顔	-6926
縮	-6927
皮	-6928
鮮	-6929
校	-6930
罪	-6931
奇	-6932
刺	-6933
疑	-6934
肢	-6935
雇	-6936
夢	-6937
冒	-6938
Z	-6939
殺	-6940
牛	-6941
融	-6942
乱	-6943
宅	-6944
輸	-6945
普	-6946
批	-6947
詞	-6948
守	-6949
西	-6950
勝	-6951
秘	-6952
税	-6953
便	-6954
焼	-6955
絡	-6956
包	-6957
永	-6958
南	-6959
博	-6960
齢	-6961
ゃ	-6962
押	-6963
区	-6964
油	-6965
聖	-6966
首	-6967
億	-6968
挑	-6969
帝	-6970
携	-6971
跡	-6972
尊	-6973
犯	-6974
島	-6975
扱	-6976
曜	-6977
突	-6978
賞	-6979
憶	-6980
採	-6981
敬	-6982
昇	-6983
貫	-6984
闘	-6985
努	-6986
鍋	-6987
暖	-6988
降	-6989
既	-6990
践	-6991
厳	-6992
抽	-6993
脈	-6994
魚	-6995
室	-6996
溶	-6997
懸	-6998
迅	-6999
宣	-7000
ひ	-7001
汚	-7002
剤	-7003
怖	-7004
描	-7005
黄	-7006
伴	-7007
磁	-7008
透	-7009
豆	-7010
退	-7011
核	-7012
壁	-7013
園	-7014
暴	-7015
鳥	-7016
挙	-7017
静	-7018
菌	-7019
館	-7020
承	-7021
刷	-7022
悲	-7023
東	-7024
乾	-7025
途	-7026
驚	-7027
央	-7028
杯	-7029
洋	-7030
麦	-7031
帰	-7032
序	-7033
担	-7034
礎	-7035
紛	-7036
致	-7037
妙	-7038
店	-7039
骨	-7040
執	-7041
貨	-7042
隠	-7043
抑	-7044
軟	-7045
脅	-7046
抵	-7047
雨	-7048
°	-7049
停	-7050
午	-7051
左	-7052
森	-7053
鉄	-7054
勉	-7055
易	-7056
団	-7057
父	-7058
街	-7059
威	-7060
余	-7061
軌	-7062
唆	-7063
夕	-7064
毒	-7065
逆	-7066
警	-7067
右	-7068
脂	-7069
荷	-7070
侵	-7071
逃	-7072
陸	-7073
局	-7074
爆	-7075
衛	-7076
摂	-7077
燥	-7078
絵	-7079
腐	-7080
庭	-7081
倒	-7082
武	-7083
兆	-7084
院	-7085
川	-7086
毛	-7087
航	-7088
覆	-7089
希	-7090
走	-7091
如	-7092
裂	-7093
臓	-7094
早	-7095
貴	-7096
劇	-7097
茶	-7098
片	-7099
疾	-7100
買	-7101
充	-7102
台	-7103
熟	-7104
虫	-7105
遊	-7106
&	-7107
措	-7108
肪	-7109
船	-7110
底	-7111
唯	-7112
奏	-7113
衆	-7114
講	-7115
脱	-7116
忍	-7117
筆	-7118
亡	-7119
慎	-7120
円	-7121
延	-7122
瞑	-7123
党	-7124
婚	-7125
添	-7126
渡	-7127
励	-7128
督	-7129
蔵	-7130
版	-7131
蒸	-7132
衝	-7133
寒	-7134
為	-7135
契	-7136
冗	-7137
夫	-7138
故	-7139
煙	-7140
瞬	-7141
司	-7142
炎	-7143
裁	-7144
却	-7145
岩	-7146
呪	-7147
腕	-7148
越	-7149
脚	-7150
克	-7151
培	-7152
寄	-7153
河	-7154
輝	-7155
並	-7156
末	-7157
秒	-7158
診	-7159
隣	-7160
久	-7161
捕	-7162
湿	-7163
妻	-7164
救	-7165
巨	-7166
章	-7167
廃	-7168
撮	-7169
束	-7170
飾	-7171
請	-7172
頃	-7173
滅	-7174
震	-7175
髪	-7176
洞	-7177
括	-7178
棄	-7179
蓄	-7180
潔	-7181
賢	-7182
占	-7183
百	-7184
露	-7185
寝	-7186
弾	-7187
貧	-7188
派	-7189
賛	-7190
孤	-7191
巻	-7192
草	-7193
邦	-7194
借	-7195
官	-7196
脆	-7197
遍	-7198
偽	-7199
玉	-7200
隔	-7201
抱	-7202
<	-7203
塗	-7204
鍵	-7205
ふ	-7206
偏	-7207
称	-7208
酬	-7209
宝	-7210
履	-7211
径	-7212
璧	-7213
酵	-7214
氏	-7215
駆	-7216
総	-7217
需	-7218
省	-7219
祝	-7220
拒	-7221
衣	-7222
滑	-7223
耳	-7224
額	-7225
屈	-7226
緩	-7227
栽	-7228
盗	-7229
胸	-7230
█	-7231
兄	-7232
凍	-7233
詰	-7234
辞	-7235
寿	-7236
床	-7237
株	-7238
歯	-7239
級	-7240
ゥ	-7241
徒	-7242
沿	-7243
徐	-7244
雪	-7245
僚	-7246
兵	-7247
剰	-7248
勇	-7249
弟	-7250
恵	-7251
疲	-7252
辺	-7253
隊	-7254
倍	-7255
刑	-7256
庫	-7257
渉	-7258
伸	-7259
誇	-7260
営	-7261
ヌ	-7262
令	-7263
岸	-7264
誠	-7265
邪	-7266
居	-7267
抜	-7268
架	-7269
祖	-7270
誘	-7271
村	-7272
壌	-7273
横	-7274
膨	-7275
丸	-7276
仲	-7277
甘	-7278
盟	-7279
ぬ	-7280
埋	-7281
罰	-7282
霊	-7283
殖	-7284
免	-7285
冬	-7286
盾	-7287
翼	-7288
腹	-7289
偉	-7290
浸	-7291
雰	-7292
喫	-7293
夏	-7294
妨	-7295
媒	-7296
我	-7297
諸	-7298
陰	-7299
箱	-7300
鏡	-7301
香	-7302
昼	-7303
雲	-7304
勢	-7305
季	-7306
氷	-7307
薄	-7308
崩	-7309
憩	-7310
盤	-7311
剣	-7312
厚	-7313
彙	-7314
町	-7315
肥	-7316
飼	-7317
黙	-7318
奮	-7319
折	-7320
貯	-7321
鉱	-7322
怪	-7323
掃	-7324
掛	-7325
老	-7326
催	-7327
堅	-7328
災	-7329
炒	-7330
牲	-7331
犠	-7332
矛	-7333
春	-7334
打	-7335
稿	-7336
舞	-7337
禁	-7338
繊	-7339
才	-7340
沸	-7341
穴	-7342
垂	-7343
授	-7344
贈	-7345
怒	-7346
肌	-7347
載	-7348
忠	-7349
硬	-7350
馬	-7351
鼻	-7352
魂	-7353
堂	-7354
宿	-7355
憲	-7356
挿	-7357
票	-7358
ぱ	-7359
敏	-7360
欺	-7361
肯	-7362
尿	-7363
丈	-7364
循	-7365
橋	-7366
滞	-7367
粋	-7368
群	-7369
陥	-7370
就	-7371
漫	-7372
窓	-7373
腸	-7374
謀	-7375
輪	-7376
騰	-7377
娘	-7378
戸	-7379
署	-7380
飯	-7381
儀	-7382
弁	-7383
擁	-7384
没	-7385
恋	-7386
胆	-7387
顕	-7388
債	-7389
尽	-7390
枝	-7391
疫	-7392
鎖	-7393
副	-7394
席	-7395
掘	-7396
井	-7397
千	-7398
四	-7399
壮	-7400
姿	-7401
麻	-7402
干	-7403
征	-7404
港	-7405
覧	-7406
謎	-7407
勾	-7408
浄	-7409
清	-7410
粘	-7411
納	-7412
京	-7413
即	-7414
尾	-7415
昆	-7416
欧	-7417
尺	-7418
虚	-7419
軸	-7420
握	-7421
濃	-7422
肩	-7423
踏	-7424
沈	-7425
湖	-7426
湾	-7427
竜	-7428
嘘	-7429
幼	-7430
幽	-7431
揚	-7432
矢	-7433
賃	-7434
志	-7435
晶	-7436
爪	-7437
癌	-7438
臭	-7439
裏	-7440
辛	-7441
頑	-7442
礼	-7443
穏	-7444
遇	-7445
償	-7446
卒	-7447
秩	-7448
遭	-7449
亜	-7450
捗	-7451
貿	-7452
迷	-7453
é	-7454
併	-7455
偶	-7456
叫	-7457
祈	-7458
穀	-7459
幻	-7460
招	-7461
漢	-7462
皿	-7463
膜	-7464
灰	-7465
膚	-7466
頂	-7467
双	-7468
寸	-7469
林	-7470
汎	-7471
泡	-7472
趣	-7473
匂	-7474
嫌	-7475
宮	-7476
徹	-7477
殊	-7478
狩	-7479
誕	-7480
銃	-7481
鳴	-7482
児	-7483
漏	-7484
鉛	-7485
鋼	-7486
闇	-7487
七	-7488
泊	-7489
羊	-7490
靴	-7491
π	-7492
帽	-7493
弦	-7494
慢	-7495
浮	-7496
稼	-7497
被	-7498
韻	-7499
@	-7500
委	-7501
揺	-7502
泳	-7503
獣	-7504
華	-7505
騒	-7506
奪	-7507
締	-7508
房	-7509
酔	-7510
駄	-7511
喪	-7512
巣	-7513
幾	-7514
斜	-7515
穫	-7516
糸	-7517
虐	-7518
雄	-7519
堆	-7520
拶	-7521
挨	-7522
漠	-7523
癒	-7524
袋	-7525
俳	-7526
倣	-7527
妊	-7528
妹	-7529
控	-7530
殻	-7531
訴	-7532
迎	-7533
池	-7534
蜂	-7535
凝	-7536
捧	-7537
暑	-7538
窟	-7539
紫	-7540
肺	-7541
舌	-7542
迫	-7543
酒	-7544
愚	-7545
枠	-7546
泣	-7547
皇	-7548
秋	-7549
羽	-7550
豚	-7551
飽	-7552
吐	-7553
奴	-7554
寺	-7555
胃	-7556
詐	-7557
釣	-7558
城	-7559
恥	-7560
捨	-7561
枚	-7562
缶	-7563
鋭	-7564
暇	-7565
孫	-7566
摘	-7567
銅	-7568
隷	-7569
匹	-7570
摩	-7571
畳	-7572
蜜	-7573
叩	-7574
唐	-7575
拾	-7576
誉	-7577
⠛	-7578
懐	-7579
晩	-7580
浴	-7581
牢	-7582
絞	-7583
衰	-7584
裕	-7585
ヶ	-7586
娠	-7587
寛	-7588
潮	-7589
醸	-7590
勤	-7591
旗	-7592
君	-7593
噴	-7594
届	-7595
灯	-7596
ó	-7597
丘	-7598
悔	-7599
狂	-7600
獄	-7601
網	-7602
劣	-7603
吹	-7604
悩	-7605
憎	-7606
祭	-7607
逸	-7608
還	-7609
酢	-7610
針	-7611
í	-7612
渇	-7613
唱	-7614
塔	-7615
封	-7616
昨	-7617
椅	-7618
樹	-7619
滴	-7620
濯	-7621
砕	-7622
句	-7623
噛	-7624
昔	-7625
綿	-7626
賊	-7627
駐	-7628
拍	-7629
楕	-7630
歓	-7631
珍	-7632
績	-7633
錆	-7634
預	-7635
√	-7636
彫	-7637
敢	-7638
桁	-7639
歪	-7640
眼	-7641
酷	-7642
霧	-7643
須	-7644
á	-7645
偵	-7646
嵐	-7647
弧	-7648
戒	-7649
板	-7650
涯	-7651
田	-7652
稲	-7653
窒	-7654
粗	-7655
腎	-7656
閲	-7657
仰	-7658
挽	-7659
揮	-7660
昧	-7661
曖	-7662
漁	-7663
炉	-7664
耗	-7665
▀	-7666
傑	-7667
殿	-7668
濡	-7669
蓋	-7670
誌	-7671
召	-7672
塞	-7673
妥	-7674
審	-7675
暦	-7676
牧	-7677
狭	-7678
磨	-7679
縁	-7680
胡	-7681
臨	-7682
虹	-7683
衡	-7684
貼	-7685
😊	-7686
券	-7687
曝	-7688
泥	-7689
至	-7690
遂	-7691
嬉	-7692
把	-7693
盲	-7694
襲	-7695
踊	-7696
鋳	-7697
叔	-7698
塊	-7699
奉	-7700
孔	-7701
柱	-7702
瓶	-7703
腫	-7704
伏	-7705
菓	-7706
擬	-7707
皆	-7708
誓	-7709
貸	-7710
鎧	-7711
騎	-7712
鹿	-7713
×	-7714
ε	-7715
哺	-7716
婦	-7717
恒	-7718
棒	-7719
碑	-7720
腺	-7721
駅	-7722
符	-7723
舗	-7724
谷	-7725
遵	-7726
郵	-7727
餌	-7728
鬼	-7729
麺	-7730
姓	-7731
幹	-7732
拝	-7733
芽	-7734
ü	-7735
α	-7736
冠	-7737
巧	-7738
恩	-7739
搾	-7740
棚	-7741
沢	-7742
猟	-7743
絆	-7744
茎	-7745
詫	-7746
遷	-7747
雷	-7748
撤	-7749
涼	-7750
湯	-7751
籍	-7752
翌	-7753
脊	-7754
荒	-7755
ö	-7756
啓	-7757
圏	-7758
暮	-7759
梱	-7760
漸	-7761
祉	-7762
肝	-7763
剪	-7764
弓	-7765
慰	-7766
畜	-7767
綴	-7768
腔	-7769
鎮	-7770
ô	-7771
ι	-7772
→	-7773
丁	-7774
剖	-7775
匿	-7776
卓	-7777
幕	-7778
掲	-7779
杖	-7780
滝	-7781
飢	-7782
鹸	-7783
鼓	-7784
仏	-7785
喚	-7786
墓	-7787
往	-7788
捉	-7789
旧	-7790
煮	-7791
猿	-7792
硫	-7793
紋	-7794
跳	-7795
ο	-7796
⁄	-7797
亀	-7798
冊	-7799
喉	-7800
播	-7801
蝶	-7802
訟	-7803
隅	-7804
è	-7805
▄	-7806
嘔	-7807
寧	-7808
崇	-7809
拘	-7810
擦	-7811
看	-7812
箇	-7813
胎	-7814
舎	-7815
赦	-7816
郷	-7817
ぽ	-7818
僕	-7819
剃	-7820
嘆	-7821
娯	-7822
汗	-7823
玄	-7824
腰	-7825
辱	-7826
錬	-7827
雅	-7828
韓	-7829
髄	-7830
ú	-7831
φ	-7832
宛	-7833
慈	-7834
斑	-7835
澱	-7836
甲	-7837
畑	-7838
紳	-7839
羅	-7840
該	-7841
±	-7842
⠀	-7843
享	-7844
剥	-7845
呂	-7846
忙	-7847
淡	-7848
躇	-7849
躊	-7850
躍	-7851
醤	-7852
τ	-7853
拌	-7854
搭	-7855
攪	-7856
痕	-7857
眺	-7858
縛	-7859
謙	-7860
貪	-7861
阻	-7862
陶	-7863
σ	-7864
吉	-7865
彩	-7866
涙	-7867
漑	-7868
漬	-7869
灌	-7870
盛	-7871
肖	-7872
逮	-7873
馴	-7874
妖	-7875
彗	-7876
惨	-7877
旋	-7878
枯	-7879
桃	-7880
洪	-7881
砲	-7882
雌	-7883
鬱	-7884
‐	-7885
募	-7886
厄	-7887
唾	-7888
填	-7889
媚	-7890
怠	-7891
机	-7892
泉	-7893
渋	-7894
痺	-7895
盆	-7896
艦	-7897
苗	-7898
譲	-7899
邸	-7900
θ	-7901
μ	-7902
傘	-7903
呈	-7904
嗅	-7905
噂	-7906
岐	-7907
浅	-7908
痢	-7909
藻	-7910
豪	-7911
銘	-7912
～	-7913
€	-7914
∫	-7915
ぴ	-7916
姉	-7917
扁	-7918
敷	-7919
松	-7920
眉	-7921
紅	-7922
膝	-7923
銭	-7924
️	-7925
ν	-7926
∀	-7927
拭	-7928
栓	-7929
泌	-7930
漂	-7931
瘍	-7932
而	-7933
脇	-7934
醒	-7935
ω	-7936
∈	-7937
叙	-7938
奥	-7939
惹	-7940
拳	-7941
枕	-7942
枢	-7943
椎	-7944
沃	-7945
硝	-7946
筒	-7947
茂	-7948
蚊	-7949
傍	-7950
吊	-7951
囚	-7952
憧	-7953
疎	-7954
粧	-7955
薦	-7956
轄	-7957
錐	-7958
隆	-7959
顎	-7960
÷	-7961
ρ	-7962
《	-7963
剛	-7964
咳	-7965
憂	-7966
揃	-7967
渦	-7968
賄	-7969
賑	-7970
遣	-7971
霜	-7972
–	-7973
些	-7974
六	-7975
兼	-7976
凸	-7977
勃	-7978
叢	-7979
峡	-7980
庁	-7981
廊	-7982
懲	-7983
捜	-7984
曇	-7985
朴	-7986
潤	-7987
緻	-7988
託	-7989
贅	-7990
郭	-7991
ñ	-7992
