<pad>	0
<unk>	0
<s>	0
</s>	0
<USER>	0
<ASSISTANT>	0
ます	-0
する	-1
こと	-2
して	-3
です	-4
er	-5
あり	-6
▁a	-7
st	-8
した	-9
nt	-10
でき	-11
され	-12
します	-13
てい	-14
si	-15
us	-16
ため	-17
sta	-18
▁as	-19
user	-20
stant	-21
sistant	-22
▁user	-23
▁assistant	-24
ある	-25
あります	-26
ことが	-27
使用	-28
なた	-29
あなた	-30
的な	-31
▁-	-32
できます	-33
これ	-34
があります	-35
よう	-36
それ	-37
in	-38
スト	-39
ました	-40
on	-41
イン	-42
してい	-43
さい	-44
って	-45
ット	-46
くだ	-47
ために	-48
ない	-49
ください	-50
より	-51
ことを	-52
また	-53
re	-54
には	-55
から	-56
この	-57
ています	-58
ター	-59
プロ	-60
ませ	-61
必要	-62
可能	-63
ック	-64
ません	-65
ョン	-66
場合	-67
ング	-68
どの	-69
ード	-70
ール	-71
▁c	-72
or	-73
▁1	-74
th	-75
ティ	-76
または	-77
ション	-78
を使用	-79
では	-80
ように	-81
ート	-82
le	-83
▁p	-84
ている	-85
▁d	-86
いて	-87
できる	-88
その	-89
ーム	-90
▁=	-91
ですか	-92
en	-93
ント	-94
--	-95
しい	-96
at	-97
私は	-98
ことができます	-99
である	-100
ース	-101
ar	-102
された	-103
可能性	-104
▁s	-105
an	-106
▁2	-107
につ	-108
らの	-109
方法	-110
すること	-111
``	-112
▁m	-113
であり	-114
00	-115
によ	-116
作成	-117
重要	-118
他の	-119
al	-120
ータ	-121
つか	-122
コン	-123
られ	-124
くの	-125
として	-126
ステ	-127
el	-128
あなたの	-129
いく	-130
するために	-131
しています	-132
ュー	-133
▁i	-134
なり	-135
グラ	-136
▁f	-137
なる	-138
▁t	-139
as	-140
がある	-141
これは	-142
▁*	-143
ける	-144
いくつか	-145
データ	-146
イル	-147
es	-148
多くの	-149
ro	-150
リー	-151
提供	-152
▁l	-153
およ	-154
ライ	-155
ンス	-156
してください	-157
および	-158
▁3	-159
的に	-160
について	-161
レー	-162
クト	-163
it	-164
ップ	-165
すべ	-166
つの	-167
などの	-168
ンド	-169
ーク	-170
される	-171
を持	-172
me	-173
を使用して	-174
った	-175
ジェ	-176
を作成	-177
える	-178
もの	-179
ための	-180
言語	-181
している	-182
など	-183
ファ	-184
スク	-185
▁b	-186
これらの	-187
ri	-188
▁n	-189
すべて	-190
おり	-191
に関	-192
ra	-193
を提供	-194
ch	-195
は何	-196
ーション	-197
によって	-198
あなたが	-199
次の	-200
サイ	-201
フォ	-202
ージ	-203
するの	-204
▁"	-205
いくつかの	-206
et	-207
たち	-208
ディ	-209
ープ	-210
最も	-211
しました	-212
常に	-213
スタ	-214
間の	-215
必要があります	-216
ステム	-217
システム	-218
▁4	-219
ut	-220
役立	-221
ありません	-222
プログラ	-223
問題	-224
れば	-225
コード	-226
説明	-227
それは	-228
▁``	-229
un	-230
を見	-231
デル	-232
ゲーム	-233
ct	-234
私たち	-235
可能性があります	-236
特定	-237
id	-238
さま	-239
os	-240
世界	-241
ざま	-242
さまざま	-243
▁1.	-244
彼ら	-245
さまざまな	-246
ジェクト	-247
なく	-248
モデル	-249
えて	-250
アル	-251
います	-252
フィ	-253
セス	-254
により	-255
----	-256
っています	-257
一般	-258
どう	-259
に役立	-260
ic	-261
時間	-262
されます	-263
開発	-264
ーの	-265
ad	-266
情報	-267
▁w	-268
すべての	-269
私の	-270
まれ	-271
プリ	-272
ai	-273
▁th	-274
は何ですか	-275
影響	-276
▁e	-277
理解	-278
▁v	-279
そして	-280
▁g	-281
のある	-282
▁2.	-283
いう	-284
すると	-285
することが	-286
機能	-287
特定の	-288
▁5	-289
かを	-290
▁de	-291
サー	-292
選択	-293
mp	-294
▁3.	-295
ような	-296
キャ	-297
lo	-298
彼の	-299
新しい	-300
場合は	-301
ion	-302
っている	-303
ユー	-304
実行	-305
co	-306
タイ	-307
彼は	-308
人々	-309
チャ	-310
への	-311
バー	-312
しか	-313
ur	-314
▁o	-315
さら	-316
ンの	-317
非常に	-318
de	-319
20	-320
▁re	-321
▁|	-322
リスト	-323
重要です	-324
、「	-325
▁{	-326
アク	-327
あなたは	-328
▁この	-329
という	-330
ケーション	-331
リア	-332
に対	-333
▁[	-334
プレ	-335
▁h	-336
まで	-337
させ	-338
なります	-339
することを	-340
重要な	-341
たと	-342
ルの	-343
関数	-344
どのように	-345
バイ	-346
意味	-347
人の	-348
質問	-349
を与	-350
ソース	-351
▁#	-352
ウェ	-353
()	-354
スの	-355
する必要があります	-356
大き	-357
ブラ	-358
pt	-359
__	-360
アプリ	-361
えば	-362
19	-363
されています	-364
ac	-365
ue	-366
されている	-367
ネル	-368
ザー	-369
ing	-370
しかし	-371
▁the	-372
ただ	-373
でした	-374
ーマ	-375
することができます	-376
▁4.	-377
yth	-378
▁```	-379
するための	-380
さらに	-381
▁+	-382
10	-383
最初	-384
▁in	-385
ython	-386
..	-387
があり	-388
ファイル	-389
ことは	-390
自分	-391
それを	-392
彼女	-393
ワーク	-394
ネット	-395
テキ	-396
追加	-397
is	-398
んで	-399
テキスト	-400
含まれ	-401
ちます	-402
決定	-403
ここ	-404
める	-405
確認	-406
ことに	-407
ed	-408
▁「	-409
じて	-410
ズム	-411
学習	-412
▁co	-413
が必要	-414
れる	-415
スペ	-416
に関する	-417
ラン	-418
ことができる	-419
社会	-420
を見つ	-421
結果	-422
ーン	-423
ニング	-424
do	-425
研究	-426
▁}	-427
前に	-428
eb	-429
ポート	-430
するには	-431
アイ	-432
を含	-433
ッド	-434
ap	-435
ミング	-436
のために	-437
基づ	-438
になる	-439
um	-440
たとえば	-441
コンピ	-442
テク	-443
改善	-444
生成	-445
彼らは	-446
プラ	-447
に基づ	-448
もし	-449
えます	-450
アプリケーション	-451
ミュ	-452
li	-453
ex	-454
オブ	-455
av	-456
ーズ	-457
なら	-458
を書	-459
ンプ	-460
異なる	-461
プロセス	-462
ot	-463
一部	-464
での	-465
ent	-466
ub	-467
▁/	-468
名前	-469
ユーザー	-470
簡単	-471
れた	-472
コンピュー	-473
ーを	-474
良い	-475
▁5.	-476
することは	-477
よりも	-478
ge	-479
それら	-480
▁6	-481
いた	-482
**	-483
ame	-484
注意	-485
ライン	-486
による	-487
複雑	-488
に役立ちます	-489
ma	-490
かに	-491
取り	-492
なが	-493
起こ	-494
ょう	-495
オブジェクト	-496
が含まれ	-497
la	-498
エン	-499
クラ	-500
▁`	-501
は次の	-502
スキ	-503
エネル	-504
エネルギ	-505
▁'	-506
プログラミング	-507
引き	-508
しょう	-509
もしれ	-510
);	-511
場所	-512
▁私は	-513
する方法	-514
考え	-515
まり	-516
ーは	-517
ルを	-518
フェ	-519
テン	-520
ただし	-521
ul	-522
したり	-523
オン	-524
とおり	-525
技術	-526
かもしれ	-527
ックス	-528
シャ	-529
大きな	-530
▁y	-531
リズム	-532
ジャ	-533
ければ	-534
ループ	-535
se	-536
とおりです	-537
存在	-538
理論	-539
oo	-540
現在	-541
可能な	-542
プログラム	-543
受け	-544
python	-545
通常	-546
タスク	-547
リン	-548
効果	-549
計算	-550
ラク	-551
ツール	-552
プロジェクト	-553
ロー	-554
歴史	-555
科学	-556
ort	-557
なければ	-558
数の	-559
プレイ	-560
だけ	-561
依存	-562
小さ	-563
経験	-564
にも	-565
性を	-566
コンピューター	-567
ティング	-568
オープ	-569
えた	-570
にお	-571
フト	-572
能力	-573
di	-574
最初の	-575
教えて	-576
環境	-577
は次のとおりです	-578
と思	-579
ネットワーク	-580
とき	-581
解決	-582
ht	-583
関係	-584
を含む	-585
ので	-586
▁an	-587
トレー	-588
基本	-589
メント	-590
個人	-591
セット	-592
▁**	-593
オープン	-594
てください	-595
スを	-596
ーチ	-597
適切	-598
しない	-599
同じ	-600
変更	-601
したい	-602
組み	-603
もち	-604
を通	-605
▁(	-606
、1	-607
それが	-608
▁con	-609
コミュ	-610
コミュニ	-611
ウェア	-612
経済	-613
▁k	-614
とも	-615
人間の	-616
を持つ	-617
私が	-618
がって	-619
トレーニング	-620
勧め	-621
後に	-622
一般的な	-623
ではありません	-624
健康	-625
合わ	-626
者の	-627
することが重要です	-628
構造	-629
画像	-630
たい	-631
にと	-632
地球	-633
違い	-634
レベ	-635
--------	-636
行動	-637
キュ	-638
ですが	-639
に対する	-640
ダー	-641
お勧め	-642
ってい	-643
op	-644
国の	-645
リング	-646
したがって	-647
完全	-648
res	-649
、2	-650
デオ	-651
ロジ	-652
ci	-653
▁7	-654
▁la	-655
):	-656
ります	-657
サービ	-658
知られ	-659
影響を与	-660
最適	-661
タイプ	-662
分析	-663
要素	-664
構成	-665
しく	-666
維持	-667
合わせ	-668
でください	-669
チェ	-670
ーブ	-671
入力	-672
am	-673
ろん	-674
にとって	-675
もちろん	-676
アクセス	-677
でも	-678
を実行	-679
▁x	-680
ラー	-681
目的	-682
に応	-683
自然	-684
▁\	-685
and	-686
専門	-687
アルゴ	-688
シュ	-689
アルゴリズム	-690
▁0	-691
処理	-692
させる	-693
ランス	-694
web	-695
に従	-696
文化	-697
サイト	-698
ベース	-699
かもしれません	-700
別の	-701
できますか	-702
プション	-703
との	-704
安全	-705
お勧めします	-706
ビデオ	-707
始め	-708
il	-709
きます	-710
ており	-711
点を	-712
必要な	-713
私たちの	-714
いる	-715
ft	-716
以下	-717
レン	-718
映画	-719
彼らの	-720
jav	-721
物の	-722
なぜ	-723
を探	-724
ce	-725
宇宙	-726
上の	-727
▁to	-728
アイデ	-729
できません	-730
ッチ	-731
クリ	-732
要因	-733
ate	-734
ンを	-735
人気	-736
000	-737
全体	-738
インター	-739
しば	-740
人生	-741
コー	-742
▁en	-743
かどう	-744
を見つける	-745
ol	-746
管理	-747
性の	-748
興味	-749
人工	-750
フォーム	-751
定義	-752
設計	-753
その他の	-754
人間	-755
リカ	-756
に応じて	-757
高い	-758
オプション	-759
仕事	-760
目標	-761
ニュー	-762
効率	-763
パー	-764
考慮	-765
od	-766
リティ	-767
アの	-768
はい	-769
▁q	-770
状況	-771
小さな	-772
を引き	-773
を助	-774
やす	-775
年に	-776
これにより	-777
設定	-778
答え	-779
わり	-780
自身	-781
材料	-782
ソフト	-783
フォーマ	-784
ile	-785
付け	-786
分野	-787
ig	-788
を作	-789
トリ	-790
に役立つ	-791
フレ	-792
製品	-793
太陽	-794
れて	-795
の中	-796
自動	-797
サポート	-798
場合があります	-799
教えてください	-800
構築	-801
計画	-802
に依存	-803
を説明	-804
に関連	-805
▁もちろん	-806
学ぶ	-807
を開	-808
▁un	-809
感情	-810
文字	-811
を選択	-812
取得	-813
正確	-814
ここに	-815
かか	-816
ポー	-817
ンは	-818
よく	-819
にち	-820
グループ	-821
両方	-822
準備	-823
▁8	-824
ジュ	-825
スペイン	-826
ッセ	-827
ユニ	-828
インスト	-829
できるように	-830
呼ば	-831
ようと	-832
詳細	-833
ext	-834
利用	-835
最大	-836
ab	-837
ck	-838
ショ	-839
次に	-840
とは	-841
▁6.	-842
こん	-843
を表	-844
政治	-845
使用される	-846
概念	-847
私に	-848
ve	-849
エネルギー	-850
知識	-851
テクノ	-852
自分の	-853
こんにち	-854
りの	-855
こんにちは	-856
比較	-857
部分	-858
スタイル	-859
ソフトウェア	-860
制御	-861
になります	-862
サイズ	-863
的で	-864
テクノロジ	-865
必要がある	-866
に基づいて	-867
変化	-868
であることを	-869
実際	-870
ことです	-871
を持っている	-872
学の	-873
状態	-874
速度	-875
ine	-876
プト	-877
保護	-878
レス	-879
ではなく	-880
されました	-881
so	-882
に入	-883
生活	-884
▁r	-885
▁//	-886
ーキ	-887
でしょう	-888
▁これらの	-889
オンライン	-890
アシ	-891
可能性がある	-892
pe	-893
音楽	-894
複雑な	-895
を使	-896
感じ	-897
ラクター	-898
cri	-899
行う	-900
達成	-901
これら	-902
要約	-903
を受け	-904
)、	-905
らす	-906
一緒	-907
主義	-908
スケ	-909
データを	-910
私たちは	-911
インストール	-912
価値	-913
すれば	-914
を作成します	-915
12	-916
ers	-917
べき	-918
子供	-919
知能	-920
はありません	-921
~~	-922
られた	-923
ーター	-924
十分	-925
困難	-926
食べ	-927
ir	-928
ロック	-929
一緒に	-930
イント	-931
スタント	-932
▁st	-933
コマ	-934
深い	-935
キャラクター	-936
を追加	-937
手順	-938
ステップ	-939
移動	-940
を改善	-941
を生成	-942
を提供します	-943
シー	-944
会社	-945
最終	-946
一部の	-947
人工知能	-948
▁and	-949
テスト	-950
基本的な	-951
ation	-952
認識	-953
リソース	-954
理由	-955
するのに役立ちます	-956
につなが	-957
そう	-958
em	-959
種類	-960
地域	-961
評価	-962
示します	-963
制限	-964
当て	-965
アシスタント	-966
の例	-967
生産	-968
を維持	-969
ment	-970
における	-971
アイデア	-972
的および	-973
int	-974
▁el	-975
からの	-976
ルト	-977
物を	-978
調整	-979
楽し	-980
マイ	-981
提案	-982
適切な	-983
pa	-984
接続	-985
目の	-986
者は	-987
▁of	-988
を理解	-989
▁ア	-990
に適	-991
▁10	-992
▁こんにちは	-993
明確	-994
)。	-995
んだ	-996
パフォーマ	-997
コマンド	-998
メン	-999
ることができます	-1000
der	-1001
現在の	-1002
...	-1003
デバイ	-1004
と呼ば	-1005
とん	-1006
発生	-1007
ほとん	-1008
▁for	-1009
cript	-1010
ux	-1011
▁le	-1012
ニア	-1013
についての	-1014
されてい	-1015
と思います	-1016
中に	-1017
パフォーマンス	-1018
強力	-1019
▁si	-1020
で最も	-1021
アド	-1022
実装	-1023
のように	-1024
エンジ	-1025
サービス	-1026
ポイント	-1027
im	-1028
都市	-1029
が含まれます	-1030
マー	-1031
人が	-1032
物理	-1033
▁imp	-1034
キー	-1035
学的	-1036
どうすれば	-1037
ではない	-1038
ありますか	-1039
te	-1040
にある	-1041
あなたに	-1042
れます	-1043
チーム	-1044
を助ける	-1045
プラット	-1046
))	-1047
スクリ	-1048
18	-1049
問題を	-1050
ティブ	-1051
いですか	-1052
を備	-1053
になり	-1054
性と	-1055
発見	-1056
けます	-1057
name	-1058
セン	-1059
プラットフォーム	-1060
ip	-1061
特に	-1062
生き	-1063
オー	-1064
ないでください	-1065
::	-1066
カー	-1067
参加	-1068
向上	-1069
アップ	-1070
が必要です	-1071
up	-1072
まだ	-1073
今日	-1074
の使用	-1075
クション	-1076
成長	-1077
旅行	-1078
条件	-1079
メリカ	-1080
ver	-1081
ニーズ	-1082
コミュニティ	-1083
クロ	-1084
▁j	-1085
パラ	-1086
彼が	-1087
っと	-1088
ぞれ	-1089
それぞれ	-1090
であると	-1091
のための	-1092
使用されます	-1093
物語	-1094
ie	-1095
タル	-1096
がと	-1097
ml	-1098
最高	-1099
ボット	-1100
することも	-1101
30	-1102
elf	-1103
を取得	-1104
テンツ	-1105
コンテンツ	-1106
価格	-1107
レイ	-1108
リスク	-1109
ヤー	-1110
できない	-1111
年の	-1112
out	-1113
のは	-1114
タン	-1115
関連	-1116
ウン	-1117
パイ	-1118
彼女は	-1119
焦点を	-1120
ライブラ	-1121
を持っています	-1122
品質	-1123
ピック	-1124
デザ	-1125
自由	-1126
り返	-1127
▁se	-1128
プログラミング言語	-1129
▁al	-1130
を引き起こ	-1131
ッシュ	-1132
▁pri	-1133
▁9	-1134
の場合	-1135
ライブラリ	-1136
言語モデル	-1137
影響を与える	-1138
▁ma	-1139
▁そして	-1140
ことに注意	-1141
なりません	-1142
活動	-1143
ことを確認	-1144
inux	-1145
好き	-1146
のような	-1147
11	-1148
操作	-1149
▁int	-1150
保存	-1151
惑星	-1152
ガイ	-1153
彼らが	-1154
方法で	-1155
____	-1156
願っています	-1157
ンチ	-1158
見な	-1159
組み合わせ	-1160
メッセ	-1161
の数	-1162
しようと	-1163
規模	-1164
▁7.	-1165
▁$	-1166
ビジ	-1167
専門家	-1168
電子	-1169
するように	-1170
スクリプト	-1171
がとう	-1172
ありがとう	-1173
スキル	-1174
成功	-1175
act	-1176
55	-1177
代の	-1178
量の	-1179
ほど	-1180
シン	-1181
言葉	-1182
しますか	-1183
機械	-1184
議論	-1185
put	-1186
かどうかを	-1187
qu	-1188
これらは	-1189
人気のある	-1190
戦略	-1191
スター	-1192
ソー	-1193
温度	-1194
▁これは	-1195
することで	-1196
らか	-1197
なければなりません	-1198
get	-1199
▁if	-1200
かった	-1201
主な	-1202
メッセージ	-1203
ss	-1204
共有	-1205
より多くの	-1206
▁import	-1207
ブル	-1208
利点	-1209
セキュ	-1210
ws	-1211
ロード	-1212
アメリカ	-1213
することです	-1214
これが	-1215
▁•	-1216
を確	-1217
増加	-1218
促進	-1219
つまり	-1220
セキュリティ	-1221
教育	-1222
強力な	-1223
をも	-1224
トル	-1225
形成	-1226
ンプル	-1227
トピック	-1228
測定	-1229
("	-1230
人は	-1231
情報を	-1232
を備えた	-1233
スピ	-1234
の一部	-1235
間に	-1236
をより	-1237
最後に	-1238
ーロ	-1239
家族	-1240
市場	-1241
けて	-1242
作品	-1243
内の	-1244
om	-1245
スは	-1246
きました	-1247
いてください	-1248
を知	-1249
する必要がある	-1250
のリスト	-1251
ph	-1252
ウィ	-1253
pi	-1254
パン	-1255
簡単な	-1256
メモ	-1257
者が	-1258
レベル	-1259
簡単に	-1260
if	-1261
機会	-1262
購入	-1263
たり	-1264
バック	-1265
パター	-1266
彼女の	-1267
変換	-1268
役割	-1269
のみ	-1270
中の	-1271
力を	-1272
完全に	-1273
位置	-1274
現実	-1275
英語	-1276
責任	-1277
^2	-1278
を指	-1279
貢献	-1280
意味します	-1281
ata	-1282
番目の	-1283
繰り返	-1284
予測	-1285
尋ね	-1286
15	-1287
元の	-1288
好み	-1289
ess	-1290
運動	-1291
一方	-1292
ect	-1293
▁pro	-1294
ことを願っています	-1295
ダイ	-1296
特徴	-1297
▁ch	-1298
オープンソース	-1299
ke	-1300
本当	-1301
独自	-1302
直接	-1303
するか	-1304
個人的な	-1305
ラル	-1306
企業	-1307
物質	-1308
con	-1309
と見な	-1310
自分自身	-1311
javas	-1312
信頼	-1313
練習	-1314
javascript	-1315
表現	-1316
▁私の	-1317
がない	-1318
それらを	-1319
ロン	-1320
レーション	-1321
カル	-1322
サーバー	-1323
動き	-1324
ビュー	-1325
独自の	-1326
に焦点を	-1327
どこ	-1328
同様	-1329
▁20	-1330
する可能性があります	-1331
紹介	-1332
▁python	-1333
ow	-1334
23	-1335
大な	-1336
を通じて	-1337
ブロック	-1338
満た	-1339
可能性のある	-1340
バル	-1341
単語	-1342
来の	-1343
消費	-1344
メディ	-1345
urn	-1346
アン	-1347
調査	-1348
データの	-1349
ときに	-1350
エンス	-1351
時間を	-1352
どのような	-1353
gle	-1354
▁あなたの	-1355
よいですか	-1356
調理	-1357
のですか	-1358
ゲームの	-1359
危険	-1360
後の	-1361
を示	-1362
学び	-1363
わりに	-1364
")	-1365
バージ	-1366
cl	-1367
創造	-1368
距離	-1369
ord	-1370
レート	-1371
ポーネ	-1372
攻撃	-1373
ページ	-1374
js	-1375
組織	-1376
動物	-1377
システムの	-1378
。」	-1379
らず	-1380
戦争	-1381
プライ	-1382
iv	-1383
ても	-1384
ist	-1385
▁はい	-1386
テーブ	-1387
必要と	-1388
最高の	-1389
られています	-1390
相互	-1391
ボード	-1392
mo	-1393
検索	-1394
どうすればよいですか	-1395
",	-1396
量子	-1397
に依存します	-1398
どれ	-1399
マル	-1400
ass	-1401
を達成	-1402
カード	-1403
デザイン	-1404
▁.	-1405
信じ	-1406
少し	-1407
コンポーネ	-1408
コンポーネント	-1409
を減	-1410
変数	-1411
政府	-1412
されており	-1413
であるため	-1414
テクノロジー	-1415
end	-1416
▁ar	-1417
ze	-1418
投資	-1419
検討	-1420
ult	-1421
▁あなたが	-1422
大規模	-1423
、3	-1424
方法は	-1425
indo	-1426
えますか	-1427
色の	-1428
アプロ	-1429
▁しかし	-1430
rom	-1431
▁ex	-1432
タイプの	-1433
私たちが	-1434
▁19	-1435
もう	-1436
に置	-1437
ity	-1438
を提供する	-1439
シア	-1440
体の	-1441
更新	-1442
を行う	-1443
ールド	-1444
世界の	-1445
統合	-1446
高度	-1447
それらの	-1448
ユニーク	-1449
バージョン	-1450
を教えてください	-1451
▁_	-1452
イベ	-1453
をもた	-1454
複数の	-1455
▁def	-1456
を支	-1457
電話	-1458
to	-1459
時に	-1460
ber	-1461
ニック	-1462
正しい	-1463
ことができ	-1464
50	-1465
を手	-1466
▁ne	-1467
とは何ですか	-1468
ia	-1469
sh	-1470
世紀	-1471
何か	-1472
出力	-1473
送信	-1474
▁que	-1475
を使って	-1476
ッパ	-1477
作用	-1478
度の	-1479
食事	-1480
られる	-1481
と呼ばれる	-1482
を加	-1483
忘れ	-1484
範囲	-1485
ith	-1486
ロール	-1487
ジュール	-1488
ニュ	-1489
しており	-1490
反応	-1491
に行	-1492
平均	-1493
生物	-1494
に関連する	-1495
事実	-1496
安定	-1497
障害	-1498
100	-1499
を計算	-1500
推奨	-1501
潜在	-1502
に従って	-1503
アプローチ	-1504
パス	-1505
いています	-1506
。「	-1507
作業	-1508
前の	-1509
表示	-1510
イス	-1511
ter	-1512
デバイス	-1513
何を	-1514
定期	-1515
▁do	-1516
すぐ	-1517
電気	-1518
を取り	-1519
ことが重要です	-1520
sp	-1521
いに	-1522
アー	-1523
哲学	-1524
gpt	-1525
ウェブ	-1526
イベント	-1527
要約すると	-1528
に最適	-1529
turn	-1530
るために	-1531
にアクセス	-1532
コミュニケーション	-1533
エク	-1534
かつ	-1535
クエ	-1536
ジョ	-1537
有名	-1538
課題	-1539
十分な	-1540
側面	-1541
unt	-1542
を考慮	-1543
一般に	-1544
str	-1545
社会的	-1546
oogle	-1547
を開始	-1548
を使用します	-1549
んでいる	-1550
読み	-1551
一般的に	-1552
かな	-1553
るの	-1554
感覚	-1555
コスト	-1556
大規模な	-1557
することにより	-1558
を得	-1559
出す	-1560
ルール	-1561
グラフィ	-1562
助け	-1563
形式	-1564
ことで	-1565
を書く	-1566
人々は	-1567
に焦点を当て	-1568
サン	-1569
シャル	-1570
▁あなたは	-1571
保証	-1572
代わりに	-1573
for	-1574
メート	-1575
かり	-1576
all	-1577
ものです	-1578
なければなら	-1579
py	-1580
なし	-1581
セル	-1582
晴ら	-1583
訓練	-1584
▁es	-1585
ダウン	-1586
人に	-1587
続け	-1588
魔法	-1589
につながる	-1590
いました	-1591
を求	-1592
数学	-1593
(19	-1594
ant	-1595
ng	-1596
さん	-1597
オペ	-1598
ベル	-1599
もら	-1600
すべき	-1601
を使用する	-1602
することもできます	-1603
参照	-1604
lay	-1605
これには	-1606
しばしば	-1607
ましょう	-1608
を構築	-1609
そこ	-1610
と言	-1611
トラ	-1612
自己	-1613
、19	-1614
▁それは	-1615
16	-1616
po	-1617
領域	-1618
ヨーロ	-1619
空気	-1620
は非常に	-1621
ヨーロッパ	-1622
▁print	-1623
ase	-1624
----------------	-1625
イツ	-1626
ナー	-1627
長い	-1628
を決定	-1629
ビジネ	-1630
ギリ	-1631
要な	-1632
ヒント	-1633
リンク	-1634
▁要約すると	-1635
するのに役立つ	-1636
1.	-1637
ワード	-1638
ることを	-1639
コードを	-1640
ang	-1641
とその	-1642
を促進	-1643
人々の	-1644
最初に	-1645
知られています	-1646
米国	-1647
時間の	-1648
フランス	-1649
ナル	-1650
ハイ	-1651
適用	-1652
方向	-1653
確かに	-1654
がどのように	-1655
gra	-1656
と考え	-1657
少なく	-1658
いつ	-1659
java	-1660
バランス	-1661
たく	-1662
シェ	-1663
バッ	-1664
倫理	-1665
,000	-1666
はありますか	-1667
に分	-1668
労働	-1669
を避	-1670
精神	-1671
細胞	-1672
種類の	-1673
素晴ら	-1674
▁par	-1675
インターネット	-1676
ことができますか	-1677
アニ	-1678
することをお勧めします	-1679
ps	-1680
ムの	-1681
一の	-1682
200	-1683
ていました	-1684
動作	-1685
ドイツ	-1686
シンプル	-1687
フレーム	-1688
に到	-1689
証拠	-1690
」、「	-1691
と一緒に	-1692
linux	-1693
意識	-1694
▁return	-1695
修正	-1696
age	-1697
ction	-1698
ll	-1699
すぎ	-1700
写真	-1701
視覚	-1702
魅力	-1703
per	-1704
クラス	-1705
リーズ	-1706
最終的に	-1707
ón	-1708
いの	-1709
学生	-1710
広い	-1711
を学ぶ	-1712
を開発	-1713
始める	-1714
に加	-1715
ime	-1716
フラ	-1717
上げ	-1718
治療	-1719
▁be	-1720
ことも	-1721
あなたを	-1722
直面	-1723
する前に	-1724
の問題	-1725
ボール	-1726
優れた	-1727
ほとんどの	-1728
2.	-1729
方程	-1730
気候	-1731
方程式	-1732
17	-1733
特別	-1734
、20	-1735
を見つけ	-1736
らく	-1737
拡張	-1738
用の	-1739
one	-1740
で使用	-1741
com	-1742
を引き起こす	-1743
ッケ	-1744
伝統	-1745
植物	-1746
用語	-1747
app	-1748
んな	-1749
原則	-1750
素晴らしい	-1751
0.	-1752
原因	-1753
コント	-1754
フレー	-1755
▁self	-1756
人々が	-1757
出し	-1758
無料	-1759
▁8.	-1760
を必要と	-1761
スペース	-1762
:「	-1763
進化	-1764
最適化	-1765
に対して	-1766
▁lo	-1767
に参加	-1768
カップ	-1769
パラメ	-1770
リアル	-1771
スキルを	-1772
を作成する	-1773
なければならない	-1774
を強	-1775
コース	-1776
ットの	-1777
主張	-1778
正確な	-1779
ブリ	-1780
連の	-1781
▁z	-1782
だけで	-1783
コーヒ	-1784
力の	-1785
込み	-1786
もっと	-1787
▁エ	-1788
らせ	-1789
ql	-1790
会話	-1791
ストー	-1792
プレー	-1793
オペレー	-1794
に影響を与える	-1795
モン	-1796
シリーズ	-1797
間で	-1798
ドライ	-1799
レベルの	-1800
ソリ	-1801
応答	-1802
想像	-1803
混合	-1804
主要な	-1805
ソーシャル	-1806
芸術	-1807
lic	-1808
で構成	-1809
メモリ	-1810
ワー	-1811
顧客	-1812
もらえますか	-1813
データベース	-1814
継続	-1815
ack	-1816
その後	-1817
▁>	-1818
スマ	-1819
りたい	-1820
主に	-1821
料理	-1822
本の	-1823
なかった	-1824
を持ってい	-1825
のか	-1826
を防	-1827
協力	-1828
によると	-1829
れている	-1830
のに役立ちます	-1831
しないでください	-1832
##	-1833
マネ	-1834
独立	-1835
▁so	-1836
すぐに	-1837
ながら	-1838
一連の	-1839
人生の	-1840
を作成し	-1841
モデルの	-1842
れています	-1843
40	-1844
日の	-1845
飛行	-1846
と比較	-1847
html	-1848
忘れないでください	-1849
くて	-1850
▁ro	-1851
実際の	-1852
するのに	-1853
そのような	-1854
レシ	-1855
家の	-1856
翻訳	-1857
val	-1858
インタ	-1859
するとき	-1860
を与える	-1861
つは	-1862
不可	-1863
que	-1864
監視	-1865
ard	-1866
~~~~	-1867
ラス	-1868
利益	-1869
収集	-1870
話す	-1871
ran	-1872
いている	-1873
オープンアシスタント	-1874
he	-1875
ウォ	-1876
集中	-1877
レシピ	-1878
open	-1879
1,	-1880
追加の	-1881
ストーリー	-1882
log	-1883
が必要な	-1884
80	-1885
ラム	-1886
法律	-1887
ton	-1888
ca	-1889
を返	-1890
の両方	-1891
インターフェ	-1892
のない	-1893
メール	-1894
file	-1895
ファイルを	-1896
',	-1897
ゆる	-1898
ドル	-1899
パッケ	-1900
潜在的な	-1901
パッケージ	-1902
がある場合は	-1903
してみ	-1904
アニメ	-1905
path	-1906
化された	-1907
▁п	-1908
を実	-1909
何が	-1910
ここでは	-1911
していない	-1912
友人	-1913
宗教	-1914
することはできません	-1915
60	-1916
▁カ	-1917
デジ	-1918
メソ	-1919
数字	-1920
販売	-1921
タイム	-1922
しません	-1923
の中で	-1924
わらず	-1925
高度な	-1926
を書いてください	-1927
no	-1928
ry	-1929
特性	-1930
睡眠	-1931
▁mo	-1932
アクション	-1933
da	-1934
野菜	-1935
興味深い	-1936
のいくつか	-1937
ウェブサイト	-1938
日に	-1939
ファン	-1940
かかわらず	-1941
ff	-1942
お金	-1943
低い	-1944
ust	-1945
の結果	-1946
indows	-1947
22	-1948
▁в	-1949
ると	-1950
最新	-1951
段階	-1952
落ち	-1953
ell	-1954
政治的	-1955
roid	-1956
ニューラル	-1957
ューション	-1958
異なります	-1959
を下	-1960
メイン	-1961
ってください	-1962
▁マ	-1963
であ	-1964
単純	-1965
子の	-1966
結論	-1967
表面	-1968
ソリューション	-1969
ag	-1970
iz	-1971
き換	-1972
リオ	-1973
医療	-1974
進歩	-1975
cal	-1976
の作成	-1977
ウンド	-1978
クライ	-1979
質問に	-1980
それらは	-1981
デジタル	-1982
メソッド	-1983
おそ	-1984
白い	-1985
要件	-1986
レクト	-1987
本当に	-1988
ロボット	-1989
最小	-1990
道徳	-1991
おそらく	-1992
生み	-1993
解釈	-1994
▁==	-1995
ハード	-1996
たくさん	-1997
アドバイ	-1998
25	-1999
々の	-2000
cre	-2001
ともに	-2002
他の人	-2003
▁これらは	-2004
テナ	-2005
多様	-2006
▁[]	-2007
以下は	-2008
難しい	-2009
するために使用	-2010
混ぜ	-2011
高く	-2012
ユニークな	-2013
するにはどうすればよいですか	-2014
キャン	-2015
ッション	-2016
機械学習	-2017
ube	-2018
の開発	-2019
14	-2020
暗号	-2021
遺伝	-2022
();	-2023
有名な	-2024
的には	-2025
とともに	-2026
をと	-2027
広く	-2028
所有	-2029
相互作用	-2030
google	-2031
▁is	-2032
必要に応じて	-2033
99	-2034
でに	-2035
スコ	-2036
パク	-2037
サイク	-2038
ドキュ	-2039
考える	-2040
ベースの	-2041
▁с	-2042
わた	-2043
ure	-2044
▁ai	-2045
と同じ	-2046
オペレーティング	-2047
||	-2048
パク質	-2049
クリック	-2050
メディア	-2051
タンパク質	-2052
ることができる	-2053
になる可能性があります	-2054
bo	-2055
ッツ	-2056
化学	-2057
相談	-2058
に移動	-2059
を確認	-2060
を通して	-2061
すことができます	-2062
ニューラルネットワーク	-2063
api	-2064
を定義	-2065
ere	-2066
を減らす	-2067
テーブル	-2068
いくつかあります	-2069
テレ	-2070
分間	-2071
観察	-2072
ケット	-2073
ランダ	-2074
地球の	-2075
ld	-2076
事項	-2077
食品	-2078
を確立	-2079
オイル	-2080
られます	-2081
まず	-2082
ser	-2083
最も重要な	-2084
マト	-2085
行わ	-2086
らゆる	-2087
不可欠	-2088
完全な	-2089
選択肢	-2090
ことを示	-2091
標準	-2092
獲得	-2093
者に	-2094
限り	-2095
を手伝	-2096
エンド	-2097
フィル	-2098
▁sta	-2099
配列	-2100
ザーの	-2101
意見	-2102
すでに	-2103
可能に	-2104
▁const	-2105
ty	-2106
ずに	-2107
あなたを助ける	-2108
エラ	-2109
合計	-2110
長期	-2111
ジョン	-2112
仮想	-2113
機関	-2114
are	-2115
あらゆる	-2116
チェック	-2117
されていない	-2118
をインストール	-2119
発展	-2120
私を	-2121
ケーキ	-2122
からです	-2123
ドキュメント	-2124
いい	-2125
エル	-2126
ニン	-2127
呼び	-2128
果た	-2129
短所	-2130
言語の	-2131
形の	-2132
に到達	-2133
チーズ	-2134
大きく	-2135
点から	-2136
より良い	-2137
▁from	-2138
pu	-2139
イト	-2140
メカ	-2141
中国	-2142
入れ	-2143
実験	-2144
▁no	-2145
カスタ	-2146
美しい	-2147
少なくとも	-2148
分類	-2149
回答	-2150
('	-2151
▁++	-2152
する能力	-2153
ほとんど	-2154
にもかかわらず	-2155
ho	-2156
切り	-2157
数値	-2158
list	-2159
グラフィック	-2160
心理	-2161
規制	-2162
最大の	-2163
データセット	-2164
1)	-2165
有効	-2166
▁なぜ	-2167
の影響	-2168
ことを意味します	-2169
3.	-2170
rt	-2171
さと	-2172
めて	-2173
ルー	-2174
栄養	-2175
ire	-2176
ランド	-2177
以上の	-2178
しますが	-2179
▁したがって	-2180
人口	-2181
に変換	-2182
ターの	-2183
sion	-2184
クエスト	-2185
問題を解決	-2186
思い	-2187
機器	-2188
証明	-2189
テーマ	-2190
した場合	-2191
どち	-2192
部屋	-2193
add	-2194
は通常	-2195
を変更	-2196
経済的	-2197
フレーズ	-2198
くら	-2199
冒険	-2200
建設	-2201
に最適な	-2202
することに	-2203
んでいます	-2204
パラメーター	-2205
▁н	-2206
小説	-2207
快適	-2208
時代	-2209
権利	-2210
▁te	-2211
しやす	-2212
ウト	-2213
上に	-2214
les	-2215
ここで	-2216
時間が	-2217
最後の	-2218
するかを	-2219
もあります	-2220
du	-2221
正しく	-2222
ユーザーが	-2223
キシ	-2224
画面	-2225
▁9.	-2226
に直面	-2227
au	-2228
挑戦	-2229
いです	-2230
に使用	-2231
特別な	-2232
ello	-2233
▁さらに	-2234
に関して	-2235
国際	-2236
完了	-2237
ライト	-2238
13	-2239
原子	-2240
点で	-2241
▁com	-2242
ましたが	-2243
チャット	-2244
ダウンロード	-2245
具体	-2246
性が	-2247
最良	-2248
ray	-2249
ヤーは	-2250
▁確かに	-2251
utton	-2252
可能性があり	-2253
go	-2254
チュ	-2255
検出	-2256
pro	-2257
を提供し	-2258
コードの	-2259
られている	-2260
私はあなたが	-2261
bj	-2262
マン	-2263
指示	-2264
を楽し	-2265
を満た	-2266
幅広い	-2267
ight	-2268
')	-2269
サブ	-2270
ピー	-2271
印刷	-2272
月の	-2273
深く	-2274
空の	-2275
から始め	-2276
ウル	-2277
初期	-2278
ウント	-2279
かどうか	-2280
プレイヤー	-2281
ドラ	-2282
言及	-2283
ンプト	-2284
関数は	-2285
コンテキスト	-2286
io	-2287
に住	-2288
信念	-2289
迅速	-2290
めます	-2291
ニズム	-2292
ートの	-2293
vent	-2294
しいです	-2295
一貫	-2296
身体	-2297
ものを	-2298
を生み	-2299
介して	-2300
サイエンス	-2301
向上させる	-2302
то	-2303
ヘル	-2304
ポリ	-2305
どんな	-2306
の違い	-2307
答える	-2308
chat	-2309
するため	-2310
プロンプト	-2311
ユーザーの	-2312
2)	-2313
my	-2314
あまり	-2315
とても	-2316
両方の	-2317
同時に	-2318
ビジネス	-2319
メートル	-2320
ことに注意してください	-2321
ずれ	-2322
交換	-2323
人類	-2324
判断	-2325
削除	-2326
▁col	-2327
やその他の	-2328
に戻	-2329
編集	-2330
を防ぐ	-2331
役割を	-2332
につれて	-2333
パターン	-2334
pl	-2335
統計	-2336
▁yo	-2337
るかに	-2338
を設定	-2339
他に	-2340
市民	-2341
配置	-2342
いずれ	-2343
に従う	-2344
質問を	-2345
繰り返し	-2346
リクエスト	-2347
オペレーティングシステム	-2348
エイ	-2349
チョ	-2350
代替	-2351
保持	-2352
強い	-2353
▁qu	-2354
mple	-2355
において	-2356
影響を与え	-2357
大気	-2358
▁or	-2359
テリー	-2360
生まれ	-2361
orld	-2362
するのが	-2363
効果的な	-2364
にな	-2365
の下	-2366
拡大	-2367
短い	-2368
立て	-2369
誰も	-2370
科学的	-2371
▁res	-2372
については	-2373
ne	-2374
感謝	-2375
筋肉	-2376
許可	-2377
レット	-2378
文字列	-2379
続ける	-2380
mage	-2381
size	-2382
▁los	-2383
フィールド	-2384
outube	-2385
削減	-2386
ガイド	-2387
トマト	-2388
をもたらす	-2389
グリ	-2390
仮定	-2391
反対	-2392
年齢	-2393
検証	-2394
競争	-2395
を作る	-2396
最良の	-2397
としての	-2398
観点から	-2399
に基づいた	-2400
が含まれています	-2401
性質	-2402
持続	-2403
支払	-2404
期間	-2405
見える	-2406
に大きな	-2407
ib	-2408
ug	-2409
ソン	-2410
フロ	-2411
対話	-2412
神経	-2413
速く	-2414
▁po	-2415
コール	-2416
的です	-2417
利用可能な	-2418
を使用すると	-2419
することができ	-2420
、4	-2421
メラ	-2422
変動	-2423
大学	-2424
学校	-2425
過去	-2426
スティ	-2427
data	-2428
りました	-2429
を受	-2430
記憶	-2431
の名前	-2432
ガー	-2433
一人	-2434
書か	-2435
col	-2436
エンジン	-2437
dd	-2438
を高	-2439
真実	-2440
ace	-2441
the	-2442
に対処	-2443
最新の	-2444
icro	-2445
▁del	-2446
定期的に	-2447
になりました	-2448
2,	-2449
ダン	-2450
レクトリ	-2451
64	-2452
cu	-2453
ログ	-2454
傾向	-2455
分布	-2456
刺激	-2457
性は	-2458
革命	-2459
pri	-2460
の歴史	-2461
わかり	-2462
ケース	-2463
チャン	-2464
チェーン	-2465
オブジェクトの	-2466
可能性があるため	-2467
さえ	-2468
を超	-2469
留意	-2470
要求	-2471
が発生	-2472
かもしれない	-2473
プロジェクトの	-2474
sv	-2475
ite	-2476
url	-2477
以前の	-2478
be	-2479
申し	-2480
tic	-2481
vid	-2482
個々の	-2483
ress	-2484
▁web	-2485
だけでなく	-2486
バッテリー	-2487
ことを確認してください	-2488
ハン	-2489
num	-2490
ook	-2491
▁sh	-2492
ジャン	-2493
させます	-2494
ix	-2495
を行	-2496
ルは	-2497
将来	-2498
番号	-2499
err	-2500
▁その	-2501
を持ち	-2502
物理学	-2503
text	-2504
わたって	-2505
▁file	-2506
ませんでした	-2507
キロ	-2508
大統	-2509
適応	-2510
ial	-2511
▁on	-2512
ロシア	-2513
ゲームを	-2514
android	-2515
na	-2516
とに	-2517
コミ	-2518
ポジ	-2519
予算	-2520
指定	-2521
見つ	-2522
連絡	-2523
ベクト	-2524
大統領	-2525
モデルは	-2526
決定を下	-2527
":	-2528
70	-2529
ice	-2530
▁また	-2531
シミュ	-2532
パート	-2533
少ない	-2534
出します	-2535
につながる可能性があります	-2536
古い	-2537
向け	-2538
明る	-2539
目を	-2540
htt	-2541
▁wh	-2542
通常の	-2543
ないように	-2544
がありますが	-2545
をどのように	-2546
windows	-2547
21	-2548
24	-2549
思考	-2550
批判	-2551
破壊	-2552
重力	-2553
を調整	-2554
宇宙の	-2555
柔らか	-2556
はるかに	-2557
でしょうか	-2558
、5	-2559
を読	-2560
上で	-2561
基礎	-2562
目に	-2563
:**	-2564
ich	-2565
終わり	-2566
適切に	-2567
soft	-2568
▁text	-2569
モジュール	-2570
減少	-2571
現象	-2572
生地	-2573
したら	-2574
同様の	-2575
▁str	-2576
ディレクトリ	-2577
▁<	-2578
政策	-2579
訪問	-2580
を制御	-2581
明確に	-2582
ディング	-2583
と比較して	-2584
gu	-2585
りに	-2586
分離	-2587
古典	-2588
未来	-2589
痛み	-2590
エラー	-2591
品質の	-2592
を避ける	-2593
unction	-2594
を使用できます	-2595
書き	-2596
ターゲ	-2597
プロト	-2598
マーク	-2599
付ける	-2600
スペインの	-2601
▁о	-2602
ッジ	-2603
割り	-2604
ash	-2605
チュー	-2606
分野で	-2607
始まり	-2608
将来の	-2609
ティティ	-2610
ランダム	-2611
インポート	-2612
pp	-2613
光の	-2614
公式	-2615
平等	-2616
病気	-2617
確率	-2618
(20	-2619
キング	-2620
理論は	-2621
▁ただし	-2622
ことを知	-2623
)=	-2624
ен	-2625
を提	-2626
多く	-2627
粒子	-2628
▁次の	-2629
cont	-2630
トリック	-2631
方法です	-2632
テクニック	-2633
公開	-2634
長さ	-2635
ong	-2636
yst	-2637
がより	-2638
時間と	-2639
魔法の	-2640
read	-2641
▁num	-2642
▁val	-2643
をサポート	-2644
//	-2645
cc	-2646
喜び	-2647
抵抗	-2648
日付	-2649
に貢献	-2650
アウト	-2651
レスト	-2652
を介して	-2653
内部	-2654
推定	-2655
革新	-2656
word	-2657
フレームワーク	-2658
но	-2659
やり	-2660
par	-2661
テレビ	-2662
ブランド	-2663
の間の	-2664
までの	-2665
1/	-2666
一度	-2667
意図	-2668
支配	-2669
開始	-2670
ble	-2671
ens	-2672
▁ra	-2673
アント	-2674
ティー	-2675
単純な	-2676
がありますか	-2677
df	-2678
基準	-2679
▁it	-2680
地元の	-2681
ublic	-2682
、"	-2683
信号	-2684
文法	-2685
スライ	-2686
ルート	-2687
であるか	-2688
の重要な	-2689
コードは	-2690
の形	-2691
ガス	-2692
紛争	-2693
row	-2694
が好き	-2695
を支援	-2696
ブラウ	-2697
知られる	-2698
関連する	-2699
にどのように	-2700
新鮮	-2701
最近	-2702
産業	-2703
▁私が	-2704
ギリシャ	-2705
ッサ	-2706
値を	-2707
支援	-2708
リアの	-2709
関数の	-2710
able	-2711
odel	-2712
記録	-2713
に接続	-2714
コンパ	-2715
トップ	-2716
詳細な	-2717
ていない	-2718
可能です	-2719
がある場合	-2720
エンジニア	-2721
えてください	-2722
ことをお勧めします	-2723
しみ	-2724
ゼロ	-2725
携帯	-2726
rue	-2727
ほしい	-2728
を形成	-2729
を示す	-2730
リース	-2731
▁10.	-2732
アーティ	-2733
ユニット	-2734
全体として	-2735
スイ	-2736
実践	-2737
者と	-2738
頻繁	-2739
以下の	-2740
同様に	-2741
self	-2742
▁new	-2743
する場合	-2744
コーヒー	-2745
プライバ	-2746
可能性が	-2747
▁with	-2748
ターゲット	-2749
役割を果た	-2750
string	-2751
アニメーション	-2752
icrosoft	-2753
▁ク	-2754
を再	-2755
平和	-2756
毎日	-2757
言う	-2758
▁cl	-2759
くなる	-2760
レンジ	-2761
hello	-2762
ay	-2763
を試	-2764
彼に	-2765
mat	-2766
▁my	-2767
と感じ	-2768
フォル	-2769
▁var	-2770
にあります	-2771
を選択します	-2772
ニー	-2773
乾燥	-2774
外部	-2775
種の	-2776
財産	-2777
していました	-2778
ことに注意することが重要です	-2779
柔軟	-2780
注文	-2781
を特定	-2782
スポー	-2783
ノード	-2784
ピング	-2785
自動化	-2786
スペイン語	-2787
してみてください	-2788
gn	-2789
ww	-2790
まま	-2791
を変	-2792
スカ	-2793
中で	-2794
対応	-2795
小麦	-2796
採用	-2797
gen	-2798
を共有	-2799
自身の	-2800
play	-2801
けますか	-2802
________	-2803
説明してください	-2804
?」	-2805
hh	-2806
若い	-2807
通信	-2808
高速	-2809
dis	-2810
ick	-2811
文化的	-2812
明確な	-2813
▁ser	-2814
ystem	-2815
していますが	-2816
を増	-2817
を感じ	-2818
バーの	-2819
▁una	-2820
にします	-2821
に加えて	-2822
効果的に	-2823
ta	-2824
サラ	-2825
カウント	-2826
スポーツ	-2827
ルド	-2828
日本	-2829
記述	-2830
通貨	-2831
スチャ	-2832
問題の	-2833
覚えて	-2834
フィード	-2835
コレ	-2836
呼吸	-2837
期待	-2838
use	-2839
アーキ	-2840
携帯電話	-2841
に基づいています	-2842
トレ	-2843
反映	-2844
回復	-2845
年代	-2846
幸福	-2847
懸念	-2848
構文	-2849
識別	-2850
und	-2851
つなが	-2852
を獲得	-2853
モード	-2854
ローマ	-2855
例えば	-2856
正確に	-2857
json	-2858
ティブな	-2859
という名前	-2860
メカニズム	-2861
多くの場合	-2862
コンピューティング	-2863
に近	-2864
雇用	-2865
ive	-2866
と短所	-2867
アイテ	-2868
ライフ	-2869
互いに	-2870
▁set	-2871
的であり	-2872
システムは	-2873
90	-2874
==	-2875
うれ	-2876
りと	-2877
アス	-2878
与え	-2879
取る	-2880
曜日	-2881
空間	-2882
誰か	-2883
▁それ	-2884
を購入	-2885
マシン	-2886
ニュース	-2887
を指します	-2888
アメリカの	-2889
インターフェイス	-2890
▁u	-2891
供給	-2892
医師	-2893
視聴	-2894
論理	-2895
set	-2896
▁cre	-2897
としても	-2898
プレート	-2899
ことに留意	-2900
bu	-2901
▁オ	-2902
一致	-2903
優先	-2904
民主	-2905
話を	-2906
豊富	-2907
▁me	-2908
されて	-2909
に取り	-2910
クター	-2911
gram	-2912
タイトル	-2913
88	-2914
かけ	-2915
ウム	-2916
スー	-2917
勉強	-2918
強く	-2919
質量	-2920
ado	-2921
▁su	-2922
シーケ	-2923
間違い	-2924
られない	-2925
で知られています	-2926
ろう	-2927
相対	-2928
閉じ	-2929
高さ	-2930
mar	-2931
ごとに	-2932
を保護	-2933
コントロール	-2934
アプリケーションの	-2935
に向	-2936
戦い	-2937
手紙	-2938
業界	-2939
犯罪	-2940
込む	-2941
");	-2942
-19	-2943
flo	-2944
tra	-2945
を実装	-2946
ラップ	-2947
ange	-2948
game	-2949
テクチャ	-2950
ドライブ	-2951
lient	-2952
えています	-2953
していますか	-2954
ii	-2955
▁バ	-2956
の一	-2957
ほん	-2958
低下	-2959
手法	-2960
概要	-2961
sql	-2962
の概念	-2963
の研究	-2964
困難です	-2965
それぞれの	-2966
▁第	-2967
しさ	-2968
イズ	-2969
ビア	-2970
不安	-2971
否定	-2972
彼を	-2973
▁op	-2974
し始め	-2975
を提供できます	-2976
外観	-2977
水を	-2978
砂糖	-2979
確立	-2980
ann	-2981
▁""	-2982
どちら	-2983
リーン	-2984
注意を	-2985
▁per	-2986
する必要	-2987
のすべての	-2988
ありませんが	-2989
▁к	-2990
わけ	-2991
シナ	-2992
付き	-2993
広告	-2994
欠如	-2995
燃料	-2996
**:	-2997
たとき	-2998
レッド	-2999
覚えてお	-3000
エネルギーを	-3001
次に示します	-3002
fo	-3003
停止	-3004
有用	-3005
輸送	-3006
ces	-3007
▁一方	-3008
を入力	-3009
を書き	-3010
コピー	-3011
シング	-3012
▁api	-3013
ことに気	-3014
レビュー	-3015
推奨事項	-3016
ただけますか	-3017
を作成できます	-3018
上記	-3019
背景	-3020
ude	-3021
単一の	-3022
解決策	-3023
に置き換	-3024
ませんか	-3025
テーション	-3026
に満	-3027
終了	-3028
脂肪	-3029
費用	-3030
限に	-3031
カメラ	-3032
マルチ	-3033
会社の	-3034
アクティ	-3035
シーケンス	-3036
紹介します	-3037
▁全体として	-3038
クライアント	-3039
chatgpt	-3040
▁public	-3041
▁お	-3042
リラ	-3043
上昇	-3044
中央	-3045
分散	-3046
日常	-3047
ern	-3048
に相談	-3049
ions	-3050
それとも	-3051
lu	-3052
フル	-3053
取引	-3054
意思	-3055
発明	-3056
なりました	-3057
ことはできません	-3058
45	-3059
we	-3060
ра	-3061
▁и	-3062
側の	-3063
回転	-3064
自体	-3065
ができ	-3066
ックな	-3067
モデルを	-3068
▁comp	-3069
アーキテクチャ	-3070
りを	-3071
再生	-3072
友達	-3073
恐怖	-3074
炭素	-3075
軽減	-3076
▁py	-3077
かなり	-3078
を見る	-3079
パーソ	-3080
ctor	-3081
▁cont	-3082
することができる	-3083
がいくつかあります	-3084
ly	-3085
幸せ	-3086
手段	-3087
理想	-3088
ier	-3089
を確保	-3090
ガイモ	-3091
ジャガイモ	-3092
自分自身を	-3093
っていました	-3094
ビー	-3095
奇妙	-3096
措置	-3097
緊張	-3098
軌道	-3099
転車	-3100
key	-3101
ナッツ	-3102
ビティ	-3103
マイズ	-3104
のリスク	-3105
セクション	-3106
スケジュール	-3107
を次に示します	-3108
の量	-3109
ウス	-3110
体重	-3111
方が	-3112
金融	-3113
らかに	-3114
カバー	-3115
彼女が	-3116
食べ物	-3117
▁これが	-3118
をもたら	-3119
健康的な	-3120
ビデオゲーム	-3121
アクティビティ	-3122
するために使用されます	-3123
はず	-3124
まく	-3125
初心	-3126
土地	-3127
慎重	-3128
監督	-3129
記事	-3130
酸素	-3131
ink	-3132
▁vo	-3133
なしで	-3134
の重要	-3135
割り当て	-3136
1]	-3137
まる	-3138
兆候	-3139
分割	-3140
悪い	-3141
法的	-3142
症状	-3143
鶏肉	-3144
▁he	-3145
つです	-3146
大量の	-3147
ことなく	-3148
▁linux	-3149
ござ	-3150
便利	-3151
持ち	-3152
暗い	-3153
法則	-3154
深刻	-3155
疾患	-3156
ste	-3157
▁data	-3158
▁name	-3159
持っている	-3160
しているため	-3161
リの	-3162
努力	-3163
損傷	-3164
瞑想	-3165
農業	-3166
らない	-3167
楽しい	-3168
すために	-3169
高品質の	-3170
のに役立つ	-3171
▁world	-3172
カスタマイズ	-3173
こともできます	-3174
フィードバック	-3175
使い	-3176
契約	-3177
文脈	-3178
混乱	-3179
いいえ	-3180
の世界	-3181
を作り	-3182
を評価	-3183
地域の	-3184
意思決定	-3185
より大きな	-3186
コンパイル	-3187
はどのように	-3188
0,	-3189
合成	-3190
担当	-3191
ose	-3192
の存在	-3193
現代の	-3194
申し訳	-3195
を求める	-3196
ブラック	-3197
する方法は	-3198
に関しては	-3199
たら	-3200
クレ	-3201
モー	-3202
出来	-3203
動機	-3204
心配	-3205
len	-3206
の主な	-3207
ビット	-3208
小麦粉	-3209
▁mar	-3210
▁not	-3211
知りたい	-3212
について話	-3213
mb	-3214
お気	-3215
を追	-3216
アナ	-3217
ーカ	-3218
ーラ	-3219
体験	-3220
建築	-3221
視点	-3222
設立	-3223
ies	-3224
▁これ	-3225
ソール	-3226
フラン	-3227
数学的	-3228
方法を	-3229
code	-3230
stan	-3231
▁get	-3232
れました	-3233
リリース	-3234
存在する	-3235
している場合	-3236
tt	-3237
公共	-3238
内で	-3239
演奏	-3240
cra	-3241
を表示	-3242
ストレ	-3243
プロパ	-3244
自動車	-3245
▁最後に	-3246
アルコール	-3247
私はあなたの	-3248
によって異なる	-3249
するために使用される	-3250
3)	-3251
ud	-3252
イタ	-3253
文学	-3254
最善	-3255
歳の	-3256
透明	-3257
メキシ	-3258
を持って	-3259
サービスの	-3260
プレイヤーは	-3261
^^	-3262
ドア	-3263
ニク	-3264
二次	-3265
導入	-3266
関心	-3267
cel	-3268
ill	-3269
プラス	-3270
ラテン	-3271
伝える	-3272
個人の	-3273
安全な	-3274
従来の	-3275
オーディ	-3276
フレンド	-3277
シンプルな	-3278
パスワード	-3279
pc	-3280
のに	-3281
宣言	-3282
過ご	-3283
ask	-3284
ele	-3285
せずに	-3286
エリア	-3287
ストラ	-3288
センス	-3289
複雑さ	-3290
コミット	-3291
メキシコ	-3292
コンソール	-3293
知られている	-3294
youtube	-3295
jo	-3296
保険	-3297
ada	-3298
css	-3299
dir	-3300
▁li	-3301
ストリ	-3302
アイテム	-3303
ブラウザ	-3304
メンバー	-3305
ーキング	-3306
がありました	-3307
ハードウェア	-3308
私はあなたに	-3309
){	-3310
0]	-3311
をお	-3312
伴う	-3313
化し	-3314
必ず	-3315
確実	-3316
led	-3317
の種類	-3318
リアン	-3319
リーブ	-3320
ator	-3321
form	-3322
▁des	-3323
していた	-3324
するまで	-3325
ようです	-3326
伝統的な	-3327
▁たとえば	-3328
不可欠です	-3329
(1	-3330
わず	-3331
ピザ	-3332
人を	-3333
克服	-3334
排除	-3335
財務	-3336
起動	-3337
git	-3338
うまく	-3339
シーン	-3340
ージャ	-3341
知らせ	-3342
である場合	-3343
含まれます	-3344
essage	-3345
▁result	-3346
ba	-3347
▁コ	-3348
の後	-3349
アレ	-3350
ガン	-3351
中心	-3352
午後	-3353
銀行	-3354
wit	-3355
ったり	-3356
の変化	-3357
ウイル	-3358
キュー	-3359
出来事	-3360
ませんが	-3361
テキストの	-3362
テキストを	-3363
▁input	-3364
の子	-3365
ドロ	-3366
失敗	-3367
金属	-3368
アルゼ	-3369
でしたか	-3370
明らかに	-3371
くなります	-3372
アルゼンチ	-3373
かどうかを確認	-3374
かもしれませんが	-3375
5.	-3376
の本	-3377
商品	-3378
国は	-3379
実用	-3380
業員	-3381
液体	-3382
はより	-3383
ビーチ	-3384
フリカ	-3385
スマート	-3386
受け入れ	-3387
っていますか	-3388
32	-3389
以上	-3390
向き	-3391
存の	-3392
ght	-3393
に行く	-3394
イギリ	-3395
キャプ	-3396
リック	-3397
リンゴ	-3398
新鮮な	-3399
感情的な	-3400
気候変動	-3401
で使用される	-3402
ст	-3403
▁ト	-3404
強調	-3405
生じ	-3406
積極	-3407
習慣	-3408
酸化	-3409
に関係	-3410
ワイン	-3411
楽しみ	-3412
▁以下は	-3413
ウィンド	-3414
コメント	-3415
定期的な	-3416
キーボード	-3417
たくさんあります	-3418
登録	-3419
者を	-3420
象徴	-3421
ail	-3422
ind	-3423
や他の	-3424
以下に	-3425
唯一の	-3426
場所に	-3427
自転車	-3428
cket	-3429
bject	-3430
」、	-3431
ジー	-3432
再び	-3433
発達	-3434
ジェント	-3435
タスクを	-3436
input	-3437
プロセスは	-3438
と思いますか	-3439
するために必要な	-3440
を除	-3441
オフ	-3442
カリ	-3443
ショウ	-3444
ユーロ	-3445
ーカー	-3446
するのは	-3447
なぜなら	-3448
を含める	-3449
最も一般的な	-3450
を説明してください	-3451
カタ	-3452
カロ	-3453
線形	-3454
航空	-3455
sit	-3456
インド	-3457
タマネ	-3458
中国の	-3459
米国の	-3460
いますか	-3461
タマネギ	-3462
ニーズと	-3463
アドバイス	-3464
ウィンドウ	-3465
▁ありがとう	-3466
ет	-3467
を解	-3468
モバ	-3469
互換	-3470
例を	-3471
区別	-3472
放射	-3473
に満ち	-3474
何かを	-3475
を返します	-3476
に関する情報	-3477
を追加します	-3478
したいと思います	-3479
に似	-3480
性格	-3481
ien	-3482
あたり	-3483
で実行	-3484
を準備	-3485
を食べ	-3486
グラフ	-3487
困難な	-3488
従業員	-3489
画像の	-3490
idth	-3491
キャリア	-3492
モバイル	-3493
▁open	-3494
プロパティ	-3495
目標を達成	-3496
エキ	-3497
ゼン	-3498
以外	-3499
共通	-3500
女性	-3501
書く	-3502
ork	-3503
した後	-3504
に適応	-3505
ダンス	-3506
2023	-3507
atch	-3508
マイクロ	-3509
ヴァ	-3510
汚染	-3511
▁次に	-3512
となる	-3513
に追加	-3514
シート	-3515
プロセ	-3516
レージ	-3517
すべてが	-3518
ストレス	-3519
安定した	-3520
ない場合は	-3521
準備ができ	-3522
の組み合わせ	-3523
'、	-3524
-3	-3525
66	-3526
」:	-3527
で作	-3528
人も	-3529
合理	-3530
圧縮	-3531
希望	-3532
神話	-3533
インテ	-3534
メージ	-3535
を高める	-3536
混ぜます	-3537
アルゴリズムは	-3538
oc	-3539
げる	-3540
住民	-3541
忍耐	-3542
節約	-3543
ren	-3544
はどう	-3545
ールの	-3546
言った	-3547
error	-3548
ファイルの	-3549
を向上させる	-3550
デン	-3551
ラボ	-3552
精度	-3553
長所	-3554
500	-3555
://	-3556
▁pl	-3557
▁彼は	-3558
くれて	-3559
われる	-3560
アート	-3561
太陽の	-3562
▁out	-3563
コレート	-3564
古典的な	-3565
array	-3566
信頼できる	-3567
ak	-3568
を置	-3569
ジオ	-3570
予想	-3571
満足	-3572
現代	-3573
経過	-3574
緊急	-3575
rit	-3576
▁os	-3577
を処理	-3578
グロー	-3579
シップ	-3580
年から	-3581
結果を	-3582
▁一般に	-3583
継続的な	-3584
魅力的な	-3585
するという	-3586
として使用	-3587
を使用した	-3588
デス	-3589
以来	-3590
脅威	-3591
貴重	-3592
軍事	-3593
道路	-3594
順序	-3595
man	-3596
▁__	-3597
みます	-3598
を発見	-3599
映画の	-3600
▁app	-3601
よく理解	-3602
press	-3603
しましたが	-3604
しましょう	-3605
チョコレート	-3606
プライバシー	-3607
を失	-3608
ウド	-3609
テゴ	-3610
印象	-3611
起源	-3612
に対応	-3613
の増加	-3614
スパイ	-3615
ッカー	-3616
既存の	-3617
決して	-3618
理論の	-3619
print	-3620
ことにより	-3621
ts	-3622
wh	-3623
ッグ	-3624
トン	-3625
住宅	-3626
水の	-3627
終わ	-3628
述べ	-3629
cho	-3630
し続け	-3631
とする	-3632
を与え	-3633
技術の	-3634
の最初の	-3635
引き起こ	-3636
の一部です	-3637
電子メール	-3638
を必要とする	-3639
ことがあります	-3640
fe	-3641
さて	-3642
に出	-3643
ドリ	-3644
分の	-3645
正方	-3646
▁結論	-3647
に分割	-3648
を研究	-3649
答えは	-3650
date	-3651
の可能性	-3652
ックスは	-3653
ビジョン	-3654
効率的な	-3655
▁void	-3656
フィルター	-3657
レストラン	-3658
アーティスト	-3659
フィクション	-3660
申し訳ありませんが	-3661
▁ボ	-3662
に達	-3663
推測	-3664
秘密	-3665
観光	-3666
と主張	-3667
まった	-3668
を経験	-3669
https	-3670
プレーヤー	-3671
に使用される	-3672
エネルギーの	-3673
~~~~~~~~	-3674
yn	-3675
は約	-3676
ジア	-3677
リエ	-3678
工学	-3679
教師	-3680
果物	-3681
間違	-3682
ero	-3683
にいる	-3684
シンボ	-3685
トラン	-3686
動物の	-3687
役立つ	-3688
社会の	-3689
が必要な場合は	-3690
使用されている	-3691
7.	-3692
ik	-3693
きれ	-3694
不足	-3695
吸収	-3696
国家	-3697
突然	-3698
認証	-3699
▁au	-3700
を構成	-3701
ユーモ	-3702
豊富な	-3703
するもの	-3704
コショウ	-3705
ジャンプ	-3706
的または	-3707
value	-3708
microsoft	-3709
])	-3710
▁パ	-3711
。2	-3712
ワイ	-3713
主題	-3714
力と	-3715
古代	-3716
感染	-3717
cur	-3718
を指定	-3719
を検討	-3720
を見て	-3721
ソート	-3722
チック	-3723
ペット	-3724
マーケ	-3725
思い出	-3726
深刻な	-3727
▁dis	-3728
▁las	-3729
を維持し	-3730
サウンド	-3731
リーダー	-3732
自然言語	-3733
▁main	-3734
ニューロン	-3735
プロセスを	-3736
作成された	-3737
▁model	-3738
という名前の	-3739
グレ	-3740
ベン	-3741
働く	-3742
内に	-3743
単に	-3744
収入	-3745
年間	-3746
施設	-3747
連邦	-3748
aci	-3749
サラダ	-3750
リーの	-3751
化する	-3752
ener	-3753
sole	-3754
type	-3755
していません	-3756
であるという	-3757
マーケティング	-3758
で構成されています	-3759
教えてもらえますか	-3760
ボタ	-3761
個の	-3762
大戦	-3763
意の	-3764
抽出	-3765
損失	-3766
気分	-3767
誰が	-3768
電流	-3769
需要	-3770
に興味	-3771
に適用	-3772
アクセ	-3773
ッター	-3774
▁cal	-3775
ることは	-3776
スキルと	-3777
全体的な	-3778
になるまで	-3779
テクスチャ	-3780
設計された	-3781
についてもっと	-3782
(2	-3783
4.	-3784
冗談	-3785
分解	-3786
脆弱	-3787
che	-3788
だった	-3789
と彼の	-3790
を減ら	-3791
カテゴ	-3792
女性の	-3793
好きな	-3794
特性を	-3795
面白い	-3796
するときに	-3797
役立ちます	-3798
を組み合わせ	-3799
ey	-3800
го	-3801
に立	-3802
ギャ	-3803
バス	-3804
進行	-3805
重量	-3806
ミュー	-3807
上記の	-3808
明るい	-3809
英語の	-3810
▁100	-3811
▁can	-3812
チュート	-3813
パーソナ	-3814
ファンタ	-3815
世界大戦	-3816
効率的に	-3817
quest	-3818
があるため	-3819
という言葉	-3820
時間の経過	-3821
コレクション	-3822
タスクを実行	-3823
チュートリアル	-3824
を提供しています	-3825
を訪	-3826
ミン	-3827
リス	-3828
放出	-3829
ans	-3830
ken	-3831
vie	-3832
▁::	-3833
の欠如	-3834
の間に	-3835
を認識	-3836
ボウル	-3837
人々に	-3838
太陽系	-3839
▁200	-3840
ない場合	-3841
インスタ	-3842
craft	-3843
image	-3844
リラックス	-3845
決定を下す	-3846
ヨーロッパの	-3847
65	-3848
ер	-3849
が何	-3850
夕食	-3851
生命	-3852
資源	-3853
音声	-3854
csv	-3855
gin	-3856
lab	-3857
▁今日	-3858
を送信	-3859
インデ	-3860
ルーチ	-3861
比較的	-3862
頻繁に	-3863
世界中の	-3864
具体的な	-3865
しなければならない	-3866
と考えられています	-3867
ax	-3868
っく	-3869
コア	-3870
大幅	-3871
普遍	-3872
有害	-3873
ram	-3874
umn	-3875
▁18	-3876
の選択	-3877
を探索	-3878
シアの	-3879
ディー	-3880
ベッド	-3881
モンド	-3882
貴重な	-3883
関数を	-3884
アフリカ	-3885
メニュー	-3886
学びます	-3887
▁私たちは	-3888
プロセッサ	-3889
px	-3890
▁:	-3891
▁м	-3892
分子	-3893
報酬	-3894
強化	-3895
ジャー	-3896
事前に	-3897
危険な	-3898
誰もが	-3899
されると	-3900
っていた	-3901
に必要な	-3902
を使用し	-3903
ビリティ	-3904
▁system	-3905
言語モデルとして	-3906
++	-3907
ва	-3908
三角	-3909
主人	-3910
主観	-3911
車両	-3912
ライズ	-3913
十分に	-3914
目標は	-3915
製品の	-3916
cker	-3917
▁彼らは	-3918
サンプル	-3919
センター	-3920
使用する	-3921
ライセンス	-3922
リーブオイル	-3923
ことができません	-3924
▁申し訳ありませんが	-3925
3,	-3926
に合	-3927
イド	-3928
執筆	-3929
大さ	-3930
奨励	-3931
形態	-3932
排出	-3933
教え	-3934
本は	-3935
牛乳	-3936
▁we	-3937
を強調	-3938
世界を	-3939
主人公	-3940
主義の	-3941
無料の	-3942
目的と	-3943
を受ける	-3944
ベクトル	-3945
▁that	-3946
▁ステップ	-3947
であるかを	-3948
ストレージ	-3949
る必要があります	-3950
':	-3951
='	-3952
cp	-3953
スパ	-3954
ピア	-3955
ロマ	-3956
完璧	-3957
対立	-3958
探求	-3959
曲線	-3960
近く	-3961
dex	-3962
▁ri	-3963
バンド	-3964
支払い	-3965
この場合	-3966
ためです	-3967
サイクル	-3968
プロトコ	-3969
react	-3970
▁para	-3971
を与えます	-3972
パターンを	-3973
したい場合は	-3974
をインポート	-3975
="	-3976
うち	-3977
タブ	-3978
ビゲ	-3979
声明	-3980
星の	-3981
部門	-3982
ump	-3983
▁ab	-3984
いしい	-3985
に向か	-3986
の例を	-3987
エクサ	-3988
ッセイ	-3989
ヤーの	-3990
人間が	-3991
古代の	-3992
慎重に	-3993
alse	-3994
を可能に	-3995
メンテナ	-3996
次のように	-3997
エクササイズ	-3998
できるようにします	-3999
ことに留意することが重要です	-4000
を引き起こす可能性があります	-4001
-4	-4002
tx	-4003
、[	-4004
つも	-4005
クス	-4006
天気	-4007
徐々	-4008
活用	-4009
知の	-4010
飲み	-4011
ave	-4012
ual	-4013
▁どう	-4014
かかる	-4015
バター	-4016
情報の	-4017
生活の	-4018
5555	-4019
base	-4020
あなたと	-4021
クラウド	-4022
ゲームは	-4023
マスター	-4024
選択した	-4025
できるだけ	-4026
マネージャ	-4027
人にとって	-4028
知っている	-4029
▁function	-4030
」(	-4031
バナ	-4032
ピン	-4033
手の	-4034
整理	-4035
類似	-4036
なった	-4037
ニアの	-4038
ースト	-4039
load	-4040
ther	-4041
ample	-4042
メンテナンス	-4043
をお勧めします	-4044
しなければなりません	-4045
27	-4046
wn	-4047
ピク	-4048
交通	-4049
回避	-4050
定理	-4051
情熱	-4052
杯の	-4053
永遠	-4054
聞こ	-4055
運転	-4056
を参照	-4057
グラム	-4058
onse	-4059
はずです	-4060
注意を払	-4061
グローバル	-4062
他の多くの	-4063
キャラクターの	-4064
によって異なります	-4065
28	-4066
5,	-4067
サル	-4068
セロ	-4069
多い	-4070
家に	-4071
正義	-4072
結合	-4073
絶え	-4074
ていた	-4075
カフェ	-4076
コロン	-4077
トーン	-4078
ファイ	-4079
仕事を	-4080
例では	-4081
時点で	-4082
暗号化	-4083
cept	-4084
time	-4085
▁ent	-4086
力のある	-4087
▁list	-4088
をクリック	-4089
うことができます	-4090
97	-4091
ем	-4092
があ	-4093
指導	-4094
文書	-4095
転送	-4096
arr	-4097
▁np	-4098
の感覚	-4099
を測定	-4100
ヘッド	-4101
ホーム	-4102
ラベル	-4103
生き物	-4104
mand	-4105
▁---	-4106
▁pre	-4107
見つける	-4108
インスタンス	-4109
プラスチック	-4110
ことができない	-4111
▁console	-4112
),	-4113
を着	-4114
キン	-4115
公園	-4116
形状	-4117
正式	-4118
無限	-4119
結婚	-4120
銀河	-4121
を求め	-4122
ダーの	-4123
実際に	-4124
連れて	-4125
に適した	-4126
ますます	-4127
アドレス	-4128
スレッド	-4129
自動的に	-4130
などの他の	-4131
button	-4132
テクノロジーの	-4133
最も人気のある	-4134
時間の経過とともに	-4135
fi	-4136
mi	-4137
爆発	-4138
met	-4139
くべき	-4140
ことの	-4141
に保存	-4142
ブラジ	-4143
リット	-4144
誰かが	-4145
飛行機	-4146
::::	-4147
line	-4148
▁...	-4149
▁you	-4150
への影響	-4151
inter	-4152
▁人工知能	-4153
の基本的な	-4154
を生成します	-4155
2:	-4156
に触	-4157
会議	-4158
冷却	-4159
博物	-4160
拒否	-4161
暖か	-4162
流れ	-4163
絶対	-4164
▁по	-4165
ナビゲ	-4166
ハリー	-4167
前向き	-4168
博物館	-4169
奇妙な	-4170
arch	-4171
だけです	-4172
に合わせ	-4173
ッピング	-4174
プレゼン	-4175
ございます	-4176
ソーシャルネットワーク	-4177
"、	-4178
ía	-4179
ちゃ	-4180
ボー	-4181
強度	-4182
次元	-4183
照明	-4184
を分析	-4185
を解決	-4186
以前に	-4187
倫理的	-4188
最適な	-4189
有用な	-4190
複雑で	-4191
豊かな	-4192
そのため	-4193
それらが	-4194
と同様に	-4195
実用的な	-4196
しましたか	-4197
キャプチャ	-4198
へのアクセス	-4199
わかりません	-4200
インタビュー	-4201
質問に答える	-4202
していることを	-4203
プレゼンテーション	-4204
fa	-4205
バン	-4206
共和	-4207
周囲	-4208
地震	-4209
武器	-4210
積分	-4211
首都	-4212
son	-4213
vel	-4214
▁ph	-4215
から来	-4216
を実施	-4217
を得る	-4218
残りの	-4219
エクスペ	-4220
オレンジ	-4221
パーティ	-4222
ミュージ	-4223
専門的な	-4224
誰ですか	-4225
を作成して	-4226
を説明する	-4227
ユーザーは	-4228
あなたがあなたの	-4229
▁javascript	-4230
である可能性があります	-4231
ああ	-4232
きた	-4233
元気	-4234
数は	-4235
▁0;	-4236
▁fo	-4237
▁km	-4238
スコア	-4239
マイル	-4240
ルーム	-4241
日本の	-4242
▁fra	-4243
んでいた	-4244
を生み出す	-4245
世界で最も	-4246
▁string	-4247
1:	-4248
ро	-4249
ころ	-4250
ビエ	-4251
ヴィ	-4252
人と	-4253
代表	-4254
報告	-4255
戦闘	-4256
残念	-4257
電源	-4258
高価	-4259
に設定	-4260
ゆっく	-4261
▁por	-4262
しやすい	-4263
を満たす	-4264
インフレ	-4265
否定的な	-4266
うれしいです	-4267
▁button	-4268
pg	-4269
に保	-4270
ジン	-4271
用途	-4272
認知	-4273
ain	-4274
sum	-4275
いつも	-4276
の要素	-4277
を使う	-4278
ホスト	-4279
行動を	-4280
▁ver	-4281
つであり	-4282
アイデン	-4283
インスピ	-4284
リエンス	-4285
assword	-4286
パーソナライズ	-4287
アイデンティティ	-4288
エクスペリエンス	-4289
に焦点を当てています	-4290
ことを忘れないでください	-4291
ナミ	-4292
一定	-4293
包括	-4294
履歴	-4295
月に	-4296
▁us	-4297
▁さて	-4298
▁彼の	-4299
に直接	-4300
をとる	-4301
カット	-4302
程度の	-4303
の専門家	-4304
イメージ	-4305
indow	-4306
フランスの	-4307
唆しています	-4308
インスピレーション	-4309
-1	-4310
az	-4311
ел	-4312
のお	-4313
交差	-4314
分裂	-4315
同意	-4316
周波	-4317
呪文	-4318
回路	-4319
建物	-4320
整数	-4321
朝食	-4322
財政	-4323
近い	-4324
ari	-4325
▁up	-4326
が表示	-4327
を提案	-4328
を適用	-4329
アルバ	-4330
ックの	-4331
互換性	-4332
初心者	-4333
名前は	-4334
政府の	-4335
自分で	-4336
込まれ	-4337
コンテナ	-4338
長期的な	-4339
アカウント	-4340
75	-4341
ms	-4342
ッキ	-4343
典型	-4344
程度	-4345
自信	-4346
診断	-4347
資本	-4348
違反	-4349
▁di	-4350
、10	-4351
する際	-4352
を表す	-4353
ジット	-4354
マップ	-4355
徐々に	-4356
開発者	-4357
ドイツの	-4358
レーター	-4359
ものがあります	-4360
by	-4361
」。	-4362
グル	-4363
ナダ	-4364
摂取	-4365
男性	-4366
語の	-4367
違法	-4368
われた	-4369
オート	-4370
向けの	-4371
erson	-4372
これを行う	-4373
サービスを	-4374
システムが	-4375
システムを	-4376
持続可能な	-4377
オンラインで	-4378
を避けるために	-4379
inecraft	-4380
35	-4381
4,	-4382
かげ	-4383
を残	-4384
ガル	-4385
ルク	-4386
レッ	-4387
兄弟	-4388
単位	-4389
学者	-4390
対象	-4391
著作	-4392
言い	-4393
部の	-4394
ape	-4395
ten	-4396
▁am	-4397
フォー	-4398
大さじ	-4399
オーバー	-4400
クラスの	-4401
▁すべての	-4402
であることを確認	-4403
su	-4404
かの	-4405
を発	-4406
ボリ	-4407
推論	-4408
暴力	-4409
lot	-4410
mod	-4411
ung	-4412
▁||	-4413
ちゃん	-4414
と信じ	-4415
巨大な	-4416
彼らに	-4417
歴史的	-4418
▁cur	-4419
▁dra	-4420
▁新しい	-4421
創造的な	-4422
実際には	-4423
書かれた	-4424
プロセスの	-4425
ユーザーに	-4426
▁結論として	-4427
けてください	-4428
テンプレート	-4429
に変	-4430
に等	-4431
に見	-4432
出版	-4433
土壌	-4434
実施	-4435
容易	-4436
成分	-4437
文明	-4438
疑問	-4439
示す	-4440
色は	-4441
過剰	-4442
aut	-4443
nte	-4444
▁0.	-4445
にさら	-4446
の高い	-4447
スタン	-4448
多様な	-4449
教える	-4450
背後に	-4451
落ち着	-4452
言語で	-4453
▁最初の	-4454
ボタンを	-4455
に関係なく	-4456
ソーシャルメディア	-4457
6.	-4458
],	-4459
sk	-4460
に乗	-4461
を講	-4462
仮説	-4463
受信	-4464
手伝	-4465
拡散	-4466
資産	-4467
食物	-4468
old	-4469
ウイルス	-4470
タスクの	-4471
発生する	-4472
clude	-4473
られました	-4474
なっています	-4475
のいくつかの	-4476
ラボレーション	-4477
していただけますか	-4478
のいくつかは次のとおりです	-4479
▁今	-4480
▁各	-4481
アラ	-4482
カン	-4483
ヒー	-4484
続く	-4485
血液	-4486
規則	-4487
ach	-4488
dom	-4489
そこで	-4490
はまだ	-4491
クエリ	-4492
ノイズ	-4493
ホール	-4494
人々を	-4495
小さじ	-4496
機能を	-4497
詳しく	-4498
のセット	-4499
を増やす	-4500
シナリオ	-4501
連れて行	-4502
▁java	-4503
▁true	-4504
を実行します	-4505
されていません	-4506
ではありませんが	-4507
などのさまざまな	-4508
エンジニアリング	-4509
重要な役割を果た	-4510
商業	-4511
密度	-4512
広範	-4513
提示	-4514
栽培	-4515
腐敗	-4516
調べ	-4517
ody	-4518
▁15	-4519
▁va	-4520
▁他の	-4521
くらい	-4522
エディ	-4523
クリー	-4524
フライ	-4525
プリン	-4526
リーは	-4527
仕事の	-4528
大きい	-4529
自然な	-4530
▁###	-4531
▁key	-4532
し続ける	-4533
グラムの	-4534
ithub	-4535
してほしい	-4536
がありません	-4537
message	-4538
として知られる	-4539
!」	-4540
76	-4541
:(	-4542
va	-4543
を聞	-4544
ナの	-4545
卵を	-4546
投稿	-4547
指向	-4548
製造	-4549
dio	-4550
にする	-4551
を削減	-4552
ーンの	-4553
問題は	-4554
vice	-4555
を改善し	-4556
機能します	-4557
んでください	-4558
コーディング	-4559
オブジェクトを	-4560
コンピューターの	-4561
。1	-4562
。。	-4563
ねぎ	-4564
をつ	-4565
加速	-4566
尊重	-4567
成果	-4568
時の	-4569
時期	-4570
洗練	-4571
物事	-4572
献身	-4573
▁-1	-4574
▁材料	-4575
に近づ	-4576
やすい	-4577
インの	-4578
バイオ	-4579
数学の	-4580
方法の	-4581
栄養素	-4582
玉ねぎ	-4583
rans	-4584
▁dat	-4585
▁tra	-4586
フォルト	-4587
典型的な	-4588
によっては	-4589
ゆっくりと	-4590
られており	-4591
指定された	-4592
覚えておく	-4593
説明します	-4594
であると考え	-4595
サイティング	-4596
▁output	-4597
▁pygame	-4598
している場合は	-4599
使用されています	-4600
でなければなりません	-4601
](	-4602
gb	-4603
sd	-4604
ри	-4605
と戦	-4606
ほぼ	-4607
カラ	-4608
共産	-4609
境界	-4610
差別	-4611
撮影	-4612
母親	-4613
百万	-4614
通り	-4615
に感謝	-4616
を探求	-4617
ブレー	-4618
周りの	-4619
多数の	-4620
混合物	-4621
ning	-4622
▁flo	-4623
▁let	-4624
▁man	-4625
おいしい	-4626
であれば	-4627
に役立ち	-4628
エラーを	-4629
プロット	-4630
物理的な	-4631
できますが	-4632
を生成する	-4633
インタラク	-4634
長所と短所	-4635
▁class	-4636
であることが	-4637
オリーブオイル	-4638
であることを忘れないでください	-4639
bi	-4640
lp	-4641
za	-4642
▁б	-4643
のが	-4644
テル	-4645
割合	-4646
力が	-4647
瞬間	-4648
移行	-4649
興奮	-4650
読む	-4651
cia	-4652
min	-4653
を講じ	-4654
を軽減	-4655
チャー	-4656
プラグ	-4657
刻んだ	-4658
子供の	-4659
▁end	-4660
それほど	-4661
インフラ	-4662
エッセイ	-4663
スライス	-4664
ニュート	-4665
ニンニク	-4666
シンプルで	-4667
デフォルト	-4668
ミッション	-4669
始めました	-4670
が必要になる	-4671
フォーマット	-4672
プログラマー	-4673
されているため	-4674
89	-4675
びに	-4676
メタ	-4677
公平	-4678
蓄積	-4679
資金	-4680
ast	-4681
dat	-4682
fig	-4683
ide	-4684
sub	-4685
▁1)	-4686
と仮定	-4687
インチ	-4688
ソビエ	-4689
近くの	-4690
▁est	-4691
カテゴリ	-4692
ストラク	-4693
ソビエト	-4694
チャネル	-4695
を手伝って	-4696
調理します	-4697
cument	-4698
プレイヤーが	-4699
エキサイティング	-4700
シミュレーション	-4701
される可能性があります	-4702
yo	-4703
на	-4704
、6	-4705
の不	-4706
を待	-4707
bre	-4708
ida	-4709
▁ho	-4710
ある日	-4711
が存在	-4712
これを	-4713
を返す	-4714
目的は	-4715
関係を	-4716
キャンペ	-4717
ボックス	-4718
最小限に	-4719
訓練された	-4720
object	-4721
設計されています	-4722
にはどうすればよいですか	-4723
((	-4724
ln	-4725
にし	-4726
何も	-4727
充電	-4728
喫煙	-4729
囲気	-4730
展開	-4731
帝国	-4732
投げ	-4733
段落	-4734
燃焼	-4735
製の	-4736
車の	-4737
青い	-4738
▁на	-4739
ところ	-4740
の中心	-4741
を表現	-4742
レンズ	-4743
名前を	-4744
大幅に	-4745
雰囲気	-4746
rust	-4747
お気に入	-4748
を変える	-4749
インテリ	-4750
ステート	-4751
次の手順	-4752
プログラムの	-4753
チャットボット	-4754
▁д	-4755
を描	-4756
アッ	-4757
ダル	-4758
ホル	-4759
引用	-4760
矛盾	-4761
素材	-4762
ino	-4763
ree	-4764
▁まず	-4765
エント	-4766
ポルト	-4767
世界で	-4768
哲学的	-4769
char	-4770
main	-4771
▁car	-4772
▁ele	-4773
どちらも	-4774
提供する	-4775
なぜですか	-4776
質問に対する	-4777
をインポートします	-4778
36	-4779
ok	-4780
値は	-4781
客観	-4782
尊敬	-4783
慣行	-4784
承認	-4785
海の	-4786
電圧	-4787
ura	-4788
▁pa	-4789
安全で	-4790
時代の	-4791
結果は	-4792
美しさ	-4793
idad	-4794
twit	-4795
でしたが	-4796
に満ちた	-4797
を楽しむ	-4798
キリスト	-4799
ショット	-4800
日常生活	-4801
読み取り	-4802
ensor	-4803
スタイルの	-4804
ツールです	-4805
デバイスの	-4806
最小限に抑	-4807
コラボレーション	-4808
-2	-4809
しも	-4810
ブレ	-4811
前進	-4812
反射	-4813
同期	-4814
寿命	-4815
日光	-4816
演算	-4817
発電	-4818
神の	-4819
行為	-4820
論文	-4821
rid	-4822
お金を	-4823
にのみ	-4824
はどれ	-4825
ケーブ	-4826
単なる	-4827
惑星の	-4828
映画は	-4829
機能の	-4830
激しい	-4831
comp	-4832
sing	-4833
▁add	-4834
▁und	-4835
のいずれ	-4836
ティーヤ	-4837
レベルを	-4838
前向きな	-4839
ebook	-4840
を見つけて	-4841
result	-4842
を定義します	-4843
質問がある場合は	-4844
することが含まれます	-4845
を見つけることができます	-4846
84	-4847
ya	-4848
▁ロ	-4849
▁・	-4850
が見	-4851
しま	-4852
は不	-4853
ッカ	-4854
トロ	-4855
ハー	-4856
レオ	-4857
人種	-4858
番目	-4859
細菌	-4860
継承	-4861
良く	-4862
長く	-4863
fra	-4864
mac	-4865
pre	-4866
かげで	-4867
っても	-4868
は彼の	-4869
女の子	-4870
知識と	-4871
必ずしも	-4872
このような	-4873
には多くの	-4874
に合わせて	-4875
バランスの	-4876
可能な限り	-4877
▁range	-4878
▁create	-4879
アルゴリズムの	-4880
39	-4881
、7	-4882
かで	-4883
を送	-4884
グロ	-4885
ナイ	-4886
反復	-4887
崩壊	-4888
簡潔	-4889
自宅	-4890
風景	-4891
gpu	-4892
ker	-4893
pdf	-4894
ven	-4895
〜10	-4896
と思う	-4897
にあり	-4898
明確で	-4899
目的地	-4900
ngth	-4901
うために	-4902
ダイナミ	-4903
モデルが	-4904
協力して	-4905
width	-4906
かかります	-4907
が含まれる	-4908
ていません	-4909
を加えます	-4910
を受け取り	-4911
開発された	-4912
display	-4913
によって引き起こ	-4914
を作成するための	-4915
ることができますか	-4916
85	-4917
¶¶	-4918
██	-4919
ネイ	-4920
修理	-4921
時々	-4922
有益	-4923
続き	-4924
語彙	-4925
ary	-4926
ger	-4927
mer	-4928
▁mu	-4929
を予測	-4930
を読む	-4931
情報が	-4932
画像を	-4933
違いは	-4934
peed	-4935
▁die	-4936
の特定の	-4937
を選択し	-4938
暗号通貨	-4939
クレジット	-4940
残念ながら	-4941
を見つけます	-4942
の違いは何ですか	-4943
ブロックチェーン	-4944
想像してください	-4945
).	-4946
vo	-4947
かれ	-4948
けた	-4949
に苦	-4950
の大	-4951
エー	-4952
メロ	-4953
休憩	-4954
命令	-4955
平方	-4956
引数	-4957
押し	-4958
歌詞	-4959
永続	-4960
職業	-4961
▁+=	-4962
でさえ	-4963
の範囲	-4964
を伴う	-4965
を行い	-4966
を調査	-4967
家族の	-4968
広範な	-4969
量子力	-4970
ream	-4971
には次の	-4972
の例です	-4973
ましたか	-4974
まったく	-4975
カロリー	-4976
クリーム	-4977
ジャンル	-4978
excel	-4979
チャンネル	-4980
▁value	-4981
▁この例では	-4982
キロメートル	-4983
ストラクチャ	-4984
ラップトップ	-4985
▁google	-4986
▁person	-4987
いくつかのヒント	-4988
してもらえますか	-4989
アプリケーションを	-4990
影響を与える可能性があります	-4991
wa	-4992
во	-4993
やる	-4994
ノー	-4995
ブロ	-4996
入手	-4997
危機	-4998
廃棄	-4999
水分	-5000
犠牲	-5001
犬の	-5002
肯定	-5003
野生	-5004
ana	-5005
bin	-5006
bot	-5007
run	-5008
▁=>	-5009
が高い	-5010
だから	-5011
つもり	-5012
を反映	-5013
オーブ	-5014
ジプト	-5015
トーク	-5016
責任を	-5017
遺伝子	-5018
flow	-5019
▁mat	-5020
に入れる	-5021
の場合は	-5022
スケーラ	-5023
センサー	-5024
バルセロ	-5025
メンタル	-5026
子供たち	-5027
対応する	-5028
特徴付け	-5029
考えると	-5030
人生の意味	-5031
openai	-5032
ここにいます	-5033
につながります	-5034
はありませんが	-5035
検討してください	-5036
する必要がありますか	-5037
サイエンスフィクション	-5038
!!	-5039
";	-5040
ec	-5041
gs	-5042
▁ス	-5043
の各	-5044
ミニ	-5045
固定	-5046
性的	-5047
法の	-5048
目指	-5049
速い	-5050
ull	-5051
▁at	-5052
に関与	-5053
を利用	-5054
を通過	-5055
フェル	-5056
人間は	-5057
理由は	-5058
生き残	-5059
自然の	-5060
▁std	-5061
ローカル	-5062
起こった	-5063
▁your	-5064
▁最終的に	-5065
▁insta	-5066
トルティーヤ	-5067
が含まれている	-5068
できるようにする	-5069
インフラストラクチャ	-5070
nd	-5071
ны	-5072
いで	-5073
がい	-5074
の間	-5075
パル	-5076
ビン	-5077
ホイ	-5078
側に	-5079
望ま	-5080
猫の	-5081
第一	-5082
西洋	-5083
電力	-5084
net	-5085
▁er	-5086
が高く	-5087
に集中	-5088
の物語	-5089
ますか	-5090
を練習	-5091
入れる	-5092
umpy	-5093
▁arr	-5094
より高い	-5095
をカバー	-5096
を書いて	-5097
を簡単に	-5098
スケール	-5099
データと	-5100
物理学の	-5101
続けます	-5102
▁time	-5103
ことを意味	-5104
という事実	-5105
client	-5106
を防ぐために	-5107
include	-5108
ということです	-5109
sc	-5110
わか	-5111
オリ	-5112
デミ	-5113
マラ	-5114
一時	-5115
博士	-5116
収益	-5117
地理	-5118
植民	-5119
楽器	-5120
試み	-5121
贈り	-5122
領土	-5123
ise	-5124
php	-5125
▁bo	-5126
のかを	-5127
の分野	-5128
を意味	-5129
を管理	-5130
レース	-5131
喜んで	-5132
架空の	-5133
植民地	-5134
相対性	-5135
auth	-5136
cond	-5137
▁ここに	-5138
つながり	-5139
サイバー	-5140
ドメイン	-5141
ación	-5142
count	-5143
ments	-5144
▁play	-5145
があなたの	-5146
ことを保証	-5147
を書きます	-5148
多くの要因	-5149
情報を提供	-5150
お気に入りの	-5151
と呼ばれます	-5152
シミュレート	-5153
acebook	-5154
関数を使用して	-5155
オープンソースの	-5156
29	-5157
db	-5158
ло	-5159
くれ	-5160
スと	-5161
ボン	-5162
ユダ	-5163
両親	-5164
予防	-5165
体は	-5166
例は	-5167
午前	-5168
半分	-5169
固有	-5170
孤独	-5171
怪我	-5172
扱う	-5173
orm	-5174
するに	-5175
の下で	-5176
の改善	-5177
の最も	-5178
の説明	-5179
キッチ	-5180
ターミ	-5181
例です	-5182
周波数	-5183
毎日の	-5184
▁are	-5185
、200	-5186
のサイズ	-5187
者であり	-5188
color	-5189
▁chat	-5190
▁resp	-5191
ことに気づ	-5192
のアイデア	-5193
キーワード	-5194
stance	-5195
セットアップ	-5196
一部の人々は	-5197
ライフスタイル	-5198
ツールを使用して	-5199
コンピューターサイエンス	-5200
79	-5201
ls	-5202
ギー	-5203
加熱	-5204
民間	-5205
気を	-5206
神秘	-5207
資格	-5208
ios	-5209
ory	-5210
の前に	-5211
の意味	-5212
を最大	-5213
キーを	-5214
ユダヤ	-5215
任意の	-5216
cess	-5217
cial	-5218
する機会	-5219
それから	-5220
どれだけ	-5221
をリスト	-5222
アップロ	-5223
データが	-5224
要するに	-5225
このように	-5226
できるため	-5227
しないように	-5228
エンティティ	-5229
マネージャー	-5230
さまざまな種類の	-5231
に影響を与える可能性があります	-5232
1、	-5233
33	-5234
8,	-5235
ポン	-5236
マシ	-5237
モデ	-5238
モニ	-5239
乗算	-5240
同僚	-5241
挿入	-5242
水素	-5243
立ち	-5244
連合	-5245
願い	-5246
art	-5247
cpu	-5248
▁bu	-5249
おらず	-5250
コイン	-5251
ディス	-5252
ハンド	-5253
周りに	-5254
変数の	-5255
正式な	-5256
著作権	-5257
ción	-5258
hhhh	-5259
するなど	-5260
とも呼ば	-5261
に取り組	-5262
べきです	-5263
を理解し	-5264
レポート	-5265
技術的な	-5266
普遍的な	-5267
べきですか	-5268
アクティブ	-5269
プロトコル	-5270
生成された	-5271
背後にある	-5272
▁float	-5273
することなく	-5274
プログラムは	-5275
と思っています	-5276
ás	-5277
▁リ	-5278
ゴン	-5279
同盟	-5280
地面	-5281
完成	-5282
平ら	-5283
手を	-5284
検査	-5285
正規	-5286
水化	-5287
署名	-5288
ild	-5289
mit	-5290
www	-5291
なしに	-5292
オフィ	-5293
クロス	-5294
ゾーン	-5295
ダーは	-5296
パワー	-5297
ロット	-5298
炭水化	-5299
迅速に	-5300
init	-5301
▁fin	-5302
▁});	-5303
▁いいえ	-5304
えている	-5305
どれほど	-5306
になった	-5307
チームは	-5308
apple	-5309
つの異なる	-5310
に向かって	-5311
ものであり	-5312
データ構造	-5313
実行される	-5314
二次世界大戦	-5315
▁column	-5316
と考えています	-5317
]、	-5318
ua	-5319
vi	-5320
▁と	-5321
が得	-5322
体が	-5323
借り	-5324
到着	-5325
軽い	-5326
遠く	-5327
mos	-5328
rib	-5329
▁30	-5330
▁ht	-5331
▁pi	-5332
の基本	-5333
を克服	-5334
を強化	-5335
んだり	-5336
シェル	-5337
ベスト	-5338
モート	-5339
ロニア	-5340
企業の	-5341
視覚化	-5342
誤った	-5343
view	-5344
||||	-5345
お知らせ	-5346
してから	-5347
ディスク	-5348
point	-5349
トリックス	-5350
▁while	-5351
しようとする	-5352
を取得します	-5353
にはいくつかの	-5354
を作成するには	-5355
以下に示します	-5356
に従ってください	-5357
に関連しています	-5358
:1	-5359
jj	-5360
▁ご	-5361
▁は	-5362
▁シ	-5363
▁フ	-5364
かし	-5365
を添	-5366
チン	-5367
ナリ	-5368
内容	-5369
悪魔	-5370
敬意	-5371
気象	-5372
絵画	-5373
聖書	-5374
赤い	-5375
頻度	-5376
黄色	-5377
ank	-5378
den	-5379
▁2)	-5380
に最も	-5381
の速度	-5382
ダイヤ	-5383
状況で	-5384
詳細に	-5385
orch	-5386
rent	-5387
▁der	-5388
しやすく	-5389
っており	-5390
によれば	-5391
めました	-5392
を完全に	-5393
を超える	-5394
ブランチ	-5395
再生可能	-5396
独立した	-5397
の観点から	-5398
の重要性を	-5399
をください	-5400
ドライバー	-5401
メートルの	-5402
最終的には	-5403
アップロード	-5404
インデックス	-5405
([	-5406
nn	-5407
▁ч	-5408
、`	-5409
うつ	-5410
くと	-5411
っぱ	-5412
クの	-5413
勾配	-5414
季節	-5415
循環	-5416
日を	-5417
英国	-5418
見解	-5419
試験	-5420
負荷	-5421
飲む	-5422
(18	-5423
▁12	-5424
▁どの	-5425
で満た	-5426
の利点	-5427
の長さ	-5428
はその	-5429
市場の	-5430
道徳的	-5431
untu	-5432
▁クリア	-5433
しながら	-5434
を取り除	-5435
イタリア	-5436
キャンプ	-5437
スーパー	-5438
印象的な	-5439
歴史的な	-5440
に最適です	-5441
▁inter	-5442
でもあります	-5443
のさまざまな	-5444
みてください	-5445
を決定します	-5446
よりもはるかに	-5447
を改善するために	-5448
パーソナライズされた	-5449
74	-5450
cy	-5451
pr	-5452
かき	-5453
に進	-5454
を選	-5455
事故	-5456
合法	-5457
従う	-5458
挙げ	-5459
木材	-5460
純粋	-5461
見え	-5462
角度	-5463
通知	-5464
box	-5465
gro	-5466
ote	-5467
ras	-5468
が最も	-5469
たびに	-5470
ろうと	-5471
を制限	-5472
的かつ	-5473
関数が	-5474
▁ここで	-5475
その結果	-5476
シンボル	-5477
andas	-5478
パートナー	-5479
次のような	-5480
はどうですか	-5481
を探している	-5482
ほんの一部です	-5483
rl	-5484
ни	-5485
▁э	-5486
▁。	-5487
▁ラ	-5488
ゼル	-5489
作家	-5490
国立	-5491
容器	-5492
少年	-5493
広が	-5494
正当	-5495
注ぎ	-5496
洞察	-5497
義務	-5498
説得	-5499
▁16	-5500
それに	-5501
の形で	-5502
はどこ	-5503
もちゃ	-5504
を保存	-5505
ビルド	-5506
フォン	-5507
共通の	-5508
大学の	-5509
都市の	-5510
....	-5511
▁min	-5512
そうです	-5513
生物学的	-5514
赤ちゃん	-5515
▁calc	-5516
ギリシャの	-5517
私はそれを	-5518
と見なされる	-5519
個人的な好み	-5520
またはその他の	-5521
注意してください	-5522
あなたを助けるために	-5523
86	-5524
??	-5525
▁у	-5526
コロ	-5527
パウ	-5528
ベイ	-5529
切断	-5530
好む	-5531
家を	-5532
幸運	-5533
確信	-5534
緑の	-5535
親愛	-5536
mag	-5537
▁ca	-5538
▁et	-5539
▁より	-5540
▁別の	-5541
▁地球	-5542
▁現在	-5543
を削除	-5544
アンド	-5545
サンド	-5546
パイプ	-5547
人々と	-5548
愛する	-5549
本当の	-5550
物質の	-5551
用語は	-5552
異なり	-5553
nect	-5554
ular	-5555
エンター	-5556
ヒーロー	-5557
自動学習	-5558
親愛なる	-5559
enter	-5560
▁part	-5561
ファイルに	-5562
与えられた	-5563
人もいます	-5564
アルゼンチン	-5565
プロセスです	-5566
方法は何ですか	-5567
ことができました	-5568
fl	-5569
で見	-5570
ビル	-5571
ラの	-5572
代数	-5573
心の	-5574
抽象	-5575
早く	-5576
無視	-5577
登場	-5578
部品	-5579
ute	-5580
とは何	-5581
の位置	-5582
を実現	-5583
ギター	-5584
ルーツ	-5585
小さく	-5586
環境に	-5587
種です	-5588
roll	-5589
▁bot	-5590
すべてを	-5591
ツールと	-5592
柔らかい	-5593
深い学習	-5594
event	-5595
▁this	-5596
または他の	-5597
を実行する	-5598
スタイルで	-5599
テーブルの	-5600
考慮すべき	-5601
▁image	-5602
にどのように影響	-5603
によって特徴付け	-5604
(3	-5605
77	-5606
96	-5607
ui	-5608
▁@	-5609
ナは	-5610
ムは	-5611
余分	-5612
勝利	-5613
垂直	-5614
型の	-5615
形作	-5616
支持	-5617
真の	-5618
禁止	-5619
裁判	-5620
連続	-5621
▁11	-5622
に投資	-5623
に表示	-5624
やかな	-5625
やすく	-5626
主義は	-5627
利点を	-5628
学んだ	-5629
方向に	-5630
くれます	-5631
コードが	-5632
ストリー	-5633
トランス	-5634
バイアス	-5635
成功した	-5636
方が良い	-5637
私たちを	-5638
見えます	-5639
▁code	-5640
それぞれが	-5641
プリンター	-5642
措置を講じ	-5643
使用できます	-5644
あなたはあなたの	-5645
オブジェクト指向	-5646
を使用してください	-5647
bl	-5648
ко	-5649
レタ	-5650
医学	-5651
天然	-5652
換え	-5653
望む	-5654
未満	-5655
株式	-5656
根本	-5657
欠点	-5658
生存	-5659
立場	-5660
脳の	-5661
装飾	-5662
議会	-5663
遺産	-5664
---	-5665
sin	-5666
がなく	-5667
そうで	-5668
の基礎	-5669
ダーを	-5670
ノート	-5671
環境で	-5672
work	-5673
▁acc	-5674
がいます	-5675
したとき	-5676
たいです	-5677
ウクライ	-5678
ショップ	-5679
トラック	-5680
レイヤー	-5681
担当者の	-5682
積極的に	-5683
食べ物を	-5684
▁char	-5685
を計算します	-5686
エージェント	-5687
をよりよく理解	-5688
function	-5689
▁command	-5690
sa	-5691
▁%	-5692
めた	-5693
われ	-5694
エア	-5695
ペン	-5696
依然	-5697
公正	-5698
地下	-5699
実現	-5700
日目	-5701
沸騰	-5702
運命	-5703
[0]	-5704
▁13	-5705
▁cm	-5706
が増加	-5707
でのみ	-5708
に似た	-5709
に連絡	-5710
の詳細	-5711
不可能	-5712
余分な	-5713
心理学	-5714
政府は	-5715
質問は	-5716
stat	-5717
これまで	-5718
はすべて	-5719
コーラス	-5720
ロマンチ	-5721
場所です	-5722
現実的な	-5723
state	-5724
から始まり	-5725
デバイスを	-5726
ベーション	-5727
高レベルの	-5728
ゲームをプレイ	-5729
するために使用できる	-5730
ことができるいくつかの	-5731
ть	-5732
▁з	-5733
▁の	-5734
に属	-5735
レガ	-5736
値が	-5737
差し	-5738
性別	-5739
生徒	-5740
調和	-5741
配布	-5742
順位	-5743
▁fa	-5744
の他の	-5745
を上げ	-5746
を保持	-5747
を監視	-5748
を追跡	-5749
チェス	-5750
ピース	-5751
ボタン	-5752
備えた	-5753
冷たい	-5754
技術的	-5755
生じる	-5756
生物学	-5757
精神的	-5758
通常は	-5759
bers	-5760
sort	-5761
▁ein	-5762
クトップ	-5763
ロシアの	-5764
優先順位	-5765
方程式の	-5766
されません	-5767
オーストラ	-5768
ネイティブ	-5769
ユニークで	-5770
に影響を与え	-5771
は次のように	-5772
デスクトップ	-5773
を示しています	-5774
がたくさんあります	-5775
することは困難です	-5776
és	-5777
ся	-5778
。(	-5779
かす	-5780
まあ	-5781
世代	-5782
友情	-5783
地位	-5784
家は	-5785
対照	-5786
恐れ	-5787
接触	-5788
生態	-5789
知る	-5790
融合	-5791
追跡	-5792
lex	-5793
ени	-5794
▁=(	-5795
。19	-5796
いたり	-5797
に影響	-5798
を学び	-5799
を提示	-5800
を立て	-5801
シック	-5802
今日の	-5803
動的な	-5804
形式で	-5805
材料の	-5806
ader	-5807
post	-5808
が非常に	-5809
で生まれ	-5810
グレード	-5811
ポジトリ	-5812
理想的な	-5813
から始めて	-5814
ことに気付	-5815
キリスト教	-5816
依然として	-5817
思いますか	-5818
ubuntu	-5819
するにつれて	-5820
▁static	-5821
するのに十分な	-5822
コマンドライン	-5823
を作成するために	-5824
するために使用できます	-5825
']	-5826
5)	-5827
:=	-5828
ru	-5829
テイ	-5830
冷蔵	-5831
外国	-5832
山の	-5833
州の	-5834
心を	-5835
活性	-5836
異常	-5837
笑顔	-5838
金の	-5839
car	-5840
est	-5841
men	-5842
たりの	-5843
な価格	-5844
に到着	-5845
の自由	-5846
は常に	-5847
を計画	-5848
▁	-5849
の	-5850
、	-5851
す	-5852
を	-5853
に	-5854
ま	-5855
ー	-5856
る	-5857
。	-5858
し	-5859
は	-5860
s	-5861
で	-5862
e	-5863
a	-5864
と	-5865
い	-5866
t	-5867
な	-5868
た	-5869
て	-5870
が	-5871
ン	-5872
i	-5873
n	-5874
r	-5875
れ	-5876
こ	-5877
ス	-5878
o	-5879
り	-5880
:	-5881
あ	-5882
ト	-5883
か	-5884
ル	-5885
u	-5886
さ	-5887
l	-5888
イ	-5889
c	-5890
き	-5891
ら	-5892
ク	-5893
く	-5894
d	-5895
リ	-5896
p	-5897
.	-5898
よ	-5899
ッ	-5900
ラ	-5901
ア	-5902
プ	-5903
m	-5904
的	-5905
1	-5906
タ	-5907
-	-5908
う	-5909
め	-5910
つ	-5911
も	-5912
シ	-5913
テ	-5914
そ	-5915
h	-5916
ロ	-5917
)	-5918
0	-5919
2	-5920
っ	-5921
(	-5922
ド	-5923
g	-5924
用	-5925
フ	-5926
要	-5927
人	-5928
レ	-5929
コ	-5930
え	-5931
ど	-5932
デ	-5933
b	-5934
ジ	-5935
ム	-5936
f	-5937
グ	-5938
ん	-5939
だ	-5940
私	-5941
?	-5942
使	-5943
け	-5944
ィ	-5945
性	-5946
お	-5947
能	-5948
せ	-5949
合	-5950
y	-5951
3	-5952
彼	-5953
オ	-5954
キ	-5955
v	-5956
最	-5957
成	-5958
マ	-5959
や	-5960
バ	-5961
場	-5962
_	-5963
`	-5964
定	-5965
ブ	-5966
理	-5967
ニ	-5968
学	-5969
間	-5970
サ	-5971
w	-5972
ュ	-5973
チ	-5974
分	-5975
メ	-5976
生	-5977
ョ	-5978
作	-5979
カ	-5980
エ	-5981
5	-5982
ち	-5983
「	-5984
パ	-5985
一	-5986
可	-5987
」	-5988
=	-5989
セ	-5990
,	-5991
*	-5992
x	-5993
4	-5994
ェ	-5995
数	-5996
方	-5997
行	-5998
必	-5999
法	-6000
関	-6001
力	-6002
k	-6003
物	-6004
動	-6005
ウ	-6006
"	-6007
ャ	-6008
自	-6009
大	-6010
実	-6011
ば	-6012
化	-6013
語	-6014
ビ	-6015
モ	-6016
ネ	-6017
見	-6018
重	-6019
ズ	-6020
/	-6021
み	-6022
9	-6023
ミ	-6024
ソ	-6025
言	-6026
発	-6027
持	-6028
6	-6029
何	-6030
び	-6031
明	-6032
べ	-6033
意	-6034
知	-6035
わ	-6036
ピ	-6037
ポ	-6038
ケ	-6039
ナ	-6040
者	-6041
多	-6042
時	-6043
8	-6044
立	-6045
ダ	-6046
問	-6047
特	-6048
ベ	-6049
じ	-6050
他	-6051
気	-6052
確	-6053
提	-6054
解	-6055
機	-6056
日	-6057
中	-6058
7	-6059
年	-6060
供	-6061
前	-6062
常	-6063
・	-6064
国	-6065
質	-6066
度	-6067
次	-6068
高	-6069
出	-6070
地	-6071
上	-6072
開	-6073
加	-6074
'	-6075
体	-6076
子	-6077
変	-6078
j	-6079
会	-6080
ボ	-6081
入	-6082
目	-6083
ペ	-6084
適	-6085
対	-6086
部	-6087
文	-6088
ツ	-6089
;	-6090
通	-6091
新	-6092
!	-6093
ザ	-6094
ワ	-6095
計	-6096
本	-6097
事	-6098
現	-6099
]	-6100
ゲ	-6101
情	-6102
[	-6103
画	-6104
手	-6105
果	-6106
主	-6107
役	-6108
世	-6109
味	-6110
示	-6111
ァ	-6112
題	-6113
ォ	-6114
存	-6115
含	-6116
後	-6117
|	-6118
説	-6119
基	-6120
ユ	-6121
全	-6122
正	-6123
決	-6124
書	-6125
取	-6126
感	-6127
家	-6128
教	-6129
点	-6130
構	-6131
在	-6132
ガ	-6133
保	-6134
界	-6135
考	-6136
品	-6137
認	-6138
信	-6139
単	-6140
論	-6141
#	-6142
不	-6143
続	-6144
々	-6145
電	-6146
z	-6147
経	-6148
ざ	-6149
同	-6150
有	-6151
}	-6152
代	-6153
{	-6154
名	-6155
+	-6156
む	-6157
強	-6158
報	-6159
ギ	-6160
連	-6161
q	-6162
応	-6163
形	-6164
非	-6165
表	-6166
利	-6167
ノ	-6168
量	-6169
調	-6170
与	-6171
選	-6172
話	-6173
所	-6174
設	-6175
ず	-6176
素	-6177
小	-6178
長	-6179
結	-6180
下	-6181
女	-6182
食	-6183
影	-6184
ゴ	-6185
戦	-6186
社	-6187
以	-6188
面	-6189
習	-6190
効	-6191
業	-6192
値	-6193
初	-6194
始	-6195
ハ	-6196
思	-6197
例	-6198
価	-6199
般	-6200
水	-6201
料	-6202
響	-6203
期	-6204
約	-6205
制	-6206
心	-6207
向	-6208
異	-6209
о	-6210
識	-6211
状	-6212
得	-6213
別	-6214
択	-6215
へ	-6216
ほ	-6217
追	-6218
速	-6219
置	-6220
進	-6221
当	-6222
義	-6223
答	-6224
良	-6225
複	-6226
術	-6227
楽	-6228
式	-6229
限	-6230
引	-6231
注	-6232
切	-6233
組	-6234
起	-6235
個	-6236
来	-6237
付	-6238
伝	-6239
色	-6240
づ	-6241
達	-6242
金	-6243
指	-6244
ヤ	-6245
空	-6246
政	-6247
算	-6248
少	-6249
受	-6250
回	-6251
ろ	-6252
験	-6253
安	-6254
証	-6255
備	-6256
活	-6257
内	-6258
産	-6259
造	-6260
検	-6261
月	-6262
類	-6263
е	-6264
市	-6265
善	-6266
外	-6267
音	-6268
接	-6269
種	-6270
反	-6271
改	-6272
ヒ	-6273
完	-6274
\	-6275
念	-6276
神	-6277
平	-6278
像	-6279
配	-6280
助	-6281
好	-6282
覚	-6283
更	-6284
ホ	-6285
究	-6286
簡	-6287
違	-6288
視	-6289
細	-6290
因	-6291
身	-6292
光	-6293
げ	-6294
統	-6295
研	-6296
а	-6297
従	-6298
率	-6299
換	-6300
各	-6301
и	-6302
観	-6303
標	-6304
終	-6305
広	-6306
減	-6307
想	-6308
準	-6309
共	-6310
н	-6311
探	-6312
深	-6313
直	-6314
記	-6315
相	-6316
公	-6317
星	-6318
呼	-6319
然	-6320
字	-6321
雑	-6322
由	-6323
野	-6324
処	-6325
難	-6326
予	-6327
集	-6328
ぶ	-6329
割	-6330
係	-6331
支	-6332
際	-6333
求	-6334
治	-6335
科	-6336
原	-6337
過	-6338
ょ	-6339
測	-6340
規	-6341
境	-6342
球	-6343
車	-6344
歴	-6345
工	-6346
資	-6347
技	-6348
今	-6349
無	-6350
依	-6351
史	-6352
ぜ	-6353
格	-6354
^	-6355
環	-6356
近	-6357
両	-6358
製	-6359
т	-6360
元	-6361
返	-6362
順	-6363
域	-6364
態	-6365
運	-6366
愛	-6367
器	-6368
独	-6369
映	-6370
民	-6371
張	-6372
済	-6373
道	-6374
争	-6375
害	-6376
管	-6377
誰	-6378
読	-6379
低	-6380
整	-6381
熱	-6382
門	-6383
材	-6384
除	-6385
健	-6386
参	-6387
離	-6388
築	-6389
ご	-6390
位	-6391
命	-6392
練	-6393
列	-6394
仕	-6395
興	-6396
番	-6397
専	-6398
送	-6399
収	-6400
件	-6401
推	-6402
満	-6403
移	-6404
再	-6405
勧	-6406
維	-6407
真	-6408
比	-6409
優	-6410
概	-6411
康	-6412
装	-6413
互	-6414
$	-6415
析	-6416
側	-6417
議	-6418
%	-6419
ね	-6420
様	-6421
権	-6422
с	-6423
温	-6424
交	-6425
肉	-6426
険	-6427
投	-6428
象	-6429
線	-6430
護	-6431
混	-6432
詳	-6433
в	-6434
ぐ	-6435
〜	-6436
住	-6437
悪	-6438
介	-6439
太	-6440
ゼ	-6441
増	-6442
古	-6443
慮	-6444
源	-6445
友	-6446
宙	-6447
宇	-6448
陽	-6449
р	-6450
費	-6451
失	-6452
込	-6453
ヘ	-6454
号	-6455
御	-6456
転	-6457
>	-6458
評	-6459
ぎ	-6460
十	-6461
短	-6462
況	-6463
残	-6464
積	-6465
医	-6466
困	-6467
望	-6468
断	-6469
着	-6470
導	-6471
都	-6472
任	-6473
和	-6474
囲	-6475
ヨ	-6476
療	-6477
旅	-6478
圧	-6479
領	-6480
美	-6481
避	-6482
働	-6483
л	-6484
較	-6485
~	-6486
口	-6487
精	-6488
放	-6489
消	-6490
暗	-6491
拡	-6492
建	-6493
植	-6494
欠	-6495
案	-6496
先	-6497
м	-6498
判	-6499
歩	-6500
緒	-6501
白	-6502
流	-6503
条	-6504
照	-6505
英	-6506
程	-6507
索	-6508
第	-6509
海	-6510
親	-6511
願	-6512
葉	-6513
候	-6514
撃	-6515
周	-6516
米	-6517
族	-6518
則	-6519
段	-6520
試	-6521
育	-6522
惑	-6523
仮	-6524
足	-6525
徴	-6526
献	-6527
査	-6528
防	-6529
頼	-6530
天	-6531
略	-6532
ぞ	-6533
焦	-6534
ó	-6535
魔	-6536
症	-6537
卵	-6538
密	-6539
落	-6540
客	-6541
範	-6542
模	-6543
散	-6544
病	-6545
頭	-6546
死	-6547
労	-6548
曲	-6549
止	-6550
眠	-6551
容	-6552
等	-6553
型	-6554
哲	-6555
了	-6556
創	-6557
策	-6558
к	-6559
障	-6560
均	-6561
幅	-6562
男	-6563
待	-6564
奨	-6565
促	-6566
危	-6567
幸	-6568
火	-6569
操	-6570
聞	-6571
革	-6572
修	-6573
声	-6574
王	-6575
土	-6576
木	-6577
益	-6578
訳	-6579
壊	-6580
財	-6581
功	-6582
飛	-6583
未	-6584
到	-6585
監	-6586
•	-6587
風	-6588
二	-6589
酸	-6590
冷	-6591
毎	-6592
械	-6593
購	-6594
払	-6595
猫	-6596
п	-6597
軽	-6598
師	-6599
赤	-6600
削	-6601
継	-6602
д	-6603
石	-6604
節	-6605
録	-6606
察	-6607
将	-6608
犬	-6609
告	-6610
売	-6611
紀	-6612
責	-6613
協	-6614
尋	-6615
半	-6616
極	-6617
援	-6618
血	-6619
去	-6620
波	-6621
階	-6622
務	-6623
貢	-6624
印	-6625
繰	-6626
課	-6627
系	-6628
ゆ	-6629
é	-6630
吸	-6631
企	-6632
超	-6633
屋	-6634
織	-6635
士	-6636
服	-6637
遠	-6638
損	-6639
拠	-6640
紹	-6641
恐	-6642
抗	-6643
攻	-6644
律	-6645
魅	-6646
忘	-6647
員	-6648
演	-6649
復	-6650
距	-6651
傷	-6652
談	-6653
訪	-6654
燃	-6655
у	-6656
討	-6657
万	-6658
液	-6659
府	-6660
柔	-6661
展	-6662
潜	-6663
耐	-6664
路	-6665
述	-6666
給	-6667
似	-6668
布	-6669
戻	-6670
遺	-6671
純	-6672
í	-6673
項	-6674
替	-6675
背	-6676
&	-6677
晴	-6678
塩	-6679
及	-6680
層	-6681
慣	-6682
差	-6683
排	-6684
訓	-6685
歌	-6686
ヴ	-6687
乗	-6688
属	-6689
補	-6690
景	-6691
激	-6692
州	-6693
著	-6694
歳	-6695
刻	-6696
施	-6697
図	-6698
負	-6699
角	-6700
詩	-6701
染	-6702
快	-6703
豊	-6704
具	-6705
絶	-6706
軍	-6707
写	-6708
帯	-6709
青	-6710
己	-6711
聴	-6712
栄	-6713
я	-6714
週	-6715
脳	-6716
胞	-6717
典	-6718
射	-6719
紙	-6720
山	-6721
固	-6722
粉	-6723
銀	-6724
母	-6725
破	-6726
編	-6727
<	-6728
痛	-6729
粒	-6730
倫	-6731
飲	-6732
根	-6733
競	-6734
緊	-6735
休	-6736
留	-6737
登	-6738
商	-6739
喜	-6740
芸	-6741
傾	-6742
欲	-6743
薬	-6744
許	-6745
急	-6746
敵	-6747
筋	-6748
農	-6749
徳	-6750
謝	-6751
ы	-6752
糖	-6753
繁	-6754
苦	-6755
端	-6756
弱	-6757
閉	-6758
獲	-6759
申	-6760
触	-6761
顧	-6762
宗	-6763
北	-6764
否	-6765
釈	-6766
洗	-6767
炭	-6768
菜	-6769
座	-6770
販	-6771
砂	-6772
翻	-6773
敗	-6774
若	-6775
遅	-6776
福	-6777
夜	-6778
養	-6779
朝	-6780
á	-6781
笑	-6782
患	-6783
顔	-6784
ぼ	-6785
鶏	-6786
ゾ	-6787
微	-6788
息	-6789
誤	-6790
睡	-6791
花	-6792
富	-6793
黒	-6794
罪	-6795
乳	-6796
殺	-6797
三	-6798
頻	-6799
振	-6800
縮	-6801
奇	-6802
職	-6803
雇	-6804
油	-6805
б	-6806
緑	-6807
夢	-6808
皮	-6809
з	-6810
ь	-6811
乱	-6812
校	-6813
押	-6814
疑	-6815
肢	-6816
秘	-6817
冒	-6818
守	-6819
刺	-6820
勝	-6821
鮮	-6822
便	-6823
区	-6824
描	-6825
融	-6826
跡	-6827
午	-6828
普	-6829
г	-6830
包	-6831
詞	-6832
牛	-6833
輸	-6834
抽	-6835
犯	-6836
宅	-6837
批	-6838
西	-6839
挑	-6840
絡	-6841
聖	-6842
税	-6843
突	-6844
ゃ	-6845
永	-6846
降	-6847
首	-6848
南	-6849
齢	-6850
億	-6851
焼	-6852
昇	-6853
曜	-6854
博	-6855
採	-6856
賞	-6857
尊	-6858
携	-6859
刷	-6860
帝	-6861
ч	-6862
闘	-6863
島	-6864
扱	-6865
貫	-6866
努	-6867
暖	-6868
迅	-6869
魚	-6870
厳	-6871
宣	-6872
敬	-6873
既	-6874
践	-6875
憶	-6876
静	-6877
承	-6878
伴	-6879
室	-6880
怖	-6881
易	-6882
汚	-6883
序	-6884
懸	-6885
ひ	-6886
帰	-6887
溶	-6888
鍋	-6889
暴	-6890
執	-6891
脈	-6892
致	-6893
父	-6894
退	-6895
隠	-6896
驚	-6897
剤	-6898
壁	-6899
挙	-6900
核	-6901
透	-6902
途	-6903
黄	-6904
悲	-6905
央	-6906
妙	-6907
菌	-6908
乾	-6909
豆	-6910
鳥	-6911
森	-6912
脅	-6913
洋	-6914
磁	-6915
園	-6916
左	-6917
抑	-6918
礎	-6919
館	-6920
東	-6921
担	-6922
軟	-6923
紛	-6924
逆	-6925
停	-6926
店	-6927
°	-6928
如	-6929
貨	-6930
麦	-6931
雨	-6932
骨	-6933
杯	-6934
抵	-6935
威	-6936
右	-6937
й	-6938
逃	-6939
余	-6940
勉	-6941
渡	-6942
鉄	-6943
団	-6944
航	-6945
警	-6946
唆	-6947
局	-6948
侵	-6949
街	-6950
燥	-6951
走	-6952
夕	-6953
脂	-6954
院	-6955
希	-6956
絵	-6957
軌	-6958
毒	-6959
陸	-6960
倒	-6961
早	-6962
貴	-6963
摂	-6964
毛	-6965
衛	-6966
武	-6967
爆	-6968
荷	-6969
兆	-6970
川	-6971
版	-6972
覆	-6973
腐	-6974
庭	-6975
劇	-6976
円	-6977
台	-6978
片	-6979
裂	-6980
買	-6981
ü	-6982
虫	-6983
充	-6984
船	-6985
遊	-6986
臓	-6987
唯	-6988
奏	-6989
底	-6990
肪	-6991
忍	-6992
熟	-6993
茶	-6994
衆	-6995
並	-6996
章	-6997
督	-6998
脱	-6999
疾	-7000
措	-7001
末	-7002
延	-7003
慎	-7004
添	-7005
筆	-7006
講	-7007
裁	-7008
亡	-7009
秒	-7010
衝	-7011
励	-7012
捕	-7013
瞑	-7014
契	-7015
@	-7016
ж	-7017
瞬	-7018
司	-7019
蒸	-7020
蔵	-7021
党	-7022
夫	-7023
為	-7024
婚	-7025
寒	-7026
寄	-7027
故	-7028
¶	-7029
克	-7030
冗	-7031
煙	-7032
腕	-7033
請	-7034
却	-7035
呪	-7036
巨	-7037
湿	-7038
炎	-7039
岩	-7040
救	-7041
脚	-7042
束	-7043
棄	-7044
越	-7045
括	-7046
隣	-7047
培	-7048
輝	-7049
官	-7050
妻	-7051
洞	-7052
潔	-7053
就	-7054
廃	-7055
河	-7056
滅	-7057
撮	-7058
診	-7059
久	-7060
賢	-7061
髪	-7062
需	-7063
飾	-7064
借	-7065
総	-7066
蓄	-7067
衣	-7068
雪	-7069
頃	-7070
█	-7071
鍵	-7072
派	-7073
占	-7074
称	-7075
震	-7076
ふ	-7077
巻	-7078
百	-7079
祖	-7080
弾	-7081
我	-7082
脆	-7083
貧	-7084
ñ	-7085
偏	-7086
偽	-7087
賛	-7088
孤	-7089
抱	-7090
邦	-7091
隔	-7092
塗	-7093
露	-7094
履	-7095
径	-7096
遍	-7097
寝	-7098
拒	-7099
氏	-7100
辞	-7101
株	-7102
草	-7103
駆	-7104
宝	-7105
額	-7106
ц	-7107
酬	-7108
ヌ	-7109
玉	-7110
ゥ	-7111
刑	-7112
令	-7113
璧	-7114
耳	-7115
兄	-7116
徐	-7117
省	-7118
誘	-7119
屈	-7120
徒	-7121
沿	-7122
滑	-7123
翼	-7124
酵	-7125
倍	-7126
兵	-7127
祝	-7128
崩	-7129
詰	-7130
床	-7131
盗	-7132
緩	-7133
栽	-7134
級	-7135
寿	-7136
弟	-7137
辺	-7138
ú	-7139
庫	-7140
х	-7141
恵	-7142
村	-7143
架	-7144
誇	-7145
ш	-7146
胸	-7147
凍	-7148
居	-7149
歯	-7150
膨	-7151
隊	-7152
僚	-7153
渉	-7154
勇	-7155
埋	-7156
剰	-7157
抜	-7158
営	-7159
岸	-7160
疲	-7161
盟	-7162
邪	-7163
ä	-7164
仲	-7165
横	-7166
載	-7167
陰	-7168
伸	-7169
稿	-7170
誠	-7171
壌	-7172
盾	-7173
ю	-7174
ぬ	-7175
媒	-7176
浸	-7177
腹	-7178
殖	-7179
ö	-7180
丸	-7181
甘	-7182
罰	-7183
舞	-7184
香	-7185
冬	-7186
霊	-7187
奮	-7188
掛	-7189
没	-7190
黙	-7191
偉	-7192
妨	-7193
昼	-7194
納	-7195
諸	-7196
è	-7197
免	-7198
喫	-7199
是	-7200
禁	-7201
剣	-7202
箱	-7203
老	-7204
鉱	-7205
雰	-7206
夏	-7207
矛	-7208
鏡	-7209
雲	-7210
飼	-7211
季	-7212
盤	-7213
貯	-7214
厚	-7215
堅	-7216
打	-7217
折	-7218
災	-7219
肥	-7220
薄	-7221
勢	-7222
氷	-7223
町	-7224
à	-7225
ا	-7226
垂	-7227
怪	-7228
憩	-7229
挿	-7230
贈	-7231
彙	-7232
才	-7233
憲	-7234
授	-7235
繊	-7236
催	-7237
怒	-7238
掃	-7239
欺	-7240
炒	-7241
牲	-7242
犠	-7243
肯	-7244
鼻	-7245
硬	-7246
票	-7247
春	-7248
穴	-7249
署	-7250
э	-7251
肌	-7252
謀	-7253
鎖	-7254
馬	-7255
丈	-7256
粋	-7257
橋	-7258
沸	-7259
輪	-7260
尾	-7261
忠	-7262
敏	-7263
魂	-7264
儀	-7265
陥	-7266
堂	-7267
宿	-7268
ぱ	-7269
勾	-7270
循	-7271
滞	-7272
窓	-7273
軸	-7274
干	-7275
漫	-7276
群	-7277
覧	-7278
尿	-7279
弁	-7280
港	-7281
胆	-7282
顕	-7283
四	-7284
娘	-7285
志	-7286
×	-7287
戸	-7288
擁	-7289
腸	-7290
騰	-7291
尽	-7292
恋	-7293
飯	-7294
即	-7295
掘	-7296
枝	-7297
麻	-7298
壮	-7299
姿	-7300
副	-7301
叫	-7302
沈	-7303
疫	-7304
債	-7305
席	-7306
征	-7307
欧	-7308
井	-7309
千	-7310
昆	-7311
浄	-7312
清	-7313
謎	-7314
鳴	-7315
京	-7316
踏	-7317
遇	-7318
双	-7319
虚	-7320
裏	-7321
遭	-7322
矢	-7323
粘	-7324
揚	-7325
握	-7326
穏	-7327
肩	-7328
ل	-7329
被	-7330
頑	-7331
尺	-7332
招	-7333
湖	-7334
湾	-7335
爪	-7336
嘘	-7337
捗	-7338
濃	-7339
礼	-7340
豚	-7341
賃	-7342
偶	-7343
償	-7344
幼	-7345
晶	-7346
祈	-7347
竜	-7348
卒	-7349
幽	-7350
辛	-7351
迷	-7352
斜	-7353
狩	-7354
癌	-7355
秩	-7356
臭	-7357
π	-7358
亜	-7359
嫌	-7360
幻	-7361
灰	-7362
貿	-7363
趣	-7364
韻	-7365
徹	-7366
殊	-7367
汎	-7368
这	-7369
併	-7370
寸	-7371
泡	-7372
膚	-7373
ё	-7374
林	-7375
穀	-7376
膜	-7377
頂	-7378
щ	-7379
漢	-7380
皿	-7381
締	-7382
華	-7383
錆	-7384
匂	-7385
揺	-7386
羊	-7387
闇	-7388
靴	-7389
児	-7390
宮	-7391
浮	-7392
漏	-7393
誕	-7394
俳	-7395
拶	-7396
挨	-7397
釣	-7398
鉛	-7399
銃	-7400
鋼	-7401
委	-7402
帽	-7403
弦	-7404
慢	-7405
稼	-7406
七	-7407
控	-7408
泊	-7409
獣	-7410
约	-7411
奪	-7412
房	-7413
泳	-7414
袋	-7415
駄	-7416
騒	-7417
雄	-7418
—	-7419
倣	-7420
幾	-7421
愚	-7422
皇	-7423
穫	-7424
ي	-7425
巣	-7426
枠	-7427
殻	-7428
漠	-7429
癒	-7430
糸	-7431
羽	-7432
虐	-7433
酔	-7434
吐	-7435
喪	-7436
堆	-7437
孫	-7438
池	-7439
迎	-7440
迫	-7441
妹	-7442
把	-7443
捧	-7444
窟	-7445
訴	-7446
鋭	-7447
凝	-7448
妊	-7449
泣	-7450
秋	-7451
紫	-7452
匹	-7453
奴	-7454
暑	-7455
肺	-7456
舌	-7457
蜂	-7458
詐	-7459
飽	-7460
恥	-7461
捨	-7462
枚	-7463
畳	-7464
絞	-7465
酒	-7466
价	-7467
吹	-7468
牢	-7469
缶	-7470
胃	-7471
鹸	-7472
€	-7473
城	-7474
寺	-7475
摘	-7476
隷	-7477
ヶ	-7478
暇	-7479
銅	-7480
唐	-7481
摩	-7482
裕	-7483
拾	-7484
網	-7485
衰	-7486
誉	-7487
醸	-7488
噴	-7489
寛	-7490
懐	-7491
蜜	-7492
鬼	-7493
叩	-7494
君	-7495
届	-7496
浴	-7497
潮	-7498
货	-7499
酢	-7500
ф	-7501
⠛	-7502
勤	-7503
句	-7504
旗	-7505
晩	-7506
逸	-7507
娠	-7508
悔	-7509
桁	-7510
濯	-7511
灯	-7512
狂	-7513
獄	-7514
→	-7515
唱	-7516
憎	-7517
賊	-7518
針	-7519
板	-7520
還	-7521
丘	-7522
劣	-7523
弧	-7524
悩	-7525
殿	-7526
渇	-7527
珍	-7528
祭	-7529
÷	-7530
م	-7531
召	-7532
噛	-7533
封	-7534
椅	-7535
滴	-7536
酷	-7537
閲	-7538
霧	-7539
√	-7540
─	-7541
塔	-7542
昨	-7543
樹	-7544
歓	-7545
砕	-7546
駐	-7547
α	-7548
▀	-7549
个	-7550
时	-7551
楕	-7552
歪	-7553
漁	-7554
眼	-7555
綿	-7556
¬	-7557
’	-7558
戒	-7559
拍	-7560
敢	-7561
昔	-7562
稲	-7563
績	-7564
貼	-7565
彫	-7566
窒	-7567
貸	-7568
須	-7569
預	-7570
😊	-7571
仰	-7572
偵	-7573
傑	-7574
審	-7575
揮	-7576
涯	-7577
狭	-7578
磨	-7579
粗	-7580
姓	-7581
嵐	-7582
搭	-7583
昧	-7584
曖	-7585
炉	-7586
田	-7587
甲	-7588
耗	-7589
腎	-7590
至	-7591
誌	-7592
»	-7593
░	-7594
券	-7595
塞	-7596
挽	-7597
濡	-7598
縁	-7599
臨	-7600
蓋	-7601
妥	-7602
婦	-7603
嬉	-7604
暦	-7605
泥	-7606
符	-7607
而	-7608
虹	-7609
«	-7610
擬	-7611
牧	-7612
瓶	-7613
皆	-7614
胡	-7615
衡	-7616
襲	-7617
遂	-7618
哺	-7619
曝	-7620
盲	-7621
遷	-7622
鋳	-7623
仓	-7624
伏	-7625
你	-7626
卓	-7627
塊	-7628
孔	-7629
棒	-7630
腫	-7631
踊	-7632
騎	-7633
叔	-7634
奉	-7635
柱	-7636
餌	-7637
籍	-7638
菓	-7639
誓	-7640
郵	-7641
鎧	-7642
ت	-7643
拝	-7644
猟	-7645
荒	-7646
鹿	-7647
ε	-7648
喚	-7649
恒	-7650
恩	-7651
搾	-7652
滝	-7653
碑	-7654
腺	-7655
舗	-7656
谷	-7657
駅	-7658
–	-7659
匿	-7660
巧	-7661
幹	-7662
沢	-7663
猿	-7664
芽	-7665
茎	-7666
遵	-7667
雷	-7668
麺	-7669
و	-7670
冊	-7671
冠	-7672
絆	-7673
詫	-7674
ô	-7675
仏	-7676
啓	-7677
圏	-7678
户	-7679
暮	-7680
棚	-7681
涼	-7682
湯	-7683
现	-7684
翌	-7685
ò	-7686
σ	-7687
丁	-7688
撤	-7689
漸	-7690
肝	-7691
脊	-7692
鎮	-7693
¡	-7694
为	-7695
弓	-7696
往	-7697
慰	-7698
捉	-7699
梱	-7700
硫	-7701
祉	-7702
綴	-7703
跳	-7704
飢	-7705
鼓	-7706
剪	-7707
幕	-7708
畜	-7709
腔	-7710
ι	-7711
剖	-7712
墓	-7713
寧	-7714
崇	-7715
掲	-7716
杖	-7717
紋	-7718
隅	-7719
ر	-7720
⁄	-7721
亀	-7722
喉	-7723
播	-7724
擦	-7725
旧	-7726
煮	-7727
看	-7728
訟	-7729
辱	-7730
️	-7731
ο	-7732
▄	-7733
卖	-7734
嘆	-7735
拘	-7736
箇	-7737
腰	-7738
蝶	-7739
郷	-7740
里	-7741
陶	-7742
ß	-7743
ç	-7744
₽	-7745
乙	-7746
也	-7747
们	-7748
嘔	-7749
娯	-7750
慈	-7751
斑	-7752
漑	-7753
灌	-7754
玄	-7755
盛	-7756
胎	-7757
舎	-7758
赦	-7759
雅	-7760
韓	-7761
ぽ	-7762
于	-7763
僕	-7764
剃	-7765
宛	-7766
汗	-7767
痕	-7768
羅	-7769
該	-7770
躍	-7771
逮	-7772
錬	-7773
髄	-7774
±	-7775
φ	-7776
ة	-7777
د	-7778
ك	-7779
ن	-7780
剥	-7781
呂	-7782
怠	-7783
澱	-7784
畑	-7785
紳	-7786
ع	-7787
⠀	-7788
享	-7789
彩	-7790
忙	-7791
拌	-7792
攪	-7793
洪	-7794
涙	-7795
淡	-7796
给	-7797
謙	-7798
说	-7799
躇	-7800
躊	-7801
醤	-7802
阻	-7803
¿	-7804
τ	-7805
些	-7806
吉	-7807
机	-7808
眺	-7809
縛	-7810
肖	-7811
豪	-7812
貪	-7813
銘	-7814
鬱	-7815
噂	-7816
囚	-7817
岐	-7818
枯	-7819
漬	-7820
譲	-7821
钱	-7822
雌	-7823
馴	-7824
س	-7825
募	-7826
厄	-7827
填	-7828
妖	-7829
彗	-7830
惨	-7831
旋	-7832
松	-7833
桃	-7834
浅	-7835
痺	-7836
盆	-7837
砲	-7838
苗	-7839
证	-7840
‐	-7841
”	-7842
傘	-7843
唾	-7844
媚	-7845
泉	-7846
渋	-7847
紅	-7848
膝	-7849
艦	-7850
藻	-7851
还	-7852
邸	-7853
錐	-7854
～	-7855
θ	-7856
μ	-7857
ω	-7858
ب	-7859
ぴ	-7860
买	-7861
单	-7862
呈	-7863
嗅	-7864
尤	-7865
漂	-7866
痢	-7867
股	-7868
脇	-7869
א	-7870
ف	-7871
“	-7872
∫	-7873
剛	-7874
后	-7875
奥	-7876
姉	-7877
扁	-7878
拳	-7879
敷	-7880
眉	-7881
銭	-7882
ν	-7883
∀	-7884
∨	-7885
但	-7886
傍	-7887
其	-7888
军	-7889
叙	-7890
拭	-7891
栓	-7892
泌	-7893
疎	-7894
瘍	-7895
筒	-7896
账	-7897
醒	-7898
∈	-7899
只	-7900
吊	-7901
帳	-7902
惹	-7903
揃	-7904
枕	-7905
枢	-7906
桶	-7907
椎	-7908
汁	-7909
沃	-7910
硝	-7911
緯	-7912
茂	-7913
蚊	-7914
賄	-7915
那	-7916
郭	-7917
頬	-7918
《	-7919
份	-7920
农	-7921
憧	-7922
朴	-7923
渦	-7924
粧	-7925
薦	-7926
贅	-7927
轄	-7928
遣	-7929
隆	-7930
顎	-7931
ρ	-7932
ق	-7933
≈	-7934
之	-7935
六	-7936
勃	-7937
咳	-7938
崖	-7939
憂	-7940
扇	-7941
捜	-7942
潤	-7943
种	-7944
緻	-7945
臣	-7946
賑	-7947
过	-7948
霜	-7949
ه	-7950
‍	-7951
兼	-7952
凸	-7953
叢	-7954
峡	-7955
巡	-7956
庁	-7957
廊	-7958
开	-7959
懲	-7960
曇	-7961
曹	-7962
累	-7963
縦	-7964
葬	-7965
託	-7966
资	-7967
γ	-7968
ج	-7969
└	-7970
》	-7971
么	-7972
刃	-7973
对	-7974
尖	-7975
拷	-7976
旬	-7977
江	-7978
溝	-7979
烈	-7980
肘	-7981
訂	-7982
鈍	-7983
®	-7984
ί	-7985
∧	-7986
串	-7987
俗	-7988
做	-7989
咲	-7990
嫁	-7991
崗	-7992
暫	-7993
