<pad>	0
<unk>	0
<s>	0
</s>	0
<USER>	0
<ASSISTANT>	0
==	-0
====	-1
========	-2
ます	-3
================	-4
です	-5
an	-6
er	-7
as	-8
する	-9
学習	-10
ass	-11
is	-12
ser	-13
tan	-14
▁<	-15
ータ	-16
tant	-17
user	-18
assis	-19
assistant	-20
てい	-21
します	-22
など	-23
データ	-24
▁#	-25
あり	-26
こと	-27
ット	-28
ています	-29
でき	-30
ング	-31
============	-32
あります	-33
さい	-34
して	-35
えて	-36
くだ	-37
的な	-38
ください	-39
した	-40
ュー	-41
には	-42
より	-43
コン	-44
から	-45
よう	-46
ーク	-47
があります	-48
ース	-49
イン	-50
エン	-51
スト	-52
プロ	-53
デル	-54
ネット	-55
モデル	-56
教えて	-57
ない	-58
技術	-59
ですか	-60
ります	-61
ること	-62
しています	-63
せん	-64
ショ	-65
ック	-66
情報	-67
コンピ	-68
ニュー	-69
できます	-70
ai	-71
され	-72
しい	-73
ただ	-74
また	-75
やす	-76
られ	-77
グラ	-78
ません	-79
ション	-80
ワーク	-81
プログラ	-82
ネットワーク	-83
ため	-84
れば	-85
コー	-86
ティ	-87
効果	-88
機械	-89
的に	-90
重要	-91
により	-92
ミング	-93
ュータ	-94
コンピュータ	-95
プログラミング	-96
々な	-97
これ	-98
では	-99
テン	-100
分野	-101
言語	-102
計算	-103
ように	-104
様々な	-105
すること	-106
なります	-107
機械学習	-108
いて	-109
きな	-110
その	-111
って	-112
まず	-113
サイ	-114
ター	-115
利用	-116
力を	-117
少し	-118
手法	-119
方法	-120
組み	-121
説明	-122
量子	-123
できる	-124
を教えて	-125
ht	-126
it	-127
py	-128
re	-129
しく	-130
しょ	-131
とは	-132
どの	-133
の違	-134
アル	-135
ウェ	-136
クト	-137
コツ	-138
サー	-139
スク	-140
ラル	-141
予測	-142
勾配	-143
大切	-144
管理	-145
えてい	-146
しょう	-147
ただけ	-148
として	-149
などの	-150
の違い	-151
ウェア	-152
ベース	-153
ニューラル	-154
ニューラルネットワーク	-155
on	-156
tp	-157
いく	-158
える	-159
がら	-160
つか	-161
でも	-162
につ	-163
への	-164
を見	-165
フォ	-166
ンプ	-167
位置	-168
使わ	-169
取り	-170
必要	-171
時間	-172
特徴	-173
能を	-174
重み	-175
います	-176
などが	-177
ました	-178
ビット	-179
学習は	-180
情報を	-181
http	-182
いくつか	-183
の違いは	-184
ましょう	-185
手法です	-186
これにより	-187
データベース	-188
eb	-189
or	-190
けて	-191
ずつ	-192
つの	-193
もの	-194
わせ	-195
を使	-196
スキ	-197
ズム	-198
ソフ	-199
ディ	-200
ラン	-201
ラー	-202
レー	-203
人生	-204
人間	-205
具体	-206
処理	-207
可能	-208
問題	-209
大規	-210
層の	-211
活用	-212
睡眠	-213
続け	-214
良い	-215
言葉	-216
質問	-217
運動	-218
開発	-219
pyt	-220
web	-221
ための	-222
ながら	-223
ソフト	-224
タスク	-225
トーク	-226
プット	-227
使われ	-228
効果的	-229
合わせ	-230
大きな	-231
大規模	-232
詳しく	-233
重要な	-234
のデータ	-235
ティング	-236
トークン	-237
モデルの	-238
教えてい	-239
効果的です	-240
教えていただけ	-241
ap	-242
le	-243
pt	-244
ql	-245
▁1	-246
ある	-247
お手	-248
かり	-249
ござ	-250
させ	-251
し訳	-252
った	-253
なら	-254
める	-255
もう	-256
アウ	-257
クラ	-258
ゴリ	-259
ソル	-260
テキ	-261
プリ	-262
ルが	-263
ート	-264
ード	-265
伝い	-266
回帰	-267
回答	-268
大量	-269
天気	-270
始め	-271
提供	-272
損失	-273
操作	-274
最適	-275
構造	-276
次に	-277
深層	-278
紹介	-279
自然	-280
英語	-281
関係	-282
関数	-283
集中	-284
git	-285
hon	-286
sql	-287
が大切	-288
ている	-289
やすく	-290
を学習	-291
アウト	-292
エンス	-293
コード	-294
ソース	-295
ターン	-296
フォー	-297
化する	-298
学習の	-299
学習率	-300
性能を	-301
申し訳	-302
お手伝い	-303
について	-304
アルゴリ	-305
テキスト	-306
テンソル	-307
何ですか	-308
技術です	-309
ありません	-310
が大切です	-311
サイエンス	-312
python	-313
アルゴリズム	-314
ソフトウェア	-315
教えてください	-316
申し訳ありません	-317
)、	-318
at	-319
en	-320
ne	-321
▁日	-322
、1	-323
いう	-324
いた	-325
じて	-326
それ	-327
たち	-328
つけ	-329
とな	-330
なし	-331
なる	-332
によ	-333
に適	-334
の一	-335
の中	-336
れる	-337
をお	-338
を一	-339
を作	-340
を実	-341
を行	-342
を追	-343
を通	-344
を防	-345
アク	-346
ウド	-347
ケー	-348
シス	-349
ジェ	-350
セル	-351
タイ	-352
ッド	-353
テク	-354
バー	-355
ビス	-356
ミス	-357
ライ	-358
人工	-359
仕事	-360
何か	-361
分散	-362
分類	-363
力が	-364
向上	-365
基本	-366
実行	-367
度で	-368
役立	-369
教師	-370
文法	-371
文章	-372
料理	-373
暗号	-374
来の	-375
決定	-376
特に	-377
現在	-378
生成	-379
画像	-380
知識	-381
自分	-382
表現	-383
設定	-384
設計	-385
質な	-386
適切	-387
部分	-388
重ね	-389
高い	-390
gpt	-391
があり	-392
する仕	-393
ですが	-394
で学習	-395
という	-396
ますか	-397
を組み	-398
アテン	-399
エンド	-400
クトル	-401
ックス	-402
バック	-403
ランス	-404
ンプル	-405
入力を	-406
分かり	-407
分野で	-408
睡眠の	-409
私たち	-410
関係を	-411
く使われ	-412
もう少し	-413
を通じて	-414
インター	-415
エンコー	-416
クラウド	-417
サービス	-418
ジェクト	-419
データの	-420
データを	-421
ニューロ	-422
パターン	-423
ベクトル	-424
具体的に	-425
化します	-426
少しずつ	-427
質問への	-428
重要です	-429
ができます	-430
する仕組み	-431
っています	-432
紹介します	-433
量子ビット	-434
されています	-435
してください	-436
を組み合わせ	-437
アウトプット	-438
アテンション	-439
大量のデータ	-440
に適しています	-441
コンピュータは	-442
を教えてください	-443
データサイエンス	-444
量子コンピュータは	-445
00	-446
2.	-447
3.	-448
ar	-449
ch	-450
id	-451
ro	-452
tr	-453
um	-454
いの	-455
かに	-456
かも	-457
がと	-458
がり	-459
くい	-460
くの	-461
こそ	-462
しま	-463
しれ	-464
すす	-465
で最	-466
とも	-467
どう	-468
どん	-469
に変	-470
に対	-471
の基	-472
は生	-473
は約	-474
め込	-475
を取	-476
を感	-477
を持	-478
を採	-479
を用	-480
んだ	-481
オブ	-482
クエ	-483
ジネ	-484
ス解	-485
セス	-486
チャ	-487
ッチ	-488
ップ	-489
テム	-490
トロ	-491
パイ	-492
フェ	-493
ブラ	-494
マー	-495
メリ	-496
ント	-497
ープ	-498
一日	-499
上げ	-500
主要	-501
事実	-502
今日	-503
代表	-504
伝え	-505
伝播	-506
作成	-507
作業	-508
値の	-509
入力	-510
出す	-511
出力	-512
分析	-513
別の	-514
則化	-515
前の	-516
効率	-517
動か	-518
十分	-519
可視	-520
変更	-521
大き	-522
失敗	-523
学び	-524
学べ	-525
安定	-526
小さ	-527
幅広	-528
平均	-529
復習	-530
応用	-531
惑星	-532
手の	-533
接続	-534
方式	-535
映画	-536
概念	-537
正規	-538
毎日	-539
汎化	-540
活に	-541
流れ	-542
特定	-543
王星	-544
生き	-545
研究	-546
確な	-547
種類	-548
者が	-549
自動	-550
自己	-551
複数	-552
複雑	-553
解釈	-554
記録	-555
認識	-556
誤差	-557
読書	-558
調整	-559
豊富	-560
進歩	-561
面で	-562
音楽	-563
and	-564
api	-565
gle	-566
あれば	-567
うござ	-568
が必要	-569
が特徴	-570
きます	-571
くこと	-572
される	-573
すすめ	-574
すると	-575
そして	-576
ただし	-577
ちます	-578
ってい	-579
で最も	-580
どんな	-581
に変換	-582
に役立	-583
のコツ	-584
の中に	-585
の位置	-586
の天気	-587
まずは	-588
め込み	-589
やすい	-590
よりも	-591
られた	-592
を作る	-593
を使用	-594
を感じ	-595
を採用	-596
を計算	-597
アプリ	-598
エラー	-599
オンプ	-600
ジネス	-601
ストレ	-602
ス解消	-603
セルフ	-604
タイム	-605
ハード	-606
バッチ	-607
ブラリ	-608
リアル	-609
ルです	-610
レミス	-611
主要な	-612
人生の	-613
人間の	-614
可能性	-615
多くの	-616
嬉しい	-617
従来の	-618
新しい	-619
方法を	-620
最適化	-621
正則化	-622
生活に	-623
相手の	-624
知られ	-625
複雑な	-626
運動を	-627
過学習	-628
重みを	-629
高める	-630
ありがと	-631
かもしれ	-632
から始め	-633
したもの	-634
しながら	-635
のように	-636
られます	-637
ることは	-638
ることも	-639
を計算し	-640
アクセス	-641
コンパイ	-642
サーバー	-643
システム	-644
シンプル	-645
スキルが	-646
トランス	-647
ビジネス	-648
埋め込み	-649
提供する	-650
睡眠の質	-651
自然言語	-652
良い一日	-653
https	-654
いくつかご	-655
いくつかの	-656
することで	-657
するための	-658
できません	-659
になります	-660
ケーション	-661
フォーマー	-662
ライブラリ	-663
大規模言語	-664
汎化性能を	-665
生成します	-666
過学習を防	-667
階テンソル	-668
できることは	-669
できるように	-670
とは何ですか	-671
に変換します	-672
オブジェクト	-673
オンプレミス	-674
ストレス解消	-675
ソースコード	-676
ハードウェア	-677
リアルタイム	-678
自然言語処理	-679
質問への回答	-680
ありがとうござ	-681
する仕組みです	-682
となっています	-683
もう少し詳しく	-684
インターネット	-685
方法があります	-686
知られています	-687
か教えていただけ	-688
く使われています	-689
などが効果的です	-690
を採用しています	-691
的なアルゴリズム	-692
セルフアテンション	-693
トランスフォーマー	-694
いくつかご紹介します	-695
(2	-696
1.	-697
19	-698
20	-699
30	-700
80	-701
ac	-702
ag	-703
am	-704
ci	-705
dn	-706
gd	-707
go	-708
hu	-709
in	-710
li	-711
lo	-712
lu	-713
my	-714
qb	-715
sf	-716
ss	-717
ud	-718
▁p	-719
▁w	-720
▁人	-721
々に	-722
」、	-723
あな	-724
いつ	-725
うま	-726
おは	-727
おり	-728
お困	-729
かつ	-730
がて	-731
きに	-732
ぎる	-733
く分	-734
この	-735
こん	-736
ごし	-737
しさ	-738
しぶ	-739
たら	-740
での	-741
で広	-742
で読	-743
との	-744
なの	-745
にお	-746
にア	-747
に使	-748
に合	-749
に基	-750
に立	-751
に舞	-752
の出	-753
の機	-754
の発	-755
の神	-756
の花	-757
は東	-758
ばん	-759
べて	-760
まで	-761
みな	-762
めて	-763
よく	-764
り返	-765
を変	-766
を押	-767
を書	-768
を最	-769
を果	-770
を模	-771
を発	-772
を考	-773
を聴	-774
アー	-775
イズ	-776
ェー	-777
キー	-778
クロ	-779
サポ	-780
シピ	-781
ジャ	-782
スタ	-783
ダは	-784
ダム	-785
トコ	-786
トリ	-787
ナル	-788
ニン	-789
バリ	-790
パス	-791
パラ	-792
ピー	-793
フラ	-794
フロ	-795
プラ	-796
ベル	-797
ミュ	-798
リラ	-799
レイ	-800
ロジ	-801
ージ	-802
一度	-803
一緒	-804
一部	-805
上で	-806
下法	-807
世界	-808
中の	-809
主な	-810
二乗	-811
人と	-812
付き	-813
付け	-814
休憩	-815
会話	-816
体を	-817
保つ	-818
信頼	-819
優れ	-820
内容	-821
分子	-822
初心	-823
前に	-824
割し	-825
動作	-826
化し	-827
医療	-828
単語	-829
古典	-830
同士	-831
向に	-832
命の	-833
地球	-834
基盤	-835
場合	-836
夜空	-837
好み	-838
定義	-839
実際	-840
対話	-841
就寝	-842
展は	-843
年代	-844
度な	-845
強化	-846
形で	-847
影響	-848
役割	-849
応答	-850
性を	-851
意味	-852
打ち	-853
指向	-854
摂氏	-855
支援	-856
数値	-857
数学	-858
文脈	-859
日本	-860
時に	-861
時の	-862
更新	-863
材料	-864
果を	-865
柔軟	-866
検証	-867
構成	-868
標準	-869
機構	-870
次元	-871
正解	-872
残差	-873
気は	-874
水は	-875
況を	-876
物の	-877
物理	-878
独学	-879
理解	-880
理論	-881
登場	-882
目標	-883
知ら	-884
知り	-885
知能	-886
確率	-887
確認	-888
私は	-889
科学	-890
種で	-891
積み	-892
答え	-893
統計	-894
継続	-895
線形	-896
者の	-897
能力	-898
花火	-899
行列	-900
行錯	-901
解決	-902
記憶	-903
該当	-904
語彙	-905
資源	-906
逆方	-907
通信	-908
速度	-909
連続	-910
遅く	-911
遺伝	-912
間の	-913
間違	-914
電子	-915
音声	-916
類似	-917
ati	-918
dna	-919
hub	-920
kag	-921
mer	-922
num	-923
sgd	-924
▁日常	-925
▁日本	-926
あなた	-927
うこと	-928
おやす	-929
お困り	-930
かない	-931
が利用	-932
が可能	-933
が安定	-934
ぎると	-935
くれる	-936
こそが	-937
ことで	-938
ことを	-939
これを	-940
させる	-941
さよう	-942
しぶり	-943
つけて	-944
で利用	-945
で説明	-946
で読み	-947
ときに	-948
ととも	-949
と計算	-950
どの点	-951
な睡眠	-952
にする	-953
による	-954
に取り	-955
に基づ	-956
の基礎	-957
の特徴	-958
の設計	-959
は言葉	-960
は重み	-961
ばんは	-962
または	-963
やがて	-964
ような	-965
わから	-966
をお過	-967
を取る	-968
を大切	-969
を実現	-970
を持ち	-971
を最小	-972
を果た	-973
を模倣	-974
を用い	-975
を自動	-976
を行い	-977
を追加	-978
アーキ	-979
インタ	-980
イント	-981
ェーン	-982
カフェ	-983
クエリ	-984
クロス	-985
コツは	-986
コツを	-987
サイズ	-988
サイト	-989
ジャン	-990
スキル	-991
テクニ	-992
ニング	-993
パラメ	-994
フラを	-995
ブース	-996
プリタ	-997
メート	-998
ラベル	-999
レシピ	-1000
レージ	-1001
上げる	-1002
予測精	-1003
伝える	-1004
分散型	-1005
加えて	-1006
勾配降	-1007
各層の	-1008
問題を	-1009
回帰は	-1010
場面で	-1011
増やす	-1012
多層の	-1013
好きな	-1014
実際に	-1015
幅広い	-1016
広がり	-1017
徐々に	-1018
技術の	-1019
暗号化	-1020
正確な	-1021
正規化	-1022
決定木	-1023
特定の	-1024
状況を	-1025
生命の	-1026
統計学	-1027
繰り返	-1028
美しい	-1029
美しさ	-1030
自分の	-1031
良質な	-1032
行錯誤	-1033
複数の	-1034
言葉が	-1035
記録を	-1036
設定が	-1037
豊かに	-1038
豊富な	-1039
身につ	-1040
進歩が	-1041
適切な	-1042
適度な	-1043
部分が	-1044
関数は	-1045
電気は	-1046
風に舞	-1047
ansf	-1048
chat	-1049
pand	-1050
relu	-1051
いただけ	-1052
いつでも	-1053
いですか	-1054
いました	-1055
うまくい	-1056
おすすめ	-1057
おはよう	-1058
から構成	-1059
している	-1060
しやすい	-1061
すぎると	-1062
する方式	-1063
った方法	-1064
っていた	-1065
て嬉しい	-1066
でも続け	-1067
とともに	-1068
などです	-1069
によって	-1070
の一種で	-1071
の発展は	-1072
は人間の	-1073
は重みの	-1074
また何か	-1075
みなさい	-1076
られない	-1077
ることが	-1078
ることで	-1079
を大切に	-1080
を見つけ	-1081
エントロ	-1082
エンドは	-1083
サポート	-1084
チェーン	-1085
テクチャ	-1086
ディング	-1087
ディープ	-1088
データで	-1089
バリュー	-1090
ピー損失	-1091
フォーム	-1092
フロント	-1093
プラット	-1094
プロトコ	-1095
ポイント	-1096
メリット	-1097
モデルを	-1098
ランダム	-1099
リソース	-1100
久しぶり	-1101
人工知能	-1102
分かりに	-1103
分野です	-1104
効果的な	-1105
効率的に	-1106
学習では	-1107
実行速度	-1108
応用分野	-1109
操作する	-1110
教師あり	-1111
教師なし	-1112
文章作成	-1113
時間管理	-1114
概念です	-1115
残差接続	-1116
活用する	-1117
物理的な	-1118
特に画像	-1119
私たちの	-1120
積み重ね	-1121
自分に合	-1122
試行錯誤	-1123
逆方向に	-1124
集中力を	-1125
numpy	-1126
ormer	-1127
ありますか	-1128
が特徴です	-1129
こんばんは	-1130
ございます	-1131
さようなら	-1132
したもので	-1133
しましょう	-1134
と計算資源	-1135
どのような	-1136
どの部分が	-1137
などが該当	-1138
は何ですか	-1139
もあります	-1140
わからない	-1141
をお過ごし	-1142
を行います	-1143
インフラを	-1144
インプット	-1145
カフェイン	-1146
クラウドは	-1147
コンパイラ	-1148
コンピュー	-1149
ストレージ	-1150
タスクでは	-1151
ティングは	-1152
テクニック	-1153
データから	-1154
データ構造	-1155
トークンを	-1156
パラメータ	-1157
ラーニング	-1158
リラックス	-1159
レーション	-1160
人間関係を	-1161
分野で活用	-1162
勾配降下法	-1163
十分な睡眠	-1164
学習が安定	-1165
役割を果た	-1166
様々な手法	-1167
機械学習の	-1168
機械学習は	-1169
深層学習は	-1170
説明します	-1171
重ね合わせ	-1172
重みを更新	-1173
高い予測精	-1174
高めるには	-1175
github	-1176
kaggle	-1177
pandas	-1178
transf	-1179
いただければ	-1180
かもしれない	-1181
することです	-1182
する方式です	-1183
て嬉しいです	-1184
にはアクセス	-1185
に役立ちます	-1186
のデータから	-1187
も効果的です	-1188
を使用します	-1189
インタプリタ	-1190
サービスです	-1191
データで学習	-1192
モデルの予測	-1193
位置エンコー	-1194
何かお手伝い	-1195
様々なタスク	-1196
毎日少しずつ	-1197
睡眠の質向上	-1198
身につきます	-1199
過学習を防ぐ	-1200
chatgpt	-1201
あればいつでも	-1202
うまくいかない	-1203
おやすみなさい	-1204
ことができます	-1205
などがあります	-1206
について詳しく	-1207
のコツを教えて	-1208
やすくなります	-1209
を学習できます	-1210
アーキテクチャ	-1211
オンプレミスは	-1212
クロスエントロ	-1213
シンプルで読み	-1214
設定が重要です	-1215
が可能になります	-1216
くことが大切です	-1217
と計算資源が必要	-1218
などが該当します	-1219
ることが大切です	-1220
アプリケーション	-1221
オブジェクト指向	-1222
データベース操作	-1223
プラットフォーム	-1224
プログラミングを	-1225
人工知能の発展は	-1226
十分な睡眠を取る	-1227
自分に合った方法	-1228
表現に変換します	-1229
豊富なライブラリ	-1230
おはようございます	-1231
をお過ごしください	-1232
ディープラーニング	-1233
モデルの汎化性能を	-1234
従来のコンピュータ	-1235
申し訳ありませんが	-1236
▁トランスフォーマー	-1237
か教えていただければ	-1238
できるようになります	-1239
で広く使われています	-1240
として知られています	-1241
スキルが身につきます	-1242
位置エンコーディング	-1243
教えていただけますか	-1244
様々な手法があります	-1245
transformer	-1246
ありがとうございました	-1247
できることはありますか	-1248
にはアクセスできません	-1249
クロスエントロピー損失	-1250
分野で活用されています	-1251
ニューラルネットワークの	-1252
コツをいくつかご紹介します	-1253
良い一日をお過ごしください	-1254
もう少し詳しく教えてください	-1255
大量のデータと計算資源が必要	-1256
オブジェクト指向プログラミング	-1257
量子ビットニューラルネットワーク	-1258
006	-1259
100	-1260
196	-1261
380	-1262
>1.	-1263
ace	-1264
amm	-1265
arn	-1266
arp	-1267
css	-1268
dam	-1269
emy	-1270
ent	-1271
gen	-1272
god	-1273
idg	-1274
int	-1275
ned	-1276
pen	-1277
rog	-1278
rop	-1279
roq	-1280
sci	-1281
ssl	-1282
ten	-1283
▁2.	-1284
▁3.	-1285
▁ne	-1286
▁人は	-1287
▁人体	-1288
▁失敗	-1289
▁水は	-1290
▁知識	-1291
▁科学	-1292
▁継続	-1293
▁自己	-1294
。19	-1295
々との	-1296
いの地	-1297
う分子	-1298
お伝え	-1299
300	-1300
、20	-1301
が夜空	-1302
が遅く	-1303
が間違	-1304
き出す	-1305
く柔軟	-1306
この瞬	-1307
この過	-1308
ご確認	-1309
しまい	-1310
し付け	-1311
すべて	-1312
す数値	-1313
ず確認	-1314
それ自	-1315
たいの	-1316
たら調	-1317
で体を	-1318
で優れ	-1319
で平均	-1320
とそれ	-1321
との差	-1322
とも呼	-1323
とキー	-1324
とレイ	-1325
と事実	-1326
と対話	-1327
と応答	-1328
と正解	-1329
と深層	-1330
どうぞ	-1331
な主な	-1332
な力が	-1333
な形で	-1334
に代表	-1335
に伝え	-1336
に優れ	-1337
に対し	-1338
に立て	-1339
の一つ	-1340
の中で	-1341
の仕事	-1342
の会話	-1343
の出来	-1344
の基盤	-1345
の変更	-1346
の夜空	-1347
の失敗	-1348
の文章	-1349
の知識	-1350
の神経	-1351
の花が	-1352
の花び	-1353
の間の	-1354
の面で	-1355
の高い	-1356
は小さ	-1357
は東ア	-1358
は生か	-1359
は知り	-1360
は解釈	-1361
も豊富	-1362
や関数	-1363
や音声	-1364
り出す	-1365
る前の	-1366
る花火	-1367
れる曲	-1368
をよく	-1369
を一定	-1370
を一度	-1371
を一行	-1372
を動か	-1373
を基盤	-1374
を変え	-1375
を定義	-1376
を実装	-1377
を押さ	-1378
を数値	-1379
を特定	-1380
を発揮	-1381
を発見	-1382
を考慮	-1383
を英語	-1384
を調整	-1385
を連続	-1386
を防ぎ	-1387
アニン	-1388
シミュ	-1389
スケー	-1390
スタマ	-1391
タント	-1392
チャー	-1393
ッドを	-1394
ップを	-1395
デニン	-1396
トロー	-1397
バージ	-1398
パスワ	-1399
app	-1400
ide	-1401
▁10	-1402
あった	-1403
させて	-1404
っかり	-1405
つめる	-1406
で操作	-1407
で最適	-1408
はどう	-1409
ま出力	-1410
もある	-1411
や天気	-1412
を可視	-1413
を追体	-1414
プセル	-1415
プライ	-1416
プレイ	-1417
ヘッド	-1418
ベイズ	-1419
ペナル	-1420
マトリ	-1421
ミュニ	-1422
リクエ	-1423
ロジス	-1424
一緒に	-1425
両者が	-1426
中の数	-1427
了させ	-1428
事実上	-1429
人と話	-1430
人物の	-1431
今日は	-1432
今日も	-1433
仕事や	-1434
仕事を	-1435
休憩も	-1436
体を支	-1437
何に使	-1438
作業環	-1439
像力が	-1440
入力の	-1441
冥王星	-1442
出力層	-1443
分集中	-1444
分類し	-1445
列を一	-1446
初心者	-1447
別の言	-1448
力が育	-1449
動かす	-1450
友人と	-1451
口は約	-1452
可視光	-1453
同士の	-1454
同時に	-1455
名前の	-1456
品質な	-1457
回答に	-1458
地球上	-1459
場に立	-1460
変更を	-1461
多次元	-1462
大量の	-1463
学べる	-1464
学んだ	-1465
安定性	-1466
家まで	-1467
対値の	-1468
対話型	-1469
差検証	-1470
度で凍	-1471
微調整	-1472
性を高	-1473
性理論	-1474
惑星に	-1475
意味が	-1476
慰めて	-1477
打ち切	-1478
損失が	-1479
数学的	-1480
文法が	-1481
文法を	-1482
文脈に	-1483
料理は	-1484
日本語	-1485
映画の	-1486
映画や	-1487
時は約	-1488
暗号解	-1489
期記憶	-1490
未来の	-1491
材料の	-1492
果を生	-1493
柔軟な	-1494
業者が	-1495
構造を	-1496
機構は	-1497
次元の	-1498
正いた	-1499
▁言葉	-1500
▁質問	-1501
くもの	-1502
く続け	-1503
つずつ	-1504
とめる	-1505
の種類	-1506
ものだ	-1507
れ層の	-1508
カラー	-1509
ズムが	-1510
ディス	-1511
リレー	-1512
人生を	-1513
処理と	-1514
処理を	-1515
助けて	-1516
効活用	-1517
可能な	-1518
問題に	-1519
問題の	-1520
四つの	-1521
波を用	-1522
海王星	-1523
独学で	-1524
現在は	-1525
理解し	-1526
異なる	-1527
目標を	-1528
知らぬ	-1529
知りた	-1530
知識や	-1531
確かに	-1532
紹介と	-1533
組んだ	-1534
結んだ	-1535
結果を	-1536
続ける	-1537
繋がり	-1538
者が他	-1539
者の思	-1540
者の方	-1541
自己注	-1542
自然が	-1543
自然な	-1544
良い夢	-1545
英語を	-1546
英語日	-1547
表現力	-1548
見を押	-1549
解釈が	-1550
言葉で	-1551
記を書	-1552
語彙が	-1553
誤った	-1554
誤差が	-1555
誤差逆	-1556
読書の	-1557
読書は	-1558
調変更	-1559
諦めて	-1560
質問が	-1561
運動も	-1562
遺伝子	-1563
部分で	-1564
都は東	-1565
長は約	-1566
間の相	-1567
関数や	-1568
類似度	-1569
380〜	-1570
ativ	-1571
cati	-1572
face	-1573
godb	-1574
idge	-1575
line	-1576
ment	-1577
orch	-1578
rogr	-1579
scik	-1580
trai	-1581
▁11.	-1582
▁api	-1583
▁dna	-1584
▁int	-1585
▁web	-1586
▁wit	-1587
▁エラー	-1588
▁バッチ	-1589
▁失敗は	-1590
▁日本語	-1591
▁電気は	-1592
あなたは	-1593
ある問題	-1594
いたしま	-1595
いて動か	-1596
いの地域	-1597
いを模倣	-1598
い美しさ	-1599
orf	-1600
える姿	-1601
お好み	-1602
け取り	-1603
な場合	-1604
は時間	-1605
を別の	-1606
を重み	-1607
フォレ	-1608
与える	-1609
分類や	-1610
控える	-1611
晶を見	-1612
特徴を	-1613
良いで	-1614
葉を見	-1615
sorf	-1616
う葉を見	-1617
える姿勢	-1618
お困りの	-1619
からこそ	-1620
から取り	-1621
か分かり	-1622
が使われ	-1623
が夜空に	-1624
が暗号化	-1625
が風に舞	-1626
きことを	-1627
きながら	-1628
きの中に	-1629
き出す学	-1630
くい説明	-1631
くことだ	-1632
くれる曲	-1633
けて復習	-1634
この過程	-1635
さの中に	-1636
した意味	-1637
した知識	-1638
しっかり	-1639
しており	-1640
しまって	-1641
し付けず	-1642
すことで	-1643
すると実	-1644
する必要	-1645
それ自体	-1646
たら学習	-1647
た適切な	-1648
っており	-1649
って回答	-1650
つのタイ	-1651
つの惑星	-1652
ていると	-1653
での勾配	-1654
で平均と	-1655
という欠	-1656
とそれを	-1657
とも呼ば	-1658
とキーの	-1659
とバック	-1660
と安定性	-1661
と良いで	-1662
などが名	-1663
なタスク	-1664
な形で保	-1665
において	-1666
にお答え	-1667
にスケー	-1668
に人生の	-1669
に基づき	-1670
に対して	-1671
に役立て	-1672
に結んだ	-1673
のに対し	-1674
のレシピ	-1675
の位置に	-1676
の処理を	-1677
の出来事	-1678
の基礎を	-1679
の夜空を	-1680
の失敗で	-1681
の対話型	-1682
の文章を	-1683
の特徴は	-1684
の神経回	-1685
は人生の	-1686
は体を支	-1687
は分散型	-1688
は可能性	-1689
は時間を	-1690
は東アジ	-1691
は確かに	-1692
は複数の	-1693
への応用	-1694
ましたが	-1695
まずは変	-1696
まず基本	-1697
まとめる	-1698
まま出力	-1699
htm	-1700
red	-1701
res	-1702
ure	-1703
の予測	-1704
ほどの	-1705
も役立	-1706
フォン	-1707
リスク	-1708
ン管理	-1709
ードや	-1710
予測が	-1711
予測や	-1712
勾配が	-1713
勾配を	-1714
勾配消	-1715
管理し	-1716
管理や	-1717
html	-1718
zure	-1719
として加	-1720
などの機	-1721
にも役立	-1722
に対する	-1723
は冥王星	-1724
め上げる	-1725
もう一度	-1726
やがて消	-1727
やベイズ	-1728
や方法を	-1729
や状況を	-1730
よりも精	-1731
よりも高	-1732
より適切	-1733
りすると	-1734
りました	-1735
りやすく	-1736
り出す芸	-1737
る目標を	-1738
ればなら	-1739
れ層のユ	-1740
をお伝え	-1741
をご確認	-1742
をペナル	-1743
を上げる	-1744
を使って	-1745
を基盤に	-1746
を増やす	-1747
を押さえ	-1748
を控える	-1749
を理解し	-1750
を考えて	-1751
を英語字	-1752
を見ない	-1753
アウトは	-1754
ィズムが	-1755
エラーメ	-1756
グアニン	-1757
コミュニ	-1758
コーダは	-1759
サイトが	-1760
サンプル	-1761
ショナル	-1762
スカラー	-1763
スキルは	-1764
ストを聴	-1765
チヘッド	-1766
ップを経	-1767
トロール	-1768
ニバッチ	-1769
ノメート	-1770
バージョ	-1771
フェース	-1772
フォン使	-1773
マックス	-1774
メートル	-1775
ュー管理	-1776
ランスを	-1777
ルが必要	-1778
ルリクエ	-1779
レシピを	-1780
ードやク	-1781
ールです	-1782
一つずつ	-1783
一緒に踊	-1784
上で量子	-1785
両者が連	-1786
予測に使	-1787
予測や判	-1788
事実上の	-1789
事業者が	-1790
交差検証	-1791
人々との	-1792
人が利用	-1793
人スキル	-1794
人口は約	-1795
人生の本	-1796
人間の価	-1797
今この瞬	-1798
仕事や学	-1799
goo	-1800
wor	-1801
が大き	-1802
その束	-1803
その点	-1804
その絆	-1805
って桜	-1806
に計算	-1807
の一部	-1808
は計算	-1809
を利用	-1810
テンツ	-1811
作って	-1812
方法は	-1813
用利用	-1814
計算で	-1815
worl	-1816
いますか	-1817
か作って	-1818
その点を	-1819
って桜は	-1820
などのオ	-1821
の一部で	-1822
は計算が	-1823
みながら	-1824
る前のス	-1825
を定義し	-1826
ムを利用	-1827
仕事を奪	-1828
代生活に	-1829
代表的な	-1830
伝播させ	-1831
位な場合	-1832
位置する	-1833
体を一度	-1834
作られた	-1835
作業環境	-1836
信頼関係	-1837
値を発揮	-1838
先ほどの	-1839
具として	-1840
内容です	-1841
処理と謝	-1842
出たら調	-1843
分類し直	-1844
列を一般	-1845
別の世界	-1846
前に設定	-1847
加えて味	-1848
加えて実	-1849
効化する	-1850
動を学習	-1851
勾配など	-1852
勾配消失	-1853
化するの	-1854
医療記録	-1855
十分学べ	-1856
取り出す	-1857
受け取り	-1858
古典的な	-1859
可視光線	-1860
合を防ぎ	-1861
向上する	-1862
商用利用	-1863
問題を軽	-1864
回答に誤	-1865
因を特定	-1866
基本概念	-1867
報アプリ	-1868
大きく分	-1869
大きな成	-1870
大切なの	-1871
失敗から	-1872
好きなら	-1873
好みにア	-1874
学習の検	-1875
完了させ	-1876
宙で最も	-1877
実行前に	-1878
実際に手	-1879
対値の和	-1880
就寝前の	-1881
就寝時間	-1882
年代にア	-1883
序情報を	-1884
度で凍り	-1885
弦波を用	-1886
役に立て	-1887
必ず確認	-1888
性を高め	-1889
情報を担	-1890
情報提供	-1891
感力が育	-1892
慣化する	-1893
打ち上げ	-1894
技術の総	-1895
損失が悪	-1896
文法を本	-1897
文脈に応	-1898
料理は上	-1899
これは	-1900
では順	-1901
に定義	-1902
に機械	-1903
の映画	-1904
ればい	-1905
ティマ	-1906
ペティ	-1907
リティ	-1908
ループ	-1909
効果を	-1910
本的に	-1911
的に扱	-1912
確率的	-1913
apqb	-1914
これは宇	-1915
ないため	-1916
に機械語	-1917
ティマイ	-1918
ディなら	-1919
ュリティ	-1920
一的に扱	-1921
別の言い	-1922
動作する	-1923
学習コー	-1924
映画やド	-1925
時の流れ	-1926
暗号解読	-1927
材料の下	-1928
材料開発	-1929
束が遅く	-1930
果を生む	-1931
根本的に	-1932
桜の花が	-1933
標準言語	-1934
母という	-1935
減できる	-1936
準惑星に	-1937
物の遺伝	-1938
特徴を表	-1939
独学でも	-1940
現在では	-1941
現在はま	-1942
生きてい	-1943
生命の営	-1944
生命の維	-1945
由で利用	-1946
画像認識	-1947
的な説明	-1948
的に特徴	-1949
的学習率	-1950
研究など	-1951
研究開発	-1952
確に定義	-1953
示と応答	-1954
立場に立	-1955
管理する	-1956
結晶を見	-1957
線形性を	-1958
美しい季	-1959
者が他の	-1960
胞を作る	-1961
自分の意	-1962
自己回帰	-1963
自然が作	-1964
著者の思	-1965
行うこと	-1966
解釈が難	-1967
訂正いた	-1968
計算方式	-1969
記録を改	-1970
語彙が増	-1971
誤差がよ	-1972
調整する	-1973
貨の基盤	-1974
路を模倣	-1975
連続値の	-1976
進歩が見	-1977
運動した	-1978
重みを抑	-1979
重要なの	-1980
重要な物	-1981
重要な要	-1982
長期記憶	-1983
開発した	-1984
間の相関	-1985
関係を誤	-1986
集中力が	-1987
音楽を聴	-1988
380〜7	-1989
ammin	-1990
ative	-1991
mysql	-1992
redis	-1993
resne	-1994
resql	-1995
ridge	-1996
udemy	-1997
▁line	-1998
▁with	-1999
▁複数	-2000
▁音楽	-2001
いただ	-2002
とされ	-2003
またお	-2004
エンタ	-2005
コスト	-2006
ライン	-2007
リスト	-2008
伝播法	-2009
傷つけ	-2010
味しい	-2011
少ない	-2012
帳技術	-2013
悲しい	-2014
情報の	-2015
技術は	-2016
正しい	-2017
点的に	-2018
▁pre	-2019
いただき	-2020
えること	-2021
があった	-2022
せません	-2023
たります	-2024
っている	-2025
なく続け	-2026
のですか	-2027
またお話	-2028
ることを	-2029
を傷つけ	-2030
コストが	-2031
ックなど	-2032
ニュース	-2033
ンライン	-2034
台帳技術	-2035
情報など	-2036
情報の取	-2037
技術コン	-2038
正則化は	-2039
相手の話	-2040
美味しい	-2041
誰ですか	-2042
重点的に	-2043
▁テンソル	-2044
▁交差検証	-2045
▁失敗は成	-2046
▁日常会話	-2047
▁正則化は	-2048
▁残差接続	-2049
▁質問応答	-2050
々から構成	-2051
いられない	-2052
いを模倣し	-2053
いベクトル	-2054
うのに対し	-2055
う分子です	-2056
お仕事や学	-2057
お役に立て	-2058
かせません	-2059
から始めて	-2060
がっている	-2061
が出たら調	-2062
が風に舞い	-2063
きの中に永	-2064
くものです	-2065
けられます	-2066
げられない	-2067
させる効果	-2068
されている	-2069
されました	-2070
されるため	-2071
した数学的	-2072
すぎると収	-2073
すぎると発	-2074
すると実践	-2075
するものだ	-2076
する分野で	-2077
だからこそ	-2078
つけて進歩	-2079
つのタイプ	-2080
ていきます	-2081
できますが	-2082
できるよう	-2083
できる時間	-2084
でサーバー	-2085
でデータの	-2086
でデータを	-2087
で作られた	-2088
という欠点	-2089
とされてい	-2090
として表現	-2091
とって桜は	-2092
とも呼ばれ	-2093
と深層学習	-2094
どんな人工	-2095
などが名作	-2096
などで最適	-2097
など様々な	-2098
なりますが	-2099
いたら	-2100
から始	-2101
くには	-2102
した革	-2103
ずには	-2104
にはま	-2105
には主	-2106
には約	-2107
のコン	-2108
より詳	-2109
キュー	-2110
パース	-2111
二乗和	-2112
再利用	-2113
命的な	-2114
時間は	-2115
的な振	-2116
示的な	-2117
私には	-2118
種類の	-2119
超えて	-2120
部分に	-2121
▁時間は	-2122
から始ま	-2123
ことを実	-2124
した革新	-2125
するには	-2126
ためには	-2127
として広	-2128
にはまる	-2129
には主に	-2130
の一つで	-2131
の再利用	-2132
の変更履	-2133
の重要な	-2134
みを感じ	-2135
ようです	-2136
より詳細	-2137
を超えて	-2138
スパース	-2139
動いたら	-2140
明示的な	-2141
的な振る	-2142
種類の塩	-2143
築くには	-2144
速に計算	-2145
部分に注	-2146
革命的な	-2147
gener	-2148
▁時間は川	-2149
けください	-2150
ことを実践	-2151
な力がある	-2152
な手法です	-2153
にはまるで	-2154
には様々な	-2155
により古典	-2156
にスケール	-2157
にニューロ	-2158
に伝えます	-2159
に基づいて	-2160
に結んだ霜	-2161
のように積	-2162
のエンコー	-2163
のトークン	-2164
の位置にマ	-2165
の再利用性	-2166
の処理を担	-2167
の変更履歴	-2168
の夜空を彩	-2169
の天気情報	-2170
の技術です	-2171
の文章を要	-2172
の母という	-2173
の物理的な	-2174
の結晶を見	-2175
はそれ自体	-2176
は人間の脳	-2177
は体を支え	-2178
は冥王星も	-2179
は必ず確認	-2180
は時間をか	-2181
は東アジア	-2182
は重みの絶	-2183
への応用が	-2184
べきことを	-2185
またお話し	-2186
まま出力に	-2187
みください	-2188
みましょう	-2189
みを感じる	-2190
むと良いで	-2191
めることも	-2192
も豊富です	-2193
やすい文法	-2194
やデータで	-2195
や状況を共	-2196
ようですね	-2197
よりも精緻	-2198
より表現力	-2199
面を	-2200
して減	-2201
すこと	-2202
ギング	-2203
セット	-2204
ットカ	-2205
ニット	-2206
ピング	-2207
ングハ	-2208
ングル	-2209
人では	-2210
分割し	-2211
力を参	-2212
整えて	-2213
画面を	-2214
2006	-2215
open	-2216
かすこと	-2217
して減少	-2218
つけます	-2219
に分割し	-2220
もってい	-2221
を整えて	-2222
ジットカ	-2223
セットで	-2224
ッピング	-2225
データ以	-2226
データ拡	-2227
ニット数	-2228
バギング	-2229
ビングハ	-2230
ングル演	-2231
一人では	-2232
低く柔軟	-2233
力を参照	-2234
生き続け	-2235
画面を構	-2236
練データ	-2237
言葉が人	-2238
高品質な	-2239
▁データ拡	-2240
▁高品質な	-2241
、2006	-2242
ありますが	-2243
えています	-2244
がしやすい	-2245
は小さく分	-2246
もっていく	-2247
より大きな	-2248
りがあった	-2249
りやすくな	-2250
り出す芸術	-2251
る手法です	-2252
れとともに	-2253
をいくつか	-2254
をおすすめ	-2255
をしっかり	-2256
をつけます	-2257
を一行ずつ	-2258
を作ります	-2259
を動かして	-2260
を大切に選	-2261
を学習する	-2262
を提供する	-2263
を整えて邪	-2264
を活用する	-2265
を英語字幕	-2266
を見つけて	-2267
を連続的な	-2268
を重み付け	-2269
イズの面で	-2270
インに代表	-2271
エビングハ	-2272
エラーメッ	-2273
エンコーダ	-2274
クラウドと	-2275
サンプルを	-2276
サーバー側	-2277
サービスに	-2278
サービスを	-2279
シスタント	-2280
システムで	-2281
シンプルな	-2282
ジすること	-2283
スティング	-2284
ストを聴く	-2285
ストを行い	-2286
スパースな	-2287
セットで事	-2288
タムを利用	-2289
チやベイズ	-2290
ップを経て	-2291
ツールです	-2292
デコーダは	-2293
データを有	-2294
データ以降	-2295
データ可視	-2296
ニバッチ内	-2297
バランスを	-2298
バリューの	-2299
av	-2300
nn	-2301
ri	-2302
st	-2303
で層	-2304
な知	-2305
アン	-2306
パク	-2307
ーが	-2308
一方	-2309
件分	-2310
制御	-2311
声が	-2312
形式	-2313
有益	-2314
物だ	-2315
重ら	-2316
離散	-2317
cri	-2318
jav	-2319
ost	-2320
▁アン	-2321
▁損失	-2322
。2.	-2323
お声が	-2324
つ単語	-2325
な知見	-2326
り物だ	-2327
を分析	-2328
を制御	-2329
ザーが	-2330
ス分類	-2331
パク質	-2332
二重ら	-2333
件分岐	-2334
子で層	-2335
態を取	-2336
系には	-2337
表形式	-2338
ostg	-2339
qbnn	-2340
▁アンサ	-2341
つ単語が	-2342
な知見を	-2343
を分析し	-2344
ザーが直	-2345
ンパク質	-2346
ーション	-2347
分野では	-2348
条件分岐	-2349
状態を取	-2350
算子で層	-2351
自己注意	-2352
贈り物だ	-2353
陽系には	-2354
離散的な	-2355
ascri	-2356
postg	-2357
▁アンサン	-2358
つ単語が近	-2359
な知見を引	-2360
の贈り物だ	-2361
より詳細に	-2362
クラス分類	-2363
ゲーション	-2364
ザーが直接	-2365
タンパク質	-2366
フィズムが	-2367
プティマイ	-2368
プルリクエ	-2369
プロトコル	-2370
メディなら	-2371
モデルでは	-2372
モデルを融	-2373
ラベル付き	-2374
リスク分析	-2375
リスト化し	-2376
ルによって	-2377
ルチヘッド	-2378
ロメートル	-2379
ングなどの	-2380
ードやクレ	-2381
一的に扱え	-2382
一緒に取り	-2383
一部の仕事	-2384
世界中の数	-2385
予報アプリ	-2386
予測や判断	-2387
二重らせん	-2388
人物の人生	-2389
今日の天気	-2390
代生活に欠	-2391
何に使える	-2392
信頼できる	-2393
個に分割し	-2394
億人が利用	-2395
儚い美しさ	-2396
優位な場合	-2397
入力を正規	-2398
全体を一度	-2399
ed	-2400
▁冬	-2401
に触	-2402
イル	-2403
シグ	-2404
セキ	-2405
メソ	-2406
モド	-2407
ユー	-2408
含ま	-2409
外部	-2410
想で	-2411
趣味	-2412
速い	-2413
金星	-2414
ied	-2415
▁冬の	-2416
が基本	-2417
であり	-2418
に触れ	-2419
ましく	-2420
みます	-2421
ァイル	-2422
シグモ	-2423
ポモド	-2424
具体例	-2425
含まれ	-2426
外部の	-2427
小さな	-2428
思決定	-2429
瞑想で	-2430
趣味の	-2431
速い速	-2432
fied	-2433
orac	-2434
▁冬の朝	-2435
や瞑想で	-2436
シグモイ	-2437
ファイル	-2438
ポモドー	-2439
ル学習は	-2440
具体例を	-2441
小さな島	-2442
意思決定	-2443
考に触れ	-2444
花であり	-2445
覚ましく	-2446
進みます	-2447
ified	-2448
くい説明で	-2449
さの中にも	-2450
で進みます	-2451
な花であり	-2452
を考慮した	-2453
シグモイド	-2454
ビジネス課	-2455
ブル学習は	-2456
ポモドーロ	-2457
メソッドを	-2458
共感力が育	-2459
具体例を挙	-2460
具体的にお	-2461
処理と謝罪	-2462
処理に優れ	-2463
分かりにく	-2464
分でも続け	-2465
分析結果を	-2466
分類や回帰	-2467
列を一般化	-2468
初心者の方	-2469
効果があり	-2470
勾配ブース	-2471
原因を特定	-2472
可能な位置	-2473
可視光線の	-2474
合して減少	-2475
含まれます	-2476
吸や瞑想で	-2477
問題の解決	-2478
問題を解決	-2479
基から構成	-2480
大きな影響	-2481
大切なのは	-2482
大規模分散	-2483
好みにアレ	-2484
始めたいの	-2485
存しながら	-2486
学べますか	-2487
学習効果を	-2488
守性を高め	-2489
実行します	-2490
実行速度が	-2491
密データの	-2492
寝る前のス	-2493
少しずつ移	-2494
少し変更を	-2495
平均します	-2496
序情報を持	-2497
度から始め	-2498
度か作って	-2499
▁春	-2500
のス	-2501
は違	-2502
アの	-2503
イシ	-2504
ッキ	-2505
ポリ	-2506
モリ	-2507
以下	-2508
層と	-2509
成し	-2510
探索	-2511
月後	-2512
深呼	-2513
継承	-2514
週間	-2515
▁春の	-2516
で学び	-2517
のステ	-2518
の作成	-2519
は違う	-2520
も成し	-2521
を探索	-2522
アの提	-2523
フュー	-2524
ポリモ	-2525
メモリ	-2526
ヶ月後	-2527
大きく	-2528
尋の神	-2529
層と順	-2530
週間後	-2531
loud	-2532
▁春の訪	-2533
の作成や	-2534
も成し遂	-2535
アの提案	-2536
スタッキ	-2537
ポリモー	-2538
ヶ月後に	-2539
値を探索	-2540
千尋の神	-2541
方で説明	-2542
読書には	-2543
連のステ	-2544
限られた	-2545
cloud	-2546
▁機械学習	-2547
たないため	-2548
と千尋の神	-2549
の作成や添	-2550
まることを	-2551
わたります	-2552
を通じて家	-2553
デアの提案	-2554
ラベルなし	-2555
一連のステ	-2556
何も成し遂	-2557
入力をその	-2558
大きく影響	-2559
層と順伝播	-2560
度と安定性	-2561
引記録を改	-2562
強化学習は	-2563
必要な主な	-2564
急なタスク	-2565
情報の取得	-2566
情報を提供	-2567
指示と応答	-2568
捉えること	-2569
文脈に応じ	-2570
料理を作る	-2571
新しい仕事	-2572
方法を取り	-2573
方法を決定	-2574
映画やドラ	-2575
時間を作る	-2576
期コストが	-2577
構造により	-2578
構造を発見	-2579
次に実際に	-2580
正弦波を用	-2581
波の一種で	-2582
活かすこと	-2583
無効化する	-2584
特定の問題	-2585
現在の位置	-2586
現在はまだ	-2587
理なく続け	-2588
生きていけ	-2589
画面を構築	-2590
的に増やす	-2591
的学習率の	-2592
目覚ましく	-2593
相手の良い	-2594
私たちの傍	-2595
積み重ねが	-2596
空けて復習	-2597
答えは違う	-2598
細胞を作る	-2599
mo	-2600
、「	-2601
さっ	-2602
なせ	-2603
に染	-2604
はお	-2605
や工	-2606
ゆっ	-2607
をこ	-2608
シン	-2609
何が	-2610
修正	-2611
光の	-2612
様で	-2613
疲れ	-2614
秒速	-2615
▁mo	-2616
さっき	-2617
の支援	-2618
や工場	-2619
ゆっく	-2620
シンの	-2621
ペレー	-2622
修正し	-2623
光の玉	-2624
同士が	-2625
文中の	-2626
日本人	-2627
校はお	-2628
活用し	-2629
画像の	-2630
秒速約	-2631
が特徴量	-2632
さっきの	-2633
されます	-2634
しますが	-2635
なせます	-2636
なるため	-2637
や工場に	-2638
ゆっくり	-2639
オペレー	-2640
トシンの	-2641
主要な島	-2642
人と話す	-2643
動します	-2644
日本人に	-2645
様でした	-2646
残ります	-2647
画像の回	-2648
重要かつ	-2649
な形で保存	-2650
に残ります	-2651
べて修正し	-2652
や工場に届	-2653
ゆっくりお	-2654
シトシンの	-2655
会を増やす	-2656
初心者から	-2657
同士が通信	-2658
揮しますが	-2659
文中の単語	-2660
校はお疲れ	-2661
水は地球上	-2662
画像の回転	-2663
経由で利用	-2664
線に基づき	-2665
線形回帰は	-2666
線形性を導	-2667
美しい季節	-2668
習慣化する	-2669
良い夢を見	-2670
英語学習の	-2671
行列を学習	-2672
言葉がある	-2673
計算でミス	-2674
訓練データ	-2675
記憶の中に	-2676
語彙サイズ	-2677
調変更など	-2678
豊かになる	-2679
質問への対	-2680
通貨の基盤	-2681
運動で体を	-2682
運動をする	-2683
過学習の検	-2684
道具として	-2685
違っていた	-2686
適切な値の	-2687
適切に取り	-2688
適合を防ぎ	-2689
部分に注目	-2690
重みを抑制	-2691
重要かつ緊	-2692
重要なのは	-2693
重要な作業	-2694
重要な物質	-2695
重要な要素	-2696
開くことだ	-2697
間を大切に	-2698
隠れ層のユ	-2699
cp	-2700
un	-2701
かな	-2702
と保	-2703
の忘	-2704
はい	-2705
九州	-2706
京で	-2707
扉を	-2708
日後	-2709
木星	-2710
臓器	-2711
見る	-2712
赤や	-2713
追加	-2714
隠し	-2715
cpu	-2716
▁un	-2717
▁追加	-2718
くなど	-2719
ことは	-2720
で見る	-2721
なしに	-2722
の忘却	-2723
や学習	-2724
を赤や	-2725
出力を	-2726
年代に	-2727
態です	-2728
最適な	-2729
的な話	-2730
確かな	-2731
臓器を	-2732
osql	-2733
sera	-2734
▁neu	-2735
▁追加の	-2736
々を赤や	-2737
のための	-2738
の忘却曲	-2739
への扉を	-2740
むことは	-2741
形態です	-2742
最適な行	-2743
的な話題	-2744
臓器を保	-2745
開発時の	-2746
nosql	-2747
rsera	-2748
▁unit	-2749
この過程を	-2750
その勾配を	-2751
の形態です	-2752
スの忘却曲	-2753
ルがお好み	-2754
合を定義し	-2755
山々を赤や	-2756
臓器を保護	-2757
読むことは	-2758
都は東京で	-2759
題を理解し	-2760
amming	-2761
cation	-2762
erface	-2763
google	-2764
mentum	-2765
ongodb	-2766
openai	-2767
oracle	-2768
resnet	-2769
scikit	-2770
sorflo	-2771
tified	-2772
ursera	-2773
▁cloud	-2774
▁progr	-2775
▁テンソルは	-2776
▁デコーダは	-2777
▁データ拡張	-2778
▁勾配降下法	-2779
▁失敗は成功	-2780
▁損失関数は	-2781
▁知識と事実	-2782
▁自己紹介と	-2783
▁複数ターン	-2784
うこともある	-2785
から取り組み	-2786
がありました	-2787
ができますか	-2788
が使われます	-2789
が基本ですが	-2790
が必要ですか	-2791
きの中に永遠	-2792
く使われます	-2793
これにより並	-2794
されるように	-2795
したモデルを	-2796
した意味を持	-2797
した革新的な	-2798
していきます	-2799
(1	-2800
cd	-2801
ls	-2802
いピ	-2803
ち葉	-2804
を認	-2805
コラ	-2806
ブロ	-2807
作品	-2808
品で	-2809
気持	-2810
照明	-2811
築い	-2812
締め	-2813
転送	-2814
tls	-2815
▁ブロ	-2816
いピン	-2817
ち葉を	-2818
の気持	-2819
ろを認	-2820
をコン	-2821
を転送	-2822
んどの	-2823
コラボ	-2824
層の数	-2825
締め切	-2826
部品で	-2827
電子の	-2828
asso	-2829
cass	-2830
prop	-2831
▁12.	-2832
いピンク	-2833
けて築い	-2834
ころを認	-2835
ち葉を踏	-2836
とんどの	-2837
とレイヤ	-2838
の気持ち	-2839
作品なら	-2840
強化学習	-2841
正規化は	-2842
減をコン	-2843
締め切り	-2844
lasso	-2845
sprop	-2846
▁ブロック	-2847
いピンク色	-2848
ち葉を踏み	-2849
ところを認	-2850
とレイヤー	-2851
の気持ちを	-2852
ほとんどの	-2853
ージを転送	-2854
加減をコン	-2855
指している	-2856
料理は上達	-2857
締め切りを	-2858
電子の流れ	-2859
msprop	-2860
けて築いてい	-2861
したものです	-2862
しながら出力	-2863
しましょうか	-2864
すぎると発散	-2865
することで定	-2866
するための手	-2867
する手法です	-2868
その束の間の	-2869
その絆こそが	-2870
その逆方向に	-2871
それについて	-2872
ための最適化	-2873
ち葉を踏みし	-2874
って回答する	-2875
つのポイント	-2876
ては冥王星も	-2877
できるよう努	-2878
できる時間帯	-2879
でサーバーや	-2880
で平均と分散	-2881
という名前の	-2882
とする分野で	-2883
とって桜は特	-2884
となっており	-2885
との差を数値	-2886
とは根本的に	-2887
と大規模言語	-2888
どういたしま	-2889
どの点が間違	-2890
どんなジャン	-2891
どんな人工物	-2892
ながら各層の	-2893
などを使って	-2894
な人間関係を	-2895
な質問への対	-2896
な適合を防ぎ	-2897
による暗号化	-2898
にわたります	-2899
▁7	-2900
が癒	-2901
ミン	-2902
多岐	-2903
▁7.	-2904
チミン	-2905
andr	-2906
た性能を	-2907
ながら歩	-2908
に良質な	-2909
一部が癒	-2910
andra	-2911
▁言葉には	-2912
ければなら	-2913
た性能を発	-2914
でお手伝い	-2915
ながら歩く	-2916
によって生	-2917
に積み重ね	-2918
に良質な教	-2919
ものとして	-2920
力を与える	-2921
効率的に達	-2922
埋め込み層	-2923
対人スキル	-2924
復習すると	-2925
用を控える	-2926
長とともに	-2927
▁埋め込み層	-2928
▁言葉には不	-2929
ながら歩く散	-2930
なければなら	-2931
によって生じ	-2932
にニューロン	-2933
に役立てます	-2934
に必要な主な	-2935
に良質な教材	-2936
に重要な作業	-2937
のための分子	-2938
のように流れ	-2939
のコンペティ	-2940
のバランスを	-2941
の位置情報を	-2942
の作成や添削	-2943
の処理を担当	-2944
の基礎を学び	-2945
の重要な研究	-2946
の高いモデル	-2947
はできません	-2948
はどうですか	-2949
は生物の遺伝	-2950
は知りません	-2951
は記憶の中に	-2952
への応用が期	-2953
まず基本的な	-2954
まず相手の話	-2955
まとめる設計	-2956
まま出力に加	-2957
やすく伝える	-2958
や対人スキル	-2959
や機械学習の	-2960
や状況を共有	-2961
ゆっくりお休	-2962
よくするには	-2963
よりも精緻で	-2964
られた光の玉	-2965
られる目標を	-2966
ることができ	-2967
るべきことを	-2968
れるなどです	-2969
わりやすくな	-2970
をこなせます	-2971
を一定にする	-2972
を上げるには	-2973
を別の問題に	-2974
を制御します	-2975
を動かして練	-2976
を大切に選び	-2977
を実装します	-2978
を感じずには	-2979
を押さえれば	-2980
を指している	-2981
を最小化する	-2982
を無効化する	-2983
を読むことは	-2984
を追加します	-2985
を道具として	-2986
アウトは学習	-2987
イシュー管理	-2988
インフラを所	-2989
インプットと	-2990
ウスの忘却曲	-2991
エラーメッセ	-2992
オプティマイ	-2993
カフェインは	-2994
カフェインを	-2995
キロメートル	-2996
コツを教えて	-2997
コンパイラと	-2998
スキルが必要	-2999
▁4	-3000
▁6	-3001
と共	-3002
に答	-3003
をホ	-3004
グリ	-3005
北海	-3006
間隔	-3007
▁4.	-3008
▁6.	-3009
かった	-3010
に使わ	-3011
を設計	-3012
北海道	-3013
天王星	-3014
潔に答	-3015
間隔を	-3016
1960	-3017
adam	-3018
や関数へ	-3019
を追体験	-3020
カプセル	-3021
グリッド	-3022
トリをホ	-3023
確な目標	-3024
簡潔に答	-3025
重に使わ	-3026
learn	-3027
world	-3028
は計算が簡	-3029
や関数へと	-3030
カプセル化	-3031
ジトリをホ	-3032
バックプロ	-3033
加えて実験	-3034
問分野です	-3035
慎重に使わ	-3036
明確な目標	-3037
順や方法を	-3038
からパターン	-3039
は計算が簡単	-3040
や関数へと進	-3041
を追体験する	-3042
アシスタント	-3043
グリッドサー	-3044
コインに代表	-3045
コンパイラは	-3046
スティングし	-3047
ストは複数の	-3048
セキュリティ	-3049
セットで事前	-3050
テキストなど	-3051
テストを行い	-3052
ディスプレイ	-3053
データを人工	-3054
データ可視化	-3055
バックプロパ	-3056
バッチサイズ	-3057
パラメータは	-3058
ビジネスロジ	-3059
フェースです	-3060
フューチャー	-3061
プロジェクト	-3062
ページを転送	-3063
ポジトリをホ	-3064
マを英語字幕	-3065
マトリックス	-3066
マルチヘッド	-3067
ミニバッチ内	-3068
ムやデータで	-3069
モデルの基盤	-3070
モデルよりも	-3071
モデルを融合	-3072
ャストを聴く	-3073
ライブラリを	-3074
ループなどの	-3075
レーション機	-3076
ンジすること	-3077
ンタムを利用	-3078
ンライン学習	-3079
ーの形態です	-3080
ートフォン使	-3081
ード情報など	-3082
上で動作する	-3083
上の位置にマ	-3084
与えています	-3085
世界中の数十	-3086
久しぶりです	-3087
事実関係を誤	-3088
互に積み重ね	-3089
人生の本質な	-3090
位をつけます	-3091
何度か作って	-3092
個ありますが	-3093
入力の特定の	-3094
共感力が育ま	-3095
具体例を挙げ	-3096
具体的にお聞	-3097
内容が暗号化	-3098
分野で大きな	-3099
。<	-3100
が苦	-3101
き誇	-3102
に響	-3103
例え	-3104
排除	-3105
早期	-3106
生み	-3107
送信	-3108
適応	-3109
限界	-3110
▁早期	-3111
が苦手	-3112
き誇る	-3113
に響く	-3114
への過	-3115
めまで	-3116
も生み	-3117
を排除	-3118
例えば	-3119
▁早期終	-3120
への過剰	-3121
も生み出	-3122
個で学習	-3123
咲き誇る	-3124
心に響く	-3125
早めまで	-3126
波長は約	-3127
遺伝子は	-3128
▁早期終了	-3129
が開発した	-3130
たら学習を	-3131
より柔軟な	-3132
を排除する	-3133
を見つけ出	-3134
入力データ	-3135
後早めまで	-3136
明確に定義	-3137
海王星です	-3138
重要な情報	-3139
▁指示と応答	-3140
▁早期終了は	-3141
らが風に舞い	-3142
を見つけ出し	-3143
テキスト生成	-3144
初心者から専	-3145
別な花であり	-3146
利用いただき	-3147
前に設定する	-3148
力な手法です	-3149
加すると実践	-3150
効果的な学習	-3151
効率的に達成	-3152
十分学べます	-3153
千と千尋の神	-3154
午後早めまで	-3155
原因を特定し	-3156
取引記録を改	-3157
同士の関係を	-3158
在しています	-3159
場合を考えて	-3160
場面で使われ	-3161
夏の夜空を彩	-3162
大きく分けて	-3163
大きなタスク	-3164
大きな影響を	-3165
失敗から学び	-3166
嬉しいときに	-3167
存しながら働	-3168
学習が安定し	-3169
学習リソース	-3170
学習率を自動	-3171
完了させます	-3172
年代にアメリ	-3173
強化学習など	-3174
得しましょう	-3175
応用分野には	-3176
性理論の基礎	-3177
悲しいときに	-3178
情報の取得や	-3179
情報をお伝え	-3180
所で作られた	-3181
打ち切ります	-3182
技術を基盤に	-3183
技術的な説明	-3184
損失が悪化し	-3185
教師あり学習	-3186
教師なし学習	-3187
料理のレシピ	-3188
新しいデータ	-3189
映画のジャン	-3190
様々な場面で	-3191
標準化します	-3192
機密データの	-3193
機械学習では	-3194
次のトークン	-3195
正しい情報を	-3196
正確な予測が	-3197
決定木は解釈	-3198
淡いピンク色	-3199
▁5	-3200
のポ	-3201
やカ	-3202
トゥ	-3203
ドロ	-3204
一冊	-3205
可欠	-3206
暗く	-3207
本が	-3208
▁5.	-3209
の情報	-3210
の本が	-3211
を暗く	-3212
不可欠	-3213
携して	-3214
花火の	-3215
。199	-3216
に不可欠	-3217
のポッド	-3218
は徐々に	-3219
る花火は	-3220
を暗く涼	-3221
ドロップ	-3222
平均二乗	-3223
。1990	-3224
おすすめは	-3225
しまっては	-3226
のポッドキ	-3227
まずは変数	-3228
やカスタマ	-3229
ック回帰は	-3230
ビットを使	-3231
モデルです	-3232
一冊の本が	-3233
人生を変え	-3234
位置する島	-3235
室を暗く涼	-3236
持に不可欠	-3237
研究開発段	-3238
おすすめは異	-3239
できる可能性	-3240
に位置する島	-3241
のビットを使	-3242
ることもある	-3243
学習率を使用	-3244
寝室を暗く涼	-3245
深層学習では	-3246
減できるため	-3247
火加減をコン	-3248
点は何ですか	-3249
無理なく続け	-3250
物理的な作業	-3251
特定の問題で	-3252
現代生活に欠	-3253
生きることが	-3254
的な作品なら	-3255
研究開発段階	-3256
確率に対する	-3257
磁波の一種で	-3258
私たちの傍に	-3259
私たちは言葉	-3260
私はニューロ	-3261
科学研究など	-3262
程度から始め	-3263
種類あります	-3264
窓に結んだ霜	-3265
立場に立って	-3266
簡潔に答えて	-3267
統一的に扱え	-3268
統計学の知識	-3269
継続すること	-3270
続けるコツは	-3271
線を通じて家	-3272
線形性を導入	-3273
締め切りを意	-3274
繋がりの中で	-3275
繰り返します	-3276
美しさこそが	-3277
能を提供する	-3278
能力を与える	-3279
自動的に特徴	-3280
自己回帰的な	-3281
自己注意機構	-3282
舞いを模倣し	-3283
英語日記を書	-3284
融リスク分析	-3285
行列を学習し	-3286
解釈が難しい	-3287
解釈しながら	-3288
言葉で伝える	-3289
語彙が増える	-3290
謝の気持ちを	-3291
議な力がある	-3292
進歩が生活に	-3293
遅くなります	-3294
過学習を防ぎ	-3295
配列を一般化	-3296
重ね合わせて	-3297
開発者が他の	-3298
雪のように積	-3299
のか	-3300
エネ	-3301
単一	-3302
私が	-3303
調味	-3304
206	-3305
るエネ	-3306
力なの	-3307
度で沸	-3308
能力も	-3309
調味料	-3310
そして見	-3311
るエネル	-3312
アデニン	-3313
支援など	-3314
知らない	-3315
調味料は	-3316
音声認識	-3317
いてくれる	-3318
るエネルギ	-3319
何について	-3320
実行速度は	-3321
材料の下準	-3322
深層学習の	-3323
の文章を要約	-3324
の重ね合わせ	-3325
をペナルティ	-3326
モデルベース	-3327
材料の下準備	-3328
特に画像認識	-3329
私たちは生か	-3330
集合を定義し	-3331
面にはまるで	-3332
音楽は人生の	-3333
骨があります	-3334
高める方法は	-3335
380〜780	-3336
ascript	-3337
ctified	-3338
oursera	-3339
pytorch	-3340
rmsprop	-3341
sorflow	-3342
trained	-3343
▁linear	-3344
▁アウトプット	-3345
▁オプティマイ	-3346
▁データ拡張は	-3347
▁勾配降下法は	-3348
▁埋め込み層は	-3349
▁夏の夜空を彩	-3350
▁技術的な説明	-3351
▁日常的な話題	-3352
▁機械学習とは	-3353
▁自己紹介と挨	-3354
▁言葉には不思	-3355
ある問題で学習	-3356
いくつかの限界	-3357
いて動かします	-3358
いのが特徴です	-3359
いの地域の天気	-3360
いネットワーク	-3361
おすすめの映画	-3362
お久しぶりです	-3363
お困りのことを	-3364
お手伝いできる	-3365
かもしれません	-3366
から始めればい	-3367
か分かりません	-3368
が利用できます	-3369
が夜空に広がり	-3370
ことでお手伝い	-3371
これにより並列	-3372
ご利用いただき	-3373
させてください	-3374
すぎると発散し	-3375
すべてテンソル	-3376
することで定着	-3377
する方法を決定	-3378
する重要な要素	-3379
そして見知らぬ	-3380
その積み重ねが	-3381
ための技術です	-3382
た適切な情報を	-3383
ち葉を踏みしめ	-3384
できるよう努め	-3385
でテストを行い	-3386
という内容です	-3387
とキーの類似度	-3388
とハードウェア	-3389
とバックエンド	-3390
ながら歩く散歩	-3391
なソフトウェア	-3392
な質問への対応	-3393
にも役立ちます	-3394
に位置する島国	-3395
のかもしれない	-3396
のエンコーダは	-3397
のコツをお伝え	-3398
の再利用性と保	-3399
(0	-3400
>3	-3401
ws	-3402
▁8	-3403
▁9	-3404
き方	-3405
の弱	-3406
ゃん	-3407
ザは	-3408
反転	-3409
同僚	-3410
困難	-3411
感動	-3412
発電	-3413
認証	-3414
造性	-3415
aws	-3416
▁1.	-3417
▁8.	-3418
▁9.	-3419
ちゃん	-3420
ん困難	-3421
創造性	-3422
説明文	-3423
電子機	-3424
▁継続性	-3425
えていく	-3426
が広がり	-3427
き方を変	-3428
ざん困難	-3429
ちゃんの	-3430
での誤差	-3431
をよく聞	-3432
スキップ	-3433
勾配が伝	-3434
年で最も	-3435
損失関数	-3436
英語を勉	-3437
識します	-3438
金で利用	-3439
電子機器	-3440
▁クラウド	-3441
あなたの弱	-3442
これを毎日	-3443
として加え	-3444
一年で最も	-3445
様々な形で	-3446
考える姿勢	-3447
英語を勉強	-3448
課金で利用	-3449
赤ちゃんの	-3450
速い速度で	-3451
風テキスト	-3452
でも勾配が伝	-3453
スキップ接続	-3454
プロトコルの	-3455
人間が特徴量	-3456
医療記録など	-3457
寒さの中にも	-3458
方法を取り入	-3459
様々な形で存	-3460
止まることを	-3461
筆風テキスト	-3462
自然な説明文	-3463
良質な睡眠の	-3464
量課金で利用	-3465
電子機器など	-3466
が広がりました	-3467
き方を変えてい	-3468
することがあり	-3469
の処理を担当し	-3470
の変更履歴を追	-3471
の失敗で諦めて	-3472
の機会を増やす	-3473
の骨があります	-3474
はコンピュータ	-3475
は小さく分割し	-3476
は言葉を超えて	-3477
は重みの二乗和	-3478
ぶ場合を考えて	-3479
への応用が期待	-3480
まず明確な目標	-3481
またお話しでき	-3482
また何か質問が	-3483
まま出力に加算	-3484
みながら学べる	-3485
も生み出します	-3486
やすい文法から	-3487
やるべきことを	-3488
や自然言語処理	-3489
られますように	-3490
ることもあれば	-3491
わりやすくなり	-3492
を動かして練習	-3493
を可視化するの	-3494
を実現できます	-3495
を持ちましょう	-3496
を最小化します	-3497
を用いることで	-3498
を組み合わせた	-3499
)。	-3500
お住	-3501
の翻	-3502
の輝	-3503
は電	-3504
を守	-3505
アイ	-3506
実に	-3507
層を	-3508
株価	-3509
秋の	-3510
約束	-3511
良好	-3512
適量	-3513
▁秋の	-3514
お住ま	-3515
になる	-3516
の翻訳	-3517
を守る	-3518
一つの	-3519
光は電	-3520
層を交	-3521
登場し	-3522
着実に	-3523
瞬の輝	-3524
称です	-3525
適量摂	-3526
▁10.	-3527
▁13.	-3528
▁光は電	-3529
▁秋の紅	-3530
が登場し	-3531
の機能を	-3532
ションに	-3533
スク付き	-3534
一瞬の輝	-3535
株価など	-3536
適量摂取	-3537
appli	-3538
▁水は摂氏	-3539
▁秋の紅葉	-3540
ションに参	-3541
マスク付き	-3542
動作します	-3543
約束を守る	-3544
言語の翻訳	-3545
▁秋の紅葉は	-3546
お困りですか	-3547
が動作します	-3548
などの主要な	-3549
の機能を利用	-3550
実行速度が速	-3551
臓器を保護し	-3552
適量摂取する	-3553
▁などの主要な	-3554
きいただければ	-3555
を自動化します	-3556
を見ないように	-3557
を設計する必要	-3558
を調整すること	-3559
アイデアの提案	-3560
インタプリタは	-3561
インフラを所有	-3562
エンタングル演	-3563
コンピュータが	-3564
コンピュータに	-3565
サイトをご確認	-3566
ション好きなら	-3567
シンプルな文法	-3568
ストレス解消法	-3569
ソフトマックス	-3570
チェーン技術は	-3571
チェーン管理や	-3572
ティック回帰は	-3573
テクニックです	-3574
データから有益	-3575
データとそれを	-3576
トークンを文脈	-3577
ノメートルです	-3578
バックエンドは	-3579
バージョン管理	-3580
パラメータです	-3581
フロントエンド	-3582
ブースティング	-3583
プルリクエスト	-3584
ベクトルを用い	-3585
マートフォン使	-3586
メンタムを利用	-3587
ユーザーが直接	-3588
ライブラリを習	-3589
ランダムフォレ	-3590
リポジトリをホ	-3591
リラックスする	-3592
リレーショナル	-3593
ーパラメータは	-3594
一つの言葉が人	-3595
一緒に踊れる曲	-3596
万キロメートル	-3597
両者が連携して	-3598
主要な概念です	-3599
2〜	-3600
?<	-3601
が何	-3602
優先	-3603
四国	-3604
楽し	-3605
道は	-3606
2〜3	-3607
優先順	-3608
分休憩	-3609
まずは週	-3610
化関数は	-3611
▁科学技術	-3612
に準惑星に	-3613
家まで幅広	-3614
性化関数は	-3615
▁人体には約	-3616
の出力を参照	-3617
キュービット	-3618
コメディなら	-3619
サービスを従	-3620
大規模データ	-3621
年に準惑星に	-3622
情報提供など	-3623
検証データの	-3624
活性化関数は	-3625
適度な運動も	-3626
量子ビットは	-3627
門家まで幅広	-3628
骨は体を支え	-3629
▁活性化関数は	-3630
を重ね合わせて	-3631
ソフトウェアは	-3632
データで微調整	-3633
予測に使います	-3634
今日も良い一日	-3635
何ができますか	-3636
価する手法です	-3637
値を探索します	-3638
元のデータから	-3639
入力を受け取り	-3640
具体例を挙げて	-3641
出に役立ちます	-3642
出力層での誤差	-3643
分散型台帳技術	-3644
分程度から始め	-3645
初心者の方には	-3646
動を学習します	-3647
化する技術です	-3648
去は記憶の中に	-3649
四つの主要な島	-3650
回帰タスクでは	-3651
回繰り返します	-3652
地面にはまるで	-3653
埋め込み次元の	-3654
基から構成され	-3655
外部の事業者が	-3656
多くのメリット	-3657
多くの小さな島	-3658
大量のテキスト	-3659
好きな音楽を聴	-3660
始めたら学習を	-3661
学習のサポート	-3662
学習データ以降	-3663
対性理論の基礎	-3664
小さすぎると収	-3665
幅広い応用分野	-3666
年代にアメリカ	-3667
強力な手法です	-3668
役割を果たした	-3669
情報を提供して	-3670
惑星とされてい	-3671
感謝の気持ちを	-3672
慰めてくれる曲	-3673
技術の総称です	-3674
技術コンテンツ	-3675
持に不可欠です	-3676
操作する部分で	-3677
救うこともある	-3678
教師あり学習は	-3679
教師なし学習は	-3680
文法を本で学び	-3681
方法を取り入れ	-3682
日本語テキスト	-3683
暗号通貨の基盤	-3684
未来のトークン	-3685
本を読むことは	-3686
次に活かすこと	-3687
正弦波を用いた	-3688
汎化性能を保つ	-3689
深呼吸や瞑想で	-3690
特に深層学習の	-3691
特に画像や音声	-3692
理論により古典	-3693
生きていけない	-3694
登場人物の人生	-3695
確かな生命の営	-3696
社でサーバーや	-3697
私たちの生活に	-3698
組んだりすると	-3699
et	-3700
▁転	-3701
、5	-3702
きた	-3703
ご指	-3704
傾き	-3705
創薬	-3706
千万	-3707
友人	-3708
未来	-3709
本州	-3710
省の	-3711
送電	-3712
防総	-3713
▁転移	-3714
。3.	-3715
ご指摘	-3716
人です	-3717
国防総	-3718
法とは	-3719
anet	-3720
の設計図	-3721
azure	-3722
との違いは	-3723
などの機能	-3724
千万人です	-3725
国防総省の	-3726
様々な分野	-3727
複雑な数学	-3728
▁交差検証は	-3729
▁転移学習は	-3730
いベクトル空	-3731
に染め上げる	-3732
り出す芸術は	-3733
クラウドは初	-3734
学習コーパス	-3735
成長とともに	-3736
未来は可能性	-3737
液細胞を作る	-3738
誤差逆伝播法	-3739
arpanet	-3740
▁neuroq	-3741
▁アテンション	-3742
▁人は一人では	-3743
いベクトル空間	-3744
は計算が簡単で	-3745
向上させる効果	-3746
機械学習の理解	-3747
異なる計算方式	-3748
線を通じて家庭	-3749
繰り返すことで	-3750
能力も重要です	-3751
自分の意見を押	-3752
英語のポッドキ	-3753
英語を勉強する	-3754
血液細胞を作る	-3755
複雑なデータの	-3756
複雑なパターン	-3757
言語モデルでは	-3758
訂正いたします	-3759
読書のメリット	-3760
速い速度であり	-3761
適応的学習率の	-3762
金融リスク分析	-3763
間違っています	-3764
随筆風テキスト	-3765
高い予測精度で	-3766
coursera	-3767
▁インターネット	-3768
▁バッチ正規化は	-3769
▁プログラミング	-3770
▁日常会話と対話	-3771
▁日本は東アジア	-3772
▁本を読むことは	-3773
▁自己紹介と挨拶	-3774
あなたは誰ですか	-3775
う葉を見ていると	-3776
お声がけください	-3777
かつては冥王星も	-3778
から始まりました	-3779
がしやすいですが	-3780
が何を指している	-3781
きながら運動した	-3782
ことも効果的です	-3783
これは宇宙で最も	-3784
その点を重点的に	-3785
できることは多岐	-3786
では順序情報を持	-3787
でも継続すること	-3788
でデータを管理し	-3789
で優れた性能を発	-3790
で最も重要な物質	-3791
とレイヤー正規化	-3792
と共存しながら働	-3793
と多くの小さな島	-3794
と深層学習の違い	-3795
どういたしまして	-3796
などが含まれます	-3797
において革命的な	-3798
になりますように	-3799
-1	-3800
▁ハ	-3801
▁太	-3802
▁文	-3803
▁曖	-3804
イパ	-3805
土星	-3806
家族	-3807
水星	-3808
氷河	-3809
火星	-3810
無常	-3811
ert	-3812
▁復習	-3813
▁文学	-3814
▁曖昧	-3815
を使い	-3816
bert	-3817
▁ハイパ	-3818
しく保つ	-3819
の設計は	-3820
サプライ	-3821
想像力が	-3822
氷河など	-3823
コードを書	-3824
▁太陽系には	-3825
に人生の無常	-3826
学習率が大き	-3827
時にランダム	-3828
説明しますと	-3829
mongodb	-3830
その儚い美しさ	-3831
やがて大きな成	-3832
を統一的に扱え	-3833
データで学習し	-3834
ルが必要ですが	-3835
正解ラベル付き	-3836
特徴を表す数値	-3837
知りたいですか	-3838
なければならない	-3839
などの大規模言語	-3840
にお答えできます	-3841
に位置する島国で	-3842
のバランスを取り	-3843
の変更履歴を追跡	-3844
の物理的な部品で	-3845
の神経回路を模倣	-3846
の結晶を見つめる	-3847
は人間の仕事を奪	-3848
は生のデータから	-3849
もう少し具体的に	-3850
やがて消えていく	-3851
や学習可能な位置	-3852
や対人スキルなど	-3853
よりも高速に計算	-3854
られる目標を設定	-3855
をおすすめします	-3856
を実現しています	-3857
を自動化しますが	-3858
を追加したもので	-3859
を通じて最適な行	-3860
アシスタントです	-3861
アルゴリズムとは	-3862
エラーが出たら調	-3863
エラーメッセージ	-3864
オペレーティング	-3865
シミュレーション	-3866
スパースなモデル	-3867
セットで事前学習	-3868
チやベイズ最適化	-3869
ップを経て出力を	-3870
ティングリソース	-3871
データを有効活用	-3872
データ構造を持ち	-3873
トロールすること	-3874
ナノメートルです	-3875
パスワードやクレ	-3876
フロントエンドは	-3877
モデルに伝えます	-3878
モメンタムを利用	-3879
ルがお好みですか	-3880
上で量子的な振る	-3881
主な応用分野には	-3882
予報アプリや天気	-3883
事実上の標準言語	-3884
二重らせん構造を	-3885
人間の価値を発揮	-3886
今日はどのような	-3887
休憩も適切に取り	-3888
何から始めればい	-3889
個でテストを行い	-3890
個の骨があります	-3891
先ほどの回答に誤	-3892
分かりにくかった	-3893
分析結果を分かり	-3894
別の世界への扉を	-3895
別の言い方で説明	-3896
加えて実験します	-3897
加すると実践的な	-3898
効果的な時間管理	-3899
暖房	-3900
(25	-3901
tanh	-3902
▁wide	-3903
高い性能を	-3904
で操作します	-3905
を感じさせる	-3906
人生を豊かに	-3907
色調変更など	-3908
を組み合わせて	-3909
プロトコルです	-3910
分類タスクでは	-3911
就寝前の読書は	-3912
むと良いでしょう	-3913
以下の文章を要約	-3914
勾配消失問題を軽	-3915
千と千尋の神隠し	-3916
単一モデルよりも	-3917
友人と一緒に取り	-3918
可能性もあります	-3919
各層の入力を正規	-3920
合して減少します	-3921
同時に新しい仕事	-3922
基本を押さえれば	-3923
大きな重みを抑制	-3924
始めたいのですが	-3925
学ぶ場合を考えて	-3926
学んだことを実践	-3927
学習が安定します	-3928
学習データを人工	-3929
学習能力を与える	-3930
実行前にコンパイ	-3931
少しずつ加えて味	-3932
平均二乗誤差がよ	-3933
徐々にデータ構造	-3934
意味がわからない	-3935
感動的な作品なら	-3936
文章の作成や添削	-3937
新しいサンプルを	-3938
最適化問題の解決	-3939
束が遅くなるため	-3940
桜の花が咲き誇る	-3941
構造を発見します	-3942
機密データの送信	-3943
機械学習の一種で	-3944
活用する手法です	-3945
深いネットワーク	-3946
独学で学べますか	-3947
画面を構築します	-3948
発電所で作られた	-3949
相対性理論の基礎	-3950
研究開発段階です	-3951
確率的勾配降下法	-3952
私はリアルタイム	-3953
算子で層間の相関	-3954
管理する方式です	-3955
習慣化するコツは	-3956
自分の好みにアレ	-3957
自然言語処理など	-3958
自社でサーバーや	-3959
良好な人間関係を	-3960
落ち葉を踏みしめ	-3961
著者の思考に触れ	-3962
記録をつけて進歩	-3963
評価する手法です	-3964
説明してください	-3965
赤ちゃんの時は約	-3966
趣味の時間を作る	-3967
逆方向に伝播させ	-3968
通信内容が暗号化	-3969
進歩が見られます	-3970
運動で体を動かす	-3971
過去は記憶の中に	-3972
適度な運動をする	-3973
重みを更新します	-3974
開発時の試行錯誤	-3975
間隔を空けて復習	-3976
集中できる時間帯	-3977
集中力が向上する	-3978
離散的なトークン	-3979
類似した意味を持	-3980
cassandra	-3981
rectified	-3982
▁momentum	-3983
▁インターネットは	-3984
▁エラー処理と謝罪	-3985
▁オプティマイザは	-3986
▁人工知能の発展は	-3987
▁春の訪れとともに	-3988
▁複数ターンの会話	-3989
▁質問応答パターン	-3990
いくつかのポイント	-3991
うまくいかないのか	-3992
が苦手とする分野で	-3993
きながら運動したり	-3994
き出す学問分野です	-3995
これにより並列計算	-3996
さっきの答えは違う	-3997
ざん困難な形で保存	-3998
した数学的概念です	-3999
しやすいモデルです	-4000
することで長期記憶	-4001
するためのインター	-4002
する重要な要素です	-4003
そしてデータ可視化	-4004
そのシンプルで読み	-4005
それについて教えて	-4006
つのベクトルを用い	-4007
つのポイントで説明	-4008
つの惑星があります	-4009
でお手伝いできます	-4010
できるようにします	-4011
できるよう努めます	-4012
としてまとめる設計	-4013
として広がっている	-4014
として表現されます	-4015
と正解との差を数値	-4016
どのようなサポート	-4017
どんなスキルが必要	-4018
ながら歩く散歩道は	-4019
なソフトウェア開発	-4020
に基づいてバリュー	-4021
に対して予測や判断	-4022
に重要な作業を行い	-4023
の予測確率に対する	-4024
の花びらが風に舞い	-4025
は確かに一部の仕事	-4026
は重みの絶対値の和	-4027
めることも重要です	-4028
よりも精緻で美しい	-4029
をしっかり行うこと	-4030
を統一的に扱えます	-4031
を見つけてください	-4032
を通じてコンピュー	-4033
を通じてサービスに	-4034
を連続的なベクトル	-4035
を道具として活用し	-4036
を重ね合わせてきた	-4037
アクション好きなら	-4038
アクセスする仕組み	-4039
アーキテクチャです	-4040
コインに代表される	-4041
コミュニケーション	-4042
コラボレーション機	-4043
スタッキングなどの	-4044
ストは複数の決定木	-4045
ストレス解消になる	-4046
タンパク質の設計図	-4047
データからパターン	-4048
データサイエンスは	-4049
データベースの種類	-4050
ネットワーク層を交	-4051
プログラミング能力	-4052
ポリモーフィズムが	-4053
マを英語字幕で見る	-4054
リアルタイムの情報	-4055
ヶ月後に復習すると	-4056
一度の失敗で諦めて	-4057
今この瞬間を大切に	-4058
代表的なものとして	-4059
低く柔軟にスケール	-4060
何に使えるのですか	-4061
作業環境を整えて邪	-4062
信頼できる人と話す	-4063
信頼関係は時間をか	-4064
優先順位をつけます	-4065
入力を標準化します	-4066
入力トークンを文脈	-4067
全体を一度に機械語	-4068
具体的にどの部分が	-4069
処理に優れています	-4070
分かりにくい説明で	-4071
分でも続けることで	-4072
分類し直されました	-4073
力なのかもしれない	-4074
効果的な学習法とは	-4075
効率的に捉えること	-4076
動いたら少し変更を	-4077
午後早めまでにする	-4078
可視光線の波長は約	-4079
基本概念から始めて	-4080
多くの場面で使われ	-4081
多層のネットワーク	-4082
多次元配列を一般化	-4083
大きく影響している	-4084
大規模分散システム	-4085
学習の前に設定する	-4086
少しずつ移動します	-4087
従来の機械学習では	-4088
情報を担う分子です	-4089
想像力が豊かになる	-4090
技術の進歩が生活に	-4091
提供するインフラを	-4092
操作するメソッドを	-4093
教えていただければ	-4094
料理のコツを教えて	-4095
暗号通貨の基盤技術	-4096
校はお疲れ様でした	-4097
楽しみながら学べる	-4098
正確な情報をお伝え	-4099
現在の位置での勾配	-4100
的に増やす技術です	-4101
相手の立場に立って	-4102
知識や語彙が増える	-4103
科学研究など幅広い	-4104
管理するツールです	-4105
組んだりすると続け	-4106
線形回帰は連続値の	-4107
美味しい料理を作る	-4108
色調変更などにより	-4109
英語日記を書くなど	-4110
複数のモデルの予測	-4111
訓練データへの過剰	-4112
説明することで定着	-4113
送電線を通じて家庭	-4114
運動を続けるコツは	-4115
関数やプロトコルの	-4116
隠れ層のユニット数	-4117
集中力を高めるには	-4118
generative	-4119
javascript	-4120
postgresql	-4121
tensorflow	-4122
▁interface	-4123
▁アテンション機構は	-4124
▁アンサンブル学習は	-4125
▁クラウドコンピュー	-4126
▁プログラミング言語	-4127
▁光は電磁波の一種で	-4128
▁日本語学習コーパス	-4129
▁曖昧な質問への対応	-4130
▁量子コンピュータは	-4131
▁音楽は言葉を超えて	-4132
ありがとうございます	-4133
あればいつでもどうぞ	-4134
お住まいの地域の天気	-4135
が開発した大規模言語	-4136
されるようになります	-4137
した知識を別の問題に	-4138
する方法を決定します	-4139
ための最適化手法です	-4140
つのタイプがあります	-4141
で平均と分散を計算し	-4142
という欠点もあります	-4143
どの点が間違っていた	-4144
どの点について詳しく	-4145
なしにコンピュータに	-4146
などのオンライン学習	-4147
などのライブラリを習	-4148
などの機能があります	-4149
など豊富なライブラリ	-4150
に必要な主なスキルは	-4151
のコツをお伝えします	-4152
の出来事は知りません	-4153
の母という言葉がある	-4154
の重ね合わせ状態を取	-4155
の重要な研究分野です	-4156
は徐々に正確な予測が	-4157
は重みの二乗和を使い	-4158
まず相手の話をよく聞	-4159
もう少し詳しく状況を	-4160
やカスタマイズの面で	-4161
や工場に届けられます	-4162
や機械学習の分野では	-4163
りがあったようですね	-4164
をいくつか紹介します	-4165
を動かして練習します	-4166
を無効化する手法です	-4167
を組み合わせています	-4168
を重み付け平均します	-4169
インタプリタの違いは	-4170
オンプレミスの違いは	-4171
クエリとキーの類似度	-4172
コードの再利用性と保	-4173
シンプルで読みやすく	-4174
ジットカード情報など	-4175
ックなどを実装します	-4176
データで学習しており	-4177
データを有効活用でき	-4178
データベースには主に	-4179
トークンの位置情報を	-4180
トークンを生成します	-4181
ドロップアウトは学習	-4182
ビジネス課題を理解し	-4183
プログラミングの支援	-4184
プログラムやデータで	-4185
モデルの解釈が難しい	-4186
モデルベースの対話型	-4187
モメンタムを利用する	-4188
ラベルなしでデータの	-4189
リラックス効果があり	-4190
レシピを何度か作って	-4191
ロジスティック回帰は	-4192
一つずつ完了させます	-4193
一年で最も美しい季節	-4194
一瞬の輝きの中に永遠	-4195
上の位置にマッピング	-4196
人々との繋がりの中で	-4197
代表的なアルゴリズム	-4198
何も成し遂げられない	-4199
億人が利用しています	-4200
優位な場合があります	-4201
具体的なアルゴリズム	-4202
分類や回帰を行います	-4203
効率的なアルゴリズム	-4204
効率的に達成できます	-4205
勾配ブースティングは	-4206
埋め込みを追加します	-4207
大量のデータを分析し	-4208
学習効果を高めるには	-4209
学習率を自動調整する	-4210
寝室を暗く涼しく保つ	-4211
少ないデータで微調整	-4212
就寝時間を一定にする	-4213
役割を果たしています	-4214
情報を提供してしまい	-4215
意思決定に役立てます	-4216
成長とともに一部が癒	-4217
打ち上げられた光の玉	-4218
損失関数を最小化する	-4219
料理のレシピのように	-4220
日本人にとって桜は特	-4221
日本語テキストデータ	-4222
時の流れを感じずには	-4223
材料開発のための分子	-4224
次に実際にコードを書	-4225
止まることを知らない	-4226
毎日少しずつでも続け	-4227
特にデータサイエンス	-4228
独学でも十分学べます	-4229
現在では世界中の数十	-4230
相手の良いところを認	-4231
睡眠の質を上げるには	-4232
私ができることは多岐	-4233
私にはいくつかの限界	-4234
簡潔に答えてください	-4235
締め切りを意識します	-4236
自然が作り出す芸術は	-4237
良質な睡眠のためには	-4238
複雑な数学計算でミス	-4239
重要かつ緊急なタスク	-4240
重要な情報は必ず確認	-4241
量課金で利用できます	-4242
集中力を高める方法は	-4243
順や方法を明確に定義	-4244
高い予測精度と安定性	-4245
application	-4246
▁トランスフォーマーは	-4247
▁ハイパーパラメータは	-4248
▁位置エンコーディング	-4249
▁夏の夜空を彩る花火は	-4250
▁時間は川のように流れ	-4251
▁追加の技術コンテンツ	-4252
々から構成されています	-4253
あなたの弱点は何ですか	-4254
おすすめの映画を教えて	-4255
おすすめは異なりますが	-4256
お困りのことを具体的に	-4257
お役に立てて嬉しいです	-4258
か教えていただけますか	-4259
けて築いていくものです	-4260
た適切な情報を取り出す	-4261
できる可能性があります	-4262
として知られていますが	-4263
とハードウェアの違いは	-4264
とバックエンドの違いは	-4265
など様々なサービスを従	-4266
について教えてください	-4267
によって生じるエネルギ	-4268
によるデータベース操作	-4269
に良質な教材があります	-4270
のコンペティションに参	-4271
のビットを使うのに対し	-4272
の特徴を教えてください	-4273
は分散型バージョン管理	-4274
また何かあればいつでも	-4275
やがて大きな成果を生む	-4276
ゆっくりお休みください	-4277
より大きな学習率を使用	-4278
より表現力の高いモデル	-4279
より詳細に説明しますと	-4280
をペナルティとして加え	-4281
を一行ずつ解釈しながら	-4282
を傷つけることもあれば	-4283
を提供するサービスです	-4284
を組み合わせる手法です	-4285
ウスの忘却曲線に基づき	-4286
エンコーダの出力を参照	-4287
クラウドは初期コストが	-4288
コンピュータサイエンス	-4289
サイトをご確認ください	-4290
サプライチェーン管理や	-4291
ストレス解消には様々な	-4292
ストレス解消法を教えて	-4293
ソフトウェア同士が通信	-4294
バックプロパゲーション	-4295
プラットフォームがあり	-4296
プログラミング支援など	-4297
ページを転送するための	-4298
人生を変えることもある	-4299
人生を豊かにするものだ	-4300
人間関係をよくするには	-4301
今日の天気はどうですか	-4302
何がうまくいかないのか	-4303
何についてお困りですか	-4304
入力の特定の部分に注目	-4305
出力層での誤差を計算し	-4306
分程度から始めましょう	-4307
創造性や対人スキルなど	-4308
勾配などすべてテンソル	-4309
古典的なコンピュータが	-4310
商用利用が広がりました	-4311
問題を解決するための手	-4312
大きな重みを抑制します	-4313
学習のサポートなどです	-4314
学習リソースも豊富です	-4315
実行速度は遅くなります	-4316
惑星とされていましたが	-4317
技術を基盤にしています	-4318
文中の単語同士の関係を	-4319
料理は上達していきます	-4320
方法を取り入れましょう	-4321
明示的なプログラミング	-4322
映画のジャンルによって	-4323
時間管理のコツを教えて	-4324
機械学習について詳しく	-4325
深層学習は特に画像認識	-4326
現代生活に欠かせません	-4327
生命の維持に不可欠です	-4328
発電所で作られた電気は	-4329
私たちの傍にいてくれる	-4330
私たちは生かされている	-4331
種類の塩基から構成され	-4332
経由で利用する方式です	-4333
自分の意見を押し付けず	-4334
表形式でデータを管理し	-4335
読書には多くのメリット	-4336
運動を習慣化するコツは	-4337
雪のように積もっていく	-4338
風に舞う葉を見ていると	-4339
▁programming	-4340
▁transformer	-4341
▁ブロックチェーン技術は	-4342
▁位置エンコーディングは	-4343
いくつかの方法があります	-4344
からパターンを見つけ出し	-4345
この過程を繰り返すことで	-4346
その束の間の美しさこそが	-4347
つ単語が近いベクトル空間	-4348
で最も重要な物質の一つで	-4349
と大規模言語モデルを融合	-4350
どんなスキルが必要ですか	-4351
などで最適値を探索します	-4352
などのプログラミング能力	-4353
は人間の仕事を奪いますか	-4354
やるべきことをリスト化し	-4355
や状況を共有いただければ	-4356
より適切にお答えできます	-4357
を見つけることが大切です	-4358
を見ないようにしています	-4359
アルゴリズムとは何ですか	-4360
インプットとアウトプット	-4361
オペレーティングシステム	-4362
カフェインを適量摂取する	-4363
クラス分類に適しています	-4364
サーバー側の処理を担当し	-4365
セルフアテンションにより	-4366
ソフトウェアの機能を利用	-4367
データから有益な知見を引	-4368
ニューラルネットワークに	-4369
ハードウェア上で動作する	-4370
ビットコインに代表される	-4371
ファイルなどが該当します	-4372
マートフォン使用を控える	-4373
リアルタイム情報の取得や	-4374
万キロメートルで進みます	-4375
事実関係を誤って回答する	-4376
休憩も適切に取りましょう	-4377
何から始めればいいですか	-4378
入力をそのまま出力に加算	-4379
共感力が育まれるなどです	-4380
分散型台帳技術とも呼ばれ	-4381
初心者から専門家まで幅広	-4382
向上させる効果があります	-4383
大きな影響を与えています	-4384
大規模なソフトウェア開発	-4385
学習能力を与える技術です	-4386
幅広い応用分野が特徴です	-4387
年代にアメリカ国防総省の	-4388
時にランダムにニューロン	-4389
検証データの損失が悪化し	-4390
構造により複雑なパターン	-4391
様々なタスクをこなせます	-4392
様々な分野への応用が期待	-4393
様々な形で存在しています	-4394
機械学習と深層学習の違い	-4395
残差接続とレイヤー正規化	-4396
物理的な作業はできません	-4397
睡眠の質向上に役立ちます	-4398
確かな生命の営みを感じる	-4399
私たちは言葉を大切に選び	-4400
考える姿勢を持ちましょう	-4401
自己回帰的なテキスト生成	-4402
良い夢を見られますように	-4403
良好な人間関係を築くには	-4404
試行錯誤を通じて最適な行	-4405
説明することで定着します	-4406
読書のメリットは何ですか	-4407
調味料は少しずつ加えて味	-4408
過去は記憶の中に生き続け	-4409
過学習の検出に役立ちます	-4410
適切な値の設定が重要です	-4411
音楽は人生の様々な場面で	-4412
▁ニューラルネットワークの	-4413
▁言葉には不思議な力がある	-4414
ことでお手伝いしましょうか	-4415
ご指摘ありがとうございます	-4416
その儚い美しさに人生の無常	-4417
その勾配を逆方向に伝播させ	-4418
その点を重点的に説明します	-4419
では順序情報を持たないため	-4420
でも勾配が伝わりやすくなり	-4421
でも継続することが大切です	-4422
で優れた性能を発揮しますが	-4423
としてまとめる設計手法です	-4424
とは根本的に異なる計算方式	-4425
と正解との差を数値化します	-4426
どの部分が分かりにくかった	-4427
の神経回路を模倣したもので	-4428
まず基本的な文法を本で学び	-4429
またお話しできて嬉しいです	-4430
より柔軟なデータ構造を持ち	-4431
を可視化するのも効果的です	-4432
を考慮した表現に変換します	-4433
を設計する必要がありました	-4434
アウトプットの機会を増やす	-4435
エラーが出たら調べて修正し	-4436
オンプレミスはセキュリティ	-4437
スパースなモデルを作ります	-4438
ップを経て出力を生成します	-4439
ハードウェアはコンピュータ	-4440
モデルの基盤となっています	-4441
リポジトリをホスティングし	-4442
リレーショナルデータベース	-4443
二重らせん構造をしています	-4444
人生の本質なのかもしれない	-4445
具体的にお聞きいただければ	-4446
別の世界への扉を開くことだ	-4447
原因を特定しやすくなります	-4448
埋め込み次元の行列を学習し	-4449
多くの場面で使われています	-4450
大きなタスクは小さく分割し	-4451
始めたら学習を打ち切ります	-4452
嬉しいときに一緒に踊れる曲	-4453
学ぶ場合を考えてみましょう	-4454
学習率が大きすぎると発散し	-4455
実行速度が速いのが特徴です	-4456
悲しいときに慰めてくれる曲	-4457
感謝の気持ちを言葉で伝える	-4458
慎重に使わなければならない	-4459
文法がシンプルで読みやすく	-4460
新しいサンプルを生成します	-4461
深層学習は機械学習の一種で	-4462
特に深層学習の分野で大きな	-4463
現在はまだ研究開発段階です	-4464
理論により古典コンピュータ	-4465
登場人物の人生を追体験する	-4466
着実にスキルが身につきます	-4467
睡眠の質向上にも役立ちます	-4468
私はリアルタイムの天気情報	-4469
自動的に特徴を学習できます	-4470
英語のポッドキャストを聴く	-4471
英語を勉強するコツを教えて	-4472
誤った情報を提供してしまい	-4473
通信内容が暗号化されるため	-4474
過学習を防ぐための技術です	-4475
過学習を防ぐテクニックです	-4476
▁人は一人では生きていけない	-4477
▁人工知能の発展は目覚ましく	-4478
▁音楽は言葉を超えて心に響く	-4479
いくつかのポイントがあります	-4480
お仕事や学校はお疲れ様でした	-4481
お手伝いできるかもしれません	-4482
することで長期記憶に残ります	-4483
そしてデータ可視化の技術です	-4484
どんなジャンルがお好みですか	-4485
ながら各層の重みを更新します	-4486
などを使って画面を構築します	-4487
による暗号化を追加したもので	-4488
に対して予測や判断を行います	-4489
まず明確な目標設定が重要です	-4490
や関数へと進むと良いでしょう	-4491
られる目標を設定することです	-4492
を組み合わせた強力な手法です	-4493
アプリケーションが動作します	-4494
グリッドサーチやベイズ最適化	-4495
セットで事前学習したモデルを	-4496
セルフアテンション層と順伝播	-4497
ソフトマックスなどがあります	-4498
ソースコードの変更履歴を追跡	-4499
ディスプレイなどが含まれます	-4500
ディープラーニングとの違いは	-4501
データからパターンを学習する	-4502
トランスフォーマーはそれ自体	-4503
プログラミングを組み合わせて	-4504
プログラミング初心者の方には	-4505
プロジェクトから始まりました	-4506
ユーザーが直接操作する部分で	-4507
ヶ月後に復習すると効果的です	-4508
一度の失敗で諦めてしまっては	-4509
上で量子的な振る舞いを模倣し	-4510
事実上の標準言語となっており	-4511
人間の価値を発揮することです	-4512
以下の文章を要約してください	-4513
低く柔軟にスケールできますが	-4514
具体的にどの部分が違っていた	-4515
分析結果を分かりやすく伝える	-4516
効率的なアルゴリズムの設計は	-4517
効率的に捉えることができます	-4518
勾配消失問題を軽減できるため	-4519
多層のニューラルネットワーク	-4520
実際に手を動かして練習します	-4521
平均二乗誤差がよく使われます	-4522
映画やドラマを英語字幕で見る	-4523
様々な分野で活用されています	-4524
正解ラベル付きデータで学習し	-4525
汎化性能を保つことができます	-4526
深呼吸や瞑想でリラックスする	-4527
火加減をコントロールすること	-4528
窓に結んだ霜の結晶を見つめる	-4529
算子で層間の相関を制御します	-4530
自分の好みにアレンジすること	-4531
自然言語処理において革命的な	-4532
量子コンピュータは量子ビット	-4533
限られたデータを有効活用でき	-4534
高い予測精度で知られています	-4535
▁クラウドコンピューティングは	-4536
▁高品質な日本語テキストデータ	-4537
が何を指しているか分かりません	-4538
き方を変えていくことが大切です	-4539
これは宇宙で最も速い速度であり	-4540
するためのインターフェースです	-4541
その逆方向に少しずつ移動します	-4542
つのポイントで説明してください	-4543
どのようなサポートが必要ですか	-4544
どんな人工物よりも精緻で美しい	-4545
などが名作として知られています	-4546
は生物の遺伝情報を担う分子です	-4547
アーキテクチャを採用しています	-4548
カフェインは午後早めまでにする	-4549
クラウドとオンプレミスの違いは	-4550
コラボレーション機能を提供する	-4551
コードの再利用性と保守性を高め	-4552
ソースコード全体を一度に機械語	-4553
ネットワーク層を交互に積み重ね	-4554
ループなどの基本概念から始めて	-4555
一年で最も美しい季節の贈り物だ	-4556
人工知能の発展は私たちの生活に	-4557
今この瞬間を大切に生きることが	-4558
今日も良い一日になりますように	-4559
具体例を挙げて説明してください	-4560
別の言い方で説明させてください	-4561
取引記録を改ざん困難な形で保存	-4562
各層の入力を正規化する技術です	-4563
同時に新しい仕事も生み出します	-4564
大量のデータと計算資源が必要で	-4565
実行前にコンパイルが必要ですが	-4566
小さすぎると収束が遅くなるため	-4567
少ないデータで微調整することで	-4568
年に準惑星に分類し直されました	-4569
操作するメソッドをオブジェクト	-4570
時の流れを感じずにはいられない	-4571
最適化問題の解決などがあります	-4572
未来は可能性として広がっている	-4573
材料の下準備をしっかり行うこと	-4574
様々なタスクでお手伝いできます	-4575
機密データの送信に適しています	-4576
次のトークンの予測確率に対する	-4577
決定木は解釈しやすいモデルです	-4578
淡いピンク色の花びらが風に舞い	-4579
特定の問題で従来のコンピュータ	-4580
相対性理論の基礎となっています	-4581
私にはいくつかの限界があります	-4582
線形性を導入する重要な要素です	-4583
自社でサーバーやインフラを所有	-4584
訓練データへの過剰な適合を防ぎ	-4585
重みを更新する方法を決定します	-4586
関数やプロトコルの集合を定義し	-4587
高い性能を効率的に達成できます	-4588
▁失敗は成功の母という言葉がある	-4589
▁日本は東アジアに位置する島国で	-4590
しながら出力トークンを生成します	-4591
そのシンプルで読みやすい文法から	-4592
などのライブラリを習得しましょう	-4593
の重ね合わせ状態を取ることができ	-4594
は分散型バージョン管理システムで	-4595
を一行ずつ解釈しながら実行します	-4596
インターネットを通じてコンピュー	-4597
エビングハウスの忘却曲線に基づき	-4598
オブジェクト指向プログラミングは	-4599
コミュニケーション能力も重要です	-4600
コンパイラとインタプリタの違いは	-4601
スタッキングなどの方法があります	-4602
タンパク質の設計図となっています	-4603
ニューラルネットワークは人間の脳	-4604
ネットワークは徐々に正確な予測が	-4605
ビジネスロジックなどを実装します	-4606
プログラミングを始めたいのですが	-4607
ポリモーフィズムが主要な概念です	-4608
ミニバッチ内で平均と分散を計算し	-4609
ランダムフォレストは複数の決定木	-4610
一瞬の輝きの中に永遠を感じさせる	-4611
十分な睡眠を取るなどが効果的です	-4612
外部の事業者が提供するインフラを	-4613
大規模分散システムに適しています	-4614
大量のデータと計算資源が必要です	-4615
好きな音楽を聴きながら運動したり	-4616
学習の前に設定するパラメータです	-4617
文脈に応じた適切な情報を取り出す	-4618
日本人にとって桜は特別な花であり	-4619
正しい情報を教えていただけますか	-4620
私ができることは多岐にわたります	-4621
組んだりすると続けやすくなります	-4622
線形回帰は連続値の予測に使います	-4623
複雑なデータの処理に優れています	-4624
読書には多くのメリットがあります	-4625
重要かつ緊急なタスクから取り組み	-4626
重要な情報は必ず確認してください	-4627
開発時の試行錯誤がしやすいですが	-4628
電子の流れによって生じるエネルギ	-4629
順や方法を明確に定義したものです	-4630
stg	-4631
こなせ	-4632
ゃんの	-4633
アンサ	-4634
エネル	-4635
スの忘	-4636
ンパク	-4637
一冊の	-4638
心に響	-4639
早期終	-4640
暗く涼	-4641
条件分	-4642
気持ち	-4643
益な知	-4644
総省の	-4645
追加の	-4646
連のス	-4647
面を構	-4648
post	-4649
ript	-4650
unit	-4651
▁勾配降	-4652
▁知識と	-4653
ぐテクニ	-4654
との差を	-4655
とインタ	-4656
に分類し	-4657
に取り組	-4658
に広がり	-4659
のジャン	-4660
の類似度	-4661
はそれ自	-4662
まいの地	-4663
れととも	-4664
クエリと	-4665
スケール	-4666
スプレイ	-4667
マを英語	-4668
リティや	-4669
ーザーが	-4670
下の文章	-4671
体を支え	-4672
何も成し	-4673
内で平均	-4674
再利用性	-4675
冥王星も	-4676
勢を持ち	-4677
化を追加	-4678
合して減	-4679
夏の夜空	-4680
定にする	-4681
尋の神隠	-4682
引き出す	-4683
性を実現	-4684
手を動か	-4685
排除する	-4686
整えて邪	-4687
時間は川	-4688
有益な知	-4689
束の間の	-4690
玉が夜空	-4691
疲れ様で	-4692
的勾配降	-4693
知らぬ人	-4694
答えは違	-4695
組んだり	-4696
絶対値の	-4697
線に基づ	-4698
美しさに	-4699
に積み	-4700
の物理	-4701
は連続	-4702
を解決	-4703
信内容	-4704
命の営	-4705
命の維	-4706
夜空に	-4707
形で保	-4708
影響し	-4709
方向に	-4710
柔軟に	-4711
次元配	-4712
正解ラ	-4713
況を共	-4714
花火は	-4715
見知ら	-4716
記憶に	-4717
試行錯	-4718
速度は	-4719
間の美	-4720
かないの	-4721
が安定し	-4722
ぎると収	-4723
なことで	-4724
予測確率	-4725
単語同士	-4726
意味を持	-4727
数学計算	-4728
文脈を考	-4729
更新する	-4730
理論の基	-4731
目標設定	-4732
科学技術	-4733
線形回帰	-4734
考える姿	-4735
英語のポ	-4736
英語日記	-4737
落ち葉を	-4738
言語の翻	-4739
計算資源	-4740
語彙サイ	-4741
質な日本	-4742
質問応答	-4743
配列を一	-4744
重らせん	-4745
間を大切	-4746
隠れ層の	-4747
難な形で	-4748
風に舞う	-4749
ation	-4750
entum	-4751
inter	-4752
▁人工知能	-4753
▁自己紹介	-4754
あなたは誰	-4755
いつでもお	-4756
おすすめの	-4757
くいかない	-4758
しさこそが	-4759
しっかり行	-4760
するクロス	-4761
たいですか	-4762
てて嬉しい	-4763
ではクロス	-4764
では事実上	-4765
で体を動か	-4766
で利用する	-4767
で説明させ	-4768
などのオン	-4769
において革	-4770
による暗号	-4771
のメリット	-4772
の神経回路	-4773
まりました	-4774
めてくれる	-4775
よりも高速	-4776
らが風に舞	-4777
れ層のユニ	-4778
わりやすく	-4779
を作る役割	-4780
を利用する	-4781
を押し付け	-4782
を果たした	-4783
を自動調整	-4784
を見つめる	-4785
を逆方向に	-4786
ェーン技術	-4787
クロスエン	-4788
コンテンツ	-4789
コンペティ	-4790
スキルなど	-4791
スタマイズ	-4792
ットカード	-4793
ディングや	-4794
データで微	-4795
データ拡張	-4796
ペナルティ	-4797
マを英語字	-4798
メリットは	-4799
80〜	-4800
lou	-4801
ram	-4802
ude	-4803
▁dn	-4804
きに一	-4805
でリラ	-4806
との繋	-4807
に一部	-4808
は摂氏	-4809
めてく	-4810
シピを	-4811
ベル付	-4812
一度の	-4813
下法は	-4814
世界中	-4815
中の単	-4816
久しぶ	-4817
代にア	-4818
会話と	-4819
優れた	-4820
出たら	-4821
割を果	-4822
本は東	-4823
桜の花	-4824
線に基	-4825
能の発	-4826
脈を考	-4827
脳の神	-4828
色の花	-4829
降の出	-4830
降下法	-4831
ongo	-4832
sfor	-4833
▁pro	-4834
▁wid	-4835
いてバリ	-4836
きに一緒	-4837
ぎると発	-4838
するパラ	-4839
ではクロ	-4840
に使える	-4841
に合った	-4842
に立って	-4843
のことを	-4844
まで幅広	-4845
やすみな	-4846
を書いて	-4847
ダムフォ	-4848
ナルティ	-4849
プリタは	-4850
主な応用	-4851
二乗誤差	-4852
人と一緒	-4853
人生を変	-4854
体を動か	-4855
保つこと	-4856
始めたら	-4857
小さく分	-4858
徐々に正	-4859
知能の発	-4860
重み付け	-4861
に使います	-4862
り返します	-4863
ェーン管理	-4864
トコルです	-4865
ャストを聴	-4866
ランダムに	-4867
リクエスト	-4868
リソースも	-4869
リソースを	-4870
リレーショ	-4871
レイなどが	-4872
ーザーが直	-4873
ートフォン	-4874
上の位置に	-4875
不可欠です	-4876
主なスキル	-4877
予測精度で	-4878
交差検証は	-4879
人生を追体	-4880
会話と対話	-4881
作業環境を	-4882
制御します	-4883
前の読書は	-4884
千尋の神隠	-4885
友人と一緒	-4886
収束が遅く	-4887
向上させる	-4888
基本を押さ	-4889
増やすこと	-4890
天気サイト	-4891
好みですか	-4892
学んだこと	-4893
学習のサポ	-4894
学習の前に	-4895
学習可能な	-4896
宇宙で最も	-4897
寒さの中に	-4898
幅広い応用	-4899
形性を	-4900
生み出	-4901
が生活に	-4902
で従来の	-4903
に新しい	-4904
の重みを	-4905
を高める	-4906
学習プラ	-4907
室を暗く	-4908
損失を最	-4909
新しいサ	-4910
方法を明	-4911
生活に欠	-4912
長ととも	-4913
がシンプル	-4914
にスキルが	-4915
のかもしれ	-4916
まず相手の	-4917
も睡眠の質	-4918
ることは多	-4919
シンプルで	-4920
スキルが身	-4921
人間の価値	-4922
倣したもの	-4923
加したもの	-4924
度で知られ	-4925
庭や工場に	-4926
引き出す学	-4927
惑星とされ	-4928
感力が育ま	-4929
技術の進歩	-4930
技術を基盤	-4931
探索します	-4932
接操作する	-4933
損失を最小	-4934
摘ありがと	-4935
操作するメ	-4936
時に新しい	-4937
最適化など	-4938
有益な知見	-4939
構造を持ち	-4940
正確な予測	-4941
正解ラベル	-4942
残差接続と	-4943
淡いピンク	-4944
潔に答えて	-4945
物よりも精	-4946
特に画像や	-4947
現代生活に	-4948
理論により	-4949
理論の基礎	-4950
生活に大き	-4951
的概念です	-4952
睡眠の質を	-4953
知りません	-4954
知識や語彙	-4955
知識を別の	-4956
確かに一部	-4957
種類の塩基	-4958
窓に結んだ	-4959
管理するツ	-4960
管理や医療	-4961
絶対値の和	-4962
落ち葉を踏	-4963
見られます	-4964
計算が可能	-4965
記録を改ざ	-4966
試行錯誤が	-4967
誤って回答	-4968
誤差逆伝播	-4969
諦めてしま	-4970
豊かにする	-4971
資源が必要	-4972
趣味の時間	-4973
進歩を可視	-4974
適度な運動	-4975
開発者が他	-4976
間の美しさ	-4977
関係は時間	-4978
降の出来事	-4979
骨は体を支	-4980
高める方法	-4981
erativ	-4982
linear	-4983
▁アンサンブ	-4984
▁日常的な話	-4985
▁日本語学習	-4986
々との繋がり	-4987
いくつかのポ	-4988
いつでもどう	-4989
いてバリュー	-4990
えるのですか	-4991
おはようござ	-4992
お仕事や学校	-4993
お伝えできる	-4994
お好みですか	-4995
がけください	-4996
が安定します	-4997
きながら運動	-4998
しながら実行	-4999
の誤差	-5000
療記録	-5001
解釈し	-5002
誤差を	-5003
進歩を	-5004
面で優	-5005
音楽を	-5006
ggle	-5007
あればい	-5008
があれば	-5009
が主要な	-5010
が必要で	-5011
きな音楽	-5012
きセルフ	-5013
どんなジ	-5014
など豊富	-5015
の位置で	-5016
め込み層	-5017
め込み次	-5018
られた電	-5019
を作る役	-5020
アプリや	-5021
ジネスロ	-5022
タイムの	-5023
ブラリを	-5024
ムの天気	-5025
レミスは	-5026
上で最も	-5027
出に役立	-5028
前の読書	-5029
化される	-5030
可能性も	-5031
多くの場	-5032
憶の中に	-5033
聞くこと	-5034
自動調整	-5035
語に変換	-5036
開くこと	-5037
がとうござ	-5038
すると続け	-5039
つの主要な	-5040
よりも高い	-5041
を感じさせ	-5042
ストレス解	-5043
ス解消には	-5044
タイム情報	-5045
チャを採用	-5046
ッドセルフ	-5047
バッチサイ	-5048
ビジネスロ	-5049
ートが必要	-5050
ートルです	-5051
上げられた	-5052
主要な概念	-5053
人間の仕事	-5054
代表される	-5055
何かあれば	-5056
大きな進歩	-5057
層間の相関	-5058
役立ちます	-5059
料理のコツ	-5060
方式を採用	-5061
決定に役立	-5062
表現に変換	-5063
複数ターン	-5064
誤差を計算	-5065
難な形で保	-5066
面で使われ	-5067
えていくこと	-5068
することで長	-5069
する重要な要	-5070
そしてデータ	-5071
そのまま出力	-5072
その積み重ね	-5073
った方法を見	-5074
つけることも	-5075
できる人と話	-5076
で体を動かす	-5077
で最も美しい	-5078
で読みやすい	-5079
という言葉が	-5080
ときに一緒に	-5081
と千尋の神隠	-5082
ないデータで	-5083
なく続けられ	-5084
などで最適値	-5085
なのかもしれ	-5086
なライブラリ	-5087
な睡眠を取る	-5088
についてお困	-5089
にとって桜は	-5090
に不可欠です	-5091
に代表される	-5092
に取り組んだ	-5093
に合った方法	-5094
に計算できる	-5095
のように積も	-5096
の仕事を自動	-5097
の天気はどう	-5098
の物理的な部	-5099
な応用	-5100
に大き	-5101
は複数	-5102
を上げ	-5103
マーの	-5104
マーは	-5105
一日に	-5106
出す学	-5107
出す芸	-5108
出力に	-5109
十分な	-5110
変更履	-5111
大きす	-5112
失敗は	-5113
学研究	-5114
安定し	-5115
寝前の	-5116
小さく	-5117
差接続	-5118
常会話	-5119
接続と	-5120
活に欠	-5121
準惑星	-5122
特定し	-5123
王星も	-5124
登場人	-5125
確な目	-5126
者が連	-5127
自動調	-5128
落ち葉	-5129
くの小さ	-5130
つの主要	-5131
では平均	-5132
など幅広	-5133
を聴きな	-5134
ッチ正規	-5135
ライブラ	-5136
ントです	-5137
ープラー	-5138
一日をお	-5139
別の問題	-5140
効率的な	-5141
動かして	-5142
手の良い	-5143
方式です	-5144
活に大き	-5145
流れによ	-5146
王星です	-5147
的な作業	-5148
研究分野	-5149
確な予測	-5150
自己紹介	-5151
ながら出力	-5152
ながら学べ	-5153
のコツをお	-5154
ように流れ	-5155
タントです	-5156
ープなどの	-5157
伝えします	-5158
伝えできる	-5159
利用いただ	-5160
動かします	-5161
可視化する	-5162
奪いますか	-5163
性能を効率	-5164
正規化する	-5165
活に大きな	-5166
遺伝情報を	-5167
重要な研究	-5168
でも十分学べ	-5169
で説明させて	-5170
はどのような	-5171
は言葉を大切	-5172
ほどの回答に	-5173
また何か質問	-5174
めながら歩く	-5175
めまでにする	-5176
も役立ちます	-5177
やすいモデル	-5178
やインフラを	-5179
ようなことで	-5180
られた電気は	-5181
ればならない	-5182
を作るコツを	-5183
を使用できる	-5184
を取ることが	-5185
を可視化する	-5186
を増やすこと	-5187
を持つ単語が	-5188
を暗く涼しく	-5189
を生成します	-5190
を発見します	-5191
を高めるには	-5192
エラー処理と	-5193
エンコーダは	-5194
エントロピー	-5195
ケーション能	-5196
コントロール	-5197
シピのように	-5198
タイムの天気	-5199
tum	-5200
おすす	-5201
がとう	-5202
くいか	-5203
くのメ	-5204
さこそ	-5205
すぎる	-5206
てしま	-5207
にくい	-5208
のに対	-5209
は生物	-5210
まくい	-5211
を文脈	-5212
デアの	-5213
パイラ	-5214
ビジネ	-5215
ャを採	-5216
レス解	-5217
味を持	-5218
式を採	-5219
率に対	-5220
語に変	-5221
貨の基	-5222
速度が	-5223
tran	-5224
してしま	-5225
しれない	-5226
どういた	-5227
をおすす	-5228
んだこと	-5229
セスでき	-5230
チャを採	-5231
パイルが	-5232
ーパラメ	-5233
決定木は	-5234
睡眠を取	-5235
表現に変	-5236
豊富です	-5237
aggle	-5238
いのですが	-5239
がりました	-5240
が重要です	-5241
しているか	-5242
しれません	-5243
できるかも	-5244
どうですか	-5245
どんなジャ	-5246
ップアウト	-5247
ベクトルを	-5248
ベクトル空	-5249
値化します	-5250
宙で最も速	-5251
川のように	-5252
日少しずつ	-5253
準化します	-5254
目標設定が	-5255
私たちは生	-5256
答パターン	-5257
ご紹介します	-5258
する仕組みで	-5259
により複雑な	-5260
を大切に生き	-5261
イントで説明	-5262
シンプルで読	-5263
タスクは小さ	-5264
ターンの会話	-5265
チェーン技術	-5266
チェーン管理	-5267
ックチェーン	-5268
ットフォーム	-5269
バッチ正規化	-5270
パゲーション	-5271
パターンを見	-5272
ピングされる	-5273
フォーマーは	-5274
ベクトル表現	-5275
ムを利用する	-5276
メートルです	-5277
モデルの汎化	-5278
モデルの解釈	-5279
ランスを取り	-5280
ランダムフォ	-5281
ラーニングと	-5282
ルできますが	-5283
ルなどが該当	-5284
ロジックなど	-5285
ロメートルで	-5286
ントエンドは	-5287
ヶ月後に復習	-5288
ーザーが直接	-5289
ートなどです	-5290
ーフィズムが	-5291
上で量子的な	-5292
事実上の標準	-5293
人間関係を築	-5294
代表的なもの	-5295
位置する島国	-5296
作って自分の	-5297
保守性を高め	-5298
信するための	-5299
がうま	-5300
のメリ	-5301
の設定	-5302
も高い	-5303
を決定	-5304
を生成	-5305
を重ね	-5306
ル表現	-5307
層での	-5308
検証は	-5309
特に画	-5310
知識と	-5311
考に触	-5312
設計は	-5313
設計図	-5314
質な教	-5315
質な日	-5316
適切に	-5317
重ねが	-5318
い分野で	-5319
が分かり	-5320
する部分	-5321
その逆方	-5322
という名	-5323
より表現	-5324
インフラ	-5325
エンドと	-5326
クトルを	-5327
クトル空	-5328
スする仕	-5329
トエンド	-5330
フアテン	-5331
ラックス	-5332
リックス	-5333
ンプルを	-5334
代表され	-5335
入力を標	-5336
力を生成	-5337
化を組み	-5338
存する仕	-5339
木を組み	-5340
私たちは	-5341
算する仕	-5342
質な睡眠	-5343
関係を築	-5344
しいという	-5345
なデータの	-5346
よく使われ	-5347
をインター	-5348
アーキテク	-5349
クトル表現	-5350
ックエンド	-5351
ックス効果	-5352
ニューロン	-5353
ブジェクト	-5354
予測を組み	-5355
分野で人間	-5356
問題で学習	-5357
回帰は連続	-5358
基本ですが	-5359
学習は特に	-5360
層の入力を	-5361
決定します	-5362
特にデータ	-5363
睡眠のため	-5364
線を通じて	-5365
運動を続け	-5366
長期記憶に	-5367
高いモデル	-5368
するサービス	-5369
を通じてサー	-5370
を通じて最適	-5371
エンコーディ	-5372
ジェクトから	-5373
テクチャです	-5374
データの損失	-5375
データの構造	-5376
データを管理	-5377
ランスフォー	-5378
休みください	-5379
値の予測に使	-5380
入力トークン	-5381
具として活用	-5382
出力トークン	-5383
分かりにくか	-5384
分かりません	-5385
分散を計算し	-5386
分散型バージ	-5387
分野で人間の	-5388
分類し直され	-5389
力が向上する	-5390
功の母という	-5391
効果的な時間	-5392
勾配降下法は	-5393
化の技術です	-5394
可能性として	-5395
各層の入力を	-5396
各層の重みを	-5397
地球上で最も	-5398
埋め込みを追	-5399
くなる	-5400
ぐテク	-5401
つけ出	-5402
となっ	-5403
なライ	-5404
な人工	-5405
にアク	-5406
の決定	-5407
はそれ	-5408
め上げ	-5409
りの中	-5410
をお伝	-5411
を人工	-5412
アクセ	-5413
キテク	-5414
システ	-5415
テクチ	-5416
バーや	-5417
ビスに	-5418
ビスを	-5419
ブジェ	-5420
ムに適	-5421
ライチ	-5422
ライブ	-5423
ルなし	-5424
ルによ	-5425
人工知	-5426
何かあ	-5427
信に適	-5428
力が豊	-5429
合を防	-5430
図とな	-5431
型バー	-5432
基本を	-5433
基本概	-5434
実行前	-5435
小さす	-5436
平均二	-5437
役立て	-5438
感力が	-5439
散シス	-5440
文章を	-5441
文章作	-5442
断を行	-5443
日をお	-5444
業を行	-5445
盤とな	-5446
礎とな	-5447
線を通	-5448
質の一	-5449
質向上	-5450
がわから	-5451
なし学習	-5452
なる計算	-5453
コツをお	-5454
ストを行	-5455
ッドセル	-5456
人生を追	-5457
分散シス	-5458
分類に適	-5459
力がある	-5460
回帰を行	-5461
基本です	-5462
学習を防	-5463
料理を作	-5464
時間を作	-5465
開発に適	-5466
じてコンピ	-5467
つけること	-5468
ながら実行	-5469
なし学習は	-5470
ようなサポ	-5471
ウドコンピ	-5472
コードを一	-5473
ネットを通	-5474
ミニバッチ	-5475
分類タスク	-5476
展は私たち	-5477
データセット	-5478
基本を押さえ	-5479
多くの小さな	-5480
大きすぎると	-5481
好みにアレン	-5482
始めたら学習	-5483
存する仕組み	-5484
学べる方法を	-5485
学習の分野で	-5486
学習データ以	-5487
学習プラット	-5488
宙で最も速い	-5489
実際にコード	-5490
密データの送	-5491
島々から構成	-5492
幅広い分野で	-5493
序情報を持た	-5494
式でデータを	-5495
引記録を改ざ	-5496
復習すること	-5497
応的学習率の	-5498
惑星に分類し	-5499
cat	-5500
hat	-5501
ine	-5502
men	-5503
いう内	-5504
いう名	-5505
いう欠	-5506
ういた	-5507
アメリ	-5508
トロピ	-5509
aine	-5510
ener	-5511
erat	-5512
ysql	-5513
▁アウト	-5514
い性能を	-5515
い申し訳	-5516
じて最適	-5517
で申し訳	-5518
とアウト	-5519
などを実	-5520
にコード	-5521
みやすく	-5522
やすく伝	-5523
エンスの	-5524
エンスは	-5525
コードを	-5526
コード全	-5527
スフォー	-5528
ソースも	-5529
ソースを	-5530
フォーマ	-5531
ンを学習	-5532
何か質問	-5533
列を学習	-5534
化性能を	-5535
学習のサ	-5536
学習率が	-5537
学習率を	-5538
性能を保	-5539
性能を効	-5540
数ターン	-5541
時間を一	-5542
規化する	-5543
視化する	-5544
適切にお	-5545
部分が違	-5546
javas	-5547
かお手伝い	-5548
れについて	-5549
エンスにつ	-5550
ットフォー	-5551
テキスト生	-5552
テンソルは	-5553
ースコード	-5554
化するコツ	-5555
学習のコツ	-5556
学習の分野	-5557
安定します	-5558
度な運動を	-5559
果を分かり	-5560
正解との差	-5561
特徴を学習	-5562
続けやすく	-5563
える技術です	-5564
お手伝いでき	-5565
なデータ構造	-5566
やす技術です	-5567
ることが大切	-5568
サイエンスは	-5569
スする仕組み	-5570
化するための	-5571
可視光線の波	-5572
影響している	-5573
慰めてくれる	-5574
技術とも呼ば	-5575
提供するイン	-5576
操作するメソ	-5577
数などが該当	-5578
断を行います	-5579
新しい仕事も	-5580
映画を教えて	-5581
時の試行錯誤	-5582
晶を見つめる	-5583
最適化問題の	-5584
本的に異なる	-5585
束が遅くなる	-5586
来のトークン	-5587
概念から始め	-5588
様々な分野で	-5589
標準言語とな	-5590
機械学習の一	-5591
正確な情報を	-5592
汎化性能を評	-5593
決するための	-5594
決定に役立て	-5595
流れによって	-5596
点もあります	-5597
特定の部分に	-5598
現在では世界	-5599
apq	-5600
▁11	-5601
▁12	-5602
▁ap	-5603
▁アウ	-5604
▁クラ	-5605
かりに	-5606
じさせ	-5607
ったか	-5608
でお手	-5609
とアウ	-5610
のテキ	-5611
の損失	-5612
の構造	-5613
の関係	-5614
もう一	-5615
を始め	-5616
を操作	-5617
クラウ	-5618
ズ最適	-5619
ソルは	-5620
プアウ	-5621
プリケ	-5622
ルが身	-5623
ワード	-5624
ンルが	-5625
ートが	-5626
合った	-5627
回帰を	-5628
始めた	-5629
己回帰	-5630
形回帰	-5631
接操作	-5632
損失を	-5633
損失関	-5634
構造や	-5635
関数へ	-5636
集中力	-5637
頼関係	-5638
風テキ	-5639
させます	-5640
ったよう	-5641
どの回答	-5642
への回答	-5643
める方法	-5644
ようござ	-5645
ック回帰	-5646
プロジェ	-5647
ートなど	-5648
ートフォ	-5649
人間関係	-5650
天気サイ	-5651
始めれば	-5652
提供など	-5653
物の人生	-5654
的なテキ	-5655
説明させ	-5656
きありがと	-5657
させながら	-5658
ソルとして	-5659
ードウェア	-5660
伝いできる	-5661
味しい料理	-5662
回帰タスク	-5663
独学で学べ	-5664
申し訳あり	-5665
でリラックス	-5666
と効果的です	-5667
と正解との差	-5668
データから有	-5669
フォーマーの	-5670
伝いできます	-5671
分野への応用	-5672
変更を加えて	-5673
始めましょう	-5674
学習のコツを	-5675
異なりますが	-5676
疲れ様でした	-5677
癒合して減少	-5678
発揮しますが	-5679
的なベクトル	-5680
的勾配降下法	-5681
目する仕組み	-5682
知能の発展は	-5683
知識や語彙が	-5684
社でサーバー	-5685
答えできます	-5686
算する仕組み	-5687
管理する方式	-5688
管理システム	-5689
練データへの	-5690
美味しい料理	-5691
者が提供する	-5692
良い一日をお	-5693
英語のポッド	-5694
落ち葉を踏み	-5695
葉を見ている	-5696
表現力の高い	-5697
見を押し付け	-5698
解釈しやすい	-5699
か質問	-5700
き続け	-5701
と大規	-5702
と安定	-5703
と続け	-5704
に活用	-5705
の良い	-5706
も良い	-5707
や自然	-5708
を活用	-5709
層のユ	-5710
層の入	-5711
究開発	-5712
良い一	-5713
言葉を	-5714
開発に	-5715
開発時	-5716
開発者	-5717
pyth	-5718
うことも	-5719
ぐための	-5720
した大規	-5721
ための分	-5722
ための手	-5723
ための最	-5724
つの言葉	-5725
で使われ	-5726
で大きな	-5727
と効果的	-5728
ながら働	-5729
ながら出	-5730
ながら学	-5731
ながら実	-5732
に大きな	-5733
ね合わせ	-5734
のソフト	-5735
のトーク	-5736
も効果的	-5737
より柔軟	-5738
スの忘却	-5739
タスクで	-5740
プットと	-5741
プットの	-5742
合わせた	-5743
合わせて	-5744
大きな影	-5745
帰タスク	-5746
構成され	-5747
活用され	-5748
活用でき	-5749
続けられ	-5750
言葉には	-5751
詳しく状	-5752
開発者が	-5753
関係を効	-5754
ongod	-5755
pytor	-5756
いて詳しく	-5757
きなタスク	-5758
する重要な	-5759
ためのイン	-5760
ための技術	-5761
どの回答に	-5762
タスクから	-5763
ックスなど	-5764
ティングシ	-5765
トークンの	-5766
元のデータ	-5767
力トークン	-5768
回答に誤り	-5769
多くのメリ	-5770
大きな学習	-5771
大きな重み	-5772
生のデータ	-5773
生成が可能	-5774
組み合わせ	-5775
▁日本は東ア	-5776
などが効果的	-5777
トークンを見	-5778
バックエンド	-5779
ューティング	-5780
レーティング	-5781
ースティング	-5782
別の世界への	-5783
大きな学習率	-5784
弦波を用いた	-5785
言語モデルの	-5786
記録をつけて	-5787
訪れとともに	-5788
設定すること	-5789
設計する必要	-5790
認めることも	-5791
調整すること	-5792
輝きの中に永	-5793
近いベクトル	-5794
送するための	-5795
進むと良いで	-5796
遂げられない	-5797
違っています	-5798
適切な情報を	-5799
ora	-5800
orc	-5801
orm	-5802
tor	-5803
けて復	-5804
けて進	-5805
ずつ加	-5806
ずつ移	-5807
ずつ解	-5808
つのベ	-5809
つのポ	-5810
つの主	-5811
つの言	-5812
で人間	-5813
なスキ	-5814
なソフ	-5815
にスキ	-5816
にラン	-5817
のソフ	-5818
の問題	-5819
は人間	-5820
は可能	-5821
る問題	-5822
わせた	-5823
わせて	-5824
わせる	-5825
わせ状	-5826
を具体	-5827
シスタ	-5828
スキッ	-5829
ディな	-5830
プラー	-5831
ボレー	-5832
ュレー	-5833
ランダ	-5834
ラーが	-5835
ラーニ	-5836
ラーメ	-5837
人スキ	-5838
人間が	-5839
値を発	-5840
処理で	-5841
処理に	-5842
可能に	-5843
時の試	-5844
束を守	-5845
率を使	-5846
するもの	-5847
ずつでも	-5848
でもどう	-5849
の決定木	-5850
ものです	-5851
ようなら	-5852
ストレー	-5853
ズムとは	-5854
ターンの	-5855
フラを所	-5856
ラー処理	-5857
レーショ	-5858
レーティ	-5859
具体的な	-5860
処理など	-5861
学習可能	-5862
少し具体	-5863
情報を持	-5864
的なもの	-5865
築いてい	-5866
言語処理	-5867
々にデータ	-5868
きいただけ	-5869
ちましょう	-5870
などが含ま	-5871
ましょうか	-5872
めましょう	-5873
ウェア開発	-5874
化手法です	-5875
少しずつ加	-5876
的なトーク	-5877
計手法です	-5878
ぐテクニック	-5879
けてください	-5880
にはいくつか	-5881
ズムを教えて	-5882
情報をモデル	-5883
運動を続ける	-5884
適切にお答え	-5885
適度な運動を	-5886
遺伝情報を担	-5887
部分が分かり	-5888
重ね合わせ状	-5889
間違っていた	-5890
高い予測精度	-5891
▁transf	-5892
▁位置エンコー	-5893
▁日本は東アジ	-5894
か作って自分の	-5895
ができることは	-5896
が出たら調べて	-5897
が大きすぎると	-5898
きことをリスト	-5899
▁人工	-5900
いくつ	-5901
えるコ	-5902
かもし	-5903
がら働	-5904
が使わ	-5905
た位置	-5906
つかの	-5907
つか紹	-5908
つでも	-5909
でもど	-5910
でも続	-5911
で使わ	-5912
な位置	-5913
の重み	-5914
への回	-5915
への応	-5916
れにつ	-5917
スにつ	-5918
チェー	-5919
トフォ	-5920
ドセル	-5921
ムフォ	-5922
ラー処	-5923
ンプレ	-5924
乗誤差	-5925
位置で	-5926
位置埋	-5927
何につ	-5928
使える	-5929
取りま	-5930
取り出	-5931
夢を見	-5932
天気は	-5933
学でも	-5934
定義し	-5935
必要が	-5936
次に実	-5937
点につ	-5938
特徴量	-5939
能を保	-5940
能を提	-5941
能を評	-5942
重みの	-5943
える技術	-5944
ざいます	-5945
し学習は	-5946
せん構造	-5947
つなどが	-5948
にはいく	-5949
はお疲れ	-5950
を見てい	-5951
を見られ	-5952
ットフォ	-5953
フェイン	-5954
ルなどが	-5955
伝情報を	-5956
位置情報	-5957
使います	-5958
分野への	-5959
取り組み	-5960
学習は特	-5961
層学習は	-5962
必要です	-5963
情報をお	-5964
方法を見	-5965
深層学習	-5966
行います	-5967
atgpt	-5968
あり学習は	-5969
いのが特徴	-5970
たら調べて	-5971
ていました	-5972
などが効果	-5973
を教えてい	-5974
ックスする	-5975
バッチ正規	-5976
ピのように	-5977
二乗誤差が	-5978
位置情報を	-5979
少し詳しく	-5980
で読みやすく	-5981
位置埋め込み	-5982
特徴を教えて	-5983
ができるように	-5984
ければならない	-5985
ことが大切です	-5986
ことを具体的に	-5987
しいという欠点	-5988
した大規模言語	-5989
しやすいですが	-5990
するためのプロ	-5991
するための手順	-5992
するパラメータ	-5993
する仕組みで広	-5994
する必要があり	-5995
そのまま出力に	-5996
ちゃんの時は約	-5997
つけてください	-5998
ていくものです	-5999
▁勾配	-6000
い予測	-6001
お仕事	-6002
どの部	-6003
につき	-6004
の勾配	-6005
はどの	-6006
るコツ	-6007
を毎日	-6008
を管理	-6009
アルゴ	-6010
アルタ	-6011
ェクト	-6012
サーバ	-6013
スの違	-6014
スクを	-6015
スク付	-6016
タの違	-6017
ドウェ	-6018
ベクト	-6019
予測に	-6020
予測を	-6021
性を実	-6022
管理シ	-6023
継続性	-6024
gith	-6025
しょうか	-6026
するサー	-6027
その勾配	-6028
って自分	-6029
では事実	-6030
としてま	-6031
として活	-6032
との違い	-6033
どのよう	-6034
などのラ	-6035
などの主	-6036
のとして	-6037
めてしま	-6038
ウェアと	-6039
ウェアは	-6040
ウェア上	-6041
ウェア同	-6042
クトから	-6043
スの違い	-6044
スクから	-6045
トウェア	-6046
ドの違い	-6047
ドウェア	-6048
ブロック	-6049
プなどの	-6050
ベースの	-6051
伝えるコ	-6052
力の高い	-6053
基本を押	-6054
大切です	-6055
学習の違	-6056
性として	-6057
数などが	-6058
消えてい	-6059
自動的に	-6060
えていただ	-6061
かりやすく	-6062
ただけます	-6063
ただければ	-6064
ためのプロ	-6065
ための最適	-6066
などの方法	-6067
ティとして	-6068
データへの	-6069
ニングは生	-6070
ベースなど	-6071
ベースには	-6072
好きな音楽	-6073
学習の違い	-6074
様々なサー	-6075
著者の思考	-6076
えていただけ	-6077
から始めれば	-6078
っておすすめ	-6079
のニューラル	-6080
パク質の設計	-6081
応答パターン	-6082
rogramm	-6083
したニューラル	-6084
てて嬉しいです	-6085
できる時間帯に	-6086
では順序情報を	-6087
でも続けること	-6088
でデータの構造	-6089
で優れた性能を	-6090
で利用する方式	-6091
で最も美しい季	-6092
としてまとめる	-6093
とアウトプット	-6094
と千尋の神隠し	-6095
と良いでしょう	-6096
どの点について	-6097
どんなスキルが	-6098
なしでデータの	-6099
ith	-6100
neu	-6101
pre	-6102
いて革	-6103
う少し	-6104
きなが	-6105
きなら	-6106
きなタ	-6107
きな影	-6108
きな成	-6109
きな重	-6110
きな音	-6111
しく保	-6112
そのま	-6113
た方法	-6114
ってお	-6115
って生	-6116
でしょ	-6117
とって	-6118
とは何	-6119
なって	-6120
な手法	-6121
な説明	-6122
に説明	-6123
は少し	-6124
は量子	-6125
ましょ	-6126
まず基	-6127
まず相	-6128
よって	-6129
る手法	-6130
を打ち	-6131
コミュ	-6132
ターフ	-6133
チサイ	-6134
ムとは	-6135
モドー	-6136
力を高	-6137
化関数	-6138
少しず	-6139
少し変	-6140
数ター	-6141
立って	-6142
組みで	-6143
計手法	-6144
誤って	-6145
説明で	-6146
ramm	-6147
いできる	-6148
きな学習	-6149
く柔軟に	-6150
する方法	-6151
できる人	-6152
できる可	-6153
で伝える	-6154
ときに慰	-6155
とって桜	-6156
などの基	-6157
利用する	-6158
利用でき	-6159
的にどの	-6160
的に説明	-6161
組みです	-6162
降の出来	-6163
頼できる	-6164
いを教えて	-6165
しく教えて	-6166
しぶりです	-6167
できるため	-6168
に活用する	-6169
を操作する	-6170
ターネット	-6171
ツを教えて	-6172
バリューを	-6173
ムを教えて	-6174
仕事を自動	-6175
作り出す芸	-6176
利用できる	-6177
徴を教えて	-6178
様々な方法	-6179
登場人物の	-6180
計算できる	-6181
類を教えて	-6182
ウェアの違い	-6183
説明すること	-6184
類似した意味	-6185
して減少します	-6186
などの基本概念	-6187
な主なスキルは	-6188
についてお困り	-6189
について教えて	-6190
にはいくつかの	-6191
によって生じる	-6192
にニューロンを	-6193
に取りましょう	-6194
に定義したもの	-6195
のソフトウェア	-6196
の出来事は知り	-6197
の違いを教えて	-6198
の集合を定義し	-6199
▁テン	-6200
々なサ	-6201
々なタ	-6202
々な分	-6203
々な方	-6204
いてバ	-6205
いて詳	-6206
い分野	-6207
てテン	-6208
では事	-6209
では平	-6210
では生	-6211
みにア	-6212
もので	-6213
も勾配	-6214
クでは	-6215
ケール	-6216
テンソ	-6217
中力を	-6218
体では	-6219
分野へ	-6220
問分野	-6221
学計算	-6222
守性を	-6223
度に基	-6224
手の立	-6225
模言語	-6226
準言語	-6227
究分野	-6228
解との	-6229
言語と	-6230
計算が	-6231
計算し	-6232
計算方	-6233
計算資	-6234
々な分野	-6235
の中に永	-6236
の様々な	-6237
ように積	-6238
るように	-6239
コンテン	-6240
ュータに	-6241
ュータ上	-6242
分野には	-6243
化学習は	-6244
性能を評	-6245
概念から	-6246
様々なサ	-6247
様々なタ	-6248
様々な手	-6249
様々な方	-6250
約束を守	-6251
風に舞い	-6252
いて教えて	-6253
することが	-6254
ないように	-6255
の機械学習	-6256
は生かされ	-6257
ますように	-6258
や機械学習	-6259
テンション	-6260
ュータより	-6261
分野が特徴	-6262
定すること	-6263
揮すること	-6264
整すること	-6265
有いただけ	-6266
機械学習に	-6267
流れを感じ	-6268
特定の部分	-6269
異なります	-6270
続すること	-6271
言語モデル	-6272
かな生命の営	-6273
来の機械学習	-6274
することが大切	-6275
なりますように	-6276
はリアルタイム	-6277
は人間の仕事を	-6278
は可能性として	-6279
は遅くなります	-6280
まれるなどです	-6281
も睡眠の質向上	-6282
ようなサポート	-6283
るデータベース	-6284
ればいいですか	-6285
れ層のユニット	-6286
をオブジェクト	-6287
をホスティング	-6288
を一行ずつ解釈	-6289
を与えています	-6290
を使うのに対し	-6291
を使って画面を	-6292
を変えることも	-6293
を持つ単語が近	-6294
を自動調整する	-6295
を認めることも	-6296
を追加したもの	-6297
を通じてコンピ	-6298
を通じて最適な	-6299
flo	-6300
ion	-6301
▁機械	-6302
いられ	-6303
えれば	-6304
が効果	-6305
が重要	-6306
けられ	-6307
にコー	-6308
のため	-6309
の機械	-6310
も効果	-6311
られる	-6312
るため	-6313
る効果	-6314
る暗号	-6315
コーダ	-6316
コーデ	-6317
スティ	-6318
ス効果	-6319
デコー	-6320
ーティ	-6321
ーパラ	-6322
人間関	-6323
体的に	-6324
作られ	-6325
工的に	-6326
的にど	-6327
的に増	-6328
的に教	-6329
的に特	-6330
的に異	-6331
的に達	-6332
誤を通	-6333
限られ	-6334
するため	-6335
する重要	-6336
により並	-6337
により古	-6338
により複	-6339
ませんが	-6340
れません	-6341
クション	-6342
ションが	-6343
ション層	-6344
ション機	-6345
ション能	-6346
ベルなし	-6347
ミングな	-6348
ミングの	-6349
ミングは	-6350
ミング初	-6351
ミング能	-6352
ュータの	-6353
ュータは	-6354
ワークに	-6355
ワークの	-6356
ワークは	-6357
ワークア	-6358
ワーク構	-6359
ンション	-6360
ースティ	-6361
源が必要	-6362
結んだ霜	-6363
論により	-6364
造により	-6365
▁プログラ	-6366
いいですか	-6367
いくつか紹	-6368
がりの中で	-6369
のプログラ	-6370
コントロー	-6371
ワーク技術	-6372
向プログラ	-6373
文法を本で	-6374
的に教えて	-6375
埋め込み次元	-6376
誤った情報を	-6377
が暗号化される	-6378
にはいられない	-6379
アウトプットの	-6380
ィズムが主要な	-6381
エンスについて	-6382
エンドとバック	-6383
オプティマイザ	-6384
カフェインは午	-6385
カフェインを適	-6386
キャストを聴く	-6387
ギーの形態です	-6388
クエリとキーの	-6389
コンピュータサ	-6390
コンピュータ上	-6391
サポートが必要	-6392
ジェクトから始	-6393
ジェクトとして	-6394
スキルが身につ	-6395
ストレス解消に	-6396
セキュリティや	-6397
セスする仕組み	-6398
ソフトウェアの	-6399
nai	-6400
rai	-6401
々に正	-6402
い情報	-6403
かされ	-6404
げられ	-6405
す技術	-6406
せんが	-6407
せん構	-6408
ただき	-6409
た情報	-6410
でミス	-6411
な情報	-6412
の対話	-6413
も重要	-6414
やすみ	-6415
り返す	-6416
る技術	-6417
ジック	-6418
スク分	-6419
ックチ	-6420
ック回	-6421
ニケー	-6422
ンショ	-6423
ン技術	-6424
力を受	-6425
力を生	-6426
在では	-6427
埋め込	-6428
序情報	-6429
必要で	-6430
情報提	-6431
成され	-6432
技術と	-6433
現在の	-6434
画像や	-6435
的にお	-6436
盤技術	-6437
直され	-6438
絆こそ	-6439
置情報	-6440
表され	-6441
見られ	-6442
▁ニュー	-6443
いること	-6444
うですか	-6445
きること	-6446
けること	-6447
しいです	-6448
どの点が	-6449
にニュー	-6450
のコンピ	-6451
のニュー	-6452
はニュー	-6453
みですか	-6454
やすこと	-6455
やす技術	-6456
りですか	-6457
コンピュ	-6458
コーディ	-6459
タスクを	-6460
ックプロ	-6461
ッチサイ	-6462
ングされ	-6463
作ります	-6464
切ります	-6465
取ること	-6466
子コンピ	-6467
情報には	-6468
時にラン	-6469
構造を発	-6470
要ですか	-6471
踊れる曲	-6472
えできます	-6473
が必要です	-6474
できること	-6475
りますよう	-6476
主要なプラ	-6477
現できます	-6478
たしています	-6479
にしています	-6480
は生のデータ	-6481
られています	-6482
をしています	-6483
を聴きながら	-6484
現しています	-6485
用しています	-6486
適しています	-6487
は時間をかけて	-6488
ソースコード全	-6489
タムを利用する	-6490
ッキングなどの	-6491
ッピングされる	-6492
データの損失が	-6493
データを管理し	-6494
データセットで	-6495
データベースの	-6496
トランスフォー	-6497
トークンの予測	-6498
トークンの位置	-6499
min	-6500
▁イン	-6501
いを模	-6502
たない	-6503
とイン	-6504
ないた	-6505
ないの	-6506
のプロ	-6507
やイン	-6508
やプロ	-6509
らない	-6510
れない	-6511
をイン	-6512
イエン	-6513
インに	-6514
インは	-6515
インを	-6516
インフ	-6517
ェイン	-6518
エント	-6519
キスト	-6520
クプロ	-6521
ストが	-6522
ストは	-6523
ストを	-6524
スト化	-6525
スト生	-6526
デルで	-6527
デルベ	-6528
トエン	-6529
プティ	-6530
プログ	-6531
ャスト	-6532
レスト	-6533
ースな	-6534
ースの	-6535
ースを	-6536
ースコ	-6537
ーステ	-6538
ース操	-6539
ー正規	-6540
合を考	-6541
咲き誇	-6542
性を導	-6543
技術を	-6544
置エン	-6545
見ない	-6546
踊れる	-6547
いモデル	-6548
からない	-6549
がりの中	-6550
する手法	-6551
て教えて	-6552
のネット	-6553
のモデル	-6554
は私たち	-6555
る方法を	-6556
をモデル	-6557
を豊かに	-6558
ストなど	-6559
デルです	-6560
ネットを	-6561
ネット経	-6562
モデルに	-6563
モデルベ	-6564
ーク技術	-6565
ースです	-6566
ースなど	-6567
ースには	-6568
ーネット	-6569
度に基づ	-6570
播ネット	-6571
的なプロ	-6572
orflo	-6573
しいデータ	-6574
したモデル	-6575
の基盤技術	-6576
ティション	-6577
データサイ	-6578
トリックス	-6579
ビングハウ	-6580
情報を取り	-6581
音楽は言葉	-6582
トがあります	-6583
性があります	-6584
星があります	-6585
映画やドラマ	-6586
が癒合して減少	-6587
ットがあります	-6588
ネットを通じて	-6589
ネットワークで	-6590
ネットワークの	-6591
ネットワークは	-6592
ネットワークを	-6593
ネットワークア	-6594
ネットワーク層	-6595
ネットワーク構	-6596
ハードウェアは	-6597
バランスを取り	-6598
ピー損失を最小	-6599
rel	-6600
々から	-6601
からこ	-6602
からな	-6603
からパ	-6604
から取	-6605
から学	-6606
から構	-6607
したニ	-6608
したモ	-6609
した知	-6610
たした	-6611
たよう	-6612
だから	-6613
てコン	-6614
にはい	-6615
には多	-6616
には様	-6617
にコン	-6618
のよう	-6619
の解決	-6620
はよう	-6621
はコン	-6622
めには	-6623
ようご	-6624
より古	-6625
より柔	-6626
より適	-6627
クから	-6628
コンテ	-6629
コント	-6630
コンパ	-6631
コンペ	-6632
シュー	-6633
ピュー	-6634
ューの	-6635
ューを	-6636
ューラ	-6637
リュー	-6638
ルより	-6639
ークに	-6640
ークは	-6641
ークを	-6642
ークア	-6643
ークン	-6644
ーク層	-6645
ーク技	-6646
仕組み	-6647
似した	-6648
体には	-6649
何から	-6650
基から	-6651
報には	-6652
度から	-6653
念から	-6654
方には	-6655
書には	-6656
法から	-6657
的に説	-6658
者から	-6659
葉には	-6660
術コン	-6661
野には	-6662
面には	-6663
しい料理	-6664
し訳あり	-6665
などを使	-6666
ウェア開	-6667
エンスや	-6668
ルとして	-6669
ングは生	-6670
ータより	-6671
小化する	-6672
的なコン	-6673
複雑な数	-6674
語モデル	-6675
違ってい	-6676
の位置での	-6677
エラー処理	-6678
和をペナル	-6679
埋め込み次	-6680
場に立って	-6681
目標を設定	-6682
の間の美しさ	-6683
を用いること	-6684
果があります	-6685
法があります	-6686
界があります	-6687
ネットワークに	-6688
フアテンション	-6689
プライチェーン	-6690
プリタの違いは	-6691
ベースの対話型	-6692
ペレーティング	-6693
ポイントで説明	-6694
ミュレーション	-6695
モデルの予測と	-6696
モデルの解釈が	-6697
リアルタイムの	-6698
リソースも豊富	-6699
いてく	-6700
えて実	-6701
がら実	-6702
けくだ	-6703
しい料	-6704
しくだ	-6705
したも	-6706
したり	-6707
した大	-6708
してく	-6709
してし	-6710
してま	-6711
して予	-6712
して知	-6713
して表	-6714
して見	-6715
ださい	-6716
てくだ	-6717
どの回	-6718
のエン	-6719
の発展	-6720
まして	-6721
みくだ	-6722
を防ぐ	-6723
サービ	-6724
スエン	-6725
タング	-6726
ューロ	-6727
ングさ	-6728
ングは	-6729
ングや	-6730
ングシ	-6731
ング言	-6732
体的な	-6733
供して	-6734
加した	-6735
動した	-6736
子的な	-6737
対して	-6738
常的な	-6739
成でき	-6740
日少し	-6741
書いて	-6742
本的な	-6743
果的な	-6744
理的な	-6745
的なア	-6746
的なコ	-6747
的なス	-6748
的なテ	-6749
的なト	-6750
的なプ	-6751
的なベ	-6752
的な役	-6753
的な文	-6754
的な時	-6755
的な部	-6756
睡眠を	-6757
続的な	-6758
義した	-6759
表的な	-6760
認くだ	-6761
論の基	-6762
践的な	-6763
いネット	-6764
しさこそ	-6765
してくだ	-6766
として知	-6767
の天気は	-6768
の生活に	-6769
れにより	-6770
を特定し	-6771
イン学習	-6772
パースな	-6773
ースコー	-6774
類似した	-6775
しください	-6776
ときに一緒	-6777
など幅広い	-6778
はあります	-6779
個あります	-6780
習すること	-6781
認ください	-6782
の再利用性と	-6783
イズの面で優	-6784
ターンを学習	-6785
モデルに伝え	-6786
人スキルなど	-6787
分散システム	-6788
詳しく教えて	-6789
ルデータベース	-6790
レシピのように	-6791
ンパク質の設計	-6792
ン管理システム	-6793
ージや状況を共	-6794
ード情報など機	-6795
一モデルよりも	-6796
一的に扱えます	-6797
上で量子的な振	-6798
与える技術です	-6799
ip	-6800
ml	-6801
tm	-6802
が安	-6803
なこ	-6804
の高	-6805
使っ	-6806
力の	-6807
実現	-6808
手を	-6809
現し	-6810
相関	-6811
関を	-6812
ありが	-6813
ありま	-6814
いでき	-6815
えでき	-6816
ができ	-6817
ことだ	-6818
ことも	-6819
さの中	-6820
たちは	-6821
だこと	-6822
つかご	-6823
できて	-6824
できま	-6825
なこと	-6826
はでき	-6827
るには	-6828
ットが	-6829
ットで	-6830
ットと	-6831
ットの	-6832
ットは	-6833
ットを	-6834
ットワ	-6835
ット経	-6836
ラット	-6837
リット	-6838
ルでき	-6839
ングを	-6840
ータに	-6841
中でき	-6842
個あり	-6843
師あり	-6844
摘あり	-6845
減でき	-6846
用でき	-6847
的なも	-6848
算でき	-6849
訳あり	-6850
路を模	-6851
頼でき	-6852
類あり	-6853
あり学習	-6854
きデータ	-6855
ことです	-6856
たデータ	-6857
てデータ	-6858
でデータ	-6859
などの大	-6860
なデータ	-6861
にデータ	-6862
やデータ	-6863
るデータ	-6864
エンスに	-6865
タの違い	-6866
データへ	-6867
データ構	-6868
ルデータ	-6869
学習でき	-6870
模データ	-6871
証データ	-6872
ていますが	-6873
れています	-6874
インタプリ	-6875
値の設定が	-6876
性能を向上	-6877
▁ニューラル	-6878
たいのですが	-6879
ようにします	-6880
化するコツは	-6881
品質な日本語	-6882
学習データを	-6883
相手の良いと	-6884
緊急なタスク	-6885
ご確認ください	-6886
できるかもしれ	-6887
コンピュータの	-6888
主要なプラット	-6889
人では生きてい	-6890
人工的に増やす	-6891
人生の本質なの	-6892
人間関係をよく	-6893
以下の文章を要	-6894
会を増やすこと	-6895
伝わりやすくな	-6896
伝播させながら	-6897
体を一度に機械	-6898
作られた電気は	-6899
60	-6900
cl	-6901
es	-6902
pq	-6903
so	-6904
▁電	-6905
が利	-6906
が該	-6907
が難	-6908
き出	-6909
す学	-6910
で操	-6911
で活	-6912
と大	-6913
な教	-6914
に特	-6915
の相	-6916
の解	-6917
み合	-6918
めの	-6919
れ層	-6920
を活	-6921
キュ	-6922
グを	-6923
ス分	-6924
ス課	-6925
タ上	-6926
ドウ	-6927
ムに	-6928
メッ	-6929
ュレ	-6930
ルと	-6931
ルデ	-6932
ーキ	-6933
倣し	-6934
分の	-6935
合し	-6936
合わ	-6937
器な	-6938
子で	-6939
子的	-6940
学問	-6941
学研	-6942
宙で	-6943
徴を	-6944
思決	-6945
態で	-6946
拡張	-6947
新す	-6948
析し	-6949
欠点	-6950
火は	-6951
理に	-6952
用さ	-6953
置で	-6954
舞い	-6955
表形	-6956
質の	-6957
軟な	-6958
難し	-6959
類あ	-6960
ner	-6961
い文法	-6962
しく状	-6963
する分	-6964
で幅広	-6965
は高い	-6966
を実践	-6967
クショ	-6968
コーパ	-6969
ダの出	-6970
バー側	-6971
度で知	-6972
月後に	-6973
野です	-6974
いう言葉	-6975
しまして	-6976
ま出力に	-6977
ようにな	-6978
サイエン	-6979
変更など	-6980
関数を最	-6981
ティングリ	-6982
生きること	-6983
ありませんが	-6984
した知識を別の	-6985
は複数の決定木	-6986
をコントロール	-6987
使われています	-6988
傷つけることも	-6989
先ほどの回答に	-6990
入力トークンを	-6991
具として活用し	-6992
具体的にお聞き	-6993
出力トークンを	-6994
分野で人間の価	-6995
分野への応用が	-6996
初心者から専門	-6997
力を生成します	-6998
加えて味を調整	-6999
▁バ	-7000
が含	-7001
ける	-7002
せて	-7003
とが	-7004
とイ	-7005
と話	-7006
にコ	-7007
は根	-7008
は様	-7009
まま	-7010
やド	-7011
を彩	-7012
を組	-7013
アは	-7014
イな	-7015
イト	-7016
エラ	-7017
クに	-7018
スプ	-7019
ズの	-7020
トな	-7021
ド情	-7022
ナノ	-7023
リソ	-7024
リタ	-7025
リュ	-7026
ルの	-7027
ンパ	-7028
位な	-7029
割を	-7030
化の	-7031
取る	-7032
合が	-7033
度に	-7034
徴で	-7035
性と	-7036
数は	-7037
数タ	-7038
械語	-7039
楽は	-7040
気予	-7041
法か	-7042
発時	-7043
系に	-7044
細に	-7045
行速	-7046
語に	-7047
適合	-7048
間関	-7049
その勾	-7050
てサー	-7051
の学習	-7052
ータサ	-7053
学技術	-7054
学習効	-7055
意機構	-7056
知識を	-7057
術的な	-7058
かに一部	-7059
どの部分	-7060
の天気予	-7061
まること	-7062
を一度に	-7063
アルタイ	-7064
作として	-7065
作り出す	-7066
層の重み	-7067
的なスキ	-7068
重みを更	-7069
あったよう	-7070
ことが大切	-7071
とめる設計	-7072
なパターン	-7073
にアクセス	-7074
力を高める	-7075
がわからない	-7076
は量子ビット	-7077
ティングシス	-7078
ミスの違いは	-7079
人生の様々な	-7080
出たら調べて	-7081
多くの場面で	-7082
徐々にデータ	-7083
材があります	-7084
アルゴリズムの	-7085
効果があります	-7086
動的な作品なら	-7087
勾配を逆方向に	-7088
勾配消失問題を	-7089
化を組み合わせ	-7090
参加すると実践	-7091
取引記録を改ざ	-7092
可能になります	-7093
合した革新的な	-7094
合わせています	-7095
問題に活用する	-7096
回帰は連続値の	-7097
回帰を行います	-7098
困難な形で保存	-7099
38	-7100
ce	-7101
ec	-7102
ja	-7103
sa	-7104
いは	-7105
きあ	-7106
すい	-7107
で利	-7108
とそ	-7109
どす	-7110
なソ	-7111
な位	-7112
な概	-7113
の位	-7114
の差	-7115
の数	-7116
の物	-7117
の読	-7118
の逆	-7119
やが	-7120
やイ	-7121
や機	-7122
らこ	-7123
ら取	-7124
れを	-7125
をイ	-7126
を定	-7127
んな	-7128
ェア	-7129
クで	-7130
グと	-7131
テッ	-7132
トウ	-7133
ト指	-7134
パゲ	-7135
ブジ	-7136
ミニ	-7137
ルを	-7138
ンピ	-7139
ーや	-7140
一行	-7141
=	-7142
、	-7143
す	-7144
。	-7145
の	-7146
を	-7147
s	-7148
ま	-7149
で	-7150
▁	-7151
し	-7152
ー	-7153
い	-7154
な	-7155
は	-7156
に	-7157
t	-7158
a	-7159
が	-7160
ン	-7161
る	-7162
て	-7163
と	-7164
<	-7165
>	-7166
り	-7167
ト	-7168
ス	-7169
e	-7170
i	-7171
r	-7172
n	-7173
た	-7174
タ	-7175
か	-7176
学	-7177
く	-7178
れ	-7179
ル	-7180
u	-7181
ク	-7182
デ	-7183
習	-7184
き	-7185
ッ	-7186
ラ	-7187
こ	-7188
ど	-7189
あ	-7190
さ	-7191
ら	-7192
う	-7193
え	-7194
も	-7195
プ	-7196
イ	-7197
分	-7198
コ	-7199
や	-7200
よ	-7201
ア	-7202
つ	-7203
#	-7204
だ	-7205
グ	-7206
的	-7207
リ	-7208
p	-7209
め	-7210
テ	-7211
み	-7212
ュ	-7213
ロ	-7214
お	-7215
け	-7216
人	-7217
化	-7218
用	-7219
大	-7220
o	-7221
シ	-7222
一	-7223
法	-7224
せ	-7225
ん	-7226
ド	-7227
フ	-7228
教	-7229
っ	-7230
理	-7231
重	-7232
(	-7233
)	-7234
エ	-7235
力	-7236
生	-7237
g	-7238
l	-7239
要	-7240
サ	-7241
ニ	-7242
作	-7243
語	-7244
間	-7245
1	-7246
h	-7247
キ	-7248
ジ	-7249
モ	-7250
手	-7251
0	-7252
d	-7253
そ	-7254
ネ	-7255
ピ	-7256
ミ	-7257
レ	-7258
機	-7259
能	-7260
ず	-7261
ィ	-7262
ウ	-7263
ム	-7264
動	-7265
定	-7266
方	-7267
適	-7268
わ	-7269
ェ	-7270
ソ	-7271
何	-7272
日	-7273
自	-7274
言	-7275
量	-7276
.	-7277
c	-7278
伝	-7279
使	-7280
効	-7281
実	-7282
層	-7283
性	-7284
数	-7285
計	-7286
m	-7287
々	-7288
ば	-7289
バ	-7290
パ	-7291
ビ	-7292
ベ	-7293
子	-7294
度	-7295
果	-7296
特	-7297
行	-7298
術	-7299
質	-7300
ち	-7301
ョ	-7302
切	-7303
合	-7304
回	-7305
報	-7306
成	-7307
技	-7308
本	-7309
正	-7310
知	-7311
2	-7312
ご	-7313
ワ	-7314
上	-7315
出	-7316
取	-7317
問	-7318
情	-7319
文	-7320
明	-7321
発	-7322
続	-7323
見	-7324
解	-7325
b	-7326
マ	-7327
メ	-7328
体	-7329
基	-7330
時	-7331
算	-7332
違	-7333
3	-7334
?	-7335
q	-7336
w	-7337
チ	-7338
中	-7339
少	-7340
星	-7341
械	-7342
様	-7343
活	-7344
現	-7345
関	-7346
y	-7347
ズ	-7348
セ	-7349
ツ	-7350
ブ	-7351
事	-7352
可	-7353
最	-7354
構	-7355
率	-7356
確	-7357
答	-7358
組	-7359
野	-7360
高	-7361
じ	-7362
オ	-7363
・	-7364
予	-7365
位	-7366
入	-7367
利	-7368
加	-7369
変	-7370
失	-7371
対	-7372
良	-7373
葉	-7374
表	-7375
規	-7376
説	-7377
過	-7378
部	-7379
配	-7380
類	-7381
へ	-7382
ょ	-7383
ポ	-7384
仕	-7385
勾	-7386
向	-7387
場	-7388
広	-7389
必	-7390
応	-7391
模	-7392
次	-7393
気	-7394
測	-7395
画	-7396
私	-7397
管	-7398
設	-7399
話	-7400
誤	-7401
識	-7402
題	-7403
ォ	-7404
カ	-7405
値	-7406
具	-7407
多	-7408
差	-7409
役	-7410
徴	-7411
散	-7412
料	-7413
深	-7414
物	-7415
立	-7416
約	-7417
置	-7418
詳	-7419
認	-7420
読	-7421
通	-7422
速	-7423
開	-7424
電	-7425
k	-7426
ざ	-7427
べ	-7428
ャ	-7429
主	-7430
代	-7431
処	-7432
前	-7433
味	-7434
天	-7435
始	-7436
形	-7437
意	-7438
感	-7439
持	-7440
提	-7441
新	-7442
来	-7443
決	-7444
点	-7445
眠	-7446
睡	-7447
者	-7448
複	-7449
記	-7450
訳	-7451
調	-7452
造	-7453
運	-7454
集	-7455
!	-7456
f	-7457
げ	-7458
ね	-7459
び	-7460
ゴ	-7461
ダ	-7462
ハ	-7463
介	-7464
供	-7465
係	-7466
保	-7467
信	-7468
個	-7469
像	-7470
在	-7471
好	-7472
小	-7473
工	-7474
帰	-7475
指	-7476
損	-7477
操	-7478
暗	-7479
更	-7480
書	-7481
歩	-7482
消	-7483
然	-7484
申	-7485
相	-7486
種	-7487
紹	-7488
線	-7489
美	-7490
花	-7491
英	-7492
豊	-7493
追	-7494
進	-7495
防	-7496
面	-7497
音	-7498
6	-7499
8	-7500
9	-7501
:	-7502
「	-7503
」	-7504
ぎ	-7505
ケ	-7506
ペ	-7507
下	-7508
今	-7509
付	-7510
優	-7511
列	-7512
別	-7513
割	-7514
十	-7515
単	-7516
号	-7517
同	-7518
地	-7519
寝	-7520
師	-7521
年	-7522
式	-7523
強	-7524
後	-7525
従	-7526
接	-7527
整	-7528
有	-7529
期	-7530
業	-7531
楽	-7532
標	-7533
準	-7534
火	-7535
目	-7536
空	-7537
章	-7538
考	-7539
転	-7540
連	-7541
階	-7542
順	-7543
-	-7544
5	-7545
ぶ	-7546
む	-7547
ザ	-7548
ナ	-7549
二	-7550
休	-7551
会	-7552
価	-7553
元	-7554
光	-7555
共	-7556
内	-7557
初	-7558
則	-7559
千	-7560
命	-7561
品	-7562
困	-7563
国	-7564
均	-7565
型	-7566
埋	-7567
増	-7568
声	-7569
嬉	-7570
存	-7571
安	-7572
家	-7573
富	-7574
島	-7575
己	-7576
常	-7577
幅	-7578
平	-7579
当	-7580
復	-7581
心	-7582
念	-7583
思	-7584
惑	-7585
採	-7586
換	-7587
摂	-7588
播	-7589
支	-7590
敗	-7591
映	-7592
曲	-7593
木	-7594
材	-7595
束	-7596
析	-7597
検	-7598
概	-7599
欠	-7600
残	-7601
毎	-7602
水	-7603
汎	-7604
波	-7605
流	-7606
海	-7607
減	-7608
無	-7609
状	-7610
王	-7611
界	-7612
盤	-7613
研	-7614
積	-7615
究	-7616
築	-7617
精	-7618
経	-7619
結	-7620
統	-7621
継	-7622
舞	-7623
視	-7624
証	-7625
込	-7626
送	-7627
逆	-7628
道	-7629
釈	-7630
金	-7631
録	-7632
長	-7633
降	-7634
雑	-7635
響	-7636
風	-7637
/	-7638
4	-7639
7	-7640
v	-7641
〜	-7642
ぐ	-7643
づ	-7644
ほ	-7645
ギ	-7646
ユ	-7647
万	-7648
不	-7649
与	-7650
世	-7651
久	-7652
乗	-7653
了	-7654
交	-7655
以	-7656
似	-7657
例	-7658
倣	-7659
億	-7660
先	-7661
典	-7662
制	-7663
創	-7664
医	-7665
参	-7666
友	-7667
古	-7668
各	-7669
名	-7670
呼	-7671
和	-7672
器	-7673
四	-7674
士	-7675
夜	-7676
守	-7677
容	-7678
就	-7679
展	-7680
岐	-7681
川	-7682
州	-7683
引	-7684
彙	-7685
影	-7686
徐	-7687
得	-7688
想	-7689
態	-7690
憩	-7691
憶	-7692
所	-7693
打	-7694
押	-7695
担	-7696
揮	-7697
援	-7698
早	-7699
未	-7700
東	-7701
柔	-7702
桜	-7703
氏	-7704
況	-7705
注	-7706
源	-7707
照	-7708
独	-7709
球	-7710
異	-7711
療	-7712
登	-7713
直	-7714
着	-7715
瞬	-7716
礎	-7717
示	-7718
神	-7719
科	-7720
移	-7721
程	-7722
簡	-7723
細	-7724
総	-7725
緒	-7726
練	-7727
繰	-7728
義	-7729
聞	-7730
聴	-7731
脈	-7732
色	-7733
融	-7734
試	-7735
該	-7736
課	-7737
論	-7738
謝	-7739
資	-7740
赤	-7741
践	-7742
身	-7743
軟	-7744
返	-7745
週	-7746
遅	-7747
達	-7748
遺	-7749
錯	-7750
限	-7751
際	-7752
隠	-7753
難	-7754
革	-7755
頼	-7756
験	-7757
骨	-7758
j	-7759
z	-7760
×	-7761
ぞ	-7762
ぬ	-7763
ゃ	-7764
ゆ	-7765
ろ	-7766
ァ	-7767
ゥ	-7768
ゲ	-7769
ノ	-7770
ヘ	-7771
ホ	-7772
ボ	-7773
ヤ	-7774
ヶ	-7775
両	-7776
並	-7777
九	-7778
互	-7779
京	-7780
他	-7781
件	-7782
低	-7783
住	-7784
修	-7785
側	-7786
傍	-7787
備	-7788
傷	-7789
傾	-7790
働	-7791
僚	-7792
儚	-7793
全	-7794
冊	-7795
再	-7796
冥	-7797
冬	-7798
凍	-7799
判	-7800
削	-7801
剰	-7802
功	-7803
助	-7804
努	-7805
勉	-7806
勢	-7807
北	-7808
午	-7809
却	-7810
原	-7811
去	-7812
反	-7813
収	-7814
受	-7815
口	-7816
台	-7817
含	-7818
吸	-7819
咲	-7820
商	-7821
営	-7822
因	-7823
図	-7824
土	-7825
域	-7826
塩	-7827
境	-7828
夏	-7829
外	-7830
夢	-7831
太	-7832
奪	-7833
姿	-7834
字	-7835
季	-7836
宇	-7837
完	-7838
宙	-7839
室	-7840
密	-7841
寒	-7842
専	-7843
尋	-7844
導	-7845
届	-7846
履	-7847
山	-7848
帯	-7849
帳	-7850
幕	-7851
序	-7852
庭	-7853
弦	-7854
弱	-7855
張	-7856
彩	-7857
待	-7858
御	-7859
微	-7860
忘	-7861
急	-7862
悪	-7863
悲	-7864
慎	-7865
慣	-7866
慮	-7867
慰	-7868
房	-7869
扉	-7870
扱	-7871
承	-7872
抑	-7873
拡	-7874
拶	-7875
挙	-7876
挨	-7877
振	-7878
捉	-7879
排	-7880
探	-7881
控	-7882
携	-7883
摘	-7884
改	-7885
救	-7886
断	-7887
族	-7888
春	-7889
昧	-7890
晶	-7891
暖	-7892
曖	-7893
月	-7894
朝	-7895
条	-7896
染	-7897
校	-7898
株	-7899
根	-7900
案	-7901
止	-7902
歴	-7903
段	-7904
母	-7905
氷	-7906
永	-7907
河	-7908
沸	-7909
液	-7910
涼	-7911
淡	-7912
添	-7913
湖	-7914
演	-7915
潔	-7916
玉	-7917
環	-7918
由	-7919
疲	-7920
癒	-7921
益	-7922
省	-7923
瞑	-7924
磁	-7925
社	-7926
秋	-7927
秒	-7928
称	-7929
窓	-7930
筆	-7931
節	-7932
系	-7933
紅	-7934
素	-7935
索	-7936
終	-7937
絆	-7938
絶	-7939
維	-7940
緊	-7941
締	-7942
緻	-7943
繋	-7944
罪	-7945
翻	-7946
育	-7947
胞	-7948
脳	-7949
臓	-7950
般	-7951
芸	-7952
苦	-7953
落	-7954
著	-7955
薬	-7956
血	-7957
装	-7958
覚	-7959
触	-7960
訂	-7961
訓	-7962
訪	-7963
評	-7964
誇	-7965
誰	-7966
諦	-7967
議	-7968
護	-7969
貨	-7970
贈	-7971
超	-7972
趣	-7973
跡	-7974
路	-7975
踊	-7976
踏	-7977
軽	-7978
輝	-7979
近	-7980
遂	-7981
遠	-7982
選	-7983
邪	-7984
都	-7985
門	-7986
除	-7987
陽	-7988
随	-7989
隔	-7990
離	-7991
雪	-7992
霜	-7993
